fc00027f557d9bca10322d0c1cc455f6
fc0002a5a75ba4d8be3fa4f4fd4e51a9
fc0002eca0350eab30dedb31ec619868
fc000410a6fe5555d4b8bdd8712c2966
fc0004eb44dffdd49ba94fff50a81385
fc00050cd83477a61f4da666a6c6d834
fc00053d95bdf5cf6be68a55671b795b
fc00055815fb8c6ba2489179ca8c66ca
fc000571e108a35e4881cba08faec653
fc0006a92919ed50a9e06fb67c438bb4
fc000715f9b3a446cc88ae6549fef66f
fc000755b848ef02eff1acf15899d5dc
fc00098aed54303d6055e7c750c78269
fc0009c27d7a95f866849eccee41d6a9
fc000a489be53a235536fcf9766793b2
fc000ac24273890671115eca1c45bb9e
fc000b6de9751a4aa96c3a8c32183620
fc000b70431724fa73fb7f30927e84f1
fc000ca6198bc329608615383346b58f
fc000cf3c241950441ee917cce2d628c
fc000ebbb0b74f0198f04ae9e8903d1c
fc000fea6cdbac9de684676247017f35
fc0010c6873a26515e1af80bbacb0501
fc00110ef02cbe119aadba8ee358975a
fc001225152d1462e9a3e1f259d16943
fc00124bffe144967a449aa40daaaac9
fc001276be9ddab484b5e5d73f96135e
fc00131377be8b5f6205daa3e6415d01
fc00135066e0e1940c56565bd65283e7
fc0014560d89c0989ccd4232e850a27c
fc00149ed79c76c7e13b817758686394
fc0016706a05cf85b16c501dc027025d
fc0016a3fee6c324b78be93c832379ca
fc0017c00cdc7897e0624a490cae4460
fc001806407fa69e45242c0c7cae2e6f
fc00183ac6051ac7a81b3ec12f3f7ae0
fc001843c2c5019d80af4b47d9018436
fc00193b71bcba8ac5e90d00937412e0
fc0019c6cc3b2f0cc2f0aca0628e0b6d
fc001a947222f45bbff31a2f1e70d884
fc001c7eeee727cc241a5d7beb131ed5
fc001c85a0ec8f41b91dde26c32af970
fc001d64f7e3d63a6243c5a42035b014
fc001ddc67f787cab084f93ec5654fc1
fc00207e9e7e1c4ed0ecf971387c86a1
fc002081ec99a766e697a8ec21058264
fc0020ceeaea355402e1540da5200f01
fc00223fb0e1dba45643512732a43a21
fc002285f7622ab1683c77d37252c50f
fc00242fc129f6917b19fd08c4be5519
fc0024d03d44d2e11a2574ea148841c2
fc002525813d60c291c05a3a746a586d
fc0025444a32f1f05cad69e04d275252
fc0025615a763a12af64bf9bdc4ed811
fc0025d013cb1713d06f77c36d9feae3
fc0027b5b50ce0edf2e60dbdd3ad5c0d
fc002804b1f573164bbe82ce9da2ff63
fc00289faccec916a75dbb87acde2785
fc0028efc4dd79a155431772555a4540
fc0029e6874bf0804561a3e3b5ad71ee
fc002af30b2f117327e6b390119a5d32
fc002b0aafb4a03d0fd3da9d095df21b
fc002b4ceccf4559ab7d223ed8a531de
fc002c4c3610568e7ba20b3f00d3d0fa
fc002d78e6417260cdbd421d9b4843e2
fc002e4864424ab8e859617869314f51
fc002e784bb7d4d9253a3fdf53d74bb4
fc002ede82c0e1c25e39a7574a02a853
fc002ee5ede0c939c392b6e11963fe33
fc002f48a3224258404d87219aa5a589
fc002f8fb0504cc0899033f22b5f4f1d
fc003072fc6e076c7636f554eb5acac8
fc00309c24d612ca05eec6c5509b500e
fc0031713bc519e84b65971684ba98c3
fc0032f1b052eb32273131f4978f1ae6
fc0033dfcfd2d17231f94f0f1116ef7d
fc003562e9119f9ca3e52b4f739a2152
fc0036adefb0286b9c11915284cd5510
fc00378449bcb71ca271771010fcd570
fc0038d4586b222746297c78883a9ab0
fc0039fe518ad2e885591cc2aff760d0
fc003c97e6f3ab59fddb37ce637340bd
fc003cd286a552095f1baaeb4b9bf3a6
fc003db478d62b104efbe6752aba776c
fc003de8248a297cb42cee0241bc83fb
fc003f413d91c7b12dff05e13ff6c876
fc0040b481bd6213cc30c25fc7f33d64
fc0040c4372bf5d14021b1229db147dc
fc0040c5945a8aa8f75f12807b52b5a2
fc0040ee65c44258b3e841aa2bab2158
fc0040fbf4b7583ca4adcb8cad976572
fc0041764a906a06970605e527809525
fc0042b4624a2316b324e07119c6be6b
fc0042e8b3e6b6bc06c1c6bbfb56402f
fc004526d43c59d7901883a782bf82c4
fc00456da996f629263b547ffab47aaa
fc004647d2f60a8b3a793e5a14877402
fc0047e95bd75024de67d37c97e03307
fc0047f70d69aa24ca89681b070fd9fa
fc00489585695e6fb56b444cf7488d4d
fc00494d83fda27ee1a02a79d4ea9a6d
fc0049c6708a32396b703d37bbd22cc2
fc004a1303659489fa71ef49de540e81
fc004a41512cb708d6eb3201d58cff89
fc004ab415a466faed5a1f30abf785a7
fc004affe19dfbc61d03f9d10c65f1d6
fc004b0f8a815879326bc9a1c6de85fc
fc004f4e2670e2ee2626c41ea6a01e8c
fc00500d52486d71ee44389c9d69c8f1
fc005017da6828d0bc10ada483fc2b4b
fc005026d47e62777e09e51bbca4d5dc
fc005071cdea2d495eb091399004a897
fc005120642bf9986bf69c9ee5d7a72b
fc0051e94e0227132816d193fff52513
fc0051ec8a5424ea4f6a0b9c17d87b50
fc00520eeb6385c2bacd0456609fc6c9
fc00529cde52c3c1486b16eb21229d3d
fc0052a9575e9a89fd55465cc42bbba1
fc0052b0080395c5bdae75c88e5fc261
fc0052f772a0b40e63767aea9dcfdfc7
fc005486789fe41dc430cda8b6938d4f
fc0054b5e382fb4cf19598fb958c6266
fc00560dd00dc2e98e51b992e1050df6
fc005774b2307b5db2750a4d7e3c97b8
fc005863dafef0b89c9ea69ea6c2f2c4
fc0058e8784ecab14864330160bfbe05
fc0059517b86667ee599b24675c71981
fc0059deb32be10dabb82616c633b987
fc005a85f9caa72a53a32a288ab172a7
fc005b5eb42c2edde408aa579c4e79b0
fc005cb8a10f8bd4188c2552f2d4c477
fc005ccf87d6542bfe9c1adef12ea16a
fc005d50e2ccf9ab4f8da966fec570d4
fc005e6617532895e24ed7742fe38c36
fc005e66679dd2dd0a7c9885a9a893e5
fc005e6d0b92f839498d7c542629799c
fc005ee829bfeaf126146f28bacc6013
fc005f352b236bfe1408442a6597baf4
fc005ffa5392eb4c9e455927d0b278a6
fc006004328021ee68d3c86ead06b356
fc0060214cbdff5d4e8e5f7b39a27e90
fc00604aef78b6a24800c6331cad9d7a
fc00605ed59a1d5e4ffed4356e365e33
fc0060aed1bf71be84a5160f9ac30c09
fc0060e4654116f8d91a9303305faf88
fc006119f34c26a9955e3d5ad9e9146c
fc006124373f93cb859b604828b1c249
fc00623491a6e86e0f2d978573098c64
fc0062783cfb280dda285dda96123469
fc00636b8c69774009225f4aa42e5250
fc0063a3f99c6ddce81aff7d0d2b8cb2
fc00649ba4d0342ecc790a027e1329a7
fc0065262212a2fc5c3b23516c4ae896
fc00657a0e9c136b3381604e2510c9a4
fc0065c5d560100952e13f4055e78057
fc00663ad8ae0735549f3c97c1fe6832
fc006649904464cd9f827e55a14b82c4
fc00665c9fd34cb3f613a1a3bce2cf21
fc0066612d839e783df73a8ec0dcfb58
fc0066b1c110206cdd1314a3d6dc992f
fc0068aba0c1545a298661a229d752ec
fc006958266afa2c28ab899dc5254bee
fc0069b72b51c181bf28aecf3fef92ac
fc0069d9bb7e0ae0b98eaec9ec23e83a
fc006ab8c227567e9c49dd57fa99625d
fc006ae7b08f42078724338de076f6f1
fc006b191ccc36000bb60581a5b44f40
fc006c97a5db6b001a239c02d3bff630
fc006d1dd8d23bf7e16703d248b04417
fc006d38a26843639155273b7ed215c5
fc006d4b5f57c92314fa7a3b25cdcd2a
fc006e0ddde46d061a43192a25a53bea
fc006f6a4e63bb89caa4a4d5213a3bbc
fc006fa39b4715c3d1ec3ba75ece10f0
fc006fd1445f8a70cba723005718721d
fc007010c460a3ba2b3ee7f93cb97f92
fc0071474a824d733dc7bc346a75eb0e
fc0071e144ed25e9161507d8ae654324
fc00721a459e897c8cc12bedc3246557
fc00722ede19144a28dd7e9a74b172f8
fc007335dfb354f99e25d181ecbc9216
fc007385d2c705fcc2127d1151a5de0b
fc00738a30e25d868c31e1bbd9d8d7f6
fc0073942b084edaa655fe18d3e369b6
fc0073b10ab83f1e2be31c44443cecb1
fc0073b23177b729c100b89c94a09f6a
fc0074eec9a621e040bcb6c400f754e6
fc00751ab5ad8d2ae8d7f9ad55cac45c
fc0075435907f27fe93796ba79b1df08
fc0075e56eebd094a282f3d9e03b8766
fc0076d3b1a7b5f237f36a5dd821c367
fc00777c7a5bb91eec974b8888ee1b4a
fc007790a8eb1e5d3de20be19d5975ab
fc0078f9c5e5f3718d26c1b0c155d0cb
fc007a0a3f5ef9f17caa06c8420d3fb0
fc007a41eadc2e5468a0ef3c92d98caa
fc007a50bd0cee6d48716506123c1f69
fc007aab08aed078a4879ddd4c196232
fc007c4dc48aecb7a8bbdf4e17c65e18
fc007cb359da90a31eb79a2d933792ca
fc007ebd330a96cd9c4ac3224ff8c883
fc007f1c90f89cfe1f431587abf9fd17
fc007f6d5cdca5a9bae808f414c08e79
fc0080f4c6f083f239ad1d2709d666d4
fc00817d34e0f0870ab2ed764e1ad7eb
fc0082332c12fcca3c1b3701c8486db2
fc008250537b3f6b5e508c76f0d81bdf
fc008254828ca4299504a19d77248a05
fc00833b465d1e90b9f60b889b492b2f
fc00837eb6d8a180699422ec30bea23f
fc0083ec2690cb0d8fe8dd7988021359
fc00842272449e104298d8c12d398878
fc00847d20a6940eb43fb68a52df3331
fc00847d842cafcf1847feee27db6cd6
fc0084a162173fce50cbe8071050e8dd
fc0084fe78c3fc352d98cec0cb03dbf8
fc008529a9300a0daa1efe2e116b4be8
fc008530fd7f5e60a449d9424654e015
fc00854f606854e1769cbb0f63f9130a
fc00857c3f50628693a3a4f0b9dc198c
fc0085f1ca954a18d54987dd85a8f4b4
fc008655c6890ba3c3d0b80b3bf2ac00
fc0086d200c953cc37d8ce451e6a9d06
fc00878a198d42556e6c47e858de1ed7
fc0087b0f53148ef256074cf815227db
fc0089102677d789fa24900421584fbf
fc008930ac65b396dabbd8a7c2edd9b6
fc0089560905d16c5982156cd051e894
fc008a62ea93600c23032f120a6232f7
fc008dc55f5f4cddaaeb733b79180647
fc008dce4e80d6c5eaa90254542dab61
fc008e3742b5c2516a5131e6cae6e3a2
fc008e3aa4c44b45ac4a44a0be3ea0c2
fc008eeb58476b43d4c20f197e2d4b4a
fc008fe424be0cb51a3f80ccc904b60c
fc009071d14612c59183195f52bfc588
fc0090927edbedff5799d069048efd52
fc0090abfdd01d4c0423c07a04475787
fc0091916f34247e61c1cf04c59702fe
fc00928950392d356c2e161dfd82272b
fc00937da13ad99d9de34a99ab3c93b2
fc00938c4b5dc012c9a2f0ae7ff57390
fc0093a31d47526e3a2459b848e6b5aa
fc0093d674f579ece57f6b68b17fec7e
fc00945f4306e7ab49b8695384fb70f4
fc0094ca9a635d07f24e49d0fff1fbc1
fc0094fc15109ae53cc147fe5ebc341d
fc00954931c0be2e4471fcd11f80f594
fc0096253acfb92cba3cd8275302edc1
fc0096c28c1cbd5bca4f31711a7ceac9
fc00973000aafc0d1b56c9e528f7d9cc
fc00979734dfb2c2a57327c6ce3da5ef
fc009828776db2d7302f3d2c1b28bdec
fc00989af7beccb4ab2e7800ef633749
fc0098f38763bd7e6eefda410bac04a8
fc00991f3b403ebc08fa40354f068a51
fc00992b999a070b3ee097ab001cec20
fc009aaa2c4b1ff846d2acd2812cc403
fc009b5cb46cbf9419c0751c8a34e4b9
fc009bab441fda78ffad47b3f89d41aa
fc009bfb39edb4c6f714f00fe05737ad
fc009c01a4a5d4a2f8bbbeb62bca089d
fc009c8b45f09a48e4e4ef19a5105471
fc009d58d004e0f99028f3d4ee861cc1
fc009e65e48fdaace4a2433f666f9919
fc009ee3cde8de405bda33fc11008c3d
fc009f3d6768af6260a2eba6c3d86594
fc009fb755290625a2b8942a1475effa
fc00a05557e52b8ef7c9db66dbbc402d
fc00a110394ea69cbe6113ac82b3bae0
fc00a18477a1833f74e3541243d62fe3
fc00a2cb417249753b1af47faf271c70
fc00a2d6a44cc0501ea6086776302fd6
fc00a4021b7d78691885064045224774
fc00a4591b21f48a22d2ac6bce17f34d
fc00a47fc9c3c1e3e5ef035e4b1d5e10
fc00a4befb37fe350be5f44bee89aa77
fc00a4d6d4053bd278cf1515beecd0a3
fc00a5842f2c2e24e72fb31cf2ad06fa
fc00a59c88d15613e1731d94c3519ea4
fc00a5a4d3e9cf0798234a1cf1315804
fc00a69b5183ff730042d77eaba421d0
fc00a73c141aa7b7c1a220a8af6fde61
fc00a7ba7a3163392c6df3ebd508e8d0
fc00a7cb5904ec921eabc28dafbb8633
fc00a7d2e6f501ea8658ffb7e082dd41
fc00a81b93282a414a2282e0074bec24
fc00a9ce2b63752a803758cd59006be7
fc00aa004b1ed5ab50666ca06428e8cc
fc00aa5b36801f4f9e6fb7e909ffce12
fc00abd8071b337a76ba6b2440ff3fc6
fc00acbc5672066b0d348b3ee86b669c
fc00acc330cf9863af006350c1d2cd7d
fc00acc3b35193763d6f179351e450c6
fc00ad36b98267d4f0f525f9083234e4
fc00ad3ad67b5cbf7bea155c1a4fab01
fc00ad7b0aab2d404b22cc99acabc16e
fc00ae32bf8d4132676b616e49327060
fc00af6565c5d124b5add1739b85cb73
fc00b02430b1a3078f522f80d9aa022f
fc00b0864f80052bd3fec3138840db1d
fc00b096e20977cbcf4fc59d00819bc3
fc00b0e90b5b188df5f4cb76d7888d7c
fc00b0fe019e002678a91acbb2077ba3
fc00b294c4b04ec5cbe7bfc23303c51e
fc00b2a848db6e8ca0b57f737374b8c3
fc00b2b97227a1ae1f4408bec66c7870
fc00b31f015b0428f75b73b28ddce820
fc00b3b893699e37d9db42304dd84a75
fc00b5c677cfa3b22cc3eb0694a7475c
fc00b64ad1961ecfde1deedd1920c32c
fc00b6a24d6edd154d376ebfef4e7617
fc00b8032a08e2aaba64e3af90082cfd
fc00b9a134604756f095f68b88fb940a
fc00b9db308d7cb5df1570dab51a7605
fc00b9f45f7f0ca7ae40adef429099e0
fc00ba5034699dcf6d408841f21bd440
fc00bab9a75d1a5c610cd1609707c30d
fc00bb4ba6b9b0fa2c12105024de65c0
fc00bc32c0ce9bff22e6c49403993d13
fc00bd34302739430172dd1017241ec0
fc00bd62f291cfed5679f43cc78012f0
fc00bd85d1c3c4ad55770d96dd86bc0b
fc00bfb3351341d1a19c05ad5bbe37a9
fc00c054156e36d5d9ccb67efa18133d
fc00c0fb7ffbd26a567c42df483ef370
fc00c10ff7c70cd63e438b0093066b0e
fc00c1372593e2ac523d4addea2ae7bb
fc00c18408f85b7ae1259d8d4056eef0
fc00c19d23e00e8e1d1981408091c581
fc00c30ea059c11cc15f58df53605d20
fc00c37f971257d4a8844990792a65a5
fc00c38c746caa2783c21512deb34696
fc00c455329b40bdb80831c48aaa1fe8
fc00c4605a16f3e0fec64919daca92ea
fc00c4c6225013c973152c55e039c2df
fc00c4dd2c981d1a728688d190aad580
fc00c560a43038da0b7d568d2dc2092b
fc00c58b8d1c4cb9c7165f274a6b8103
fc00c59aed5d2593a385e7dc2d6a33aa
fc00c5b1180df0782fb16217d5873710
fc00c62318c810c22d6007407bfc7b79
fc00c69557204b7592af49aab8c68471
fc00c78cef584f9ff85251d151e144e8
fc00c7b15dee3a6df94cc147ab982781
fc00c8b8b6760b416169c921320c7166
fc00c8e76e3be9ad93198a1372b9fc8b
fc00c9d9762fe9b2c9352ed1195f99d6
fc00c9fed8d28368a05b5fc676dc2fcf
fc00cb24250ec1e8c691e5215bd99c34
fc00cc2ef1fc902cdfc7f936627f35a4
fc00cc3899abab450be5406eb7f473e6
fc00cc4ad99df54b7987540aa3f72c54
fc00cd0a9457543662292e3d2d716cf1
fc00cd22e259a97cc617f0f454a8bb50
fc00cd24152b28440047a5d261ddde25
fc00cd31f9037d486b7534966a7e2e34
fc00cd3d2f945b04885c21edb0f327e4
fc00cd9b656a219f113bfa178ad3db78
fc00cdb6c82422f7037b92380e9daeda
fc00cdbef6865ca74a78d92c74137be3
fc00ce4f2e808c4148eac973fa3d33f2
fc00ce560cbed0fe46c5192375712c9c
fc00ce9fd788b6c7338c431e4a8f701e
fc00d0075f2d448de76e2698cbec3c28
fc00d0a59eb273d0bc9bbd54686326d0
fc00d0f7908230e109bcbb4472276698
fc00d1145f194cd37adb57e5e92b014b
fc00d252139a79bd5f57944697ffe939
fc00d426d469b320570d51d178ebb15e
fc00d50d30b0d2a16a6b7d283e55a2b9
fc00d5860ae9e9683e97b0789efc41b6
fc00d6942782d185521a2aaa46fa1a9c
fc00d72b108113cfffd619a58b21e3d9
fc00d8a353333eff2bca51bab3971e30
fc00d8ae8c2d6810d367048b8a2137a2
fc00d923294c59889206ce7319e2705f
fc00d9d61b895085708f6c80d239f8f4
fc00da48593acdf202872ac450d1cbe9
fc00da7627f59619e5ee6c03278fdfd9
fc00db6fe03019b40bb030884d9026ea
fc00de1d793165a93d7fdf133b5ec4a2
fc00de278d8643e31b486eaf2d20ba04
fc00df616a0937ee2201c36935b03e71
fc00dffe1413f361876998abe1ff68f3
fc00e006eb20d1db735bcade8f8e430a
fc00e02ed138eee52bf302ff98299cdf
fc00e05c9220618383dcf86dc17dfd69
fc00e11e09970c9fa4151123c17c5e00
fc00e15e60242b84bcd028d72cb2e000
fc00e168952311af5400b133edb3c05f
fc00e1bcb51378cd88b140bcf7b77c5a
fc00e262fade977b8f3e17143054956e
fc00e263624d84a5bfb6b6f8baadaca3
fc00e282d7c7649bf39d973ef63fa6ee
fc00e2b2637b0c5eea032f80aa503eef
fc00e2c5ad4a31043b155de30d0903e6
fc00e30981167e2e37e053e1b8fab1aa
fc00e3358c02f2b98eee627725903356
fc00e44e071adae1b0734b53d6f89a7d
fc00e4617fed2218857f2e7f64a2a717
fc00e61440227f94932e7e74b2c55635
fc00e64839147daaa167c9ca2f580f0f
fc00e7032aa8dd17dda69a7ce5ec0805
fc00e706946b01dd07ec216fe3e45842
fc00e7f08fd1ce3f9280be292c31f6eb
fc00e8596aab5a9cf690962a89e5cb10
fc00e8a3e31efd68b481114b9a9dd4a3
fc00eace4ef5ec061e0441272b90ccbb
fc00eb01a0edfd742b68cc40ba16dd6d
fc00eb97769b3a4ef86319bcf6b2c920
fc00ebf71164a53ed98cd9c6e7ef47e3
fc00ed4862338b047ce8d96ecba332f2
fc00edaa4c9ddd4e9d3d689c324846ed
fc00ef778139223c80ace8c7cc490c14
fc00ef9c4604e9ef7e3bf1f79da9ec56
fc00f114b49e3688f66ced3821a2031f
fc00f176d6dc9a1b42a6e5d719a15d2b
fc00f1a1805b50360716ea5140391bdc
fc00f1bdfd074dc0c2b7e8a4778c80a5
fc00f2310c049de095523d5ae074fdd4
fc00f2eb2e23bb755556dd2a588d3a9c
fc00f47f8d0e38c765764c6162087c42
fc00f48aac026faf7c75681b0c5c80df
fc00f498254f08a03d14da0ad2fdded9
fc00f49dfe26abe149b0b7dfc9b0f5ce
fc00f4deb98938da86a8708a4bc97cbe
fc00f4ff1c886bd256f17640ac8019e0
fc00f5166ad9e15429243f43487f0f40
fc00f62e9e19c93a2889f11f63602528
fc00f67cf605a99d14b79477423c0e19
fc00f68a0e72533629b9b6ad0d24ca08
fc00f69349f28314e006a5be77bfe806
fc00f7d436896845a02ccb61568e1b36
fc00f855bed4cf62c107cf9f50f8623d
fc00f93d45584eed1cb6df94daab7e4f
fc00fa6e3448cbf94749ffdc568dd789
fc00fb07acb65e330e5d097f32f89028
fc00fbbc3f8e67bef3a461e6c417685e
fc00fc58bb4a2fe4a5c2d1f8a7b3e1e6
fc00fc5ab9fa350e220204b2b6fd0161
fc00fcf8757d4a394d811d7e92de000c
fc00fd147447d03afeb057dd544d0ede
fc00fd7dce41212fe8e3b1d4db619fac
fc00fdb1f05c5ff0e07e3c2ffb8d1135
fc00fde39168f3aceca4881f1e60d8ac
fc00fec61f793d123cca0d6ee01a382d
fc00ff229f4008a6d6639ba6d66d5d8b
fc0100a364f9f20f63e6d7623a8cbe89
fc0100d7a02404a1aabd19b312e6c8ab
fc0100dee43bdcbe8396bbe08f422b0e
fc01010a160622e8a949e45a55eb7287
fc010125466457f5d67a4c8360151a36
fc01012944fc97f0b548b5ae7f2bcf60
fc010152ea08529a275d4ed9d685ddb1
fc010196c745a2d51161f9571cffd338
fc0102ba6b510125c4957cc4e3ba5f75
fc0102e4b3877cd0f2f9951196af2e43
fc0103808ba1a4c609bc41d838f5ec5d
fc0103c4134a772259ae7ddb32e54cc0
fc0104da41f4a54ddf39e64cd715867d
fc01058698fd2dc957908f966d44f640
fc0105bf7412e7821b62a34dc4b5c3ac
fc0107010273d67e53c2336fedd7cef6
fc010841721f3f311515bfe84681be46
fc01086b8995dcb6677c12db6e01120e
fc0108b4f5b53b0d63b364eb074ab91f
fc01093ffbb4220ab9e6d99417a64bd6
fc0109c27551e1bd3a609b8723106bcb
fc010a360613e03ad630afac6aeb85f8
fc010add3502d703e04e35f25228ec57
fc010b3a265cb210d9b8954ea86c831f
fc010c5f461bbd2306d1b8c58d62313f
fc010ccf8677ec9750e867e9f9ef6a0e
fc010d39a6a99e8cedc36495d7d4cc4f
fc010d7eb2635b7806970dbc178b3397
fc010e9ec18b4a3d9a455a0cdf8baafc
fc010ec4b7c5eba4c5a33bda455e573b
fc0110d91a1cc57bb1e5217b5680a286
fc011149fe47a9aabcab7de5a4ce85f0
fc011193a8166ac492132b7e08adb973
fc0112e1eaf54893c401e60d5f63c761
fc011370bc8c4b3fdb27ce53fa1f27be
fc0113a25c041a0f69db7ffa9052f6a1
fc01173b7441fe45d7be67ebd7dcab7e
fc011896844232183bb2978eb8a6bae0
fc011950b6f5e7bc7aeb94c294227d94
fc01197f9b03d0a14c83b6ac9c0095ed
fc0119be374780ce775f4eba33037164
fc0119c6eead4c5655de29ef8b8d4a9f
fc0119c89c0281e14e8db5ec622213b7
fc011acef54101c16b38b7b6fed3b45d
fc011bcf30274c6828865239aa515aa6
fc011caa97f3821f7d5b1449cd349b82
fc011d414288f5e7e8881abee3d0d55a
fc011f4ddda0c2a476c2d5a7e40931fc
fc0120121fc6159739bd92d0b8e135ce
fc012067e38444c79766cfa44b8f0440
fc012353bea661bee70442a9bf6b1501
fc01243d9171c46316847884d08029cd
fc01252f6c65de260f1e7bf3d393ebf1
fc0125b982341b0434a8943f05383669
fc01261ff0c599ca6302e23ae4ea4f87
fc0128421adb120fe8030c3358d773ca
fc012851199f54645a3505dea23de248
fc0128c05cf8bb92e5b32489848e6d0c
fc012a776b6df9190e456da754987af6
fc012ae278032010ba9b394768f19a00
fc012b4d39942418c6339447a67d23c6
fc012b61ae3dc1538dbe4fffcea85f58
fc012bc85c3c7b2e28d56b30c38c8987
fc012beee3de14d8ba633bfc0f1c0c05
fc012dd18ecddeaa4798fa59405e1bc7
fc012ebf4e63dcbb00b21092e88f9a4a
fc012f1a68698b9d39041b2e7ad5a635
fc012f22fb80ac66a35a83547c2f5cb3
fc01306d559bf36a978b96f67c7ee60d
fc013196b75b9715a62274d79b79277e
fc0131c28a2fb6141fd06e71e3546553
fc013332c470f78fd1478ad837942854
fc0133b7fe379a482f9c1f6c62e071d2
fc0133f7b1e0676ced815844edef8094
fc013437021e917ba3f43f8e0ea55f82
fc013450d8721d05413952e87d8dc487
fc0135d0ac073b028a004fe8f66613e6
fc013607992accbe9dc8abe7cb4c4351
fc013640c0475d2f93785257f84ecca3
fc0136eabf36ac16e49bd35ea31961ec
fc01386ccab369d440b65b1042b367fa
fc0138852ad1d8a54f55647afdcf35aa
fc013891450ce639b708c19d902265ef
fc0138a339d84ba64204d6490835f8be
fc013927701c5ddd13b80aa494daff6c
fc0139f81062e3806cca591ebe76766f
fc013b917369d620c27217642ef6e25d
fc013cc45a77f60e1271a269373f2aa9
fc013d0f31cf8781b326c30778f82b7a
fc013d6c970d26ea84b2031edc2efcb4
fc013d76bb23d2ba54d244e5461471fc
fc013d82416adba8005031414538cb8d
fc013dc543081175bb719851061c8111
fc013e6dc8b1f3ad04362536feab8541
fc013f4342a8434be9986a7700377783
fc014139a1a4d902ada7f067df58f5f1
fc01414d68bd12370be8307537c19946
fc0141a55df8ed12d4827542485bb282
fc01423d5e975c800b98c4e8ba089150
fc0142540bec77bc9c11afd882f5afd2
fc01437344c1b5db7b49c12f8eedee90
fc0145450d428c2474160290d1fc0b6b
fc01458d8d355bbc61dacb2ff3200c4c
fc0146410164d9008da15f1377375745
fc01468ff1651810b8ab0235034f0737
fc0146a2670cbcbd48dd571878798b8d
fc0147619bc72f80affea9df2a79e4f0
fc0148918857008c144fc11cfc6d6a94
fc014999ea87ec7f4646c66fb6b86ba6
fc0149ce78635124dd04ae0951799c71
fc014a3f96d80cd2eb968ac1ea29c387
fc014be540b408fc28ed2a805609fbcf
fc014c4f0f8238015af58e2f0583bc5a
fc014c5754818822920ded83324414ce
fc014c57b8656488ddc4a1cf2dc122ae
fc014cc96c7157d6d97ca0ed7379f2b7
fc014e099b7f6148cb51f42cb66e793d
fc014fcc215a4a080ad5a7956e65845b
fc0150eb2ad335e6ab08ce10bfb419d2
fc01513507f80ee8cd04f7880424dce6
fc0151a7963106d942f03d1835fbebcb
fc0151d59f909cb63dc18a7b30ffbecd
fc0151fe39a2398d7cd380e1fc21f17a
fc01532225fd9ecfe630a4d30552cd62
fc015367ca90a939962f7e51241b00fa
fc01537fdf14c57807a6891754d77f4b
fc01538d90f96fb24a49ee9ffa087050
fc01541cd8f7b69b236764e1ba607f6c
fc01542a802ac7324b1c927b4ae620f9
fc01545e79c9d27749375b611ea4cf5b
fc0154f74fd188bfc4e966a97009ad38
fc01556347be58d2f1add14eaed18d02
fc0155d9dea5b38ad4f7b4c3c3e4d209
fc0155f1d454f36faaa46566b4c7011d
fc0156201dae8d249ce1e8be253076ec
fc01563a3e96bda4912668a7dc8986a6
fc0156f96a6c6322e0dd0d6b8371f321
fc015706caa4f310d073ab1ca1710245
fc01582ade10340d93e3ea20b0ad5616
fc015853365d536d4a7275a1e57725c1
fc0159ab89fdbb3286fe1e6f64805bcd
fc0159ae504bf32f1ebd950b63eed7fd
fc015a4f6c810ad9240d53bbd647c3b6
fc015b232efbd41b32d2d35ac98df74e
fc015b31b7e39bc9dc3d57cc047f0cb9
fc015b405c579b494873bd606f77cd93
fc015c03d9d23a84d533f9046efdf8e9
fc015c17aee318b6be283fb0d70a0406
fc015c6472e80186d99f604a80db3c9c
fc015ce684e58864474814ecbd896f90
fc015ce9ec15e799df1b2b997356e877
fc015d1bb87817929ac20a7df205e421
fc015d3a2c0b02376f4e75a8196297c4
fc015d557d2e62aa7490c42fd8661bb6
fc015e138457e00282c6a48f0689e123
fc015e37077b19c7758ecb2f55d5ec7e
fc015ec480fa7052da1525682647b92a
fc01601542339b012dd746ca992f04f1
fc016022e4149fbc9601da9c1b7f51bf
fc01608ba5aba626867e94f5f2eaefbf
fc016099cd33741b8448505f39c51b4d
fc016130a6894880061ba3d9a78d4272
fc0161885c5240acadc2df6ad05771fe
fc0161c4139d0412e9b3af3f421765dc
fc016292581698a13f1c3c4cd1825b47
fc0162cbcac05afdb79428849b4ebd08
fc0163534411d6d8a63491207c55b62b
fc0164a1cf11493daab5e287ce24dcf0
fc016512f01e0fdb9702b8a94218e476
fc0166925afcc46d3d6e9e257d6bd530
fc016698b9a1dcdac2dee1aa18c54e80
fc0166fbbb6231f33acbd4609b5a7118
fc01673b0cf2e4398fc5210f746618d2
fc0167bb3d84c05304474b390d534331
fc0167d776da9ac93aa4ca2ccce0cf50
fc01684b0fbeef47f4571b0dbdb6f6e6
fc01692f5ae1179a5c2bbfdb57c47241
fc01696edce8d1d6fc793e2d4db79d40
fc0169fbe70998dad0005c1c3f96ba6f
fc016a0f972d801463cd16158e95b247
fc016a6dd16c7fe149530cd539023998
fc016af28e5d53d36f19a450c14ad1ae
fc016b0966986c2595ed46d7f4d32db9
fc016b36075b8fe2b90d45273ac027c0
fc016b3b4772e157d0c1993e19e7589d
fc016b44f4ac7ec9f9c7b8ff3d08d4a2
fc016c095688374be1b9659c04152289
fc016c723b1fd7606aa4f0fd52cf066d
fc016e580c0454242cada70612406a8b
fc016eae60b004c9666f39cd89f29cc8
fc016ee11567ffa6d0d51444d2e8bc9c
fc016f68867ebe135a9652e68d80b9c8
fc016fde97fc7ef054517831fb456dac
fc017064983834468450b93b85fbb25c
fc01706562bfd5f97d8e86e2ad35f42b
fc017154f4479199aefbfaffdeed9cd1
fc01732ab20572c786175430d3421873
fc0173730b896ff877ab510f56cd35dd
fc0174ccd41978fd69a93145c3a6176e
fc0175087de5b0005c00fcd479fb4964
fc01766120c3e2cf815675b488061ff6
fc017702bbc5649b14d71be28ea0de58
fc01777327ba81bc9f84db0f6b947753
fc017791fab23141a1c3f18c863c8acc
fc0177de45ca3bcaade87180ca75e71b
fc01780f07ef4f64bcb464705225e388
fc017a008dca7e406054f99e27fab74e
fc017a3b79301428dac9f883cac7a644
fc017a83fcac57d995b6cdd965bd46ff
fc017aa9625b6e71b05159a264880f3f
fc017ab003be4a93b7e9a0b4226ae534
fc017ae0f3bcffbabe8646354053a6df
fc017af278a85511a7eeb92099c85ed0
fc017b9d418f7868247636e806ae5183
fc017be0412e713c1575bd8f66b3e0e8
fc017c91a841a8912edbc6cf1b8b57c0
fc017ce8b6522f3d1c122eff68b709d0
fc017d65b2d1a846d72fdfe6226810d0
fc017da9bb09430e27dbbf6f09c1df44
fc017dff7bb1f66f3aa32a70b2a6d9d4
fc017f1c4e825dee1572938cc7de829b
fc01804f4b7e52552d6c2dfcd0f6f05a
fc01806626530fc6ca10b3b37e1c5eef
fc018101c6e0fe3a47bc31d9cad90762
fc0182049798cfbafec7d39c5157e090
fc018221f774e10f74cbd9930a636900
fc0182a552c10c7d158bc1e93a8279e0
fc0182c7204f096052f6e5397abe6a23
fc018370a19e49798c095c22024d9db4
fc0183cc4aded7ebad3ce953f9ae73c7
fc01851108fdf93ea1c63bd6df567f97
fc0185aa674f6b7c4c689a69673faca4
fc018658268a8f229b2b7f277b9e84f8
fc0186af4d991fa52c603ea2775e0d7e
fc0186e03344b7109155daa0e7063541
fc0186fad5d18120d51123d872c99d9c
fc01870b6a9eafee2a0ec38996463945
fc0187d226642a6e191ffd0b6bffdd79
fc0187f827c76d878f2bab07fd8b7656
fc01884c84790439062b7dfbcb8497c4
fc01885f96b1b29df4758eeee0b800da
fc0188b183bd61e292d641775c5efcaf
fc0188f05a60aa1c13d0dcd45f47135e
fc0189109f829cbaa2de6978a758f83c
fc01898347c605df864babb622ebd6ae
fc018b4fc25d7fc7f000e0c7b6bf1129
fc018b7012689098f1adba97eda76777
fc018c0a6f71e6680d8a77bf0800ddc6
fc018c980dfb7f3174d99b38f8d71e30
fc018ccee665df402485a3453fbc7bdc
fc018d3f31a23e5f464c7169fea955fb
fc018e46a1ae9e0bbf9adc2324fb7f60
fc018edb68fd73bc03fb943b62d84dc1
fc018f6e908ffe7386985d4fb1db275a
fc018f9922bbf624a3d24763aa6351c4
fc018fd5264ebcebf69e63f3068f8170
fc01922fc76695626e71d6fdec361cbd
fc01925f530a3f9b027f9517098f30b4
fc019274974f4683e9ba02670545cacc
fc0192aca4ca5146a464a67c398d5948
fc0192bdf61bf5092bc7244e69ea09e9
fc0192e1614299fc454567aefc3223ac
fc0193e317933e146c94fbd4b9c9fd11
fc01940e35bfc25c9a15ae7b5615b76b
fc01941c991eb343dbe53af6779e6d19
fc01942ff911db210280365cb9516ebc
fc01962a52a87375a3aa7165dbfb66b1
fc01966d7cece42930ec91ba05bb73dd
fc019818a982020aa530a5fa668ff450
fc0198b53e19042b4a5a4209c40cfa68
fc019a496d7398f5ec70e9029d9a39ce
fc019a4c62262a05262ce6d4d7eae1bd
fc019a6ee1398df1e5e544db6d9ac665
fc019c0282b9aee7fea2f41dd5bce7e1
fc019d7eb1fbdd7c191c4df174cad08e
fc019ec44a9d0affef5c027967558d01
fc019f672143d4851d8dfe54438dc30c
fc01a03e1481486d344ce98b81bad573
fc01a0bb4ab697aeb34d252fe1cc4420
fc01a17fb79ff072be7a3f7e0cf7c5d0
fc01a1995f30a9aad2f03001003d0650
fc01a1b3eb5ff95e95290d0ecac7df37
fc01a263a8d6e29d4dd1d29577e2e67d
fc01a286ec389039a4534a0b82132410
fc01a29f1a1df4be6e1f60f7d4a86a6a
fc01a3710935f0f66c2adc886772dbbd
fc01a3ec6e935d478b50d29f109fc930
fc01a42400a9eb5fc9e0949d2d728dbf
fc01a4c587cba878d3556099149b81f5
fc01a558d47128327789fa5ca4876dff
fc01a65665f84f7429feba4c755bfe87
fc01a6981dec84f89fea6ea6edd07690
fc01a70c36c6016af32f63b019e2106f
fc01a7947b191e43e0ea7d1d7e386482
fc01aa82f402ec7dd22f3fce111ccf34
fc01aa92386f03a13bf59c0ed0bd2ff9
fc01ab858bdc274a997d8ce2a53aad84
fc01abf009253c4057b9be7226363029
fc01ad44e2a1f6705244a858d9c4e68d
fc01ad8ec037db2a5593929b9778ff2f
fc01ae18884e84c91ae51ffaf15133e4
fc01aec69948d251888fb25f333db4e9
fc01af1f97daa11de2a3773e1204ec84
fc01af4ba5a2f27dc2b95c0b72c51199
fc01b1c1d27a1025f7fb79b08e52b9fb
fc01b1e53985169345993152c6e79e01
fc01b322650fa82c6117bcd799d74f76
fc01b45206811cce46b6d873fda03c16
fc01b4cd34a757e2b2e8e41104aa827e
fc01b542e81463e2863b4c8dae62e8a1
fc01b67d29d20b1cb30b7c870b8d0bf5
fc01b6d5098a72b4daeed3dd22459c14
fc01b709313c5c4d94a0d1ab6da86d70
fc01b74b02c0818aed43f567402f8a70
fc01b7da8f3590d609a8043b83ccfc80
fc01b7ea2beb9ccb71d743292577c3de
fc01b82dc976b00727a4e9340c00e59c
fc01b852a41b80282d86269eedd2df6a
fc01ba301606408546a85c1ddd21493d
fc01ba5e5438842663e545376f3b64f4
fc01ba8e48ac419379a6defe96c0f56f
fc01bc040695a8d7af3630fe6e0613dc
fc01bd27afe15462e0076591a90027b0
fc01bd36016848ec7af1c83153146ccf
fc01bd6fc2d77b2ec6df90ab801e74af
fc01bddfb3abfbdb946624aa8be029b4
fc01bea109436caa08dd054d8872b290
fc01bf751227a498a86d3a5054adb535
fc01c0e77aa46d8ac59920c9787f1774
fc01c0fd5475e4c2d475c8638fa013a1
fc01c2a388cce52beda115f70034d570
fc01c2cdca26c771a02f8b0dd53b8293
fc01c3fb7abebd0c02c45891390d86a6
fc01c4bb4270f8e5f6acde703de5c770
fc01c50d9637c5a8d042c3f071a077f9
fc01c50eeb091728217c978453543bef
fc01c52a778ef317a8a2c7bd9c46fa38
fc01c61123b9be2eedd4f487bf93d575
fc01c62e10f97db8cc7015b9b912fa01
fc01c68fea37ee9278f31362d6c29863
fc01c9185b21a359690ca3b0564f8f8b
fc01c93575b308545bf00b79f147e10f
fc01c9d4bfd411d7014159c492ddf0e8
fc01ca0d204edb26bc4a3a00497375c5
fc01caa54fdf1c50cc6ecee7d233b4b5
fc01cafc59aa0de3d863c9808be37bea
fc01cb81462c925e45a88b50b2fc419e
fc01cb8f6e6ae8004ae814fe1a74f57c
fc01cc2bc920e5c6675f65151a0ab48a
fc01cc481d553c813e793e92f79e8097
fc01ccad96e43fb745b0d3708aad7645
fc01ccd034e0907d76388d6c296b59de
fc01ceccd92159588a67a6098269ca5d
fc01cfa3b7f0c2a7cd582e5da815d55c
fc01d0961d4a331d4c6fe73e1bdd9555
fc01d14bc0cbef441282110692f68ef6
fc01d19ce6c2a82105cc78c392ca3851
fc01d257d278af55c6126f3993059072
fc01d37b66dceb31999e77ce2306f5ec
fc01d3e971a8304c5986fcb4c505dfae
fc01d446fa5a86af268544677805211d
fc01d4b72177cb14296713154899b9e3
fc01d4e670708fb63cae6920c12fbc74
fc01d594f0cad99705575df1ab4f86c0
fc01d5a54a4b41d8176e86187c2e7a82
fc01d6477dd1c62059f055792af04448
fc01d65024e2c3a615267c85571b5ef5
fc01d66603527a02d138e43a7783a3e1
fc01d67b27e66b6906938cf7af0937dd
fc01d7e8d279eed2a1cc3e8fa122e2be
fc01d7f88489828f7d41d67232b865e1
fc01d8fcce914d78b47c58f0497485d0
fc01d93dda52fe26e3a407383344a360
fc01d96952630b73ecb473c6e273e0cd
fc01d98b26e3e510987b8dc9c7914ed0
fc01d9db1908e9fe6e9ed602f7b48ed6
fc01d9eeb789b927fe22d999f75a5f10
fc01da072d8f4acee71bc4755cc47578
fc01dab2bf576cebcab7644d1a3e2d1f
fc01db61b55ff5ebd5f12fd45f4728e3
fc01dc331c352f45148d9885dc196adb
fc01dc92c1faffab7952b29bd4aa2b96
fc01dd5e6642b4d6b0e2a250309140fc
fc01de22b392549f8c858f9037d340d2
fc01dea94f93347fea32464f54181a23
fc01df05d0e84b5d5f5f9e9f8a5adfe8
fc01dff164bb316690a4bee57d4d07ff
fc01e04ae6a44bb5c341af0b735ef7e1
fc01e0b76a5482c010a2ef0ef1a82e69
fc01e14ef8fa889a4ca1c7e39e457639
fc01e15872263f3543e655d14a3d7704
fc01e1ec96615b00ce0b054931b4143a
fc01e2dd441389649d93c404b152a97e
fc01e2dea17bd4fd3b201a03faeee7db
fc01e396b3fda2130031be70097e8d9d
fc01e493bf94abe53cd95611ef46de77
fc01e522c7da3c6544ee816da4705a65
fc01e54ea884feaf3431e68658242f34
fc01e551a0ae53fc9a97deca6649f8b8
fc01e5bcce551983574c739bc6f16b2f
fc01e5fc21da145f238b63b838b0e053
fc01e6099d61e7479588dc39fd8ddac2
fc01e7527e3e86efda8ca475057ea885
fc01e81ef32be4fee130b71cb939b63a
fc01e8ab85392ff14085259370c2f8aa
fc01e918ba761d07e92bff0dddf46255
fc01e94b0f42778e7e8952088645dcdf
fc01e9867ca5f3f2f6d9299d0b0801d5
fc01e98c27abf89ab278b914d7aeb630
fc01ea7abbe6ac4fe84a7bfd2d0a2c22
fc01eb3830ca925e7f2a5bf7fd1eb7ce
fc01ec1055e3947008c58dc1e4f1acca
fc01ec4c5951ce8063d88955f34a8756
fc01ec56966138a4f7fad719349fe6af
fc01ecf283f793942cff195303f0ef84
fc01ed35f3f8fedd4accf4fc5b5823ec
fc01ee301cd57de339362512f026735f
fc01eeb7ee2ab3887379251b2021233e
fc01eed35e088c205948678f0c2d82a3
fc01f1201fb91d80b39745993c3b4980
fc01f12050027c8909b923652144a2ec
fc01f1bb9185ef6854bf5ef9341beba5
fc01f24b043ddc071082142083424c90
fc01f25251df80b73eb09a492f70810a
fc01f26960fdbc14776c334e1fb89d40
fc01f3b6c53c10506ea2b188258b81d5
fc01f3e3cee050b96657eca1057455b2
fc01f4b0ebc40fa36da4278782563961
fc01f5266e553f24935aabcf2b923679
fc01f569ddf99417132e6d71e6c97bf8
fc01f738f90cea84e232a3debc668360
fc01f8a397aeb8a74c589bff8146ad8c
fc01f90ad22bfe01c76470f81d93ab0f
fc01f93c7452c68f7d725b4a61e1e5b8
fc01f9cc4c7c73ec8995a8f11464847d
fc01fa43859d13f1958cf84f35761fa9
fc01faba94f38501ea9594f3a26285bf
fc01fb5c5e9efda8635cddd5890728a6
fc01fcac879fcdd6f41931b7a1bd97bf
fc01fcd497b9fafb1bacada15000d243
fc01fcf2575bbef697a1ca50a5988347
fc01fd98d8ebaa51612f5489f9506910
fc01fe0e59f2a82a358e3ceebf54b6f0
fc01fe490c6a1ae8da09bbd797c708ee
fc01fed1d1bdc0f499107e97635512e2
fc01ff2c640e6309144057a867c9ee9b
fc02005b60a50a38908861552357e032
fc02006819a7032de34aede4e8585315
fc020312fa771a4b521485b0f60162ea
fc02040274277b258a802d82b4578789
fc020446f17d35fe6b9e83cdd08b8139
fc02050107494df657e90adf2d9e6904
fc02050f42c71ac0c5a912716ada8bf7
fc0205b872afcef39b97545fadac4a92
fc0205c4d5a9b6ca040673f43a310465
fc02064f38f27669d2c0d2d7a7f363de
fc020679288ea8db749505b1f22f85d4
fc02071cd06d3e29c358a648c4ec0984
fc020728466a9dfe588d051dde8c4d8d
fc020790472269b32792f925896e83ab
fc0208491d8c13b2c3a7b53dcc24b9aa
fc0209cf68f171959ebb3d451acdd03a
fc0209efe3d85a4d7270d21c5cad41d1
fc020a2cc5816239d7ea313f663c08de
fc020d1c6f839f638f30099d6bd3b76a
fc020d28980ebf2caae837e2c9c52b7d
fc020e0ee399dd3496230a799364ae5d
fc020f6f1a656bc21c21abc5d23dd070
fc020fb9469910abe334dcb3a29f4958
fc020fc987970256fbde0415712c3a27
fc020ffd8d83b54ffa1299cbe0855233
fc02100993d92531b86b1cef9bd835cc
fc021028913a27b6a4b67cc4a194d650
fc021076c9299f1c54c7885630078484
fc02107be7204ef1ae1987b0baf0e0d7
fc0210f03b4090beed33b47658e524e9
fc0210f3f446edfc3a2db8d124d89b58
fc02118f76030bec43db916978e09007
fc021195ea7e81c24728dc7c3e275d13
fc0211e36125f2ae13c2da7c80126923
fc021215b56abb4a7d8593777fbf48ca
fc0212427dbe9ec040dba6ce583108d7
fc0212950bda143bf4cfc0f26e6f1db0
fc0212b039406ddbc8583feb76bb28df
fc021353a55aa95e212fd387cc203d54
fc02136786732a0595686d0e9e0d13c1
fc02136b2f3946d63c567487f1b7d61d
fc0213e88983f6ef18f414f73983ab71
fc021402dea3f537acc80ef0b793549e
fc02142151c5b2dd7c3dee01e89b4a96
fc0214ddd366d148995ad737adc13b77
fc0214e79b4a1e40ad83c7b5756e51e7
fc0215988088eb148318a25cb35aa401
fc0215cfd46363a6b8c73ed74b23c562
fc021658d643db4aaaa554b62fe3abe2
fc02167b6a587bb8ca5e7b086415f260
fc0217e5fdac0b8fdca9351d4fc5ec5c
fc0217e766e5a07af6705c8182e248a1
fc0218cf8dc0e6c3c3d79d98bb8a6789
fc0219254c9f9f2c97f3f94eb3a086c2
fc021a2b2de2b60c521c2d93125c1596
fc021adb7ce9a0a47940203e7f88bf92
fc021adc00a60544ec2f28e86fdb9520
fc021ae7ebe6747457441b958b412451
fc021c2fe58f2d4f5f713ceea0ee9317
fc021d09853bc175a4fd12f65107a058
fc021d451f7b9fb699e0c4f389ffaf32
fc021d740ffb124800c330198acbb2f5
fc021e6cae6b9b540f33a1c92548fa0c
fc021ecad7b1659c23efa3f645ab5f3c
fc021eec586cfba8d6c792c639a4dddf
fc021f24ef67c4c17df130fd68d1c0a9
fc0221460701bb309da310ae64c45c70
fc02219552213f990336579fc4dfbfdf
fc0221b660d102acc8c695d4959092df
fc0222539f7c2a9803bc695a2a7e15c1
fc0222c6e15918e60b224acebebbfe07
fc0222fd9c7efbe4ad9bb7f0677bf0b0
fc0223623c8081b443e580ca46673673
fc0223a7e2129d03e566580d1bfa9619
fc022653a6af24180d5858715bf431fe
fc022702f9d3dd9a1e29980e1120fb47
fc0227c6d9bbe771181b0db4409e48fa
fc02281fda23766d7b150eef65306536
fc02283d302b1e2c9aa145a4ce8c5470
fc022862160c3d0a622d00a9c11bffd1
fc0228635c7a2c8b9ec68201effe3ad6
fc0228ee7f111335d3783544b54a2787
fc0228f153a86bffea670c87f01a345c
fc022a120e33efb17a1da609312978e7
fc022a47666b07ab6ed8d8375b8f908b
fc022b1ca3f607fa9cf7df05573eb197
fc022baa51acd0769ffaba9873056ad4
fc022c4f3b37eb0ba438c62a153a51fb
fc022c67449edcc66369b349532b8aa0
fc022de900705b4edec15f465e38c91e
fc022e0bdb628dd1c14cef19d076a431
fc022e5e0ce47a3d00891ccbf72b1774
fc022e8bc130faf8da5765b423d07331
fc022ec0dac194d2f24798142871a91d
fc022fb5176f5791949c40f777a7d11e
fc0230ebb1b76403f5c61785b8016b13
fc023110c645a00d76c554dcf2049a8d
fc0231ebead930a70322af39ff2e380c
fc02322a205d940fb9b672dab417d696
fc02328fe286fd7e14c3e3fe882211fb
fc02329c6d65d2cc0c4ae7f6e7e87505
fc0234c28175351e76bdf67378bfdb6d
fc0234fb0b8363a67aff3144a8fff857
fc0236e7d51ff53fcdb7513e47c7f7b0
fc0239c21da2b068de26e49238b945b0
fc023c79f72014e8596c238d1ed810ac
fc023ca5705f741d83750e1174853ce3
fc023d7988c031c6864e3cbdb231a0f7
fc023f0049ffd52b86b4e6183dacc3d6
fc0240cb48a055f76a44c1732d9f757f
fc0242d46202f1d9291c78d81c21a46f
fc02430400b9034e0e7840938be939bb
fc02441ff42693e0d2416b2bf23bcd14
fc024440ca9ff1dcfa462403f2cd6393
fc0245299c89570f325cf1b3d7eb272f
fc024549d53af4016c0efae3beca6156
fc0246080df88df94a1b9150ae5d3434
fc0246ea9d55d80e2a5170a09385eea4
fc0247f54ff213a6b3ef0d129ccd1fc6
fc024815313862599def471404173abb
fc0248c9bf56951c4a77d406b1adc5a6
fc0249b96d733df6362d9193af3c2cc8
fc0249fe361d8bac9131c38a84be664e
fc024a051f1c69a33826926e20862778
fc024a29e5562b89bdabdca111a8b794
fc024a36a32e03a5e5cecbaa94b50528
fc024b3814bd94372808994fa3343ae7
fc024bb72f31723283dee790668bc1f9
fc024c9d8ba4a8b4cc02af3ec7c86d6a
fc024e7c031bce6993dfce2bca1ca905
fc024e8cf83a22f3675089b386c2371d
fc02504085be78133ab3dcd016d83db9
fc025100e0709a6def2926fde1117759
fc025294f24a0a7b16e941185f21ab13
fc0252c911b5c6e2d29db472062c2953
fc0253c03cdde3bb633fe29cbaf2ddc6
fc0253df53a28395cfa1f1bb485404c7
fc02541c4beb1eb4782c75cb0e441447
fc0254f32a36e10b3b84d749004a0706
fc02552aa0ccd9e6245230fc90e1d762
fc0255c6f07611b0e23b03ebdfa8cdf1
fc02565690028e2b6cb030902db7299c
fc02569c17f5e3af60110f73ff30430f
fc0256fee6a453e2e91c12d8c1dc4808
fc02578df7746c0d05ba16393f9c56cc
fc02588cf7644c056c4cb7eeff7c9337
fc0258d7a0e5574f22c8d7ec7c7a4f4a
fc025a1de0c008fbe6a52f68c14299d3
fc025aa06a9cd147338992c81a429185
fc025aad98a311e7ab601b8bf9ab77d0
fc025bdf3f9a010740606ea3c06471ec
fc025c0955c1d0cd7e0dd3cdb4bcc80b
fc025c8092ac8f87227a7cdaff0d7970
fc025cf87dc815af4dfbcc05060a5ce0
fc025d520157b71728338eed341bb73f
fc025d74cbc74e2e240992f2c4139d28
fc025f942597408a895936e1ad966f17
fc025fb4083e2aebd726320cb94fcda7
fc026111d45d42c95cf490c6c36ebc1e
fc02611d1187853b6b6ba7533cf8ec65
fc02619e3c3e3cf75554b6dde983404f
fc0262d75562935b9b0e826eda084bd1
fc02634c84d04345a0e0fff879c4e4fa
fc0263c353c4920bca6bb1e3cfe0afe0
fc0264bf8c1d182ec0cee28d76bb1fa3
fc0264ce79911e8d5f6040739a9c2ebf
fc02665357e43164d654fd320bf9b3d4
fc026698de17b943d37dadf1d927a873
fc026748f941645885130d26f6fb0e90
fc02681fba3bd53d75d6c2071774af44
fc0268df325cddef16f333c1d084b68d
fc026909820438ffb1231beaf21ccb6c
fc02692ba82f0e6b63e3f49cbbe793bb
fc0269352d4e639589daa3586ed86ede
fc02698c8c0f9aa9155873f83bf57c83
fc026a4c57b4d68ffd1ab9cb38056e66
fc026a56f3d46297593541f4855b8878
fc026a8f2e2c9c64534f0e1cf697eb93
fc026cc7746f8fe59edcbbd975f4d049
fc026d03c117d331e67fa9d1cdb4f793
fc026e037b96c38316f08786c3ff0cbe
fc026e2df06067e0030803b2dd79ca77
fc026e33244f923566b12e8aa412489e
fc026f6ef4a62da50011c83723fb9a00
fc026ff16152ef2841c587f0885ca6be
fc02701368f62e0fcffccf6d99fcba7f
fc027073fc9bd31f25cd24af80966380
fc0270f7abea920cca587ab206770224
fc0271fa8d87e7a55ba32bc1948bb9c7
fc027207370b8da976d8e37a25055330
fc02723f887bf174c4cdf8522822705d
fc02725943590585be886b89166268ef
fc027275e332c2cb402b6e550cec20f0
fc027398e1644e44668af17fb466d9c0
fc0274fe18e9b5e14f6016e1ffaca45f
fc0275c14b21a35b0f2b0c4f7812c27e
fc0276291aae86c4a37d5186d1e5d6ef
fc02767a8361f7808a9d0494dc19a0e7
fc02769a79e6f7379fd801913087e237
fc0276ad9f0c226baa6585fa119a2061
fc0276d9176ae2d145d7ff6062fd0b51
fc0276ef68186f123733d90083cd58a2
fc0277b9c96e56d4a4ada34b52fb0f16
fc02786840d5204a23e920223ff95948
fc0279070b5c55134e6296a9842f31b5
fc027a04c0615f105adfbd7678f0fbd4
fc027a521b5cc54471905b1c18a50700
fc027b22a2d98c31816cc1fe59653cdf
fc027c1b800de22e06f630c83ef618f4
fc027c5e7e908a27c9979ad132ed9330
fc027c7eefd658f200b03fdee9e77be5
fc027c9ee07714fff5ecb20cf3c5a4c1
fc027cd3768b2e19cc55559543b5bf69
fc027cda5f701fe3b8fe89433845078c
fc027ceafdc31b29d363f7b5df8f9b81
fc027de5dc6892abfe137b5a2613bbd4
fc027e55f8caeb11aa6d4ce7a019213c
fc027e66169aa087447f784308d348db
fc027fec8cc4dba425fedde54d0f72ef
fc02804b514454f72d23b7198cbc0034
fc02805c45c1cf7a82e188d0179d4650
fc028082f67824aef2825ec09a081e90
fc02809ecad6822d50b1026154c6af4d
fc0280e345383c79f953fc48b8676510
fc02818c2843be5d676f145e005d17fe
fc02838b78fea6726a16b73aeb91f2f5
fc0283917d3393cb402cca9de083bc49
fc028422e7921102d75263a210db797b
fc02849dcd358aa3b2fd283362cea474
fc0285e4cc82002b41de77563df7fdc9
fc02860523f2d0b38231aaa191e578b6
fc02868e57c9e0294b942d7d13895f52
fc0287b78fa1028b453afb418f1d9caa
fc0287bbd6ae7b65cb32f21eac1c8912
fc0287c382d694d3491b2027b7434f12
fc028895b08e4c0b1d13a817adb664b3
fc0288b3665f926f6758be96a8278712
fc0288fb428d8a8902b5d3d83f98366a
fc028ab69e455045f9816bdf5d45179a
fc028b9d2174fcfd66444bf7e561b8a5
fc028c0a0e5761667e66942e0e921c5f
fc028d1ab58abe70dfb4818d84f0009f
fc028d4c2b8df2b5134b5bc81a94f2cd
fc028da8771a0482feef5d2ed73cdaf8
fc028e5829edf1c2d9df5d7648b8cfb3
fc028eb7073841fd792900947f2d2391
fc028eedf3bfd4e986dc0b461ee66ac2
fc028f83abde9a33b9a53a68527698e2
fc028fbf023525e494a163c30d211e50
fc029006a40cd7944980b5feb1765cd1
fc029043a27ec404ba4cf136601aa0d9
fc02904b2f8161f7caceb85d1b677830
fc02907c556deb81f2370cf4de3e9df3
fc0290aecffcb4b4184ff4536b4319f8
fc02919b5523b0f02bcc573118299300
fc0291be4bc2474d2069964c8bda3a24
fc02927f840eaf65e9cf2e75dad0d8ab
fc0292e668abde3df093ba7de6572b02
fc0293248dc71be5197e5dbde8f769ec
fc02939fea49f18823f08906e3e31363
fc0293df50d6ec37fe56b04476774d5d
fc0294c3f4a18cc9ea28b089a28307e2
fc0295926fdb357c05852a626e63d7a4
fc029659d8da9c96261cd030e718d743
fc029687e3091430eb27f6de20b32d6e
fc0296e2a44fde6e761a2692ec76d26e
fc029720c0d93df6061a11020f3f3da7
fc0297d262532e2471c9bbde98b168ba
fc0299108a59317cd7883357bde55959
fc0299f3d74b20ad7da7ecbf3ef8b6e0
fc029c63a5065b96a45ab340f00b75c7
fc029cc1485fc812aeb4ba3ee94889ed
fc029d2ccd4a76c1f0003cc4a91a35f2
fc029e2660f7227cb318df5e29b387e6
fc02a01c5b17b6f8a3e85d34b32bc159
fc02a04a9d2fde0f3bd329d5e345f560
fc02a12795cc564d26648c6d7b91f729
fc02a1a43f86fc5022100fbb33a0c5ac
fc02a216ce681c6999e2697cfdf31452
fc02a22972c9f1db9e4af660e3521bcf
fc02a2719f3c4c330decfb2e7d75c9a1
fc02a2c88c0f5da727f05a9a71d1ba15
fc02a34d7e1e7cb6a8a30a836dc07e9b
fc02a37b9a89d6fafb5bbd62c24c0a57
fc02a3ee61f4b4646fd4bbc5fb730f98
fc02a455fbb33d1b8b364067fb92ea8e
fc02a4ef60ccef8be83d9179f5b77b94
fc02a56da7db2639560c0952a6ecf21f
fc02a577305eeb39d015e2ad0d26eee2
fc02a5d70065bd89af7fff871eea21d2
fc02a6da6f368563d9fa9d349db0536f
fc02a70332e2d2a88e2133ddeb9bc034
fc02a9ec9fa115f2069afd0bff5ed202
fc02aa035d1699f2a1ddb18fa582eae3
fc02aa16b4f21e2424099fe6b084fa55
fc02aa8362b941168a2d5a16bae27742
fc02aa971c0b8b347ba8d3797742970d
fc02aaaf4c6ae47d03eb73f1c9c9309d
fc02aad7e9bb82bb1ad76f6f9b434a3c
fc02ab088fbcb6f684b260dc07e0c37b
fc02ab0b3111b80997c26bb04231e3f8
fc02ab5692d095961a0580b646608561
fc02ab9f4f9f4764d369412b3bcfbb8b
fc02abea13871c3fab5db33be968e247
fc02ac160c1d29b249a47f93addbffb0
fc02ac874ef2cba88efd7339ea025a66
fc02acc61ef421b494c05ec104c87453
fc02ad07a3aee502496d4495242ce5f7
fc02ad3876b6cbfcbf7dd49f90dfbd52
fc02add1df9945368b1ca038fb89489c
fc02ae3cf4c36badcf653cfafa9abb6a
fc02ae83d2d19f4e76a32ac4a40523a0
fc02af35837db83eb66114a27a0a0e91
fc02afa34cb12c4ba5858f3e8690c052
fc02b00ef3a6e8ec516f82e9ae695ee7
fc02b11c45848c61dac3cca9301c9db5
fc02b1a51fba72add8102867c8d0f88f
fc02b32e2ce4ba6946796022cf5fe1bd
fc02b3310b0e9978f1a4fb627a09e1d9
fc02b3c064b62541b2e835d6baee06ea
fc02b3d31011197704cf19a4b1fe3dd7
fc02b491c3155447c00b9bef9a093483
fc02b4f8bee7ec3a00fe8ac54c029d8e
fc02b57edfbacddf07dec9e7fc47e647
fc02b63470d71206e67cb056af327b0f
fc02b818ce5a50d734a4b7e580055b87
fc02b874085851376d835d149d79630e
fc02b8c6469db03d736ea680dab558d5
fc02b936a18ae51d1597abba44f58578
fc02b9d398ec576451e2faa16a7cbfe5
fc02b9f2715480594ac9b0542cf59f40
fc02ba1ce2b19e692a6f4634d3388e00
fc02bafc2e2a5a9f5ed75eeb46ee64e7
fc02bb6fa99aa19197958870d2b63dc6
fc02bb7b666c34a7f2fe5f456847c076
fc02bd8b9dee98aeb9844b71a152d3f9
fc02be22659af1e0adc12e01fb98632f
fc02bf7991e3e302f476dd3540871282
fc02c08f9306bbf47f1f9d9828b64c7d
fc02c13411711705341cbc4bd2c4b8e2
fc02c14ce04aa5a60cc1481ece176947
fc02c16579497e83f8fe23dbe2a5c801
fc02c1f729e9eef2c30d297fa513c528
fc02c24039c6a0cc91c76207a239bc42
fc02c31f77db35501363117f125d0f78
fc02c43f26875c28530564579e85a0ae
fc02c4f8cac4271713d99931c2975684
fc02c572dae2fb84b87b6ff2891db2b2
fc02c58ce326a92c893b0897dbcec71f
fc02c5f2ac9d67853f46560f60b9f2af
fc02c61d654f174442ab98ad28446ce7
fc02c6dac68aafe1e874a202e5cd666a
fc02c713f20c78a880b6cda0e90d7b2f
fc02c775f0d713200b6aa36674a14d46
fc02c79af341a26dc174f740e0951c72
fc02c7ace7b3ed4411ee10e2c26c8394
fc02c7fa51bdf582c43255e9e16808c2
fc02c803f1af3a47be7f382ed023d5b9
fc02c81652b62effe1cc6161f86e8fb8
fc02c8582f3f0bac43aa71a4c170b3e9
fc02c8b5e23e950a934480ae82eb561f
fc02c8f21d2f2db2b83787be12c79f8d
fc02c9164f1648c9b12ce5eeae8a036c
fc02c9df86bb92f101fc277525b6f7eb
fc02cafde89e27fc581fc3d22004aee0
fc02cb6727c2814cd3b601c284b38d0f
fc02cbe1794673e403f4281d1fc1dff0
fc02cc1dd109350d14bb2f4c3ca12998
fc02cc29442747a358b649c27551eeae
fc02cc2e543310a7ce1b1cdf008750f1
fc02cc60c345276acf6a9377bb5fad76
fc02cc72ed9108b74079cd534b25a9b3
fc02cc7bda79f4bba260005376c39c40
fc02ccbd0eba0f6131098373850c912a
fc02cd8afdd8793685ea723efa4ed168
fc02cd8e7c981dc265073f1a3e8f8c99
fc02ce23f6a6ded950b24e691630f441
fc02ced9878f50e6d231dc9c2b5aac35
fc02cf1d63db0dcb95bd00506fc95f9c
fc02cf7456642607a82d54a6e82bd5ae
fc02cf83b692b00676e52788ab1772a2
fc02cfbbdfb83b3dee0b817e4779796b
fc02d0179b34c738b85b94434274a864
fc02d083c07941b85f801edbc70878d7
fc02d0d2c2fd4eac48a30b4dc18dfc4f
fc02d0fc911f910362ba45550b9e7c00
fc02d1369891ae9dc9f988e518645f1a
fc02d162c1ae28ab02436042b2cd6400
fc02d525f6688b303158c84a28250572
fc02d96993460c9d71d67373107d6ff0
fc02d9890b2d175b8937e57ee7cf058e
fc02da56457e324a33e6593dde197e06
fc02da61a402db9777a83d9e2f36e575
fc02ddb1edf016fbeda49c7e6d54d81a
fc02ddc3d918b59e04c19b8748894c0d
fc02df0d17fa34ff8129bce61f3f38f2
fc02df10cc954acb6c905eb8708efc99
fc02df523bd0911df4f1d17fa9f5c373
fc02dfa47a1bda97e603eef77f760cd8
fc02dfe8cd89b1f562aa29d29152b7dd
fc02e1219403b74597b6165ec4d3b912
fc02e14eb043ca936f8e308583d3a790
fc02e15bd45550f474e0842f68a430be
fc02e1787ab31cd060539e6b802e05cb
fc02e1db3f74ee3f99255fb363048e3d
fc02e2064786938acae8314ad710b703
fc02e215ed6ef4f3fab57f5bfca15361
fc02e22aa73a7b76141b2fdff78c1b62
fc02e22b64295fc38a640a44f265c11a
fc02e2cbf3f61c48c8d8b32dba8a7276
fc02e315a47123233f4704d422dac7d8
fc02e345c2378449c8fb673ffe7ad79e
fc02e3473c7b9293c25f8fd297e92aed
fc02e41253d9ad490c8ee7ca9c93f294
fc02e4550ae163d79ae930385a9f1b00
fc02e4986a14eb5bc4ec0a183b6e9353
fc02e4a992dd989af651ec2a44b57238
fc02e686a403a42a64ba61a7f26b69a3
fc02e6ef64ef8d59571af9ca627140a6
fc02e717e7385b087636617d15e070f7
fc02e816190f4ab1bd92b3b0c10a5a5e
fc02e81f62ce46d8f28b69548d174d3c
fc02e8ab6f466718d4bbfeceff32d813
fc02e8b5b63d4fe17e87a885c6d5801f
fc02e9164dcbe8828c923379511364a8
fc02e975c894746db9f51744195a1e70
fc02e9d25778b0826969e2872df33db1
fc02ea1a084e9be8077e7e4a52f2ee6b
fc02ea4563f97d4b48ca0eab09202b19
fc02eb415218a5f506b8f675dbc29bed
fc02ebc35ef0bca0884e0ef482a6095b
fc02ed369e72ccf3ff062bf766a2a0db
fc02edd033698e71c2497d421a7751e2
fc02ef493b48228d9c8406953b930d69
fc02efe6455195f07f1cd5676bc0be51
fc02f0772562f4d9910bc6a3d65e4cda
fc02f09572d1d22306a9e05a8a78fb51
fc02f0a0fea529b9bcb3978dde79e83b
fc02f122579196ccf67cd576361a0243
fc02f14e993456ce98f03630909fa61e
fc02f1dca1b2f14d9e04d31159b0e074
fc02f208ab346befaef002668db99647
fc02f24961d868c6aa0a2333ddf0fb6f
fc02f2937e03f187378fa579d4c6055c
fc02f2d9e4429d00caddc1387306325f
fc02f39c4a3ce9574f81fe907ada44d0
fc02f436d84e70a999968def0a4e8e35
fc02f4f9963cb6dd7665d8d097b6cfe8
fc02f66bdce8eeb3cc7632c74a29fd1f
fc02f70b0be847f726e2e0ba7e6ec179
fc02f7ede656c5f94b342490a3a83eee
fc02f8e4deb0c714526983ef01c2c6ba
fc02f9411b42a398ad68bbf137ae38c9
fc02f9e48c554a83e7f07ff3f195805e
fc02fb4a7c1ff721c2f04994e990f2e3
fc02fb80182ebba373827369b303062b
fc02fbae94b40e2329963e3dfca29b31
fc02fc04049df5d98099b77b1b67bf3c
fc02fc386e87928863d0ec12908eb004
fc02fcf3a9487e6d9755554460544afb
fc02fd3d9114cee95d0704a7b572436b
fc02fd62e529401837154cec9824c571
fc02fe27e503b770e4bb70edc4a5e1bf
fc02fea908644b5206bea5b7516722d1
fc02ff35c07d13208768329063935b0a
fc02ff47a0997cdba591fd3d79a1098d
fc02ffa2bbb52fa0dafba659d6acc569
fc02fffdc4d6ad25aaa09f42fa7cc039
fc0300094f8557f213883955e66f1c80
fc03000b8febd4c3d52ac56cd724220b
fc03004a866b05e2aee81ca02113570f
fc030054292e5dd83bea93b42aef9ed3
fc030298f15e11c7350041bd7123d417
fc03032d0cc2bb30869845fcf285fe40
fc0303d16a3b0621d33173be72929cfd
fc03042dfa3f116000b6aa4ed07ddf17
fc0304b5436e1ce7a0dd49538cb639d0
fc030590dda6d5ab804af68a9727b721
fc0305da058e56e9b97c9df523e7bfbd
fc0305daaf41bd246e621cfcc2a90ca7
fc0306004aac7ac6e2f6a6e287db4194
fc030618d939ef900627a05c60612a71
fc03063d59f3873c70cc7cd7fbcbb0a5
fc0306cafac590ebdd98b52dd3ab49fa
fc03082132352d5a47cff4d9e6c02edc
fc030829cb9d0d65c26986d8baa4c5f1
fc03086e5c00fd7b35e1e7d6a1da3030
fc0308726dba93327ff1af630582e880
fc03088ce23c2c107407d0a5a2e6ef83
fc03089040fa742644f610dffa58c4d4
fc0308ac3f939de6ca8e78350a049aff
fc0308de105d7b371c0dad6e9abd05a1
fc03094fb764355e854685ad55484904
fc0309b2658eb92fd9ed3b520aa76154
fc030a159e2e0b54ab08cebb5a90f3d4
fc030a975258f70612ab061298346de7
fc030b1ded3542438dbd84213bcd6a5f
fc030b3ba78c5e576990b467f3d805f9
fc030cdee0d2d77729e0a8d2bd760cf6
fc030d13a21b95e765663de097713aee
fc030d1eea3083d8336625cf4e37a173
fc030dc092de679147a7bfe896f7b26a
fc030ef255fd5bd2b98215ced5284c8a
fc031031f61854ff6d0f2a3502ebae78
fc0310829c983224a503a1da4380f6db
fc03118ce872698ca7c5adda9fdc478a
fc0311c304081722fe3cb2be9b967a50
fc03126b3914d1382281f7f0037c7415
fc031375940ba799eefdc24c9af52444
fc0314596232de76de9a49acb4d7e80e
fc03149aa77f6ffb9a0ad0c99bd09940
fc03157d0c6551ae8818d991bb849fa3
fc0315a566eecae19ef143d8dea81656
fc0315aeadffa3b5eeb168570c1b5ee8
fc0315df96b9357c842fa2a27d0325d3
fc0317c5aca623c3dec63aad9bcab307
fc0317cdd6f4dfe7d04de86b14634ff2
fc031838d542714e169f7ead141410cf
fc03185782db47480495e9c561019233
fc031908f5dce324421ed50b6ce2a234
fc0319d1344dc3e76690cc55f2d2ef5d
fc031a4cdd32de4f3cd9a3d83e0f46b8
fc031a66c89b3eaa248fad338648275d
fc031c99617936d6994148226cd72905
fc031d5961c932e91aebabe931cba588
fc031d6c7eda90a28138818d2b004a43
fc031db293db0222300ffcf379c94bcd
fc031edde96c17dfe3b00c251ccf5872
fc031fa428d8bff0e4b4f691bbdceee0
fc031fe3e606c927065a8b0329d3a474
fc031ff1c966cad7d5454738ba82a453
fc03203b54b0827065e51c850a3e052e
fc0321b036c6984d5c12295718edff0f
fc03226279c5ae68a698afde0436daef
fc03234bf016150bdf1b82f5f8bbc5f4
fc03240c61b3343dec24398ffc9911dd
fc032429cc4a40763154c99911624872
fc03250d84a15feb2bf61571790e8d93
fc032547eaa9e17e99076c5594f93a8a
fc032551969d2705dcf56d759f79cf83
fc0325dc7d29b2fd3e3c3f6a99a03969
fc0326477d57a5f10f99888028d785c1
fc0326be3f9a4095f258cb237b63a7b9
fc0326d353ba493556fcb953dd179ed6
fc0327055236f4d82ad1e3039f3f9768
fc03271698dbe06398165edf6653796c
fc0327455e1966ea13accc7306db4f19
fc0327b5b7ede6d76fa2a2563747b0d8
fc0327e29ecd34d7a9acae865aecc25d
fc03289d98b4894893116f6828755fc7
fc0328e1890933b1741628f57877d590
fc03290dd4a43ba3a4f35fef7f107a53
fc0329f2e472563163ed03a5bd136370
fc032b5137d2c75598d82ad25122a7f9
fc032ce26d0a82cac2b1b336d3433eee
fc032d859594bd37f6127578544ea942
fc032dfb2848606023ef3b3768db9ad6
fc032f9ecc17fa9ee24f526bc1a247b3
fc032fc39e165d46d9902c93699e426d
fc032fe46ca0919aaee0464f29541900
fc0330bc9bc2bb1f2fa92374bb2746a6
fc0330e7f6b88a124f522e4e4f5600ae
fc03315c74f8e76682798c87fe04a3a0
fc0331d5deaee745d5b4eca0aae2b656
fc0332bf29e83c92f65f4c7b84692a60
fc0333a51fe564b5677a777492d47cbf
fc03346d8d15afe7d7fcb8c485f82138
fc03353351a25c7776239be9a4757654
fc0336a9799c9e8dee64fcfd403376dc
fc033827d7e9e8a696a3fb7e8aaaa0b4
fc0339add6f5d7c375f5b4bc62d53657
fc033ae977838f35d6b2359f651ad3ee
fc033b14e7601d7bb0c89968314d6041
fc033b35e2c326309d84fa800ce8768a
fc033c277ccbcbb63127a94269dcd32a
fc033c9df92ac46de19b364b86a9043f
fc033dfb369aa8e42ee33e1d77b66978
fc033e7af9dd28a5b9508ef36d087d73
fc033eb27715d4b016386ca74dcbc432
fc033f631654d92b449eab52fde14240
fc033f9472267aeec160d4248c894523
fc0340800a1fb46106d3bc3173af2ee0
fc03411044bacbfa5c9972661928ee32
fc03422e1de27c17da2fa5ef6f7ef609
fc034286863484381181cea70b532517
fc03428ba694d4a8d9ed637b21853a00
fc034291a170eb4abafbc1a2b7999e1c
fc034376dec8578a8a774f435ea70788
fc0344c47d0eb57b4a606c1cd94ab5c0
fc0347cdac147dc577b2f8dd000a5be3
fc0347d0bec25725f2bcf2bc717533c2
fc03485073463f8907366c5b2929fc0b
fc03489df7a3bcfe58f90186868ca767
fc03489e6632f498162fbbe51e9eb4c9
fc0348c1b6300513ea2ab12e6ae555ac
fc03493c74fe97830423682cfb0da524
fc034a7230f7faaa3b61590c3381a29d
fc034b4ef1b60fd9684014bee6ea37bf
fc034b8b9d167a125d27e06522d4a6f2
fc034bc15cf8ad210c5ed44371b11ac3
fc034ca530e71a5d8d1850c47743f617
fc034d065c42fe1f6204b9de96f1a14a
fc034d7860bc5feeb6de045fb7a01760
fc034e5fe1b4628d8910de4ef75f76e0
fc034f0f135c738f429c691d2ef96ce2
fc034f377d41eaa90f5c43a966faf1ae
fc0351bd31254cb8d45ce82775672754
fc035271b8b5f7874a9af41d2b2ae0cf
fc0353f0e8e6a22920a61a80f69883f0
fc035418807068defeeb0ee67f26e229
fc0354f3c145dea029ffb866fc33c965
fc0355a45ec76e395beb630ab1ac1ebc
fc0355fc2e8afbfb2411f1de964c793b
fc0356dadf83b141ba0eb353e5fffbc8
fc0356e4ab55ed8a1c6601fc7ffa6ff2
fc0356ec6fe61b9f97a63bb0a2b8e5e8
fc035704824e6a19b4f35e24601be21a
fc03573601d15da5e72e5b4433f1f862
fc035786dd4ff7a7b6b31eeb084b352a
fc0357ae493ccb43dd408fa7a62640c3
fc0358474a9ff71090eb03ea0a9affcb
fc035871a589beedda81eb11b8d82ff4
fc035910b9dae0616cc0c3876264bb4d
fc035c18aa5ef62e9e69365f434ef9c3
fc035c8cec46349e1c51180dcd398363
fc035cc8dc73824e1b96c829d309d454
fc035cd75b83e0141c40b91c83709955
fc035d286c4f34a3138a8fcaca489f61
fc035d7092aa2536d03221ea8323cae0
fc035db108b682e6a57dcc1b111a0238
fc035dcc7ae2b99b476c59c9ad6d549d
fc035dd3f40f0788bae946e3bfceb753
fc035e485ce0a20a19530388aad56ecb
fc035e5ede051f9250e15b5fbbdc3468
fc035ff3238674f9bcabec596c55ccbd
fc036016b47d98e2b9bbc85d2907ce2e
fc036053a415fbafcef5c0ade9041f0c
fc03608f70435c7b50ba5cc2ba346dc2
fc0360befb6eec24f1bc0aa51666f948
fc03618a72439bb676565b13a2fb1f55
fc0361b9eea9fc06a0d5d97b6a677323
fc0361bc7a332db736f101174f1dc0ea
fc0362c5db64e227d22edcfb5b5057c7
fc0363300b55268339671ee76b824560
fc03637501c607743f191f06c73bf8eb
fc036642d40830a082540da2b0b0f442
fc03677ec4b012281d78c3a413779fde
fc03690957ad740c12c74c3df1d737b4
fc03696781156851a0577c21b5637da5
fc036a12a1e2ffa9b9bc7a5598f7f86a
fc036a1c82725401cc7299a97f046b5d
fc036b314c5247580f1537185a4a5a9b
fc036b664aa0fd45522e0163cf3c52d7
fc036c287f0c3c130b4bebfc1ed81c70
fc036c92a3a63059ef92a0926c86fb81
fc036d7e3c7c7025d25f2a8cc30c9b27
fc036d911a6cd2415ecf0697f8d17d9d
fc036e2631a92814ad5af061abaa6fb2
fc036ec2c13da389ebe306b9a59fe750
fc036f815c9b7f07a3636a5a2ebacf8f
fc037112cd160e1f482dda6faf51bd74
fc0371d0d9abcf7f6e1e2323c61de069
fc0372739996448bff398a20296e8aeb
fc037305bf1b352faf3688a890ffa13d
fc037378c9013a0dbf2a11deaae085b9
fc03743d304d9b9a1bcd82279b1ad838
fc0375694fc87c6c8330c7bc91ef8ecc
fc037588cc98c14fbc07f0297bcca803
fc0375cd3f45d51bbef88077f66f4374
fc0375e1fa42c6eaa94f8bd9bd10b4e9
fc0375e2af64e0f786646b18b3bec183
fc037666e4a920964d3d4b8767961df1
fc0376d9e24b3b372d59c004582c2724
fc03786a601ea82fe87200391a5d6c93
fc03788a3ea4ea082e8cd2969e1b01b9
fc0378c42ebfc2f9f2ce0023d0105bc4
fc037b335aa48dfef6a12670ab780dbf
fc037b4a3f895e88affb300e6cd2b938
fc037c374252b37e938027f68cb3dab0
fc037c6acd5ab49f0a92169a39db3162
fc037ce1db3d2217fb3b6a3b98856594
fc037d397072e44a67f538db92bcfec4
fc037d9b54fb5330a881077d1cf70fb7
fc037e5c1b811c12b1efa9dbdce71db7
fc037ed6f12066c6e5c01189db9912d1
fc037ee774c5475efc0baddc1710f794
fc037efdafa99ec424eb2870a75dc12b
fc037fc3d35e07452f1ed844e3a09d2c
fc038063d8554dd81d8049f3e6b8d0a9
fc0380c51eb8997632b885bb15ee3185
fc038264c331f95128935e42f070cda6
fc038299bf8abdac1aec714df94c29f6
fc0382c108e6604c10f34597e5b8398a
fc038365d69381521e528ad64a4971dd
fc0383a576e5c0531a4cb700c9e29655
fc0383e1c33f69c20206e32d12e6d1fb
fc0384c45a7011725a1320d6cfef4c3a
fc0385e73dfa7db63aa972f70ed5ec41
fc0386460c6f7222f970c0dbe676a9f7
fc03865cbe34faa2ba99bb3d230e6a4c
fc038791f27a8a87f89dd0163020eba0
fc03881955e567f6f00f0c612be6ad0c
fc0388a8220384016259cdd6a2ad06bf
fc038924340d35b6a7a50062dc8dee3e
fc03895e317f0db56619278b90740f91
fc03896e53271de15df06861d6b39159
fc0389b4686b472d6489c733011d3d5e
fc0389ed1ce1eace277345b474c3c4b0
fc038a593e3de24f74f2552f82cab5e0
fc038b313de1c215f808e7e298aea867
fc038b52d3d9b7c62c6ae2c062e46ab3
fc038c671679a0b5f5160b99153dc154
fc038cb8550dda1e943b6893687539bc
fc038d9196ec51f77fec0fd1d020cf38
fc038db723b8e77fab22dfc66cb24d3e
fc038e3c91381629e098b38ed7d80d82
fc038f486f6356e0d468f46910f46763
fc038f5cc592e527f2571fac6cf47c30
fc038fb3dfa58469a5bcd36daf719e5a
fc03902084766a362d7375945e474f64
fc03906adecad2e09743614e341748c9
fc03912e33047716c71bf298d85e3ed6
fc039156b7fe13627d590b0313ae0ef7
fc039171e5a4db2229be59cdc66df40b
fc03933af15f7106f38d4d95f0f3fb1d
fc0393d809235da19dba2b1fe506f5a5
fc0394da0047b14cea3bbc1e3a571958
fc0394f585bedf6876f7a840e3907e61
fc039650b5152a40c5637fcd1abcd4c6
fc039677734efc6e783b6c4937a40ba4
fc0396a6109e9d70b72ce90177d0b97f
fc0397a969b0c76bce311087498212d0
fc03985121d0e4bc3ecd4dc02c77d3a3
fc039917d611805358968d91be14bcfe
fc0399b5e18473828663a578306ba225
fc039af1d7493663a4f9e8ac81842e87
fc039b295a5dcfe97bc43bcd5a8d0a03
fc039b433f5f1da649d424d865506cd7
fc039bba134c9362cfc0e8f45d623f51
fc039bde4f4fa63fc7d60eea76020243
fc039be5a50b2132b9d94a06adccbbd5
fc039ca139a9255591e6e304fe6fd9af
fc039d797dd543d613f85cbd2538e560
fc039d9916c6a5ecc70a8dc4f504c02f
fc039da32fc9c5225a5fb25f8e38cc5e
fc039dd6b4fcb9cfe7b4c6b43e9f4ccb
fc03a0238338aa2349bbede20493d56b
fc03a10ed52e60890560363964d06e22
fc03a13eaa3f8287f23ecfde88d2ff50
fc03a2818d298549b5ef5a534de7731e
fc03a2dcd0649a4a26ad9e017b68a460
fc03a45bc37fb597d2d5f8343319fcfa
fc03a482b1e14cea74d4298072f18f43
fc03a4ff82fce5fb61c183473c22e4ee
fc03a545e22f9e91865e407be26be769
fc03a5f3ff528fd17b2ae5ff95da39cf
fc03a62684ab2328c267004e90c5df35
fc03a65e7724ea1e966aafefe3a2ef50
fc03a6ddb7efd54857d581392c1b6550
fc03a7551f53360833459698375bfd69
fc03a80c74e340c5ef993f9a068290d5
fc03a881a7ff84882a5b3faa931e688e
fc03a8ccfb2fd3e795a85f67e47a7ef7
fc03a8eb647767c48f2f675694409073
fc03aa360b5235bef248b6b7ade4d34d
fc03aac2305d9d4e3aa21f488751196b
fc03aba7d2b5726b49de2e1a41eeb1cc
fc03ac4b2ce2c3fdb017bf3078ea51be
fc03ad0edbe97d31af6b1185abc55621
fc03adc3b117e38d8b9f8185679e2263
fc03aea1d6aefd55e118330f25c1bf89
fc03aec097a346c704374da8c13ff5da
fc03af24dfb45eb69deb6bdb2b57d847
fc03afbbfcf2221300eb8335ed55b72b
fc03b004345a774532089e161e80eaf3
fc03b0fa6479cbccb34d08c93ba16ae9
fc03b12071a2507f7565dc89300b33fc
fc03b15dd6533c41e1cf24008438e10d
fc03b190bd8855efc03e4ac2a8eb57d0
fc03b2425e3ff8def5f70dbaba2b3fe9
fc03b2be9a6a1c5fda6fb3e2f1c86fa3
fc03b3021951d7c8c192c0bfe3cb269b
fc03b4e4354eb3896310d4065028e892
fc03b558f02c84bead2d165c7ab4df3d
fc03b65eabac619dfc1b07307aa28eaa
fc03b671db334aa65bac40ab8ed169f6
fc03b6e9cf987e4616130ae571c5cfe3
fc03b6f9a766b2bdd806f5ab34de11fb
fc03b7ec7ca00fd890a7b37e8412b7d6
fc03b936b6827f3115178f7b00b1b2b8
fc03bacbf37389b6566f5dbac7db4972
fc03bb038a3025458fa66589e1b18627
fc03bb058df70b19d4929d7753c0c921
fc03bbfcfe629bf95fc20bb8860dcc41
fc03bc56ef88b7accb20249e64f9cd7c
fc03bca22f1c26015c086ce2584c6b56
fc03bd847a83b5df948d307933e68912
fc03bdee590c8a8eb0aa33b187bd013c
fc03bf92b36b255870c7ae3dc16c8073
fc03c0c711ce5f5b21e23d9d0e1b609d
fc03c1f0bf8ce6af5ae4b39ce77e60bc
fc03c25f4cdacd9c9d16d592483f8e4f
fc03c2ce36982bd1af814c51c9ea5b2a
fc03c2f79f573cbc3d2c2905b59b8d44
fc03c3ae8ceb6500290ed23e5f5e51c1
fc03c4606ba77f242bf48d4f20092f26
fc03c56f3cecbf83cb11c4713d6cacce
fc03c5e5e43a067523ae567c0f19f4bd
fc03c5f512364e94f65220a6dace6694
fc03c7181830722fd095c1936dc8fa1c
fc03c7c3f2222490dda2dfaeb9b8fc76
fc03c82bf141bc4c9a87c82f9089bbd3
fc03c8a4aa0b247c34f8978580cb134e
fc03c9260a1b4f623c2260d2ae18caa0
fc03c9c723edd03e061b83129a79a01e
fc03ca23c05ecf1120c909279d01c951
fc03cb500c7f5b3d01abec272a704c65
fc03cbd639368eaaeea651f672c19be8
fc03cd2172bc2267b110a76d1aed0da0
fc03cd6a39fdd36cf2e8ca143a1fa434
fc03ce2e59f0203574d415ff7ec5e9d2
fc03cf8ac0d3ec5d3731ddf801f1e3c5
fc03cfac046d885a333c811692bbf52e
fc03d1577b03d68fc62d1a53aaf85288
fc03d1eceff71ef19f1314cd939200d6
fc03d27fcceba62db036e66e2e84c4a0
fc03d2ac01114f00c73a0993a2c4e5cb
fc03d2acc7c8ecfb8ebf75f237474351
fc03d3fc48ae68e49c82608d1122f99a
fc03d42059c188b373caf1807edb5c57
fc03d46ca87a95edf20acec1100c897e
fc03d5e7de48ccd2a8d69205256e7532
fc03d619e380df6c5546ccdc76f48f8f
fc03d68b603e46876316b0b984823310
fc03d738d7feb752b7eba1c7618c327b
fc03d7543c7423c387ebc1839975a4d5
fc03d7db082271b89286295e8b95a0b1
fc03db1778ca0dc2931b87d76ec7e6e4
fc03db4647e9d24c0f9219e0baa11e88
fc03dc98a41d837964994851b0b1baa1
fc03dca3d1c7ab61daf3eaadf0cb22d4
fc03dd697d1e1e6a3854b08b6495aff9
fc03dd780c15eb6ee1c8c9a775310fa9
fc03dd7f019373138660f0462af7a245
fc03de03fbd982db9b4c01db439e3074
fc03df6ba7ab9ae14c3f2fd8ac7842fe
fc03e0227e14dc845ed9c1eedb721fb0
fc03e0531a4cb6db5d4f69e7a0e3a045
fc03e0c8e1de99cf8c701e5c826abd62
fc03e0f865777da4fe206e6c1ff604c2
fc03e1ad6898a72345ce23232a8a1d9b
fc03e1b9dc6d690cde70da2ae1e054c4
fc03e2a3aaafeb775fa14bf4c51bf724
fc03e30612989e83e9506e5f0914bebb
fc03e339d1dc0b4a0feeeabee371ca90
fc03e43c371a834a3bbe7705959cd24b
fc03e4b75660400875c9d11be5bf167e
fc03e5698eaf08eab7001c9a433555f0
fc03e587e106c00b18333853f2113e06
fc03e5ec5b091252a1c5bc1931f853b9
fc03e684995de08146891b34244799df
fc03e6e3700d24f06759773cba5530ae
fc03e8b0e59c049a23908f711453fa68
fc03ea2b2a01c3d9ecdcd28c7caa9232
fc03ea7a0e663809d3c922fb26fc397e
fc03ea7d729a45ef43e71787838cda2f
fc03eb9234bb985e7e00682f3c4979f3
fc03ebb7e3efc6a8bfaa39b25f29572f
fc03ec8b677347a4255a619e51b0f684
fc03eca7ebf5ee9934bca33b11bb1fbe
fc03eda9514ef73a0c07973d916d41c5
fc03efc6471f887d0b3308004a049d59
fc03eff4d5afccdbb22e02e5f8b5add0
fc03f044424aedfa5a79bfa3e5b04a53
fc03f14b7cded1c0b0c66930051f93fc
fc03f19a171ebffc36c0fcc4ef3c23e4
fc03f1a762658cfc73f9c175c230304a
fc03f239d09a9237cf5c700b0c4e7dcc
fc03f24ad1c9fd50d8a7eb610d939aee
fc03f39fb6833de58bc31f5772796b39
fc03f3b41f5e37156f62807f2c3bdcb0
fc03f462dc4db1ae2dcd9716197833dd
fc03f4b6bbe094035c5b2ac7253d9ac8
fc03f62baa9e324018e1d9a6b3f038cd
fc03f6bf123e8c48fd40a60e04b7db98
fc03f744283fb5892715b6f63a5e1407
fc03f77289e81fa975e2a2eeba9d822b
fc03f8c603194b67468db9237ce7edc7
fc03f90d1ca2da3bd14dffd518f11f0a
fc03f95bb134593768aa583e71618fa7
fc03f98ee526887507a2800cd9f26c81
fc03f9bba1a05db1859953fa6d8267b5
fc03f9c2b113a2cac1c72913d1470ec5
fc03fad10ed6dc69f0960613d18c3948
fc03fe6204b70f4315539eba5a71860d
fc03feba341cd1db37a258a2afe52023
fc03fefe5d76db6ca14b41f649f16d6f
fc03ffcc49237c79578f9d5fcbe6869b
fc0400093101d5579eff328c65196d9a
fc0400557cfdd958d4e517a24f4e0780
fc04006528e65bc3a09821d676d4a9b0
fc0401e9e59ba883616611f7f398ef83
fc040222173930e4bbe0ef00210fc19b
fc0403bbf63a74cd8a1be1a0920f5d9a
fc04043d1578685a1d062dd8d78a8550
fc0404e407da3464170f8ccdcdf62acd
fc0404f9171ebe4ce30935160225eea0
fc04059f9fc07103886cbd156b2124bc
fc04063ef94abe5aefaedd6aa1cc00e0
fc0406881a9a830e22e9f7036aa4fc5d
fc0407c54defd6fb0ef3277fc019a629
fc040854ba0b3a694eca9538fb94be90
fc0408757f35d0a688b922d698a26294
fc04087707602c76a9cfaa9921be62f3
fc04088dd646c40d33af4334b5275f20
fc040909faae87ab02ad646edaf46ece
fc0409a8923734503af03ac3b721039c
fc0409e12863f7f3fdfd79d1f24f61c0
fc0409e238a3c712f54fef71762cb3c4
fc040c33fa9bdca2e43e48855219c282
fc040c4a3729ca9d938399853153dc25
fc040ebf524a133d5267ce325323909c
fc040f9364574d87dfd498bc18f39f91
fc040fb7c8e07fc8ef89b3927ed0e28d
fc0410ac055ac02f2fb5ffbd1bff7f9f
fc0410e87840a74c6eb309b1719f3eb5
fc0411b7c09073be1ab9bda4833552ac
fc0411cf8b927f7f64e15c65a7cf8a94
fc0411de4c8fc5714f4e3c7edb676569
fc04134519e22b8550e6b0b211b2e6f0
fc041376940e2cddabf5120287a29efa
fc0413a3be1719907e09981311cd0c51
fc041413eb923233037a48575c1bc567
fc0414cc94082bbb57c0e488dc27be00
fc04150273c00df2d8bcf65018a04a88
fc04153a73dbf471f7590ef2b608a94d
fc041575aee055714164f76fe9da62c3
fc04157e047d8a98debedec34b513a84
fc0415891e0dccc51c59f5d11c3319df
fc041655822ef02ab0fd0411ad076b34
fc0416c67d8cc94d501d0e2a87c92c7b
fc0416e91f5ce904fd1e2345aeb6a004
fc04180bd5a1130778d9cbd5b3519207
fc041896b39d2d694bb6c9f785a76b3a
fc0418de31f1798b447740bbfd32c258
fc0418e882023663cf7968e65a0e7026
fc0418fc3e56563eba47fac98f3a4ce7
fc041959bc902d1691688078c7ba94fe
fc041992305c709581653b0b6b6ea816
fc041a21cb03b328ebed0fdd7e2e1256
fc041a549028f846c72ae5debcb79678
fc041b654f7c30c2b4a980282bb26215
fc041c3c2014a68393cadd68a4001fe0
fc041c3db21cd6969abe27053384f370
fc041ee8c6871dca96608a47d1df41c4
fc041f168d53d9dd0214514fb7d542db
fc041f957749ff7d14316ec4d25a138d
fc042008673a8d585222d3a574146db9
fc042046e11e8cef98746cd85065bb50
fc0420858874f0d981e494ea5dc5b30c
fc0421d824c8f5fdb8256f4709a845f5
fc04234a0e4bc558f3a15adf5668aab9
fc04245ab77c40d2c880986fb28af6e0
fc042461eb7ad5a6df55e5fb4fb37bf3
fc04247ff1adfd9fcc2c29cf435620dc
fc0424ac9e17db66d18952d13c1b4880
fc04286bd37950773dc7159362702e63
fc0428725f418cd8c60824093bce286a
fc0428792ee068c26b71f1dbc5afefb9
fc0428bbfea2e35dfeb486aa584ed3f0
fc04293bcce4cda6416b690be027059c
fc0429e73393d09974bd1d22ed2b207b
fc0429f4a70c0ba59f1464adc11465f6
fc042a431d2823951a4c300ff338645d
fc042aeb64a3b08a63db934fddd2ef2d
fc042d3f1b82073e38208af66e9811d7
fc042d5bf80e8fe5babc98622a489b8a
fc042de63e03e5e93c8fc839582206e1
fc042f94eb7ede05c09d79956a530e37
fc043259d874a40cd654fba30296b72b
fc04326af7b800a798674571b5a1ffea
fc04328a9d3172fe02f0e7d05d5f349d
fc043321cd9b5f7da0c08096dc8314f6
fc0433a36cc44a4c3a8dd971aff93a40
fc0433e611a8dec462004d604c2454af
fc043562775bafb22f75a72588d44f01
fc0435916d4d74e125943ff78e3663de
fc0435c890100c549eac79ec7d0d5dac
fc0436013a60dafe756e7682dba04027
fc043753a1b00de677b46ec5736aa481
fc04375e0ef8007def8a9103638baefa
fc04376861f12f701343fd2974b17455
fc0438f331e1623c1df3ef38369220dc
fc04398bb404e5a1149a8a8c5c979c05
fc043a24074c04cf3937433f6800e1a6
fc043a84e84086ff711d102e13e84da5
fc043b13950a6c820ca516861b94a7e1
fc043c0acace282ecec91f825f02d9a0
fc043c881a1f6b471888d939ea2fb804
fc043cea3a9a8e55833a1e45330564b8
fc043d8f7b43ee41ccd54cd9adf7a560
fc043dddb381bd346a94102d31a22007
fc043ec620b8270196d2173b095a4d5e
fc043f088e4950d5f6ba3fd568cbbfa6
fc04402119c33f7fac59ec4100f1170a
fc0441833a8b43f48bb8dc6b1d674a03
fc04418f572247868c4f94a20f12288f
fc04443628fa4b1beb04fc4d0fcc6f99
fc04445e51f00d2b508195a5af5172d9
fc04453202fbff3cd8ab861eecdbe4f8
fc0445769489c7e9f91b0a6b53789d17
fc044580291d91b1f1b8835066f712d3
fc04464583f20f383e7e73a617cf050c
fc04466cb3cab4e8e19014450ca4c2c1
fc04467b0f5eb504a51d913640470304
fc04471c2b73d81e812fb3e880e18e4c
fc04482805b79bc41e7d49992be714fa
fc044858c4a49b797e7dbd3234bdc4a2
fc044875ee0c3ccdd03da2baf2d6b407
fc0449259f073f21a1fd4569cf94c36e
fc0449c61d5de041990c4ec3f4154bd8
fc0449db279d447537af333c0a088200
fc044a4661ecfde2c8875a03792a37b1
fc044a49a679b7c05b4e9ac0230402e0
fc044ad051f82a2689793a95cf29b240
fc044b3ae37b05217b5c23a6315074e9
fc044d3caa2c6cf225d45d7ab0bda89a
fc044d418dcfa9064221d8a3d9fe271b
fc044dc16f63e391a41b7a7ad4302076
fc044dfbb94cb1fddbe7a91b4c173ca2
fc044e028f384e1a3557f17f68731313
fc044fe907522814b18101dc5fabcaac
fc0453048ea56f5ea9f3d0808f255ffc
fc045321bff1a248f61cb651bc7090ea
fc0453565b579ac39955c08541b5c53c
fc04541edca71e93ea8c71c9f0527fa6
fc04548ff2203d10f6015fa06b69e4fe
fc0454bae78a1f5dea0f4344009842a4
fc0455374178e79180974676cccbf21c
fc0455453716c399ff9ddbd047d622bc
fc04555c7d22dc366245c5f12415fdaf
fc0457ea2f27629df9481fd3f726be4d
fc04586fe491384be1c5dac733616605
fc04590c359fdb81ca6cafe49723c820
fc045949cccb8aaccf80773d23d2f041
fc0459fad42c879f38464ee36b800f6b
fc045a0645f6d9b9fa27ce0bfa48ffe2
fc045a2df53eaafe95c700809f43386b
fc045ca115fb2df9f575af7c211857c1
fc045d4ecbd2c1244966fd4006ab64f0
fc045da768c412e1b915bb8f4cf2a8ab
fc045de5653a3354980f55445b291db6
fc045dfd9df57e5c40f6337e5e996626
fc045dfe67b08434c5f76a940668edb6
fc045e90999f6fadea8d8198a35a4860
fc045e92462bd21712c9c2b2f8c09510
fc045ece50cf24c1880299fd9bb43785
fc045ff635c073ef8c5824f58741d907
fc0460d30ea1d6237bfac78d69fdcb90
fc0460d516f0c90e2ccc49c6f960633b
fc04634217ef2c70cd591632f3f98d9c
fc04635d70666b89974dfb27f9dda9e0
fc04643c0dcbe7ea16843095db8d666d
fc0464935c873df6eede01daa4bfa869
fc0464e0a93a629254510e44e312607d
fc04650132b722b1e8577b49b16c77b2
fc04653e60d2b467f02b112fa69dd791
fc046541fda350e44f19657b3d752ceb
fc04658c1d4bf928cf6393a4309e4f5e
fc0465988876c1a94e2aaa6e92e4d8fc
fc0465b2aed18e27d6f39669846507e4
fc04666a309312e22e64628822222892
fc0466dc694d694ad44edeadcc925f24
fc046715ddde2a6a6763f94da5b58a36
fc04672032bf0dfa57a2f59d98de1a62
fc0467e3b3e04d8f7b60ab09bf526372
fc0467f80461504517e87dc271657ba1
fc0469280ec0db3e5777a7b85caef551
fc046a60397d3c1930d194008d100e32
fc046aa818177c291f7600f4d36ed980
fc046ac1f87f10a5a9ddafa382e86d6b
fc046b85ea2bea32d39d211b4699379f
fc046bc42b1fb839789181f5787feed5
fc046beddf2d20497a18e292a23c9f0d
fc046c4d28e6a54c3fad326dc7d00dc4
fc046cd1a18c8dcd5c3711d04337214d
fc046cf433386ccaeacd4a6abd2d97cd
fc046e1eb76e9c7e61380e747c542926
fc046efa48516382de414a251adc50c1
fc046fa89f8b75210728ce2eaba0322d
fc04704679f5fa84a9f835d5116cb3f9
fc04714235ff2f3388b51822aedb69b1
fc047286c6b1eb7c82a89c344d3d49f4
fc0473f53890d657d179d897bd5942f5
fc0474478170aec3b65e2d2e6b2aed93
fc0474d1ccc3f77e2ed2294e90264ce3
fc047539c954371db142fb8cb5989eb3
fc0476fe0a10d644ed1aba0a62173786
fc0477138d4e46bf6e6ec0e8726558f0
fc047717f79cf83a9287681ffb4f3fe7
fc04771a2ac28db7224f8da00559d476
fc047741888042ecd2e5eacd0f8ffba2
fc0477c6dc736c94370723402bcdb819
fc0478b44c2de3f5630c7fb87e345376
fc0478f75f99a5a3e0f6c77b8ff27d22
fc04791af28afbdf9fed231ffe98d0c0
fc047a95ccc45789e4b2cc8d24974da6
fc047af69d74f487e9da577475032a75
fc047beb168de483a864dbfc8ea7f831
fc047c02723a7d0a8e95ef0f24d36476
fc047c0d4e96569e5b06bc0c5a008888
fc047c68fad9fa9b106d02e56c29a09e
fc047dd32025fd81d0550a55ec4610af
fc047de1669dee425d5e39e0833fb5d0
fc047e6b02a45ad323d8d72b91e4808a
fc047e9a0268463c837bfcdade0bee70
fc047ea3b48e191aa9f192266eed28e6
fc047f4de1047796ce5c1c6805d87bc4
fc047f57d12c53fd432d1770c914362a
fc047fced42cdcbad067a26b1030cf08
fc04807d4a355aed5490a64ca313b18c
fc04811a6bb712bb123cae6f3214eea3
fc048140437e82e1b271f32094469f70
fc04827938da7942dfaf03cea15bf238
fc0482babffce7a2967daeaf0e74414c
fc0485305e75cfdb8060268dc7aea343
fc0485ecc22589611343c81cc6cbe2b0
fc04860858816be91d4c52b7657e3714
fc04867bb823c6ed95034679c55d932a
fc04881352b12623fe5ae9985fd808b8
fc0488b85209655e1315191ff1a4d7d1
fc0488cb54bc4b25b74607d7f9402a0c
fc0489f8dda312a0c1e65189a1a6aa01
fc048b003a4214acbfee4b1d3f15051f
fc048b0cfe7810ea654eb669b9416ac0
fc048b93c693bfd53014e071ef54c02d
fc048bacc79e84b4bcd42e2f650ac65f
fc048bbb96f606af5568cdcf72a09597
fc048f32a0db34d509a6b78c8b79edb0
fc048fd3d81e829d827a96e7ea01fc4c
fc0490327017e451b3484e97904f6436
fc0490fd81cd021003bc37332c549cf9
fc049117cfa7a432fd9616d78ee3fb2b
fc049287eb919aa500c17e319ba3126a
fc0492a7964d4f2184e2dcd856e7c04f
fc049399bb9bf4fc0290215b7e42def5
fc0493c4ed19e02cdc11c3c529e9762a
fc0494eabf3bb61afa89fc3e43f78401
fc049511f06432552ad907b0419c140a
fc0495406d72b28a2ed122a58f418219
fc049546bdbd7cb353768fd7ce6a0d81
fc04959cff32fa93c29179a6a669db91
fc0496eb24dcd1ce9e09e699c173135a
fc049789058191be139a57b5b75e9ca0
fc0498832ae8dea260381f17054f6eea
fc0498c0da4af038e7f162654b371f43
fc0498d92f0de2f49b87affc5147a729
fc04996049f57085c0dc753b26092ad5
fc049adebb082f4a6145aec6659eb243
fc049b05b818206ba92288c369cef7f5
fc049b18cf6fe0ec0f3a105f57ac9297
fc049b305393bc03d658104a99ab2382
fc049edd1a08945528fefd16cd599c03
fc04a04a336d785bcc8bd8d7c496a6d2
fc04a0c29b2a763cc8ff553e848f815b
fc04a3da99a369455447ae41f4f07c4d
fc04a47f84b51adc39c60ada6132badd
fc04a4c9a36cca5a9e5350bb41ff897b
fc04a5177d937459ba07523046b248b0
fc04a5aae44b778dabd1e8f77ec8bf1c
fc04a7000d0357fefa3fc1132e285c3d
fc04a72661113e33c28827ee7b6f6860
fc04a767ae131199133c232899fae786
fc04a90e6a6c5867b9caf8f3e61d5e8d
fc04ab8756d29f22a0e7425fa51d4e42
fc04abd437ad12cd6afb56e64182b79b
fc04ac15c045f339d26da6a7372ae232
fc04ac1675803d3e746d913b8bfd0a43
fc04ac21ac0314007211162c9182e0f2
fc04adf5ef2bd460723882e4f890ba00
fc04af8b7e1d618b56a1f509ed91e78b
fc04aff00db261c6cafa3efcc3c66fc0
fc04b08ae08b3b716e8a032ddf9b359a
fc04b09556627ed4df79162ca9951a40
fc04b0db9f826642188bff8559c75519
fc04b20ef70affeded6996cca3ac2d11
fc04b29f29497ae52736f697069b9d5d
fc04b3c57ba1d48744be6ca5caf2679b
fc04b4aabe4987bcd966cc773731e382
fc04b5c3ff51b290952eec1acb84c8ed
fc04b675ab897dd3d4ee6d0261e0223f
fc04b6980f57d275b038ad49d8267989
fc04b6be62a8dbb2e98bfde83afefc8b
fc04b7271ef926e31c022be75beb9056
fc04b85f03f7b4700a21fa2e4c1df7d7
fc04b871c5c9e1b4b549e8e7a2a6f87a
fc04b879ea8de5e1842fd72f0d7ca46f
fc04b986127638aebcd1421b1218cbb0
fc04b99004869c06c9b09eaec085d273
fc04ba13b2bbdab06fb966bbd6f04427
fc04ba43cd9fa6f8d06cd2a7e7d64ae8
fc04ba5388770241b55d0e077f4c6d9e
fc04bb89197cb24fb4942453c6e06d90
fc04bbc63b72f098a0951100664633fc
fc04bbff2c18c59bfbbc4b4fdab03d6b
fc04bc063dfca6b9e0e31c9d64a58a98
fc04bc463237a0948c02b50482eb413a
fc04bc6f96822e8f1b92a8ec86096660
fc04bcc7889cb30d6db1251aa64aaac2
fc04bd658bd226d154d771a46661d0e0
fc04be7ff1b8eff9ef45bdb90ebdab00
fc04bed3a17040bf80a9fa737f081b65
fc04bf3527e793d55654d0a4dcca4380
fc04bf76859df05860883ede702fb9ab
fc04c03eede4dbd92dfc71fc55d97875
fc04c05433a13a8332642ef57bd720b9
fc04c11ee4081706d11c9f87e6e169e0
fc04c158a3e3ce6f0898fcb28333e250
fc04c3439c1f86d16abeeaeebbcd45bf
fc04c5b303212bfaa7fb83e1154e6ce2
fc04c62163d89294a373a43edf91a764
fc04c67c3bc6b4b1d1f5afd4c0643463
fc04c6bb409890ec7a1ceb664959a5a3
fc04c6c6f3545f137a693d02fce8d4e9
fc04c7162edfe2436ca863fb6383ebe2
fc04c72eeb1a30301cef81a26f4b419d
fc04c7d5771bea2ae030d4e3d8d15924
fc04c9afda15b8fb2cd7fe8ed563fb0b
fc04cba7f39cd7b8d62117dd7e6fedf2
fc04cbcda8df42c35a4abf381cffd342
fc04cd4590b7fa4053239af524c55e24
fc04ce288293fe6e2e1b9f86d6e0c8ce
fc04cf13f9a29573d695dd639025af32
fc04d0753552f0936e1889623aa5cdff
fc04d08ee30f21eaeef6629165063088
fc04d18d696d39b3b7a489f8548fc549
fc04d1beee29de1c2ea71efa81a6b3d5
fc04d2490623c5cbf66788f737129562
fc04d3557485bba83a74c4599e4a74b3
fc04d375153232936f0e4e87bdb6b970
fc04d3ddddb502ab2958d00a31577996
fc04d3f0e2ca01f6482bf1db8c6d835c
fc04d5a1bd789158b73b6b01435659ca
fc04d5fb44b8d64772efb1052cba1e37
fc04d6e6ba2b7000c4be8774d12e8333
fc04d73e08159b0c187d2697d42f5755
fc04d8b1b9be9c90680cc57d94d55166
fc04d8ba98226695aec3e3fe8b37cbe1
fc04da1da59222a6647b277f36684b10
fc04da2cc7437eda3a366a913b36d0f5
fc04da3c365279df1e98895bd7cfaf46
fc04db55e373bec544e8d0a3d3c323f3
fc04db6e4ecedb78283a9bbfb2d78dd0
fc04dbeeafd10c11610185c975a05f3c
fc04dc5d6fa4f6567e030ad9bbc1e0d9
fc04dceca2e42ebb3a3fac4aba983aa9
fc04dd33514bdb954750d170afa9b9ee
fc04de616c9c3e793c2e4f57fd32d0ed
fc04deb9108d063210c0ed6394cc7caa
fc04dee36caf9c8aed7bfc81a79f6dc0
fc04df45483a249bd32fe001491870a6
fc04df5905dee76c0bf4f572d69d2c7c
fc04e00f60b4490b7515dd73ff00bdfe
fc04e0968af40c5b32a2d6f13caa8629
fc04e1142ca26843a28e4ba4f8efb0fa
fc04e11a54d7147c18baaf3b174490eb
fc04e1e566942aad2e05ce7cf2651d6c
fc04e2238d517d6224ae2b033304ab28
fc04e325bc6a45159b5f35b1c9a88254
fc04e3ae8225f3dab39d721348f7a8c0
fc04e3b0c8f8c80ed45470a60519cabc
fc04e3faac28d84f58d1513bea1fc38b
fc04e4f9253546dfacceccbcb4dc1a2a
fc04e5096bca043978a3ef5a17c4e40f
fc04e50d82364bb8656c33c01de2eadb
fc04e52a3ef0f0cff33c75e2aa2d6280
fc04e53d45694dab3bbfe1fca30664c0
fc04e53e3c7ebfb4cf7ca01488696cdc
fc04e59a997bc542a85166f3fab234dc
fc04e5abaac7e5fe93e14d18e0df3a99
fc04e6f78f968b89e7f974054ed59489
fc04e743cc6bec5bb58d55ce500a5a80
fc04e77833827a1c16b888a31c3284a5
fc04e8f177b45e2165b6259e329baacd
fc04e8fa51e16a53271005a7992d30a7
fc04e948164b45779bf9de065b3c96ae
fc04e952fddac52ac13c9ffecfcc9ad6
fc04e9b02cce4d25489290977a16d498
fc04ea217f1d742f53488e9d1768e100
fc04ea4d98e3eab2748a08ac375da581
fc04eab34bc7dd73bd5f710415f8426f
fc04eba5486899ab2e2d19f5fd8cd7f7
fc04ebeeb3ea30920e8f2dba5eb2cddd
fc04ec611b6b186e3e6b8c054f82f25f
fc04ece75dccff6e55f44268ca197c64
fc04ed4b3cff4face637c7dde336bc91
fc04ed729df900034bf426dd426f4635
fc04ee5fa9d887106da6e1d0b5707db0
fc04eed3b9436a8f69569364c34bcd54
fc04eede36d991c0256d0010b51d0ea0
fc04eedf85fdf962f071e074b58d46c2
fc04ef0da2930443af045e61d6468756
fc04ef96edbbaa9f3214cb0bd785de46
fc04f05c66692a0e76d9b30dbe6068ee
fc04f133ad6a0be0e874f73c547e7990
fc04f14e4fa1485a811e15e031c3af30
fc04f1adfe69ffe4cb0baf6bf4931d51
fc04f327fec7a8b6279febb4374ed67e
fc04f329a63971849c9652cd1964fc3d
fc04f37e7a433fe5b1093fe8f84a0aa7
fc04f382ba03451cec1e7aae2306b921
fc04f5080108192b6db1d30e38fbd7b5
fc04f563c7a1086b2f0ae4a926725794
fc04f6be10f04140dac44546e02654eb
fc04f7545c80633b839d464649e449f9
fc04f7f0ddc368f3a3b6a3caa0365617
fc04f882a35e64a81722aa358dfd295c
fc04f91a441bf12f0f094cf2908eafca
fc04fa4f170c1d32f7e152f5a09f98f1
fc04faf2d80ad545de08b6c1bed9a3e2
fc04fb2b2fca5ec71f7af85fd0aa2b50
fc04fbf7b07fa9fc11533120d8f5d41c
fc04fc935ddf13a6d792bbc7dcc37c99
fc04fca1850f52666b273b8951eb0ebc
fc04fcb279f4e423a1535ed1054b8613
fc04fce4a6380a0633fdc13f09189e44
fc04fd1dbc643269d72cef2138905184
fc04fd4419e007a181867f585b2e38e4
fc04fddf8f53d77c45d5c843d16fcc8f
fc04fde429bf7316e282c76e0458dbe7
fc04fe3d89ecfe1d2f2faebcb6ef38e1
fc04fea8988c2cb059aa50e3f0521b7e
fc05009d1930adcab7b53ccf0d11974e
fc0500bd72c457e3a5aa678073692440
fc0502c8a275cb3ae85f47c09db56c8b
fc0502e685da606b60ce07218bdb6d5c
fc0503d60dc1da09569a4f01b0157b84
fc0503dfab10b6bc2af4d0962979a3da
fc0505515c3ab96ca98cb38437d483fa
fc0505a265b144c61d0ac77e4c212fb4
fc0505cd0290ec3ed6f47a2e96366471
fc050649c80a83b8b5f7c75274762740
fc0506722560fbc53566465e052e608e
fc05067932e934c8354dfaaa18a993f0
fc0506b6e6acc5d4a8e8d28c06899554
fc05072e9a90ce2d162c4ea66ea2c525
fc05073ac44a00df437accc6152091f0
fc05086bd2400db1b0b11232d6e3944a
fc0509495470eabecafb2f293b4faf98
fc050953ec1f7a5b0e1ac1dc769f9311
fc0509b476d35cd1a45f180972a06a60
fc050a17d8a6f538d50f033222ec4607
fc050a3e914ea417dc92abf942aa2580
fc050b3f209a0be72053172827fdf4c6
fc050b66b7d06f516a05931303936dfa
fc050b80ea5440410d782781856d0435
fc050c31eaf45cd303305daed32a995f
fc050c724cca2e4eaa3fd3cfe4926899
fc050ca6662a81ca87d386d29d18e4d4
fc050d2dfd8d82d04b9b93fb5bd927a0
fc050ecf49de52c1b125bba45d96d6c7
fc050f206a35a7b2e639b48a41dcc860
fc050f5e996a57091f300d87aaaabbda
fc050ff7ccf3c3de15c79614b0fe8470
fc051050a67fb343b7948b07d45b194b
fc05105453ac4366476c1cbf9ee3a5af
fc0510dd5d61267e0af2f6ba2e21f668
fc05117c6a464fc3c0b447004fa0eed4
fc0511abf5a6186decb9efbe6520dbff
fc0512314ec2c4dc33f7c7e7bd8d7be5
fc05123a20e6f918a597230e84dd15f0
fc051278f134f2e27cb77e399d33c19b
fc05134d117ea4d3c782f1ddcf468fca
fc0513b58451709c0453c4b80faba42d
fc05143c97852e7fb25f869e84ea6653
fc0514dfdadb88e84c633a1c20c31007
fc0515e62c4c6f389f55b3b28a9153ce
fc05164e9e16e7a62badd137f65bfd03
fc051741d3076618f2aa4b52dcb867a2
fc05184e46abbf4e6d7d1792a7637a58
fc05196110963d1056f8cb631f6c7d91
fc0519d3f54a163a5d91831091e89b78
fc051aad5d2bfe72a0edaabc3850942c
fc051ba06c6ec74cfe4147a8753c8a3d
fc051c460f199544e493b24cc56fe2a4
fc051ce7bb20d11810870caab56348d4
fc051ce96351c3d1d1578932c3f5a812
fc051e3f8f949f248478d943faf51fc8
fc051e4dc8d4a6415cd154705470e126
fc051ed8339a0e269b9692923555a7b0
fc051f4bbc94c6da387dbe9209efd283
fc05202115caba22571368745b4e88fa
fc052061279b691635a0ae2d39e7bdc9
fc05216c8a144af56bcb60ce0ee76807
fc0521de57a47492c89d5b960ba34ba2
fc0521e6375184070adfb100dfbbb3d6
fc0521f26cc136952f708d27ba5d3949
fc05239d5e650df729cf232068a20db9
fc052434f2e4e4c802aa0d5bf6f1a070
fc052574f7dda5cd6910cde87d2ef6f4
fc0525d1143539c4095ea823f1561182
fc05271569ce4e07cbed122fcba3cd8f
fc052814f16321ced42d75480e708444
fc05286752c90d0cfbedc5ece1a4922b
fc0528848724bea43d7f05dbe8a77d61
fc0528adc9b64a0b30135e4cf773c65a
fc052933968c2d7c060cdaa05f8eedf1
fc05293861bf23f780c6909b925c367a
fc0529a145c4c36592bb94fee77ee71c
fc052a5bb6b5099947ef32dfb3c7fd9b
fc052aab98b990b6cc63984d4ed0878e
fc052bf0ce88a4b63ad82b4b8652261b
fc052c72ba55c4519234c667f3c8cffe
fc052cd0b791a878d86f1f305ad37ef6
fc052d6448d5f5dd32b5366b18260b24
fc052e6f42b831e3d6cab9b9353d4c5d
fc052f43d8b551aca4bc3ee5ab9bc6af
fc052fb252c5564f056fde7740ca5bab
fc05302fe2fd2a6f9ffc3efbde2f1848
fc053100c14eb79bede932d3e49a8afc
fc0531044e4068d19ca73de13e160fe0
fc0531b659287947ebe8a2e452350ad0
fc05324ef31b94849acdfc60a761b015
fc0532d934804debe97a56d01c8d7def
fc0534695e3040ea63939b92bc259acb
fc05348099aae29aeaabab3b22a36e3d
fc0534d521ce330d78974612d14c4030
fc053686d0c964c80b75bd00f2059174
fc0536b5537c5d3c0d219f1d51fac30f
fc053783bdfd42be705ed7d4cbb6ee2a
fc0538582fc2546b0f732dd9eae99054
fc05385c34c230f8f7f469ad11d1cc7a
fc0539cb9c9cbb03bc1733be45a07383
fc053a0b45908886fdbf4cb65663cb90
fc053b7181d0401c2f7ee43c60406d13
fc053bced240e1cdb20c105b02aaaacd
fc053ce90d29063b308661f2b2175024
fc053de17b950d6fef220cd4d9f28821
fc053ecc5e16f6e86ddd689624b46ba7
fc054068f0bb3b0fe91f82c5fdd63d19
fc0541532709793089ac841f859aaed0
fc054175c0a213832f749e6e2ab5c442
fc05422ceb081edb8bc46721bc5404b1
fc0542dd76e68c05346d7eed00742054
fc054311961ab3dacf72e686e43f7a70
fc05438fb969ede908cf7920788499db
fc054466bd16021e6434d81d80d4ceb1
fc054476c59290393c0662770612ea1e
fc05454b4e987b460836c7ba07da9ee3
fc05456f4376b9e786a5c4ad445b1bff
fc0545b56929292cf4719307b7f2cfb3
fc05469bfaf577ab01ee3c3dd7602d94
fc0546b080dd7179a8bef1fd9adfce32
fc05477ee0d6a63cbd5d815834c0b9ff
fc0547960e8d70765f515fc96e16a061
fc0547e0072b797039ee096eb5d3c8ef
fc05484cbdec1060bbe2c7f2f4980700
fc05485da345b77fa76ba08700a472e0
fc054a36da8d810284a1802c2fd43002
fc054aa4b25e42c341a147cd0c0a6910
fc054ba4fb7af14420b3bcc8a3709b79
fc054bd575578d653fbc654e1ef627d4
fc054c431d409b35d8c2c9c18f7929c2
fc054c5584405b77565b929b3c851633
fc054cb45f51eaabb24cb4b71c0fbf7a
fc054cd19f57b476a4ef11cd07c77471
fc054cf80475376d249a11e4a928c4df
fc054d0755180f2ea98c0947bbb25270
fc054d4e5a8eed471189b672eb5d47f7
fc054d5a4d0779f0ffe9871169eb7033
fc054dd6a6039e677021e675b34bedfb
fc054e7a1985e78e761cf4adb3396d66
fc054e7ba7ea4a51cdc710412f1e24e4
fc054e97ae9297bc9ddc52f7211e8eb0
fc054fa9e2cbf322056208b1640ac146
fc05500d9999d2be233379e1086dec2f
fc05504ea9632145c1c29837c2c7d310
fc0550c0ec011920bf09a1b802be6173
fc05514c040828ebeeff83ba51d54aff
fc0555acb5d6e00bfb06d54fa5cab146
fc0555c5dafe14dda17d1c66359ac2d2
fc05563a7f7119d75305e73701a62d1a
fc055672b74a8884c6495f8a046f6b9a
fc05570724a27506ed672d8a4c565920
fc055747f080860db0bab0457887ded9
fc0557779d3ca1df0fc02f3c8583ecb7
fc0557ba9a952fc196d4a32881979632
fc0558a011eeef3f5ba9966b5e58abba
fc0558c1517808e8eb73b6d6ad60374b
fc0558f045893f068253e886df62815e
fc0559d602cbc5bdf15671ca93a15270
fc055a3019edcef4d85f36bb1441d8c3
fc055b23e38d8fade18ab3e8de1794a9
fc055bcd597c4f061029612375ad56e0
fc055cbe9717d7d79b04d75d8cee115d
fc055eb8b0a84608d4c8e3e3134b28f0
fc055ee860227e6f8e79014585246211
fc055f63dd387db1be42d6a4287699b9
fc055f7f187847562fd593df739b1b3a
fc056048dfb20c50db8f53ba0ee90cb7
fc0561aa7008572b9813f11964cebd81
fc0563add9117473089b51b029d3b6f0
fc05657551542c274124594ba3c92a3d
fc05665282381241c56232357b394615
fc056783254ebb9d0475784f5c9a90ab
fc05681f3a6f84b8542a8a95c4700103
fc05687f4ff91eda9eaf84a3f72b9b31
fc0568b7f9edcae72554d6681fc6b04e
fc0568c02ebf864e7a0c46cb18b09137
fc0568fb32dfac66fa13f5b9370092d6
fc0569a1a73166b32f22c6097d93b936
fc0569ab02016259884423c5ee81fdd7
fc0569cceb9f8d7ff8870d3e21115f8e
fc056a68a4025990a76b7f82cef4f82e
fc056b1d15602eea1df45d39280a8e38
fc056c829d0808b1d5f4098ce6f8c416
fc056d57a30a1f477ccafeada10c38d5
fc056e8f4261a6e43b48b343ad70922c
fc0570654b33118590089830222418c4
fc0570dae06806fa2b33b50e574f7a43
fc0570e3705f418cebc6fe8c23094362
fc0570f189c172b51c08363803e89443
fc05718986b12aa84d76c69178fe6d78
fc05718f9ec75d479a1e1016774ea3ad
fc0571c88b364e24310f767ad2f09d1d
fc0572274379f279f6c8e7bd9835e817
fc05722fdddc395c0cd679245df976c0
fc05726e0ad33cb3e206f5f47154a77c
fc0572ba86ff9d8220e4eb3cc1fa001e
fc0575816c321e81e19ac16a1480baf6
fc05759214b285020299de8488c61540
fc057672f88f0fc1142a74b9ec346552
fc0576c9e6a65eb89b6f55ad64493a9a
fc05776f364ba79e8a0d5468080e5bd7
fc0577c5865db857b7c299cf576a949c
fc0578376a1f441e44c68bfba56e3ccf
fc0578ba0c191a68ee412ca8f3f5691e
fc057907a883f47841e40298f41ac865
fc0579ab5cd2a12e7d66b4ae23856ca5
fc057a36497f4850fdbc83fd090613b7
fc057b45c57677a8351b7f18ce2c79f5
fc057beb242c0962af7c1e99c53ef590
fc057c24f4eac6333f9abad236b9384d
fc057c505e5415609324e4bac9fcdab1
fc057c7584e186dd4e34c606929681bd
fc057c9538f8c5747893a9d4771263b0
fc057ef4babdf7972728ea7b268f66b7
fc057f0f856551e7375d18299856e6c5
fc057fe4f258b084fb91162a4a7279c8
fc0580adf85fd3bbb4a8e2649f33d137
fc05816bc68edf80b3e729fb756f28f6
fc0581d0f35201349ab53a07624e069a
fc0581f27a6c18830628af1764c4e116
fc0582b694ddd079841e9f8737acba2e
fc0583401f9bbe0cdcca30147bc524f7
fc05838a7e7f282a342eb93b0b657ab1
fc0583bde5782386571263f07949a110
fc0583f9f7f81bdf017a8d680bfb2cce
fc0585893c821255cbdba3c193e74abe
fc0585fc496a45135a1791214aa3315a
fc0587a067602017e788daf26d863fee
fc0587f9ceab207008f28a7329f569a6
fc05897e5c46d11cf8d9d68278d1f35f
fc058997a725015c3a0c33d8fa2d49c6
fc0589c7413113aad9990201c3972f39
fc058a38b9c9171f4abfb8c760e7329e
fc058a3e07d5fffb5a2fa842057a134b
fc058a59e72e45710a2f020bb309a0eb
fc058afde9b0c92a015e9187b9085d64
fc058b1fcceaa6636c6c25e2df4311ec
fc058b3ecd5b86e606c6a900005964e3
fc058be01c139f78babab70c6c246e10
fc058c09dbf949b7c4ca6e1b2660ec80
fc058c6d2b9dc60f7e36f084f5b77b98
fc058ce99806651a81edeb948f7d6f0a
fc058d16687a03178bc0202027cfec4e
fc058ef4c3b4efb0225f8f32a0a2e1bf
fc058f89da7537235dfa75d48d062370
fc058fcb6c010bddaad74f2b6482894b
fc058ff440add3786ae418a086175e5f
fc05912f7390e95c950f1ac241c6cfc3
fc05914516daa9772297df67e01db1f1
fc059176c29af1f94811d3499fa7fac0
fc05918fe59c280670a01c6e38790720
fc059191b6c1b41e275bcdd26a1a4f31
fc0591a161606ef5b26d816c24770dd4
fc05924df0d811786687aee3822b2b45
fc05930c0361fb144184e1dae5986940
fc0593bf808a931d65d22498c7252f75
fc059485e2345be65b4a32080e16ef90
fc059705969c1920314f3826d99e050e
fc059726f1cfb7e08e41b9b925325a78
fc05976634fa2de38f1e8ced425ab24b
fc059892e0c9f9a4c3197417b17d9cb8
fc0598ad03c5e5400f2504867f890c48
fc0598b69f836456da46111e24959c24
fc0599c1b96bf5dc7e2f6a40427e390c
fc059aa29112bb824669e40e34b8850f
fc059ab779c6a196a6dab109bf35b12a
fc059af42d3c1e7b822bbb4cc3db5c3c
fc059b00c35e8d29290c3f3f2e4cb5fd
fc059b1c785d0d2f4e8cbfdff826d590
fc059b982baa5ad471e0748b5456f75b
fc059cbe241d4493a93c7c4327ae29e9
fc059d1247fb4e0b81285764c97f2f11
fc059e8f88aed4dfecc92ce4386a2c74
fc059fe3a9ca01a5d35790481862c62d
fc05a00168facc7c040d95045862f372
fc05a025239225b69b809530fca43600
fc05a088e6e8afb6ed5e20b5b8bdb63b
fc05a0c34fda0ae9dce6ae5a8af0341b
fc05a0f1905d8a5b84bf9dea0bc0ff79
fc05a241d0484956d5462ba90612c0a5
fc05a27adffe99e1d8000a653060d05c
fc05a2dbf923901f8b8f6183f99b51c8
fc05a49cce8df0644eb3b688b4676e2c
fc05a53a8bf4a50cb29c5646ae4e71d3
fc05a56b7a4bdd3bd61ce5f05e9dcab5
fc05a72d4d20cb6fa3a62bfd1cf0f946
fc05a7b161e5b431c2e06817520a3407
fc05a89de0fc53e8c9ad8183a6813ca0
fc05a954982262fbb6904e17c14a1efe
fc05a96a3f55871e2225feffeb800d41
fc05aa0bf5f36d8d53295ed714480139
fc05aa1a8b1934213b687bb5e43991e0
fc05aa29fd6afb92ee1aa7d0c730613e
fc05aa6450b38175cbc46dbef3334df9
fc05aabf2e7f2a8def55bb30f17777d3
fc05aae0e35a2a07f6374143b7127cbd
fc05ab12895b37294d3677d9bb800474
fc05ab239f6b2abb9c37e3e76b2da113
fc05ab3114029f2d09e6e2dd52dc38d3
fc05ac13e6c30b5bf896593045c12e46
fc05ad42978853e6e7ad1dd3dae9da5d
fc05ad51997481656c98f14f2f0600d4
fc05aea7ebdfe8408f09cd1630d7dd72
fc05af102362018133b4a6af30504355
fc05b0b12d6c60129a3d631ed5ac6c8d
fc05b105ab1b80a1849bd97cd1006805
fc05b1dc49e1e195eaebe0cde960533a
fc05b2a26854fdca01ddf3fe05863610
fc05b3bb97369f1598d3a22f0e1f3f24
fc05b40a4272649f88fc53c64cf7b05c
fc05b6820b5a9ff3c93e3279e34099b6
fc05b729cd0fcea948bdb395f60c2290
fc05b8a92821906c27b126911f4f495a
fc05b8d408be7a2f390ebeec2e0b52bc
fc05b8db09a501afd4f0d5e6e622a7d1
fc05b978dc44f466811df4c79f6fe056
fc05b9d072a190091df7c2052097a827
fc05bb3d59e8c3b11c6cd2495c76fc7f
fc05bb57623dd6c63735d32125418caa
fc05bcaabec12fba7ab9ad3b2b56a9f4
fc05bd8d738b4f859c6dc5860bf2936c
fc05be882f552ee665803a6aaa544390
fc05c0e1c41c4d5ffe029c9afb9d387f
fc05c100ffa61707ff8e3acb4eb38850
fc05c1c388f354c18f5d1f3ea29c1983
fc05c1fa2db6ab0263c473e79458b221
fc05c2cb1e04a1cbf8c4e7940d90e716
fc05c37e1299698ba9dc37985c941933
fc05c3b7fd834d52a8cb3e5771db4710
fc05c4d652953e7bf0154e705f987050
fc05c4e41a722cdddbb65ac39a55491b
fc05c50daaf8c15505372dc872d33858
fc05c51ce32c6f8f3606e61f9372e670
fc05c52c56fdaad70eea24f2ed029776
fc05c629246122a078f2b31004a2de40
fc05c697caef71022299959a51d4a1a5
fc05c6bcf971aab2034d77187ecb5137
fc05c7097801086f71b759237d2fdfb9
fc05c7afc8a40c9b3c07dac52c764fd4
fc05c85f23f1834265ca48c5ddf4cd03
fc05cb20f7e29c09a588263dd142e2e9
fc05cbbaa85d601e6bfb3cd77c8bd9b8
fc05cc1e4c09160437792267040041d2
fc05cc3f93404ebd2cf5830392442c15
fc05cc90572d237ce9676339ca6be650
fc05ce16e8ec35139c0043320a6e278d
fc05ce1c6d424938b20e2b31669615d9
fc05cea7b1fe824cd32d5fbc34893fdf
fc05ceabcd25ac901d42cc1be6161e15
fc05d11d7abf4955272b0178d5d08cdd
fc05d1c573fd7d8bce60d29d082c0aa0
fc05d3638762a5d4853f8be8b3674cdf
fc05d36fb142366ef817f51a19670133
fc05d54418489161857803089e3cdb6a
fc05d5a174f4433c54a6d26a8712ad46
fc05d6bf97f2fb4141b578eece101ccc
fc05d6e7f84ebcc7305fe44333266e6b
fc05d6f054ccf35b50dd49eb8a333a35
fc05d78d6e622d41a0508436ec7cedde
fc05d7e982cb43b4b03985d9197eb8c0
fc05d8d75dd7c5120f7cededc76b85bb
fc05d93b4fa9339d1d10435abf420467
fc05d9da1b2ea9b2d1fe683d7d4d8ffa
fc05dabc807a113d300ffd4751d4fd48
fc05db25a3eebc81d71a000b6b257ba2
fc05db6070376008a2444e5c911face3
fc05dc49fa88440dc0dd7e21ab3e9fc7
fc05dcf439b65ebca7e75274891e9cad
fc05dd4a421fad92ebbff48f2e6ce124
fc05df887b51e074823364089a011b7b
fc05e0256a36128bb6211a6fe6894ef9
fc05e05a0ba905c438d0473660bcbbf6
fc05e1cb88a3081aa0d6b7d74db8dd34
fc05e29454f9adbb4df05029769ae756
fc05e3aba739842282079aa68fd061f3
fc05e40d9ea0c464eae37ec6600d54b0
fc05e492e220ac2c7e39d0dcf0dde97f
fc05e4a645cee140835f335a419b9bbf
fc05e4da415f59e6082caa093fb2f420
fc05e5abb40c26481ae501129958d439
fc05e5d36b4b4c6213e8b743a0ac9423
fc05e613cc4d8658baba55e3cd71d44a
fc05e6406c6dac23ca715b9f634d4d67
fc05e75799a013f8385a752f90717466
fc05e7f47dfbb7a5e888eca4c886cc88
fc05e8cb46129f9637f2c9c872e370e8
fc05e9636f984ce829d1bc9903164145
fc05ea33aa7d5f731221d303b89859e9
fc05eab650f8b1e9787ab4d3a0e222d0
fc05ebcad187bb2079a0b70e1ca00740
fc05eccb54276d2c5e390a02419e963d
fc05ecfa576d2ec3ef812c7be87ebba7
fc05ee61f7b7425b0011b35bb31539d4
fc05ef39a8291bd85984260b984d97f0
fc05ef574e5ef71dc016ed03b63dd09b
fc05f17ddd8b7b27eaa54c6c13eadebc
fc05f1a16cd94f716572f52bb0f4263d
fc05f3963660c4bce15ec61cda6f6e7c
fc05f3b3281c72cb59d26fc9c12bec09
fc05f4e2e913d41954e3979548d3eb7a
fc05f5979a0f92730a50256c9fb97dc1
fc05f6809cc3c7040911b34e011438ca
fc05f6eb17cf0962a969f3d0c7d88f83
fc05f76290c78af4ecc3579eedb9674f
fc05f8b1548ccc68cc7d302b89414fad
fc05f91a712e593154144ad548a0c8c0
fc05fa155469c1cef6b29f44116e6f10
fc05fc2c739089c1c84913a4eaf8b6d9
fc05fd12ec99c4658ade35382b2ec7a5
fc05fd6d09f99eb2433d224f353ff38d
fc05fdabfc656591215b6d8fe6d519a0
fc05fe95aadd25981f000baa48688df7
fc05ff0a53270968ca79f19b04c5b1fd
fc05ff751a8d6ee27829ba402bb8e03a
fc06009af7b40fccc473610fbfb5ce3c
fc0600aef8c3874e454f29dd1f221c8a
fc060137c1bf8805bf27750cebe69492
fc060327e5925dca494ac740ca651633
fc0603caca8da859ac6535af81aa0550
fc06049930d6a875574a1307cf5cab58
fc06058e77399f468f87fda2664e4373
fc060590fb883ff7e952f9716a196fe8
fc060603e41b97411dc45f5bd0d6d082
fc0607e7121d2397119e670482b694d7
fc060840cece59e39ab7c07864dc0b8d
fc0608793197f05a7c37153b58d640b0
fc060911b006d796c84f26d370392627
fc0609aff2a80788414bc758ff3ab2a9
fc060b53c55634f502f5220cd58fa2d9
fc060b8eec66a124983b8905b646c3a8
fc060c388ad518ab8f19e2ab7d4d28c9
fc060c990dc6cf48ef3b8da228b76cdc
fc060d0b35b1839dc91dbb039cb5be2c
fc060ecbca1ad0e32dec3daaf7d14c38
fc060ed310d769c634d843e5d85dbadd
fc060f888b1dade5e07883508b8f956c
fc0610de2fa308b4e8df74815957d54b
fc06112f92d9f051d383e763bf62e41b
fc0611c2213a57f14d4c04bb63302c3c
fc0612291356e08d141c2f6b299c389a
fc061376801afcff561ba97656524f8d
fc0613a4d39b034ff497fce4fbfcaa24
fc0614c43adb4133d58ec45c88912e99
fc0614c91db8dcde639ab17423aa4e7a
fc0615503c408b234188671252ad964b
fc06165a4ca7cb46adde466f9c616930
fc0616d07bc9bd3577edafd19a28489f
fc061727d3cb55649727723ef01b6506
fc061779fff821e26dbfe6d48e4916f6
fc0617efbab183cfef2aae12dbf18a50
fc0618f41d85e9ecfc98b795b2343d20
fc06196e93797b6e8d706059f81cda46
fc0619e342cbef77e60ac08594beb89a
fc061a7489f1c5da0e63f65c508ffada
fc061a800c78b316e289c9462f6b7817
fc061aa46067696afc70bb334cb114a7
fc061ab232b723ffa833ee3bd5008c6f
fc061b8025670651c45034c3267b40fe
fc061c454562fd852dea128cf0c792a6
fc061c56106f10dc0a5c4ba8dd881d1b
fc061c97dff6e75a2efb03cac832a06a
fc061c983f683306002ee2b0c1a2d840
fc061ce7c4f5d62e174641fd20d302cf
fc061d656b69762d04d6d4d4cd370cd7
fc061de3a64a7436ef63ef70289e0113
fc061e7fd49dc541dc8a9ce89bd9ce08
fc061e967707af7ba415cb094343f411
fc061e9e2104c80038affdbf117778c1
fc061ec9cbd6121be6c4e1653c91b500
fc061f4e11ffe078c116fa06f9a19cb3
fc061f9a8a391d9f5a739fe240eecfa0
fc0620303c52a3569b9eff19ab1d128c
fc06206a0641e98234be3ddd6d346bb0
fc0620b485494a0dd4abd55172647c86
fc0621633e7bd55c53c48d923eb399a5
fc0621f17c8f72592041d67158138421
fc062287712882a82dc9f10e654d05ea
fc06240e5400c6e274b0a6f3b9c71180
fc06241f22c940bcd573c2c05750617f
fc0624a4692fbeb0fc0eb3c2b7094596
fc0625426abb35e5652a8877689034a8
fc062573b7e53beb8c6980f77971d568
fc06268cd801a158c22b66b3cdcc634c
fc062769e9f816ea6b602c7f312df2ef
fc0627792e16d6bed0c20df03a5fa30d
fc0627bb161692a67595425a1f516f34
fc062886ca7f11e95ce4ca07e4c3e400
fc0628cdd832d19a10efcfcfef4ef280
fc062a74a66b09191e8ca032ba2cd431
fc062b37be3aa8d4f8dab48950250f3a
fc062b5d99a8785ec158a4134151602e
fc062b66ca8a2cefcf65323f42b299b1
fc062bc989f36eeb0d716599bab3b368
fc062c7b24aede860578a94ca0c33df8
fc062ccce64dd9d3cdbadef092df1a0a
fc062cf25b2c1d250e7b0f0771467c5d
fc062d095a6912866cf0e57f79258f27
fc062d8365d193fe130f90d2a65ca97c
fc062e3cfa5e0d7f5d8948b9f8e36b80
fc062e59ab481265ba5ada8439264a25
fc062eb18fbb6f4a969760b7a5e8df04
fc062ee78446645162168f3d5f4df7de
fc062f5d899176350f7541be9009929e
fc062f7912a9ce86c1ff94a3ddfc0960
fc06309e783c58c18b12fe69a8379d64
fc0630b5f315927ced5235ea1307f630
fc0631458f0cfebc592caaffaf530fe7
fc0631991347d289b3fd207865955734
fc0631d16c847cbdf140ed64231b3795
fc0634186caf8832374ec8b0e65b04ac
fc06351985fbc124e98c3ed7dc2e5218
fc06370dc7d1c2a2f10b99f3015bf4f7
fc063718236de6cf10a71d9b7f5dd676
fc0637950954a6af0f4c39b3175ea9e1
fc0637e76b37520e688726bd97ccad72
fc0637f23827dd0df1550eda4be94102
fc0637fa3f75fc69610b1400bcd1a4c4
fc063836aaca985426d516df50bddf0c
fc0638a0dd897bdd8099f23d68791537
fc0638f9285b6a65731c14cee0de9af4
fc0638fa26d2820dbafac9f859b191c0
fc0639014ccaa57d1a0d00c169164031
fc063a366f78345a76be35e366a9b9ad
fc063ac33186b2132d67d08895e6d1e6
fc063b5504414bcd10b3b206844a1b38
fc063b7c88756d72bdacdbcb592230c8
fc063ba6ce98010029efcdceebb5660b
fc063c25dd6d513c8de9856edac526df
fc063c3997347ba207e85e23a2c7a517
fc063c62438e21ff0ff4773cb2041cea
fc063cb4e00e76c9a4b1cfb7c45b44e0
fc063cdc7f54a6a7dac315631d3f2adc
fc063d3097f6e87a477912a9a5250b57
fc063e474dc272d673e65d499f43d3fc
fc063eafa6b7d2e52b58179485ccfc15
fc0640398a67669ab08df449d732516c
fc0641ddadc921d8e2a3a68b61634daa
fc0641ea24e629c37b0731d702b99817
fc064233af0e0d928069298c31c5ae40
fc06429b0a5cb0ed875577f12e24bba8
fc064361b80befc1369c7c40d2b609a7
fc064378341d45f34231f81811c008bd
fc0643cc63fc4fb129469ef59027d9f9
fc0643e727d1f731b89c10882cff7c60
fc0643f1dd7682613778f260c0b53b4f
fc064543b30a8be717fde286603dce5a
fc064566e24a31c0c11f1e6c76f9f93c
fc0645ad7de0d70dd78b8a12077ae35b
fc0647473d9d95befa374570f6694d93
fc0647b9ead8a0400f85eefd597dddfd
fc06486221ba8f3316a4dec87ab99c88
fc0648d0cb47e05a6ce031681c30d899
fc06498d24d54f5ca4a91d69064f06f6
fc064bcd7b6af62ccbc0fe67837cf775
fc064c9fbed19f6f11df95662131d58f
fc064ce009a4e08a183fdaa8d0c92643
fc064e1029f0f353b79dd59f133a43ce
fc064e2c6e7c35b50b380fcc6a598284
fc064e3710d7ce4221d6c1d8aa513a54
fc064ffd9654302eb218f95cea4469b7
fc065066f3b319c1280acbfc7d62b360
fc06507f3c3597cdb850be51867dda25
fc06510ebc4e33c374dd70d511233dbb
fc0653914324c31532bd2853f4081920
fc0653ef11c49d2cdd5550a84746f174
fc0654b9e8f69199cd0d079d083710eb
fc0654eb6841c522e0e74effa7355c5d
fc06554f2c61149b62ca5009bda0cabb
fc0656a9bf2a92b2a022644da07be388
fc0657531d56287f413eadb1a1e9dfc0
fc0657fe9b02ff857d262c11d705e4dd
fc0658a1c22eb2e0b4eb193ae30c1cce
fc0658feb3952d7c9ad9f8c1febbf738
fc06591097324223d51889a3ef7b4065
fc06595a7a59be3773d7c3bb694e827c
fc0659a2132557bb249e1022f2e608e5
fc065a13b62ef9ea02566d542bdc99bc
fc065aff88bce222e4b581f58afd191f
fc065c146dd2da91f191fa72c91623bc
fc065ce3d89e2763e26802d9f172f720
fc065d370338f7497ea72a71b5d8230f
fc065da1f0c5cc020e036a544b2848d7
fc0660728b9ac3dff00a8b91bddf5b31
fc06607d3b08336fcbe9c9c2041c0fdf
fc0660ab3c9d50ddf323e454ebd06f70
fc0661922f12ab7ed3a67ab70362b4c6
fc06625bba879926dab7a5506793a7e0
fc0662db32f57b3d817633fff1086c8d
fc06638c54faf56289723b9152143a27
fc0663ad48d8b9890481a24945a490c0
fc0663b31533b32cdaf27cc55ba2b426
fc0663fe80c76161bcf6323c0d4e5840
fc066405ffcbf271cec77e90c4e17284
fc06653bd443af6c34bf22d3e9ef368d
fc06658faba0f2372e1a1114f372f92b
fc06660b9824a2f9a6b139d936623594
fc0668b45f773dfb8f0b3493de21a5d1
fc0668bb6395b8a9e722c8b44c4740bf
fc066956b222e1a1943a09a495424c59
fc0669cd2c8867a812cdefdc5ed4f452
fc066a9a72ad3c7217cb1707fefdcc8c
fc066a9c3bd1bc377ec1e6eff02a9335
fc066ae4d8cc2840a0e73faacaf21421
fc066b6424354c4616147ed8d27c2674
fc066bdf58bd7e31ba81988e8b0c8949
fc066d1099d1c16242ebe1fe7cdeda5c
fc066d6870ebf68a1cadef11fd3ae50b
fc066e28c8ffc5d1400bb3e574441e92
fc066e6bb64fd9782487f98350aeb534
fc066ed4f8440a5ece76d00acb6b322b
fc0670236493bdf3999b896f0d622a08
fc06702fa62c6b01d676e6f014b172fd
fc06705aec0a588965950b6bf4680499
fc06709a2149fea41e034f29357df656
fc067115155559e708892e5e16974309
fc0672015194a23c89183a94e714b48b
fc06722b904fd60ba3e0d31406551f04
fc06726fcebc771fafc9c26cfb9a6705
fc0673a0d82ff7823102ae2e54f745c9
fc0674fa29f05ea2530990f12e3c19ca
fc0675a6e274859819ec9a25a7931fb7
fc0675f4219a0e4b8b657b763584e473
fc06763abf6f4be1cb4ff5c93d3f5f39
fc0678e8df1c2def63ec357b378df5cc
fc06790f51230162ee33806d06e195be
fc0679d7ee2fd7a94148fc99b7e3de90
fc067a763192000b6b12a71253c5c118
fc067cc34f7963d4e866c26a09689b61
fc067e40df821ccc4a715f16a663dcbd
fc067e7fa4149f219a2fa23cae4a254a
fc067f08930e74b0fe89074381f8d320
fc067f4d9e9d6203337f79ee986e5e06
fc067fd93b8fce2056581e6edbdb16af
fc068348e978c000ab601d5cb8153cfc
fc0683df27ecd947697603b88bb8dc3d
fc0685e36d75959f289e851a244d5a53
fc0686e5d118607728d35a6a08fb90a4
fc06875ff93c523d20e00001f77cb6b9
fc06884bd2ffc517acecbd1cf1f66be6
fc068acd9576b97366758fa3169542b0
fc068bf3a55128be57d29bc617d99762
fc068bfcc4dcbf846d3892d7066f08cd
fc068c2353870e0df36182a2a050d133
fc068d250ae4dab8382e28f91553e2b8
fc068da226c5ee62b76488ecf9ef5daf
fc068eb8cecf34c1ce88a7ddb35216d6
fc068eca70d5f371bcf5c1c15d5b6828
fc068f0bdc72a40a9ae904710590dea1
fc069048b13d8015bd00fc4cd8a44233
fc0690ee9e6e6965b1ae613a3480a393
fc06922086d2225a397c9e14a0e609de
fc06934cdf4602e1e2f6913bd3d5af20
fc069493b33e4ee5df23a6964d4d9745
fc0694cff9036941ca53eafda4b57f1e
fc06950a620c47fd77343d30c4b57cb0
fc06953d6504a29964a576d3288f8d59
fc06955e4773d0dfef1ed30b1fab83e9
fc0696e1f5a8a867e6e8d9980107491d
fc0697a9e90acff7014b689e06b2481e
fc06981376da0b3359579ae4d586222e
fc06981a991ff07bbb455053c8fe5811
fc0698fefe9f543544d0fa0c2dbbeb8d
fc069931f726899eb109661a05d5b3aa
fc069961b69477cf204a7c81fabfe211
fc069986226b96ef3088e295edbd0c90
fc069a637b5b34a1d46ac140747e1884
fc069c1178206cd6db28b000772955f0
fc069d7549ba4d6560fca69df979151e
fc069de9b61d63798d3c63ca2d687cc7
fc069e356c3b9420ba19dc139ddb67c3
fc069e9c0386aa186efe0bd1ef8c0580
fc069ef295db8d017f8e9ddc2ddd7149
fc069f0597fd47128ba3099a9dcae7ea
fc069f0c53e8b8793fbbcc24ac209d9c
fc069fa5e7566280e13bd2186c6c3a09
fc06a03dbf7b793e392eb78cff0fd766
fc06a06d3efcf9d0ae799471332e4f49
fc06a123f403c5927baf405678f3bf14
fc06a1bb28f59a56a8f822205d99fad5
fc06a27cb7ed7fbe5a98db72412726fe
fc06a28180eb72a064f15cf5018ea5b2
fc06a287486a650ca3b2c619ac85f6b9
fc06a3ae4d04554198e9d1b79a20a25a
fc06a3bfa56374e9c2830f3e9c1ddf28
fc06a3c72bce5f86598761ddb063e24a
fc06a45c470ecfea6d265bcdb84fcf13
fc06a48e902dc3b4f3359bb00657595d
fc06a5c65d00ae76577dc6616e588017
fc06a61c55511bdcb784215021ee77ab
fc06a6779693959b5688a2326a2f9613
fc06a6c3ef0c73b6fc2b2ebeea84d920
fc06a718af97229a5617a1547de2cd46
fc06a7c341d0cfa27d97da7cd968b87b
fc06a884e361c57b79f70b82ff57425d
fc06a892107ce9da130a70e4cb670913
fc06a8a803096f4b8e272a7010274624
fc06a8ad8514cf09537942ec317c8907
fc06a8de61f70148ec709174a139a9f1
fc06a995abf12ec3da913b9cbd282b44
fc06ab09fec378560b667b8869cda295
fc06abd29fd0e124f3a85b4c060e28cd
fc06abf48e7831fc5390bf0fa49b398c
fc06ac0da238560fc9537abbb8192a30
fc06ac1dfa342858c673be51379ecda0
fc06adbee42f546ee2b0f1feb38ea8f8
fc06ae968ce4202fe832ce867167b74f
fc06af8f8e29104cdf9ce9e4286f9b67
fc06b05a2c241827f5c28f318c12ecb6
fc06b06e22a4462154ae74538d831bf5
fc06b09533345b9546cc56ecc891a934
fc06b25918a061a56853e34b5deaac0f
fc06b32b700c0e6822e2ddf38aab3ebf
fc06b3e77d708619c84732d2533b1b19
fc06b450f92b5b01ba4d7113aac698c1
fc06b4a8bf9dadf2ac8f28b3cd36a03a
fc06b5b253edeb5977d2f83a7e55aa74
fc06b5f63f183d69a5c4c2a8c749bae1
fc06b74703decb36c6ecea728a5f99ad
fc06b74d4db8e51002322018d5e015b9
fc06b90883c1624f2b31c163a169beb1
fc06b95807fa0e02bba5979a834c62c2
fc06b973073a95733802093c0a19e0a9
fc06b975fe5394caa44e9f4b696ce7fa
fc06b9f96044deaf877abeef6f4afc36
fc06bb3944edee126240d6a6a3f13b05
fc06bba09aa243f8558e9c60cb8fd337
fc06bbb52bcbf566fde528887b1b0869
fc06bd019fa65ff2d582e1e31f39df54
fc06bd81feb5e440390880746cb3b7a7
fc06bd8ca9fc520a3aebc2dd368daabd
fc06bdf2db64f85e4c550a5f6a9fbf8f
fc06c055a2e0dc7b26c0ed20a4542dbd
fc06c084418551706350614138056ca0
fc06c0c1eac28f38a9f946639ac27721
fc06c0c32dec784c84e8087879f023e4
fc06c13f7f6f8b197d89e69f2a5d16e1
fc06c15325698f0075ac6891bc667db9
fc06c2310f0000207b35b7f2a651cf1f
fc06c2c82a31c1540efcfcd1916d6a68
fc06c2ea88f731881a5967ab73faaf2f
fc06c3fa03864ad7f877db8205f2b806
fc06c47b015ecc763bcf6ad2b9ae8347
fc06c5d2e749694aaba2d6c9c724fb0e
fc06c6070eb1f4760b8f21332815b028
fc06c6d9567ab75bd919e99709798270
fc06c73964d4ea0fd375cb2dc64cda38
fc06c76fa3bf9f5dafa8f4fec1ba65b3
fc06c8634d6fa7bcdd7c0743ef0f999d
fc06c9430d7d2d33046604778844fb77
fc06c95e2e832c3b12151b22a0f41af9
fc06c9f215b9e45c4d3d60dbe010bded
fc06ca0c43197541374ebb55d72af824
fc06cb4c5f00434c7d6883e7fbf9649b
fc06cc739afad985aefe781af2bbaa93
fc06cca9d9595d199e78d61f212d29c2
fc06ccc12a3208e8793a14bfba8e3890
fc06ccc3d3c80cc335f2e419cd63fa0d
fc06cd121f350c1794912ec715a30685
fc06ce390abbdec968f26de59150965b
fc06ce82057241f1662320000387f7be
fc06ceaa9e05259eef56464b323e2b1e
fc06cebc6bd768dadff678272940a389
fc06cec2cb2ec936a8a257d29d57f851
fc06cecd2c0657193dd1a6b5a8b3066c
fc06cf1f313cf02f47918666fc598d96
fc06cfae90b0c7467b2a1a6b1b120711
fc06d0508cef1f9b2643b63112a33109
fc06d06b6bc8e894f72fb1877aa08027
fc06d128cd8a62e1fb651c7456b1954a
fc06d21cfb3fc556f47eef8cd87e2a7a
fc06d235f65a2875354aa3d1d93228da
fc06d347ef757da779e76095949011ac
fc06d3a6a91a8e9cc110f273e13e2f75
fc06d3e580421b90a513665e11d0f5a7
fc06d46021bd0b2a18c68e85e0860240
fc06d4fb51a1b11040c9a7fb3e4914f7
fc06d5403b86e864521601b2c7caad55
fc06d54b8d5b6e3e60f7f81e2e4c986c
fc06d704e626029bd2823fa0eadc69de
fc06d807b489d80f24017cc44af4b47b
fc06d9d86a566bc5272f2b4cf5055507
fc06dace815a6dbe7bed3dc178cd54fe
fc06db41d58de97b5b506a01921df071
fc06dc4f76bce2aa51e582272652185f
fc06dcb5604fdbbed2eac679abb82ca8
fc06dce861ad5e4bfd2f2664d98a2d00
fc06dd1f02e90cfa56769988e47febed
fc06dd85045d68e210a19587bbeb7b4f
fc06e04c0be7c4657d07eff98ab40693
fc06e1432005d6708e695356c2551d0b
fc06e24cffc438b369f8b3c287e9fc07
fc06e2bd55123c991c9a719a4c523495
fc06e2f58846ab6e31574708839272af
fc06e385bf7d5b5833add83e9d165c2d
fc06e462fcfd4802848181999e6745c4
fc06e4cb844a268631ed4645af2b368b
fc06e564ef4b4a0e1ea3a8040395ee29
fc06e56c19fe720926ed1e76c19937b9
fc06e5db03b78c330b589900dc6efe36
fc06e6232068cea068a9da915862b9a3
fc06e67bcec770ebb0207064d981e0fa
fc06e69d6022d6bdeeec95f9f4ecdafb
fc06e7cd1fd9b40d7e0c2c3695ea034d
