fc100004d3c32632fd2965d9dee4789a
fc100097c57029dea00353711c220992
fc10011f7d7031d6587a9ed5a51ae13c
fc100159557e7036a2a4ad21fc886438
fc10017d9c64539210d6de74810280d8
fc100215cf0a70e3fa757a021bb844f0
fc1002e073c9f0fd62b4a0c7a2378af9
fc10037146e6d3a94e56826b1b3a9e23
fc10046d063ce4f21d2b0ea73442be73
fc1004a7c2f790b1568b4bf5c787e373
fc100505fdb5cf594132d97760033a12
fc100520c7565e5b31d10b3838ed4dc8
fc10054b75982c0fbe9330bdadecb35a
fc100559dd4e9ce9f4d756dbda62868b
fc10057fad60dc3c1a2593363cfa153e
fc10062001ae8addc44e0b122faaeb19
fc100656421cf7150d2a06864a579660
fc1006824cb66d17c68f1ffa53b37c4b
fc10069f55ccc6b36dbdb0b18368beb5
fc1006b3b5f915a2fb838b6c4368ed0a
fc1007cdd6d1ba5e2b6d30516438a45e
fc1007dc7b131927cf869eb90e73faf0
fc100acdf9e461816b1a87acd37ab28c
fc100b1a3ad1d4adccdd45827f90d7e9
fc100b707c70152afed731c765ce5dce
fc100be43c66f2b437c239a5563b6eac
fc100bf97c236d1b09fd4fdce68c3360
fc100bfd98945f662fec2f7b87113d5a
fc100c29609c1434f4d6ad0e820b664d
fc100e1a5a11750346b4afff2750ed91
fc100f2b6fdbfaf26b11d4236a756aa9
fc100ff65f676a26293915407adc211c
fc1010b0e9a3d452e906e1c23b48b1e2
fc10111403ef3cb2dcf3298beb4eb591
fc1011a5e53f07fb09ea0035f5ea95fc
fc1011be5ece86324728cabbe1d93df4
fc101281babbf855f08a31410082e831
fc10134810c9de8c75f9b4db8c3c3be5
fc10137ec7dfb63cb764db8bec624a39
fc10170b036b7ca64257e4231a1c1960
fc1017ab1adfcd60936a903b4c58a900
fc1017d21e42fe3e5ab0c845800a21d8
fc1017e3405b67bb35da54f1460dee26
fc10182755de3fc3af0a144dc7559320
fc1018af6ebd2c8af44de5ab6f4f8d5a
fc1019b80a4d63050c31c040d78741fb
fc1019c1fe685050a4f06fe5e033e886
fc101a1d527552aa9a4c23bbc32fa1d7
fc101a4318ff13cd794fcfbe20be4eaf
fc101bf3b89b6790642224d9ba46b40d
fc101c07efbc4500c2f94a3708a58dc3
fc101c843b77548c9b76bf3934e01f28
fc101ce1ce8325f7428dee42244b1f25
fc101d48c3d2bfd213c9072d72ea1a98
fc101d725f2636c70baa5882001bbd00
fc101da4404aba5bbec3bcf1e18a4a93
fc101dd326c3d170efaaabdc42a610a0
fc101e25074d2c710e49e1a78187deb0
fc101ea2f1d4cfc09e8b2cea93d4e725
fc1020d0a6d1396afb3fca9827a9dcb1
fc102122d752348f7e9e25b4b4565640
fc1021c2e356508cf3aac9b3d495d649
fc102242582fc1979af4da44be1e8c91
fc10225330d33a8279473d43c0e21fd0
fc10226db4abde9bd7e87f87a75322cf
fc10227453084680b6f50d45d9ad5acb
fc10246771447df3b84618ee3146c112
fc1024b82721ac52a60364bab95086a6
fc1025428a93964a5e0560960076aa75
fc1025675d2525cadf48bea8d79837e8
fc102588f920005f3f0b66fa2a06f4a5
fc102694619080908abd432afa6a1bd0
fc102801ee3ce1beb37def82f3f68e46
fc102828a61840b4b4c085ebb98859df
fc1028c15a54c31a78d4d30cf8b0c7d6
fc10292d19a55656b41844fa8ea97f6c
fc10295718fee9c0e0df0babfb67c404
fc10299d636914d9f97e50725fd09082
fc1029bfad943daa4cc10062536349fe
fc1029e9bf77221a88e744641fc60b98
fc102a4cb3246b0deaf3a7d61183c98e
fc102a9cc495710b33868cb607eccd69
fc102b7dd85057a55ecc8d6c7dd8b0b4
fc102b9bcd7a70189db703c6115c6f90
fc102ba58e4187f82a5e0a885a6ee1ef
fc102bdaff3e9efd0a9e077abc3075e2
fc102c934cae9b399cb5552ea93b52ab
fc102cf3114ef4b48ff13209a9b112c2
fc102e39a0566a0e8ec213dc0e21a5dc
fc102e8aa73ca0201b99172d3a228e4a
fc102ffc6d77d0c5c5798319f8c78710
fc103090c249f6be25b47e2bbabfbe28
fc1030b6fdd197b40fff5e6b3937c514
fc103105190d90a15ae749242e5196a6
fc10316d6b05e291e7a1e83939552510
fc103181a415b923c880f08405949271
fc1031dcb21f8643b6b72eb54f64a7cd
fc103350a55da0fde7c012a390f5c277
fc1034c0ff510895b1115fcb1ed300d1
fc1035cc430f0a800925ba6b046679fc
fc1035d674ccc02bdb3b931c228dbc23
fc1035f7e52f382a8b0eeab808fa218a
fc1036b04be54725e362dd7af60f3fae
fc103751b4b17cfd7453ed4267bc063a
fc1038940147b8d86dfb8bf813632089
fc103956190c3bc9f09919cb43643c54
fc103977fbeea93815d871875ca82dcd
fc10398b60325a5785b3745b6f1c1919
fc10398b624febd92f93cfb09dd5a6a1
fc1039faa61d317210b6905830d8ab31
fc103ad60316884398b45ff61e2ac540
fc103b57e57ba35027e08103a55f0ec6
fc103c888fc3404a9f0c5b1d21d1c370
fc103cc08b9d26741aa1373604bf1571
fc103d4bcb35f653eb8343557d439762
fc103e167a8562c4f93094805586ec86
fc103e1cda4445a11b628fceb0868e43
fc103e3523fac7c680ec8afda195ea7d
fc103e3cf690b27ee8d4a6b088c1d4b3
fc103ec4a6d769ad055e4f363590fae6
fc103facd69a5d09a1bd72964cde345d
fc103fe380a5a400697a53e74d2d2062
fc10401823170f0021bcca229c0fd000
fc10405ae156186eb3fa4a876e7016c1
fc10411918817f2fd7e751627b1f5985
fc104182a76bf01ad643651011fe53a7
fc1041e99bb1826a59048a1b83511e6f
fc104286e91354e2fd9a64a694793b7d
fc1042d4e716704c8c8a6dbc17b0d81c
fc10430f8862200c8a8202affd8cf7ee
fc10444912aa6bcd79417974ae517383
fc1044a80886bb60ff1adb26fa9a9852
fc1045face61520532026e1d022df764
fc10467df57b9f4e3bad9b6fa13c36dd
fc10470afa4080ca4a38feaa793459ca
fc10474015d0ab6e17aa42b063686dde
fc104878a8a7d7630c47f0aacafdf63c
fc104948c1ae95e41cad11eb6eb499da
fc1049e6d0acfa0859d05fdad8351690
fc104a637f4322d11efad3f26ce18f2a
fc104a7e3fc1258a7b949db7695adf20
fc104b71a1899e768c0ae4ef42d7e64d
fc104bf231783e5440373b97049e3e39
fc104c691bc5a1cd1cc6a9706dac0367
fc104d451d135466e547c65e7dc76c8d
fc104dce0a072ccfdb2700cfab110ac3
fc104ebaa67c03d835c49e1201a9505d
fc1050b6d4bdaa20d4932e596ca90022
fc1050c5e994d6e34f2a4ac04b522bce
fc1052634d5662afc2b7d62ecbccf375
fc1052a77f872c887f0f46f8bd659721
fc105358b8793acc61333de097e6c942
fc10539020171bf6253af7e8c8cb3820
fc1053a0b63b3b34cee4b907433bdc5d
fc10541601e0c3579c60d1676e934f62
fc10544ece5b77419a2516884038021e
fc105495a582ea21e583af9d071f798b
fc105599b43808f50d2d83c9190931c0
fc1055d7f594157e682a32fbde25dc63
fc105727229bf9bddd1c267ecd73f9cc
fc10589699f18455e994cd781221b54b
fc1059b796ba20f46e644f5f0ff7fc3f
fc105a788836787cfafb7bb5e5815567
fc105afbbb6d9d07f926349400926548
fc105b5ec8e4fa2a17565e696b0ef87a
fc105b730284ae0470fe08c471cbf283
fc105bb0e390491bfda87e9ec0675651
fc105bcb4bebe225a8698d218ce85e9f
fc105c2cb7c77f5a34511efd90a81dd2
fc105cea266412d9493bd97e49ef2ceb
fc105d6bf82931190a6263d5329e9939
fc105d891baee92ef6cc1b9919aec8a9
fc105db5e5b515869ad3f676cf73feca
fc105dbc2bd620d127f3872c72b6833f
fc105ea076414b01558e9ca3c1a5b690
fc105eb0f0b1782d51cdd1c20e764f4d
fc105f69b22c2513013f14cfe4157dd9
fc105f82cfeb351e085c9b9fc1f0da05
fc105f95bb024a427289fab3fc314ded
fc105fe0f458a5f120c1452a6bb30ace
fc10600a91de3ca29bcabf0ee6756de5
fc106054d815202a52e2950924e32280
fc10617a71e098faf21defff86d01091
fc1062091881ebfbcc4bd2094c2940a6
fc1062ddf7b3e435e7d362ce7b961876
fc1062e61030a3e959a8c2ecb0f880b4
fc1063c3a61f633468526dca0f033c0a
fc10644fd99bc5f1ac7bf9bc07a52b2d
fc1064882bd653cdf122ed23eddd67ca
fc1065586e322703dfea10676321ed22
fc10664b051a1de160b2f101050d9a3b
fc1066812798922dbfa9775ef8fb19b5
fc106711dbb7fcc8211dc6505e6b5d9b
fc10673a1697e03ba7f6ade7fc4146dc
fc10675458d9817efa67aacdd148ebe6
fc1067a493c396f0f9f562449ee7874d
fc10682623ca195b3dee54cde976065f
fc1068c961dcd813a7e72a8768ab4d67
fc1068d2e490801aa8bef73542226b21
fc1068d4c59466a4457bf6cbc96ef457
fc1069073a09ba7c33eec014d4e5c608
fc10690d5f5c678c75e771d72d82a8d0
fc106947ad9e1a37e8fabc4ee640eb0b
fc106987afd07c52bb41b568e99eff75
fc1069dfb723efa3e3390dd9c8ffd0c7
fc1069e6067d25c2cfdce1a7e0ebcac0
fc106a133d944735dd3f5dd17c2ec946
fc106a978299c655ffe110b52217e1f6
fc106af8cb1a28699cc470eb9651b957
fc106b0893c2ad5569ed2cb13efd6b98
fc106b26c507389fe930d08eeeb88270
fc106bde6da5d71d5c7b948dfc6be994
fc106c4de956d5ea2284ca3106626d52
fc106c9bd944999b87c5fcd5d9b9b6dc
fc106d9285d1fcbe0aff9781a26a8ff0
fc106dfef03dd91375e1997ef9faf459
fc106e326e9888de34aa244479e2af4a
fc106e3cc6092e0c3723c6dbff5e87d4
fc106e9f7a01ce5d856cdd22d799af32
fc106f6b8ad13a1586055d2431fa9f1f
fc10711e9e8ed66c582cece28a21d9d4
fc10718a614762b0940433d70942e0ac
fc1072403aeeb84edf4d4108f58a5ef7
fc107413fd866bcbc1d4278cb17c24be
fc1074d30ed4bfbebc5a64b15bbc4747
fc10756c4f4574e10d255e1187b64d40
fc1075f27697473b349bf5aa2235d3eb
fc1079e9ab251177778afa6ad92bd654
fc107a2f793b11834d40d63fa6cbc5a9
fc107a7b2cad2bfb066e2063eb63fa65
fc107b4a0615d044d33c240b779a4d8f
fc107b5dc87dc7fa0c61cf987802c363
fc107bbe224bcb5ba5bc8c8bf3355ce5
fc107c16f1f2016bafe0c89b87232255
fc107c19ee6887411f4b1da50959b54d
fc107cc8f410ccfe549dea337bd6082b
fc107ce1ae7cc16a29f49d58f493b699
fc107d6ab36fa2a7959982556403d34a
fc107dddd8bc0a58d42b9cd19d88f3c8
fc107e2783c6ac456446047bd2678d69
fc107e598bdbe3ab30fdd2236937088e
fc107e88d416b7cf4fba938cc5f535bd
fc107fbdff2ff0ac4235d9fd37322f0d
fc107fc3bea5f07f376a5dabbbedd1a8
fc10806bcc2d274cd5c7c873677b5710
fc1081b3fc9e654c049aa14d77d45809
fc10823cdd32d7ef20a340c760f241f7
fc1082c8938dfb1641ae1e6f05d8e90a
fc1084298871ae8331c8153764c34d1d
fc108598bfe750ab0afa405594bf517d
fc1086b59542bda03365093739771816
fc10875f76f2fe15531654facfa51bc5
fc10877be3b625206d9795e641b42266
fc1088561dd82cf7b8bf9cca50c93c80
fc1088ce29c5317c31f0298843dd50ac
fc10892b2dacf5009f7ae1909ad9bbbe
fc1089554460d86678f625f67f17af9e
fc108956e0d1a6668c85681fe0568ca2
fc10896eb8cb6b2e5929502a76aa3339
fc108a61f89143ea76c0e1aa3a81c46e
fc108ae43419db71de4725408b3eecab
fc108c1f0f0a0c4a5fd4253ffe6b01e6
fc108ca2f92815e78a2640bb74929ee5
fc108d4e07c544c4361ab7518718c694
fc108e8197220e20f2a0e98150ef2881
fc108f0d7c032dd36ba645c9fd6754ec
fc108fb91f4e3d70220bdb16346e88be
fc10903e8534329c51e4729ddded1f72
fc10916082c75103e30b408e80583f52
fc1091e80725962cbc9d56ae38b99b4d
fc10937541b65e17a755b9fcd87cbee6
fc10937e8717d1e9b00cdcb1f8cc8e3e
fc109393acea1c70dd2609876dc10dae
fc1093af9d09f9d32b3ec7bfc0a4ee74
fc10944a98f6006894eb79e5bedb65dc
fc10946d69d8a2a4bc7787efd423be43
fc1094905054693e2b06c304ee45c1d7
fc1094eab64cd5f47d989818e5d70c99
fc10955392ac65aa543adb5c4edb1040
fc1095574d1075f79b2bbce01dea5ba5
fc1095d2221ade9bc004234498c5fdc0
fc10965e1ec5ce91512de4b54b766883
fc109665a0edb33d546cb72b5678735f
fc109677c5999c20fb1155ac4df05497
fc109b07fdb1ec59aaa707982cb89adc
fc109b5b6a4e6ab7e91564467bdfbdcb
fc109b5ba08605fb9d62e6256baf1a89
fc109b86624db6ca0383023d0daeb6dd
fc109bac3f6aec9c95cf8832fefb5cb3
fc109bc678da3f2105684377d26de4fa
fc109cc9b63dd5ed2862fd13ebe3202a
fc109ccba2cf69af7a45ed1b32f0e0a2
fc109d3d2618409820a24004123a7491
fc109d5f55b9bf6491835a669338a47e
fc109d7053b5ad817dc8513975c9f63a
fc109daa0bb3cc55616f481b73be4682
fc109dad7efe49b51c5360b6bdfb46fc
fc109ddcf061a2420895485857d3fb23
fc109e5fcca48cb926df767ca2c79c04
fc109eb17c4956aff87d4071cff68330
fc109ee2b874926265331f6de013db34
fc109f0081d2cd0d85fbba987cd85916
fc10a016b92d98b444a388ef6fd4e181
fc10a08707148733344453751a2fd494
fc10a08a53457f5029c491029d8322e1
fc10a10f44d9fc916220081b40103f74
fc10a45bec64561c6fe189ca0cd1491f
fc10a4d610f9801eee7a25b46467e448
fc10a5732fe54d3e2ca71718e59c07fc
fc10a5b5e242b32c43a516ac53a4bdfd
fc10a60c01b5a85fb42c8b9c75618054
fc10a6ac8b53071cc68186ce4cf781f8
fc10a6f9e1bc5a4175d663df2aee00c5
fc10a729a6be6d70288c21216107e852
fc10a750de1c6575b5f1084fb70a813e
fc10ab2dc909f091ee5b3f533b857ff5
fc10ab2f52c2b4b2679bc71370ab428d
fc10aba7a41314221dd91116089c8210
fc10ac9c9c2e80d8490886d7680f4b90
fc10ada9b5eda521a60ff8e456e12990
fc10af6a9a32dd637d9186713afc2302
fc10aff365634de16dcccf9b80ba0001
fc10b035e3ee511ac44f5540ff31d621
fc10b03e877fe61b19c216dab63de476
fc10b1bdb831324d294a239de9ca1437
fc10b26df28bab6c133d355ab78e903f
fc10b2712bd43693dbd45ca4a7c7da50
fc10b280de8ddf5d00b4421399c9e06d
fc10b296191a7de7b58eabb23bf5d318
fc10b36e707cbe382720130937926fbe
fc10b3a59670de55b8370fae4550bfcc
fc10b462b9648de5c87cfdd8515d7a73
fc10b531839412a4c9254f572e9c207e
fc10b719a45fe70afc0ce7751be91ade
fc10b8150b4a06651c817239321304fd
fc10b8c5431d4177bc80d065354eda26
fc10b931f5f427056cd77a68806be3e2
fc10b93e1058448ae401f2950f37bb5c
fc10b9b07523360f0e632f57ac7b8703
fc10b9f7a55e34b16722fa4da04ec5d0
fc10ba542fcfb0c57061501870fa025b
fc10ba6824c76a22ce1686319d48f313
fc10bac5d8ece100333af2a4c6c77ee2
fc10bbc79675f9a0865ae7ef7380ff1e
fc10bbf452833c01547da05dea45dff9
fc10bd12bd383f3d0fd9abebb372e4f2
fc10bd3dd7402f6e4a47cc6007c7e7e1
fc10bd3f50ff9ff92f71e3a966a088d7
fc10be98a88dcbf1952eb999b94b15e0
fc10bfe922c8c86d45f49adce60f0430
fc10c00b076c95248c3c3932a3873836
fc10c0464c5d4a4455fb78a9a0cdca7a
fc10c053daf7748bd00d43f720615a52
fc10c128a76108bd20f643887bedaea9
fc10c16d0f21baf85fd2057901c687ea
fc10c1d2c5bca33b04aa14990d81bb80
fc10c24cd6151b6cdda078a8b03e5bc3
fc10c5561f4c61926f8d2983e239f932
fc10c616e6aeab030a0585ede53e333d
fc10c7f289295b6ae079dacc92986fcc
fc10c856fcf456890577bf7d0ce0a400
fc10c88b4dd2d95aa3538335da0900f7
fc10ca012f8ccef475fccc57da8876b9
fc10ca52e2208c252da13931e9c0d216
fc10cc62267010902c6436d16ed04515
fc10cca006f24f4821521b10c2b31100
fc10ccc996ac1e53a1b892ca71777c73
fc10ce5c40adaafc58f25dbda3fed75c
fc10cf4feac5bcb34e6cf254c0f05e49
fc10cfe9952621a1eba01468806e0497
fc10d00f74a9140ceda960860ad0d386
fc10d11a4c5d3ec5dd11bf6f6a635ee3
fc10d1ea546627bc115682a7dca26f41
fc10d21486d36d2a6d2f8ddeb7fae630
fc10d27d61339f193b2c90f3e3600aaa
fc10d3a0ca4246023d66ac768834897d
fc10d40c854b56479ffa65a04d850bdb
fc10d4952404467a787b6af387658faa
fc10d546adf255bc5b368224e4cbf384
fc10d67994a43ffd309fc584c5c9abc4
fc10d6b161e617bd08586f314b0f2928
fc10d789b69b4dcc02ada9f2b60292e9
fc10d7c5cddfe745c8f7113d147bbe1d
fc10d9ee0e223eca4b60e8efd758424a
fc10da85b9235278a25b6d52b5cfceee
fc10dd0caf3de52023ce0000c988360f
fc10dd4491eefc9ca09b2214c2ba040d
fc10df095ee0f1c3e15886872a9ed67b
fc10df3f5f83a1119471b575a33a6422
fc10df5b7488a208b1d70bee32fd2c91
fc10dff5ddb11ae1ea2c18ca197ac03e
fc10e03ceb13e5ae0e9e2c29e2598469
fc10e06d7334fafe2449207f66dd93df
fc10e0abb7d670c423ae7331d32e17e7
fc10e13a999c68ad93b0867137a8bd90
fc10e145a4ecf652d13ae05f57a4a59c
fc10e16053a18cd170d68538d55543d0
fc10e1af8cd824ec76fb1e52a4280e9a
fc10e20af800c1dbbe484bf0d602953c
fc10e2d3b8bbea7561bb003033350728
fc10e4289243938a4095eda82b7316fe
fc10e457d6eb64a5830e98c56a563018
fc10e564fd750bbb4aa84a196f63d227
fc10e5eae45a68d46571fe9d367c0e94
fc10e6175e04d886db15dab99c627d22
fc10e7080c4a9848321bd49b6e28d1c2
fc10e718c80dc811e71edc9c7f18473e
fc10e7327608864de32f171cf7a1fc05
fc10e797d54300eb5bfd2c6d5458194c
fc10e894276be331a868ad936466e604
fc10e92b48262dd71a10620268845258
fc10e9567137416e3749ed2f699d88c9
fc10e962b23a47c2307d5afaf88e2dc1
fc10e97e47aae74bec0b3d3e99759b34
fc10e9cc05c8d0c30ae1370389b8cdac
fc10eae6e6b6443973515e4a9e9fd34a
fc10eb4556405f205a335cfa335e586e
fc10ebe0b6ef3f11f99865a9a5a27608
fc10ec0f5ee68e796be0592a9561b499
fc10ec15eaeb02a1b951659014e5d0bf
fc10ecd93f5add5193317590ee6badce
fc10ecf3a3e40211c88c218f80df486e
fc10eddc4aca05320ea09ee48ec09d60
fc10ee59de5d23ce5e85642b1d7d8442
fc10ef0a53a902b746ad1b0384269d56
fc10efb8632077b75f3cf1593f53a56f
fc10f0047c778a3fdb29a2c99ad2b7ae
fc10f13c9b84d7d5f8b0f6cf0430aa7c
fc10f147051820f1dd7bf85a634c5d25
fc10f25609f37a5edb1d5b9c7881f6ab
fc10f3b452f6833bf1e380c8bcb72348
fc10f462d817fa8ad04292d9d60db23b
fc10f6422b2505ba7eef07edaf03aa21
fc10f6769b957cfd329e47fabe4aa1e9
fc10f7558ea6740a72b9ce2b08369c6f
fc10f7903437cec9f57a952356200f9a
fc10f7d27fc61daf13ab6c8000ca972f
fc10f89e0f48ffd5b56a2ddba8d824bb
fc10fa3f694491a6a01645ff261699a6
fc10faf229f6f6a10d002be1c5f17e3e
fc10fb54266bcb8d853b0671b1461f45
fc10fc1d29db1f6a9d1cd4ac789f6eef
fc10fc29f093e3f02d32c6b83c0a63f0
fc10fcd384051f828669807bfef001c8
fc10fce36f22c5a78ce9fd71118a58fb
fc10fce376a1a9f4895e09d9bbb10a56
fc10fd1397f8e6d3fa0160a9d957fff7
fc10ff8754cda771582d2c7bc388720b
fc1100578775129ffc5afb3fdc8e7950
fc11005e3e280fa32ce41a2eac6e4135
fc11008fdd51d81ce324fe76ceece7db
fc1101c4bf8ff498b828f4e307a0d686
fc110278596c586f0bc02b71f41bff36
fc11027b37426d0ab087bec953ad563b
fc1102ed7814d3aadceaa24e12354757
fc1102eecedf94691c7ed480a757b4ad
fc110523dba8db0a477963fbcb64a685
fc11055b8423a007a13ac5298a015171
fc1106545d1a8380d918330463651cc5
fc1106686d3fafe3f9afb97e71e04509
fc11068e772307f9a852e75897424034
fc1106b7a747bf19b0edacea14ab0e5e
fc11079948a1f93751c1661110e1c1c3
fc11084b58366e2bd1848c93e9d21087
fc110862372b39194a4384ee86a9391b
fc1108b8112fe66b1da4f881a8152f85
fc1108b812d337eea5128ee5abf778a0
fc1109954e4f6f5820e6cf8785461bff
fc1109e60defa6bead3a43979d5c0741
fc1109ef1425887f3012bb5da607ef31
fc110a163261a025d213d5e1321c15b9
fc110a2b31fbd1ffd9589a25124925dc
fc110a31fb7bb22b35122e3baf638543
fc110a7e41bd206df941f0ed83264b7a
fc110aafe731268669b4c1fa14c1423f
fc110b8985cadcfa8e172e6299c488a2
fc110d2a5d24a1e23923ba4e58b54f49
fc110d3ae309ff4ad9e22bdbed8728cd
fc110e74ddf05ca294384ab2d03089d2
fc1110930a1bcd59e1932339c0eb6a24
fc1110ae2b0f9dfd825f8ab31e3c367e
fc1110b9e66a7dfc63df18b64388d8b7
fc11114870af9d4fa2941fd0497e070b
fc11116557adbd559f8f291b25deff6f
fc11128dfb0a5599cffac662e40825b8
fc1112ec0428b4c061e10cbf7a2d6ec3
fc11130c7942d2fd0ceacbffea44e790
fc11138c793a036b6a9628688ed85d64
fc1113f1027e6abd072cc0c424b968c0
fc1114465a0cee841b7a48e7f73826d5
fc111615e7d2cb9ebc7eada9c850c3d2
fc11161e0e0bdb7926bc2511688f9720
fc11165c780b4d15c85f4cd85f4aae4b
fc1116aa578668961bdd48a8ad3a52dc
fc1116cc97adbd5dcc7a4d4bee4c992d
fc111757f0fa52a02aeef9c241260926
fc1117ecb15f2058c5f541fcaf1aa539
fc11183df079cf4fdf932c138e8db9f3
fc11185e1988c39370ed7566a457b71b
fc1118c4457491c649b49091e9dea8ae
fc1118c91a3489905d2d64bdfccd6f75
fc111b6969fec1ef951f7bc017a12758
fc111befb6dc44116c7c8e84e8a4d603
fc111dc45f5a316c52d03f0cf5ff88cf
fc111ecf424d203bc84b2339e990ac92
fc111f99384157d073e48cbe340ef5ec
fc111fb104113d92d9bcb11cf9fbd726
fc111fe6d79c9ed836dfa7b959feac72
fc11205430a3d6c7542007f7fd72b1d4
fc1120b3cae7812768918753d61e0e21
fc1120d08bc9a3735c740889fda4445c
fc1121a5adc0d43885fee2fec496616e
fc11221ddb40fe4e1085e3bc1781e8a8
fc112328feec0dc4d2d96a8b73aa3dd2
fc11233becc82daad547459a1d30ed2a
fc1123cd5bfb757ed3fe9cf0afd5abe0
fc1123db6a0218a1d0440d859bd87ac6
fc1123f2bc8dbff7cc8d99ccdf7743b8
fc1125d6622b5df833ce21d1bd310282
fc1127291dfc7bc300d9dd1d34b4fb37
fc11286894ca37bb15efbedf0622dafc
fc11286951812fc5ea0d1897f40bed56
fc1128727356f72018a5a1d7dd6b0da8
fc112a0e8b094dbb7dd129d5a7ae9188
fc112bbcc40240b641ea68e315b3202b
fc112bd9ab78d640aaa99ec73d58c81d
fc112bf061a0366c99137e4ad52761db
fc112c82401f4e5200e7b2f6ab11027d
fc112cdbebecfc637798abbf47a4c9fc
fc112daed65e0ef7c77b75ddc979a9f0
fc112eef755dc765e86ff2e6b38a57ab
fc11306845d7f75c1c730f2c313e0571
fc113091479a09763fef651127878d0e
fc1130fe5c92699e56fe449236f32d20
fc1131af0b53d84279fdcb00af044a56
fc1131b13f7aa6726b66bdc021f86e90
fc113226bfca907ae38e315f3fbe7f55
fc11323b73f48e838075454ebc17911a
fc1132db2550cf702ce9cbb38f79cea9
fc1132f340c727e65537e4579bcbdc46
fc1134c941ddf32bd0873f67ce81480e
fc113555acc288ea51c1b7427330fd9a
fc11356b57e02aa083984bdcd503e6f3
fc113594f7d81fc4bf10497889c5d0b3
fc1135b5654aa98e81c8e58d2e0594ec
fc11376bb6d308119f8681b951498961
fc1137d5d567da53432b1072030056be
fc113929111f106bc09a5ca6ce8da473
fc1139e8ca96c0aeae36dedade2ef081
fc113a48121f6653be2c48d2ce1d3140
fc113a80e73a4f09c42c52b65dd9354e
fc113ad3c079e2ed328994bab75abb17
fc113ae977c881ccba4a569ac4eaf824
fc113b6f6a01e96a5b593ae27689c53c
fc113dc2c316a789445fc0f468fd96fd
fc113dc9fd3b00ab3cdb05af4e614cfd
fc113dd7ced4a65cbe2dd120aaa454e5
fc113efd37f48deac17a38824c8f7d14
fc113fc463e4a35f183bc73e4abf2900
fc1140c8eb6091780b30f157a918f81e
fc11411250563a8644994e09648fa124
fc11414a19d9e4832d0efa8d4d22b3a5
fc1142b9404a4a9ba2eb30e47d858df0
fc1143d050efe185784bd616eb11711c
fc114414c7251503d24f6a87dcdaeb5e
fc114460d96271335bc0e8fe7e394dad
fc1144a2ed745526b0d17b798b5ba4ce
fc1145789e6c148b490a9f15f299e30a
fc11461e0ce2d55ad19d568cac5c863f
fc114698ce62e188fa2ec5a7c2991dba
fc11469fa40be1135fa855b2c90b2e56
fc11471a951e20decd24bd79aa9e02f8
fc114753b32c3e6e2df3501420aa5ca5
fc11477ff84eaec507597505585bdd36
fc1147d1ad95e9facfb802f6cde581f2
fc11480983ce1f35fa2b635d1a0caa7f
fc11480f17ae8631ba3ab98f7250cc93
fc114846dd978c87e5d43cd6884d4699
fc11493bcdd8769086641015c5401c58
fc114ab1be2103728299e3347259c824
fc114ae7b9b8fe528d61d39c03504ee1
fc114c5b6505162d54cb65940a38e7ec
fc114c65f4ee74b4c664e2012d674c26
fc114c6c8ab34f1a357069ad3e4477f8
fc114ccd260a65a2c638efaa15c2ef3f
fc114d4493ae6a3067dd68400c3b7fb0
fc114e306249119713ddf9a4ee20d795
fc114f83418228b169691e8eb2b49514
fc114f885db49e06456902faa0e38c9b
fc11514acad24d0394c0ee8ce3b82fc0
fc1151c03523ed419f6e8fd97f36510b
fc11520cfe50def0b84ba020df8568d4
fc115471455515dea82eb4ae69082b7d
fc115485101683574c13fa02099c94aa
fc1154c2f1abd848d9fb7f0c92c51a7a
fc115574be53dd13ffbc8985279ce990
fc1155dcaad767721a8800e79ec28e20
fc11564eb59c5bce070c0535f8dd5bd9
fc11569d8884baada711a71faad48bb5
fc1157539b79b6e6949dbf6f1c4a02b0
fc1157ab95f9f1b32378ecbc7a18d79d
fc1159e26cdf056e5e19a5e431f28503
fc115a0bb9ec88d8177bdda8e02770b7
fc115a689968f964eb1d32e220599b70
fc115ab95e001b7c02d9f3e4522d227e
fc115b758b3b3e8714bd5dc628ac4830
fc115b8dc3906d0ca4299b7dbdc0d22c
fc115c799acedda1ea7d6fb4575f1e43
fc115c80c9b5efa4f00d15a68e535fb0
fc115c8f1fc0017e7e7d5b013014f857
fc115e19f2c4ea5a3e80412ece7d6a31
fc115e5c773cec2666e3b88e55d0e04a
fc115e74cec1d68344db8cb79e6a0748
fc115e7c0b25ac9f900cfeeed3e09c76
fc115ea46a02072c51efb5806ae67e11
fc115eb3d9d3b0ce83676a9b8bb7d0d8
fc115fc23b36de5e6e8640191c055257
fc115fe31b362177fd60eda8b4e33fa7
fc116174dd5af22f37e3ca0b0d859c7e
fc11620586abc6ce110fbc0fe2b3e2c0
fc1162441a2f32184290178c85871c0f
fc11626c6903f1fc7091e54b1539ffd5
fc1162b054724a442e68274990b16ea7
fc11633353dd8a3d44807bb1127517ce
fc11635555a6350a54a579bbd047fef1
fc1163a96484973386104e409b9f585d
fc1164ea2076d984505c16cf28f1274a
fc11655e2442369afedf98262ca60c63
fc116648421db9db340cd13fcd122a17
fc11693f50f035707b474c98d9dc0420
fc11697cb842fc3560c4e4422fbe09ff
fc116cc8a0718597905ca9e906cfd800
fc116cfc95cc6a5e4bee830bf48fc7af
fc116dbbce8e9b6d0c854b3bcb2ff600
fc116dffef04bd077b4a2f962ec582ef
fc116e9ca601dbba3407bcc0624fafe2
fc116f3c3651e1f6c3cadd88be098620
fc116f40feaf1996937f5a4192bd2142
fc116f473c53c6e5809d20974bad01fd
fc116f57fe8da0ac8097db7593d99081
fc116f67ed14afdbb266b3e9cb509cce
fc116f9546de10d437afe754213eaa3d
fc117039d76c34c35492ddadf8db2e07
fc117122b948e29fda4a9d61ed4020fe
fc1171accc552ac0022c074c099ea752
fc11726814c54be09e2b4828bdb5c918
fc117295357e26d8045e65effec5b5c2
fc1172cf1acffe02d3340738dc3829d0
fc1173129fed27a7e65670ec241ea1f1
fc1173a29a2e56845d72dcf8f3681b38
fc117596bb9b3d69dfe2c16c9c9fcbfd
fc11769c900c83cda153ed4f1221ba52
fc1176c504a990e4a41ee6449e87ae4a
fc11775415c93681818dde9849ed10a6
fc117790bee0a3eafa231a92ac53b5af
fc1177997af5b1060d7f4083dae77085
fc11785e5904562f261e4dfb45b8bc83
fc117989fef002e0cdb393c9d135e558
fc1179fe58c517ec6ef6eb513ccc4e83
fc1179ff1e5f28ea40907ee67c06f503
fc117a10ccbc3a80488bd8a2922e9454
fc117a33fff1cbcd13cf19e507711dc2
fc117c5b41770c626ea9854b2af83f2d
fc117d278d16bcca63b3d951da6d9750
fc117d344c19984af3de9707bf13cb16
fc117dd29b1d6b17e6dfa719c630ba35
fc117dd442212b992e595d8c6254b6c0
fc117e1b32fcb850979ae37a1c8dbe0d
fc117f1bea74895818dfcdb04b1175b1
fc117f5e5be6e3288c55d5f8435b42cb
fc118064a6fe07ba39de770b68b7d3d2
fc118098d909ffcace29e8860aca4ff9
fc1180ed16212cc4004ca610fc14b13e
fc11818f62050a4eb626010c1d048d14
fc118194d2bc75d1fef963d2522175c2
fc11823089a6b8292553d3af5b3ea60b
fc118297d4c4a5e85cc1448c411284ae
fc1184abe877e6ca6d37a45437ec75b0
fc1186de1c2fe90a5df4ff111bec9aa8
fc11875d9a8fa2d9cab3c9478d36016e
fc1187f2ae17667ecb60589bf094c82f
fc1188c22e28c19179b69b80f5c42608
fc118a39e75c477ac66ec75dd59d42f1
fc118a8bcd85683043864d1bbc8c8e56
fc118b674f4f8e71c9843ddd5d820e75
fc118d306c63f7d31cea7979596b3107
fc118de76bab72281470182c548d1334
fc118dececa5dff1ab96d4717abb11aa
fc118ee825b5311e8e915955fcb28e72
fc118f3a42c8c5295686856a9d4bb82b
fc118f9d5cb41834d5892b86eceeb641
fc118fc284d6d9cd28c8efbad2a76fec
fc11900f2864ed194b75d6db94c05f8b
fc11901dfec847090e4ee8ee098bb395
fc11903023934b75c21271e9e9626e64
fc11905a5ac6a7c36e9f58f3de51a4c8
fc11916090fab90ec5f7d6e6d9aab015
fc11926dac7600cdededdf977c770418
fc11929840f14ded7a88b9189de14620
fc119302963002b87b740f567364d2f0
fc11931d94b9d43fad0437c67d4b9515
fc1193a3fbf4a331dd1cc9697b5e66b0
fc1194d7d33bb54f5d2326efccc5dbf7
fc119500fb83cf4e412e8fdc9f7c11af
fc11956515bef4f1b0871aedc91e8ad5
fc119582050ba9c680e40e9adbeb7186
fc119636cca197ea3d09e38c6bfb80aa
fc119665ac117ef535f199a7dce1e340
fc1196a28fd89bb3b7a0d910bc4f2c1e
fc11990f2548e54ef57e0cb08b7fc04d
fc11999dca7bc4ed598557534bc7c11b
fc119a8a7fe13c94ed59a1648893c883
fc119cca8397e8d35895e22f2d2e22a6
fc119cf316e592820face321a1771f89
fc119d1a05a215cc3b2a687e4106d500
fc119eb3a828ce94fc933a5aed7d2d36
fc119ef39ed5a4b5f032797bc278e819
fc119f932296c470423fd30c25bef580
fc119fa400b363b6b105517a19ceb1e3
fc119fe1f61613748589218c241a9a2f
fc11a0078bfc1b6f8a2c405269c7ef44
fc11a149083f3f69993b82753a2890f2
fc11a1cb8004a8c45b5a226a03958fd1
fc11a2c4300678f24e630a503bd5fa16
fc11a36d69edda3aeb7f1c65e5ced538
fc11a3d900381bfe1a9a61a45eefff6a
fc11a453379f001654a93a6cf4071f91
fc11a4838b2d17dd3d134daf8e40fb81
fc11a5388ceaacb39316cccc368b3e90
fc11a5fb8a41e900269374d485ba290b
fc11a70354a5ca890369bc4744eeaaa8
fc11a715f40a2f821972d196630e93cc
fc11a71a1a53ae4be29a52d94820a2d7
fc11a76027b865e7b273ff2db7c68a39
fc11a7bcf0d576fb441eee64acd64aa0
fc11a7e733d3236af59267b29ab19a4a
fc11a7e8c55cec68c15eeffc3e9ee0b9
fc11a89296dd7c6931f9fff63862e90d
fc11a99acea537d0daeb7eb2c19a02f1
fc11aa2da1a76f4de5d97a5482e96400
fc11ab45baf5ad293fb0cfd2373a664b
fc11ac337260bf815e06ce735b041a0c
fc11ad0c950698c23bac12245b145af6
fc11af339b4ac4c0e180f3d62fe488ad
fc11b142529c02829eeec4575e274560
fc11b1a9333b360ce0dfd73a591e1955
fc11b1aa113401be2f67ac00ec635c80
fc11b1cb2428f62feafde16de64e1990
fc11b1f318b14e093ca3e3ab3428320d
fc11b2625bb5f104f5b74e03b0e5d184
fc11b34e24b13febeceadc22c9921687
fc11b4f7ad021d5dba5825e1d3530522
fc11b5e2adc0147117786a06afcafd01
fc11b5f825c0aa4b143dfb6253269b60
fc11b5f901440eea11910a4ab0668a31
fc11b649bf65905fda813bfd4c4f2bad
fc11b6d5424d6c007f409787cbbfa890
fc11b737c596aa6c8ea512f76965e840
fc11b75f9fff46c22dfc797b9fb56f1f
fc11b7864a3715c557ab49d014d535ea
fc11b7f4f1aa95da37add987e236cb7e
fc11b93956c7f9adfbe4399acc2edfcb
fc11b9c993988595e60c09ae4c7284d8
fc11b9e17cdb518df682fd7350d9f1c2
fc11b9eef7d21607f3b0eff3c3157acd
fc11ba50d7d83c1f2eb5725de17deb38
fc11ba61f4098e5138c59441f8c517aa
fc11ba9dc828af26552fb0dff8df32ae
fc11baf47ab4fa5a3405214483f86fed
fc11bafac812cd288808889f6752cd7d
fc11bb7b35b1c82d0ba225bc9ec798a4
fc11bc2597a105e8fc2386183a841367
fc11bc39a2da7b4219466f48d1776519
fc11bedd7d7e6cda3859d4f3e37ad8c5
fc11bf12bd0c8221432c2852d8a2debb
fc11bf3d6cfc1210de8bf780fe49feb5
fc11bf4cc11f74aa00a2be2127239c52
fc11bf7fb043abd434e2674261689935
fc11c19998aa56047e7f1d80efeb6dec
fc11c1d4bb5aa15892da0f56cad1f8cd
fc11c29b19c41b6fe51c130ff3ddbc40
fc11c519ff5562107936ee991cc7843a
fc11c574e129174f5d917c2dc42db5d1
fc11c589da92046998fc18331edc78a2
fc11c653e8d681dce33f8ad7c43ca59c
fc11c66462b2915bc3d81fe46e4f4ea9
fc11c873724a0d13243de28fec548920
fc11c8b0a9f3d89fe6b0c920e2614e7f
fc11c99735df197b6c9d28aebf034943
fc11ca0b597195bac9f2503217aded15
fc11ca2ab8f1b4e9c1d9301a2adf50f6
fc11ca2ef7e4788407aa13835a695ddb
fc11ca3e4f7933dc95bfe63104386cca
fc11cae5f1cd522d70c5af64f0f10494
fc11cb37b418ece25b31b0a4ee2d0fc3
fc11cbaf7f254b6fbf5ae2dd1b28dd6d
fc11cbd2c0b177b713c3cdc2a3d5f635
fc11cc14240b14a27bfab5a68dcef95b
fc11cc7775a70fa68e00bdced2912e79
fc11ccd8d765ab5c60845d873d64ad79
fc11cd0104cb5d5a397c7dd7854c1284
fc11cd1c57a3b65cf520f6f0ede59da4
fc11cd568619990f942e8e9c73b753e7
fc11cde0223d577d774a718b9621ec39
fc11ce4e96b31d35404a246e2755d756
fc11ce6c1f64b1bc052b9453e74414d3
fc11ced3798d31712edf71a1788785b0
fc11ceefc0cdd1878b118adffeba32ff
fc11d00f4b38868743bc50a9d6d0c9d2
fc11d028686d0334724d345d6ae0bb4d
fc11d0517b428c4c24688839080fc420
fc11d0b82dd9e52ff74c3ae50b890aed
fc11d0fd17fccb34ccacf3085f3b3c3b
fc11d123c7d0aeab8454644a7e1817e7
fc11d1323adbe09c3c73c651d6bc65ef
fc11d1fb8ba6294165afcd8166ab54e8
fc11d23e25b400d0b79d4be159170082
fc11d3548526bdaf99d80c96f1c55772
fc11d426b3ed0b4dae231e7cbbcf7481
fc11d511f8058fa425c6c8724a86c2e5
fc11d5bdea3fec2b7ef2f8108829380a
fc11d5e432c5f5cf46045b46fcc2c005
fc11d61ae04e6d77b8aafb49c4e8331a
fc11d6e0305ecb0a91dee262156e0c0e
fc11d93bb9832bb1667b1e3898709968
fc11d947185728416b1556bda2ced016
fc11d94dc8830454938645579cd6f46a
fc11d996a0cccdef7e6f972e5ffeeb7a
fc11d9b6b959fad89a374cc36f60ff00
fc11d9fe5f99c2a0c8a167ae7811a4be
fc11daa945e667deaa30f120f365bd1c
fc11dd41afc098ed2668a140c9959634
fc11ddcd9d7366a18fd28dd577af78a0
fc11dddaabc20e628a1b4709e3f414fd
fc11de795ab8b2e4d125388143393d44
fc11deff795063b5f13815834ebaaa89
fc11df6607d05e6575dd93f710044099
fc11df79245e43beb60ae9e153908b16
fc11e164fc1134efed8ec9c74e19843b
fc11e23cc01db72d137325edf470e704
fc11e30cdc018c5b9bf82921be7bdb40
fc11e36a12f164f7aa9be75557b2319d
fc11e484f5ae5a546e2df9dbf94e1602
fc11e59d7f29abee150017924bec2194
fc11e5faba7f070ebe22318bdc5b31d2
fc11e65ce966067b1eee702b5280e4d2
fc11e687d75267d68ed7a35956e412f3
fc11e6f402c6f17959edee1f1aea04c6
fc11e7383bcbcc23157754932ae77581
fc11e7d175c98314b2d8ade71d741d80
fc11e89b43ffd0b7300e3aaaae66b592
fc11ea9152115c71a93a5b6b1f3f322e
fc11eb14bb79b6edf0bd8fda3ed90869
fc11eb2e43887b4e70fd66e548a59628
fc11eb4a9fa09e2fa42a081ba583ae90
fc11ebf7f7dcf955a0f640ad4ac30212
fc11ec763925d6efcf7206c3e2fc6029
fc11ec852ec6e0bb2ad0543f3ca6d6f9
fc11ed0056262f66b6f93cd7dbabb980
fc11edc1b6679c67c1cea0f30e2a0e18
fc11eea240002f680385d72acb400b8e
fc11ef240b0e3c43c20deb55aa44b8dc
fc11efd86d6d210209dee025ec8727f4
fc11eff6085de549db11b8848d1f2629
fc11f001f55f6d8bc0b6bf104aefae8c
fc11f18abdd274e10f4f42a29450bbad
fc11f24e2a330bb886f3adcebe97933a
fc11f2640eb0d6166e8bd10a66744407
fc11f2cc90f62b243c769e722aba3aa2
fc11f3577bddaea05bced9c7489dc149
fc11f37959fa5d5498854a9dde4354fe
fc11f3fcc47adc47bfad6b38103bb766
fc11f458ea3840f6c62b8001c1c79d2e
fc11f4d438df1b61113e2359bbc8ba22
fc11f5590546725b6c368b721f31ad96
fc11f5a055c5b402f20ead536811dbec
fc11f81d268efb239f34e6c5eb4c66bb
fc11f83c92120d7ec79039b8a2d9cf57
fc11f8b0e295a7c12ee18af837221290
fc11f8bb02c435984bdc31ef549bd124
fc11f93b7b135e213a25647b0b974064
fc11f9fc2ea61c96a7b8a9be05f15e7b
fc11fa44ba0ef7dab60fd849e23b700b
fc11fa5cbded546caff756ef27123d95
fc11fbc5c04889a9f7c874ebaa880caf
fc11ff223f9a659d35b826a7cd1efd52
fc12001a8181537990f6605614769b0a
fc120067e46a5efcd1d597b314a314b4
fc120103d0169a398a48703f6df31a4c
fc12018177724cb99d4442f839b347b4
fc1202734180d097dfeaaa1b038b056e
fc1203776cdb15203c12525163e6bf25
fc120385e23206977518b4edbf4daaac
fc12045e5dda417c2e519a31dfc3959e
fc1205a2c6dfe965ff71c1ed8e3a8b6b
fc120604c0bd092461af77b80781ffc3
fc120669b2343dd4a93d7b331c28f08b
fc1208039a51dec0b0ad0dedd319efa5
fc1208564c27e85eabb3a2ec3f0e6bce
fc120914f1ab6bf4f248ae52e51c6e58
fc1209fd797ebf3c87b834c7c19547d2
fc120bc9f5db9be02dabdaa0f8eb3696
fc120c9a6174a4021ed9449efabeb580
fc120df0309a27418a46384c9165dd98
fc120e7283ea523f9fe1c8eadf7c8b3f
fc120f12a21fad195ba65b003bbdb346
fc120f7e5bbbcc1147aad2b6fa4d4392
fc120fc5063687a39be8dc0af6fe788f
fc120fdb5928bd3ebb865e4583cd3503
fc1210540fc73f7cc48bb3b634a653ae
fc12106c2e95cda8c02390340d2fa05a
fc12111ade036b5d76ec5a8721e15fc2
fc1211ffb1ac631d2a30296811baf79e
fc12126620864902d2e5ba1065fcdb84
fc1212936b0b59a2f68cc2f890ac8edb
fc121397c3f03c63c57bf7ddc3265af0
fc12148599120d62520341c2acbc43ee
fc121553cd45ebcb8395233e60b766c2
fc121602f1f01af9af5217ba3d1ad903
fc121689fc92a2602dfdb4d69d1497d6
fc1216f713d75c40c4772e42d09b2d0e
fc1218a73e586dea7952d19e0cd4e908
fc121962082d56c4e45b52fdbdeee49a
fc1219d4683fb135aa0a2c9deae63813
fc121ac8582d2f26b1740279ce609041
fc121af4ed26e2751f3a8d3c3a2bbc12
fc121b5db5e490622d74b38b6b0037e0
fc121c4b481ce7200ed4bc2562e630af
fc121d694f7ca790284e313d3212eead
fc121f16de1dbad423d2dcdb0f40e9c6
fc121f1b850adf8840f3877f17dbad01
fc121fbca8dbc8dc5cad8508b81dd9bc
fc1220d6b68c69b092fe0ef94e1907e0
fc12213b0ee364e633a6f925196209f8
fc1222417248f931a015a5f5fcd7b22c
fc1222e16cac264bd6af24fde20fead6
fc1222fe8c11bea8e5e50507cc4e2325
fc1223556321ee1d6c703689b2235849
fc1223fe4c746ccdc2d56a05e7ddbe78
fc122434799f2214ab26ca01c942dcb2
fc1224ad9fb09380f157255b791d2633
fc12253da6e61653a95201bb748ea87f
fc12255bbaf93828a9e4b619af2e55e3
fc1225dc961257433a07ff5c843c504a
fc1227d874e0a52c81e3932809c2cc71
fc12282a64902d8aebec2272d965dd25
fc12282c4b1238b801b64e5f07f0898f
fc1228a72c63b9c0ae154d5ef7b41f2b
fc1228be6f836429d6693b48ffbe384c
fc1228d493af93bdcba3bddd24b424a4
fc1228e6726c449317ee9273c73fc382
fc1229ec260f7cc3004e858a85e76e15
fc1229f78073e94c6cf964563bee9823
fc1229fe53446da4c4332308e6dccda1
fc122a6a7fc2d8cbfecd8a007039e439
fc122ada44a9b9ea8f751e5ef93c4f03
fc122b8fa55884a358eba8d8f665f7f9
fc122c56c0714bfb38f0aa3370555702
fc122c8e5932a3b8a9e28a7c69f98ff9
fc122cccf787fb8c4d31cdf2c2199784
fc122d35018b87fce2f821dcda0874b5
fc122d926f70d89ec532e9a4b2d28d04
fc122e6f7fbfe344629415866d0e6c35
fc122e75e7d6f44fb7281e8536ccc0ff
fc122fd61e4255ecfa840429224abf62
fc123220c5377f7d3f875917ac2b41e3
fc12323be9623ac01ef4ca44d45d5589
fc12329b4d6f30303ce5363e5c38caca
fc1232d65a40c7ee025848af407a431b
fc1232dfa8ef83eafdf2785403139f3a
fc12339ee68623f72a8a5c57c029078e
fc12344b753213937accfe015f99a3ef
fc12345bc4264a4499ac8c6c8a85f830
fc1234729973581316829d53928c26a7
fc123528440fb911cc6cdf007a5d5bd0
fc1235d0e30337f41de00fff7cb08e94
fc123657242eb6d2debac0a6b13e8be0
fc12366d5e55edcea9b5feec13eba338
fc12375b739f3c96004f31d442d4a3a1
fc12378d95cc92eed3c447996f0d58d7
fc12386b78e28985d713125462c79c7f
fc12393491bb69286cd8ce0d220b06f8
fc12397e692c6a4d46db560ff744580f
fc1239e1a5224106fbb72882737934c1
fc123a2f4b70afdbc38d92df48f004a4
fc123ac4cbd1f57e179c5d761346678b
fc123ae35c38293a7272f3241af1d19a
fc123b100881043a0c5aac6f70b626e7
fc123b6989696f7dfd2e825b5f4caea6
fc123bb0b7ee4a155ffc6fd73636b3e5
fc123bb966dfbb83963021fae13669d2
fc123c5e6ba9c83c7875e265ee05d193
fc123cebb58b5d46bb1e913bd02af517
fc123cef7d8beb358a3068eb80a18222
fc123d168a17c609b5cfed8af57d0fb6
fc123d8662c9cb3624a426eebf19e510
fc123dab542efd3164dab349f57fdb5e
fc123dc3fcfc78f5321c34361f06b956
fc123e290800e7bdf5b9f2559ac29dd1
fc123ff57f91bf9d343f88d32c340cba
fc124020b9e088628f23b73ddb6b1db3
fc12403867221699942c3f4e2625e39b
fc1240840e144d3f06335354ea9d6c08
fc1240a29bd4f05555abacc796096fc8
fc12417fe128aad09df8977178603f00
fc12428d4d4f1db2c3cc9b13ab0c6844
fc1244d638962daaa1f4fff3a2bd4a66
fc12450f01bdd7d866c88151c57e6870
fc1245f1528d30120988debebf91b0ea
fc1246657bb3b05f7273f1b0d0aba9a1
fc12469349c977736cd72f4c43a2993a
fc1246e1b963d4008be8c49802039546
fc1246e97032f1c25ee4ae9233120107
fc1246f9e1a2dcc3ec5d99f89f180feb
fc1246f9f7f4e3b7d664a38620cdbef8
fc1247099188f0131803e62d4310ed15
fc124711305ed7bcd1e418582db20c40
fc1247cb2e59557e56c0cdab59a60f46
fc1247f1a82829c7cbf75e381a90da95
fc12484ed226d541b303d3a2cb310f2a
fc1249118d8383c098507d2fdea06d4a
fc124970605d6dfac441142ba165b1b3
fc124abf16c2da000666cf53df6a15a4
fc124bbc95b6d4946205e0f9ac9aa840
fc124de3fc9cb10da99b9bdae38d90d0
fc124e690da6338b403184822bb25c5a
fc124e9cda37759f2ea0bd56fbce7bc0
fc124fdfae2d35b890ce43a90c0de499
fc124fe8bad9baf179e196e8aaa5e61e
fc1250c65deee1aa61b472d0fb1713d9
fc125294ba1a0206a6c13814388856f0
fc1252f5067749a5a9f414176582091c
fc125348a0a6a965a9fb8531d80bf4d3
fc12535fb2e07b5545a5fa35513a523e
fc1253694cd016fb019d36f1e581a57a
fc1253f49ed6bf9b22b2d69ff7c49051
fc1254d381d1a5c71054c5a02da8e8be
fc12552054147d88ea944e381afc7141
fc1255566cb6ebdefb61909a8c06bca2
fc12559848324f9776e3f63581af7120
fc1255ebaabe442ccd8177342d383e05
fc12560b62de47c616e9926553f30295
fc12568fd89fcaf132f9eb5ed8381f20
fc1256bcfca15f483eb90b58c09f17d4
fc12573ce086725416d1c8021a1c05ef
fc1257a76cc01ee2cab78d67cef9d4ea
fc12585e8b08591f50cdc53c8ad080b2
fc1258ff8b6d375c997fcaf568106471
fc125a03dfb920761ead3efd8fada95b
fc125b3dab24e83d10d6cfe406cf82c4
fc125bc021e214ff221493b1d9f1cc53
fc125c586c4205b4b31bb8deb7c30789
fc125c6c18c4ddce623c02b25772c797
fc125c73e78e0f9a21e7bc343ce52a51
fc125c81c3b3dd47729bde45b770cfcc
fc125c99502fb5099c51bb4f3554baa9
fc125ca6830a1f19208a25ef437c3b6b
fc125cae70098796be1944e89771b153
fc125d3169d358f021b35969315f2063
fc125d6321b48ae6bdf794ea0e83dfbb
fc125ddf4d3f9ccdb4a10b601fe23902
fc125e064eb6424016c6aba4d3eedcb5
fc125e1124143be5ac18f821efae416e
fc125e5d9e11f6a1b86cbc5ffafcca4a
fc125f38559a2c280aa8d5c166fbb369
fc125fef351731001bedc255eb3e1657
fc1260834de619a4ff4b3ef194472e61
fc1260e5e0c9f9cc9f2f7504c1f0d280
fc126132bcde5c9821be753d6c36fb82
fc12618361f9958b35ae97075766e638
fc1261d31ebe9ca2f1b7dff95ba684cf
fc1261fe2be5622ef505783353430722
fc1262d7a12adba340c0a00c86651020
fc1262deb2f50bb4da9d171b5ef43db5
fc12638e075be0cf6c7c7ce07eeea8e4
fc1263b8a2d731680b4272a82e47c103
fc12640abcd6dc48c983564edee80deb
fc12648fb55b9e57ec72dff612094bf8
fc126628f2c4aa64bb22c5d0354097d6
fc1267dd554a116c392c209c0bf4fdff
fc1267e616730945f570051f0cba1e58
fc1267fd527e0b4ae7ea1087c63627de
fc12687127046c56f6f5a42cb6e96597
fc12691e063d52d8df5e0e8f10946788
fc126994c4cd121a135ae1b8c33aa251
fc1269e0796fe940735d5515ddfb9775
fc126a91087cc8cfa14de149b73ea34c
fc126af32b39ad7043b1cb1d2e468a23
fc126af9440db1e141cf4576eb697149
fc126b31aa77a470897c4feb5586ae23
fc126e1cf841d6073dfd3a04910d00c9
fc126fd8b2a50888ac1f3da5bfe80206
fc12718c4fab0aaf99db781735e3753d
fc1271ccde50cccebea1dd8669c5f2d5
fc12721c4850dbf6c30d1299e6db0faf
fc1273762220c27105f45ebf6afb25ac
fc12738509e428a1927390315a596fbb
fc1273aec52787d60f9a70e978aaa60f
fc1274e4482814e7b2f907db7ab02644
fc1275ae8a198620845738a25e0a7601
fc1275ae9f47c022758fd82cf76be623
fc1277df1c1a15a0e6da746d776a0f2c
fc12785b3d8bdbebee48964c3f671886
fc1278ecafa43a89ef4f09f9361ffac9
fc1278fd6c09cc749a675aa03ceb29d5
fc127900c797b4fa6c28f432bbb0a8d4
fc1279071102fd68a58aacf13c04eb4b
fc12792ff18bec4c7eed4169d1cd5e51
fc12798f894164f5f4ca18c84876d409
fc1279ef09badea1752a3fa32238b88d
fc127ad4c9327deec322c55f967b0a0f
fc127bf3dfc37e99f533c7e4cde38147
fc127c907493b736c5d95076019554b9
fc127cdd8e5578ff1bfbb4e30c295e5b
fc127d9c567d71250b692d4f16e803b7
fc127e33e29235182e6f66fa8442003f
fc127f7bdfbf965e3f7fec63922bd3a0
fc1280be64762efc4fcf8a8dc527ee6e
fc12814223e6b1b4dcc5a77c09853069
fc12818bf51b197f27a26c09895930a3
fc12819984dc7d39ee227381f4b28f6e
fc1282522420f4c174427511b7e87e77
fc128256e012ba0a9bfb100529752914
fc12845ef065538458a940ff5416182c
fc1284cf5face67f2a3fd3f4ccdc494a
fc12850808a932598d80c5da0ec6896e
fc12851205e5a01b093422275ed017f9
fc128593e9f2967f3d339a9d4e726560
fc1285ec53325bc946980a75e89fa0fa
fc12866e48701113c21494db06c588c6
fc1286e0d708f810440d39e4c2f697d9
fc128857f3f02573ed687783206af43b
fc1288d903aa3c6370f4cdfa670973ce
fc1288ecf45bdd0ba5a12d03617d9ff4
fc128b0ba0f1c3c79e0fd49eea48a910
fc128c34046e464aa70b861e86d99b2b
fc128cf865b53d3a49523376ab578a17
fc128d66f6e16a15b3b59c12930012e6
fc128d6e44062de79ffbdf050562de5b
fc128da57e7c3968e3707069e6ae8d73
fc128eca77991487a3a0d0e94430252f
fc128ee881acb43789795bef008fbb39
fc129023c60d9f27736c2a2626d1d3a0
fc12906ce12334d2412fe48686e5226e
fc1290c7ffcc0908333a4784809dddd1
fc1290ff8f2d3f533d048e2c7aa6e92b
fc12911872565a007a8fd82129dd2729
fc12911ee5e4af494153b9895a54aece
fc12913d21497a13cda86f67c591c6ae
fc129245ac3a9b74f8214ad0e467939f
fc12948f1cc322307379b7c658e79073
fc1295ee05b7127e1e584527437978f5
fc12967ed61e72af350d6ffb5c208980
fc12979e1f3e0b01a85eaa81ba9fc72f
fc129936cf543d4ca5ec29e75d292562
fc129a9ef6dc5eb03f8af0a65daa9439
fc129ba56a7cb82591bd8909da90255e
fc129bbb5f4b8331c5430b706d5aef23
fc129c1bc6c95168a848633b8e68fc69
fc129c27ed31c65c28be1f2814b9ba70
fc129c443bf4afbb3f078bbd45673a1c
fc129c6c03cc096637568d1242b79b2b
fc129d787c84cafeb3793755d91787d9
fc129db77fcdd2d2275552e089a4fbac
fc129dd55dc20bcb069ece68997b29b6
fc129df2ff40153ae1764f68f8133b28
fc129e6ce17b109d8f2b0675166c9221
fc129ec0f93dd5bb21045c3cdbda10cd
fc129f1988b135a93409b306c8b53098
fc129f355349020e166d36559d8e53ce
fc12a05f472f058109608dcbf3f73559
fc12a0ef7c17a22ca89848e445700d0a
fc12a176da07da5bdcaa7b60f397a600
fc12a26b7ee1527ebd890069549639f8
fc12a39cc359e67d6653b86344d4a37a
fc12a3c95ae231d85311b7e427988175
fc12a404cec812fbf0078a66d9bf027a
fc12a53bae64cb6e55e31b56634e4868
fc12a56295f06134c5e08672ce7adc00
fc12a5cda822bb197687bfdff6327fb6
fc12a5f6d8aee0c429923ee2002b6bf6
fc12a65d47a5206429fe53fdcf40e0aa
fc12a7effd9534efc392533c8b79c945
fc12a8c39e8661019f11ec3284ae20fd
fc12a94c8dae008b3fe62cb14f773636
fc12a9b96e4e64d7d06420eadf6b428d
fc12ac003a8031aa44c904dbccc1d405
fc12aceb10d086dcfa840606e1c350d0
fc12af0f3d83e7d6b3b7b4ec9b619001
fc12b047efe45459049a4d5e0803a91e
fc12b2995006d6c5c4b5cfcc325faf0a
fc12b29b96eaf928af6c3cfec255100a
fc12b2f306a7bec48d6c589da92a956a
fc12b2f535db87c91eeae10a4933edc0
fc12b3409e56f462cc54a2f86022c154
fc12b4d2a593439c14ab82737ec511c3
fc12b4fd1b1f5a095991e207652193bd
fc12b5574027161c3151a8a0839b5347
fc12b6adc6981a9e0b200b87eb00087c
fc12b704ef8176b6aed5cb1c859a47d7
fc12b7a37a85b17beda8293c20093925
fc12b7f35d1633c86c857751bbe3b34e
fc12b856fd81ac4ce610b4c70c2e6078
fc12b857ba7a73332556d083185583a3
fc12b8a3ac4845b4079e73ff988ac178
fc12b9c03bc21037f1f9798243b44aec
fc12bb25963a495d99586a13b27186ce
fc12bbd845aebe10948cc89ca7aacc8e
fc12bca29db1205460ae0d9179b864a0
fc12be270b5a4d69d4ce38b9a51079d0
fc12bea4fef5a232d655aa6fde45d9ac
fc12bebed9f2c41698c908acd0e2edc8
fc12bf04640a8c34d221d07c1988f599
fc12bf6b2a66ee0202475ffc763b35ae
fc12c0025b488ef9d896140489ff4381
fc12c08ddfdd1cafbb6ab284b12d0f19
fc12c1848889514d8c470819fb832c1c
fc12c19eaa4aea4cf5d34c50c2ac2743
fc12c1f5dca58af548b6e40545631040
fc12c1fbd08ed80dc44ca1c0fe2c62fe
fc12c4dc9d3dc79ae3f95194a93fce7f
fc12c52a087fb435925f35ba4384d1a3
fc12c689b965e64f30c80f7c8516566b
fc12c6cc42d98479c74d33b5c180044f
fc12c796ccfb55e91db087eec0e9b64e
fc12c88013339427bdb853b98801f081
fc12c8a81a7e064729a99ede9218bdf6
fc12c8d5f3d37cbff9f88183c1a1498a
fc12c98c01b7ca4a747ecfe2873b78a5
fc12ca45985ea0b868d2587cf5318cda
fc12ca8a10999e666ec38a1d675436e6
fc12cacac55a9a928887d42672709be8
fc12cad1049f4c71048b67821af2ecce
fc12cb0dac5dd8cd5d57694574cbd9cc
fc12cb157f43356d1c00a1df99b8d5df
fc12cb93a6cda4a9de8118d0a7c31a0f
fc12cc4fba8fbacacf8c42b84aad856e
fc12cd5d3240a06437363519ec4a8169
fc12ce415e664c159ea99626aeef1fc5
fc12cf7467fbaa940586fb61d4fa8efb
fc12cfda85e043ef2b09162867a24f34
fc12d0aaf6c3c4a96aae40b38ba866a8
fc12d1bea995597c4eb2a8b4e08c2ed0
fc12d26ecbeb2b3ad973dcb03a93d6d1
fc12d28de79bd263ce31338aef2326f0
fc12d2eca1fa75b5979cdd25900b6ef8
fc12d3fcbd40c1bff6ef8f57f6bcb36a
fc12d43f16bcb47cd61f0e0e3d9af535
fc12d48865adbe1f1146c21a11b063c4
fc12d4e2d5ed1e6c8564b943ef96d24a
fc12d543812600401ac874cb7b9ba863
fc12d5b309f5090cc04ae5a8aea31c5a
fc12d5cc37ae3f7dbbba0660f452048b
fc12d6da98ce0f75cf06c15101e32617
fc12d74939f74a1a04e2eca808a83942
fc12d7ca58e7586d8a0fd68a6c4bdbe7
fc12d849382a197f72788e1afc6e99aa
fc12d84dc6dfdad9c80c8c680b1a2223
fc12d9ab95ea121ba33fa537d6bdaca6
fc12dc6329ce8ec33ec77750b4f16c2d
fc12dca438d2b9633a65b4e61a7e3a5f
fc12dd1776950d84ebad94ed9f59968c
fc12ddf34e61cb4a614f3276a4181b8a
fc12de28cac3c7dc89ba876c51607cb3
fc12de6af3c6910283fc9d697c177535
fc12dfe87b8171b56cf79e5143c3c240
fc12e0d0f9eaa2370c7a005f1502780b
fc12e1bbd379443610f472e961ec2668
fc12e23af4238458422adb38c75326d1
fc12e32b1a68bcfe4eaf56585b5c7b79
fc12e3ee6c6f2fa1e67899f72102f0b2
fc12e4d642f42f8f78c1833baf5963d0
fc12e52775a468c9c1eb13a9cfa4dcd0
fc12e5bf4e4f5eb50a651218bcfd51c0
fc12e6365a46c83e08504c0e04d9a4f7
fc12e6f30206defd357a37ea97e0c4dd
fc12e9439e1bfa1302c7a565da65635d
fc12e96b8b6e0f58ec48cebd9c3b53eb
fc12eb40dc931277dcb52550edbac247
fc12eb7bcfb4bebabe24e8d001e6751c
fc12eba0b134088068021dc4db92d5f1
fc12eba5d6586156f8255d0a182a0a21
fc12ebb9a262f168696c97f7a899cbbe
fc12ec1d408fede3997333990e2c07b2
fc12ec3499765ccd9114ac78db8e5ae0
fc12eca462007de9b05ad7e6d7d21fd5
fc12ecb4808d081ae4833a9132b06447
fc12edd08a1ccca4fe08c9b67c723cd8
fc12edefcc3b3239f5b8708ce28ebab8
fc12ef1af465e62f5c8b9dcfd731112b
fc12ef5f0c5a68a4d1617a5a2833761e
fc12efd424758316d14a8ed655fae823
fc12f03c1def7852a000509264452ca1
fc12f057c4d1ba32c1d44cb313dc1cc1
fc12f069d4b37bd1b3589e869bd85b63
fc12f06f5bd72ff3c7c8d659cede3e21
fc12f13f268b06d9c9cb68444a77102a
fc12f1c4a83ea3537c2bc4207b732894
fc12f2eb550b8e00bb6a2b72fd90a04d
fc12f674ffc38a2bf70998bac11d10ba
fc12f67fb0d622e1548c3fc1c6cd9c73
fc12f8bbd4696f05d99f605346eaf13f
fc12f9a47b5a07c5a459217e3e1b2761
fc12f9b35abb81b117ba9f9bba780211
fc12f9e133d3e3f9aad3b3c8f47289db
fc12fa59a27d3cca2de2d5c6bf11e306
fc12fa90ac32fa720e240d8cc316af00
fc12fbc8f5b37bc74f5c315729d24e30
fc12fc8abdcb71908ba3ba57f9b732bf
fc12fd1c7a7248786c82243d7ae46d29
fc12fe25938b4a8a656ff72b40c2719c
fc12fe5913f1c1a73cd0e43fe601e745
fc12feb56fbe6ddd6fc3a4b371d34683
fc12ff1e9223813cd4a3d4cbfaa484a0
fc12ff55c988e2d1bc0aaad822527cc8
fc12ffb6362dbb45e3f9398d6ed5021e
fc1301deb27129de30b88798ccd3b148
fc13028286f3c8f87b31513eca9be053
fc1302e75c12fbce0a475ce7d6b77afe
fc1302f6aa986fc32929453e2e997e3a
fc13037c7e8bceb440cf3e099ea6fd39
fc13038465b20bb686eed18e40ff02e5
fc130453372aa01b98c363d2e27d05ff
fc13045b58378e46c26dd81513142687
fc1304c109ac3765d29db8db4fa3bce1
fc1305a33665db2e26e89fb26847a639
fc1306567ade9386f2f0b3312f8359e8
fc130716e94af77f9e0d4c5776c54dd2
fc13072e99ba7ef60908ec08842d80bf
fc13078d309febddd4e1406da3fa68a2
fc1308413f896559ccfefc5bd31acba3
fc130a38d1f53dc09953f7693585b442
fc130b0cd65d995722c0936744ad6bb6
fc130c39ac3103ac28ee1cf18c005969
fc130c87c52a39a0ddc589cd81e93a1b
fc130d3c15986294079766369e5e21c2
fc130d98da31c01b54787b58995e202a
fc130e5d1e102a934c51133974b7f3ad
fc130f6273ef495a56cac5a72008801a
fc130f9b315493b9a2c91c5cf1f84b5c
fc131169a2b07b3b893419413b8e729c
fc13116dce8bad07ce2a72baa3a69c00
fc1311abae74de3756b2a664aae30aa1
fc13122c390d13951de41b0f73ce0984
fc1312e7f9b8396faab922a07603ceef
fc131378dd8c81801148660008929158
fc13142093378785982c8512b0f9329b
fc13144e73fe75fc4b439e35c0bcba77
fc13146f72ae68d56e5b51017ab00f59
fc1314b18e256b0a0df4e008cc287167
fc1314e1bb480072abb9e15725a425ab
fc13153b1886ac0eebd9c7776bdaec64
fc13158c9c8a2cb345ab741e9193dffb
fc13158e5c955790a235b7ff8127364d
fc1315c0d7759885046e30bfbc4fb756
fc1315ddf57fa561d99def63256dcefd
fc1315ed1ce9c002a1303220686a5cd2
fc131688155dfe282e069e1a87a4e382
fc1316a928fedb24186e7c28cd82218c
fc13175dc848108ffafd7958c2b884fb
fc13184a222b724afe0af5a71df07c0e
fc13190d9cd1febcc8adcc46eb0e81cd
fc13197a597b9e9f6e8df184f2d44236
fc131a1b281c9d365949e5b68bc57b10
fc131a79261311f3566bd6db276a983f
fc131c5c2008f72d3d29d7fd2dcca62b
fc131d70da981fe5b03ba8d4c6c4d6ec
fc131e258866536b79c0b5db2456c6a0
fc131e51d1d0084eb5d942ac8e120c81
fc131e75dc3abe34b42235357249c64b
fc131efe6bec761d7c0b69ca216c1600
fc131fa0ebccee39ff265fab12180120
fc13223a2eea693398d3af1fb9644321
fc132254d96dfe16c65e9a4ee79a72b8
fc1322ffd395cb5ee44447372c4221df
fc132393e8027efc6c0fc0c097d5a1e0
fc1323af237d30011ff98cb5302559b3
fc1323f538b913232a2bdeb87b631c89
fc13252a372dd0c91a6b5bec25c2af24
fc132538288c85f7e75f26ed2d4091bd
fc13258f8c78501f918389a70134dadd
fc1325966d266dbbdcc39b1eb8142c6c
fc1326bd22343c1b6541af16c973be83
fc13272cf79c0d30a9c9c5a5dd77b2fc
fc13279cf5a9330c63b9cad2a72380a0
fc13292fca6abd491dc0699430aefc50
fc13295140374b4855fc2b722d49f421
fc13295d67c545d438422c340c99f5f6
fc13297f0a10c0faa2c1f958d61ce239
fc1329a588b0f695fca48c560d94f0b4
fc1329f9ad6d61b494bb0df9a10e79fd
fc132a8c0fb1ba9466cdc6f6b1012415
fc132b93b29b0a70bc5addcc838d3f88
fc132c48c13d8809c4d7fd85be9fe8d2
fc132c84b90d2dfde9dc41d5bd0169db
fc132cec2c011f6461e9f656ef978316
fc132d0a56e363842942203ca43a77aa
fc132d8d06b2997a4aadec170bf9efaa
fc132e0e299e7ca2bc6a496914427740
fc132e50d5cc23a172e0471d89487f78
fc132f3b607fcde0f06d335239089cee
fc132f5bf5e1cc2609e383e012016786
fc132f95472917d26bcbbba87747d46b
fc132fd9cd52b68ec923c05cfab2da23
fc1330f75048c0289d19e33514a64178
fc133113b215018b2971dc0a047f032c
fc13329d23d54deee17d7b444820c4b0
fc1333367889d4616c814083bc76b14e
fc1333da70f080d763a150acdc6374ac
fc133442c8ddb2de1678b7c688c179f5
fc133449b081264a86eaa99edc606465
fc13345ae84ad54e12f3cbc0c710b1d9
fc133486f037e4d26de9d9d4aa88c9ee
fc1335eef311121a36bcd9979bcf5e2d
fc133670568052d886f49f62f6016cd0
fc133686b3fd83d30f06e92a411ad698
fc13368ca0d1ca89373061afba4aba4c
fc133781a07140d5785b6a46ee463970
fc133876fe7432b25bf307748c76887a
fc13387dbe620d0679fd42c4dd7cc680
fc1338acdafe81496ea850985dc1c820
fc133929c901abe5fc8ee04e9318ed98
fc1339651fa16daaf77e029301dbbacf
fc133a78638ac2dc037aa8220028f446
fc133a9ba40008e39a9fa45624b3b515
fc133b2535e67fd9160c2897701d939c
fc133c7564e32dd59b34eaec60a9745d
fc133c9c2bfb1c47f51f4bec0a74d417
fc133f0032cbf8d3fd0aaf6a9964c3d0
fc133fd7c45122974e374877a78b55e4
fc1340e3767b0fbc8174e0a6205154f0
fc134166ebf06357964610e78f9ad0eb
fc1341e060d040a5b6c3dc15071593e9
fc13420bb314a5db73bf8ec470f17e5d
fc13425f98cddc7e47dc97f2ec033142
fc134271b149116bec2e2a827540517a
fc1344eec10cba2ef95e86239513d2bf
fc13454c391cfb298f1a1d8386f66e0d
fc134580e56f9dcda34d68018dbb18a6
fc1345883d8b50b5c8f49c3d7ed1c200
fc1345fa82f8494ff84e27d89b7be816
fc13490170e0b19570610ae517100ef9
fc13495e16c1332147361a9806074e01
fc134a8e1e5f41e1bc69872827b3aff5
fc134b0e5e760a2cc217dafc777db6c2
fc134b222e5907c5aabe6dabffe11eed
fc134b4cba1d977c7fa02a6387d002ab
fc134bc107d70eece47f36fc0dac1499
fc134c1339a7fe98a432698a516e6b6e
fc134cb0115fbca742126e6a5d2315c9
fc134cc4e289735201b9e0db03e6ae31
fc134d482be0e2d94c879ec34b535bc8
fc134d561822e68016eb043a69a58470
fc134e25216e1d6edf7853d5796ff700
fc1350cbf483d51f6391e43d9a7ee807
fc135104f269befa7ec7f092dca8bb6d
fc1351c8c894c39886bebdb2e02bbaed
fc13528ac6046cc2199bcb907d2314b0
fc13528cae5700ea8437bb3fd93086e2
fc1352a2b42737d97c0218613e81c46b
fc1353161d8f4f51d44062e1b6bf0127
fc1354900531216d0e82a683d2eb923a
fc135522041f993f96fdfd4978ca95e4
fc1355735175670b3029d71db57d1622
fc1356c11094ad22d0333619c675e800
fc13577f9e5c44bad11104c487ce15ab
fc1357b61c54d2ad77cfcaec5a3879ab
fc1357dc4a3759e6e379c3c259ecf4f0
fc135801fe1d9901482ffe81b851ba92
fc13580ba71b69e5339b59d189f7ebe7
fc13587d9eac8c72b6ba25b8a42263ff
fc1359ab3699869b3e73da92510a8f9e
fc135a3c881efdfacd4c4b3da8fe96ce
fc135ce1f203a1b24c3a74c8bd56b578
fc135dd9893e7fa8f7450a09d4c7a3a0
fc135e73a73ce963dfd96d122767f45c
fc135e9e4ba97c80bbb55ee58c9e8c65
fc135f4f3b795e34fdac37382822309a
fc135fdf83aa813d5c26be15287ea26d
fc1360103fddfa0c4955b18b6beb2edd
fc1361d99b4f35cf53f66b8dc1015ae2
fc136212b2b60469835da9c1a290c34c
fc1362bb6baffabe9b40c278c4157672
fc13630d6be13234236437f44996fb2d
fc13631c46d361b836be016a3da603b3
fc1364424711887fa7979d7a534b6d4e
fc13651dfefc73f71f8e3b23d3801ff0
fc13655db60de1fc666539b0d88afa36
fc136571cac4e6cf9efc66769b4c38f7
fc1365b8cbdf81182569b4b9fb9d2ba1
fc1365db32ee33322d983948ac345100
fc1365f9d20c4be534e684f014b99fdf
fc13662be240917c46d067b8675f170c
fc136646de8eddf3d9e905077aa4cb41
fc13666563b73264e86f5edecde11770
fc1366a75bca129c3134f22f8d96eb20
fc13682ab08556f0984512fb80aebe09
fc1368484c7577767a9f77d1c13be69a
fc1369b551df4a4e13b99e04c7238bc9
fc1369e75d30c6c83c55d88bd33d3456
fc136b40d0fe9761b9947fc67758edf1
fc136c5349a65a7b7f0c5b1bfc8a26d7
fc136df529b5d6d6165107a226fd6d30
fc136e2357ebc18061c2e66c4520092f
fc136e347f4e6df881eae3c291623d14
fc136e5de23a1b579a337e6cfe9242b9
fc136f5a67523465352626c21f55547c
fc1370026d2e72a96586b33df7ebefb0
fc13715c23bd156e54112757a68577b0
fc13716da03aa451ca8cace1028239a7
fc137277c4fbf7bda5a2390d84b6a363
fc13734175008a8e825b717c8e93885c
fc1374bcaa0162a50db19b1930ed09bb
fc1374e5829265ef7ab08518ee261adb
fc13750af79ecae5e7cb1b9a48fccd77
fc1375159694fc31e60bb1cf258f26e2
fc137577e3f78d29a147217c6902b228
fc1375b6d439c26e7b4013772ee06261
fc1377367f58474b55a913fde98ff5ee
fc1377d81a048257c6c8355c07fd55ee
fc1378b000d54ee4a6f0af82f474a17b
fc13799f84c526fef88197a6b98926c9
fc137b80963ef75ff89b5c8d399a96d2
fc137bf1007404d86b3842cafb1c3aa1
fc137dbe5f566cbd37dbbab32577fd6b
fc137dcc925c6b09aba6d0ef4bf399a1
fc137f4d5e95a82bad29f98a2c49d805
fc137fe2d3e41664380c90718ed23e73
fc13814147a7fe2bc8fadaf87c64931f
fc1382ef03c6091a6bd5113a13cb3e24
fc13834f806048cfcd16f129cb202590
fc138351c3e301b3fe683728e65ec2e8
fc1383f2cb37f042f7f788f98ea5ada8
fc138408f0ca8fbfd2d4a5b04120f89b
fc1384d8d8249ff5fb0b681bf522aa49
fc13852c3a1787eb41f3241ac2621e5a
fc138579020f24e7bd4b2ddcb28143bf
fc1385dea6d382301f6bbd2fb8d6c3fc
fc13862e17a0c6b6db19c05788cd2073
fc1386f9a98b6547bb3a581b36386104
fc138745aedf081fae0e6ff2f5953c8d
fc1387c86076cb375ddfe104abe37328
fc1389383bda1c0bc1624e08fff6c040
fc138b24fe667c849f9154b16a0d5a64
fc138b993f7d30fda2ec87784fb8dfc5
fc138c58fdbed31dd11da860f90d6a94
fc138c8669af3f9e907ddf4d542ffdf1
fc138c8c489b2621a99fc0e9c5f1b635
fc138c8e364fc6d8f10c1f6cf48a5b68
fc138d4a22861d1d20db56ac0da4f050
fc138e546c8d446803a36a9e89d739d1
fc138f1aeb105ea351716736a39ea284
fc138f7ab1d4bfd407f8dbfb28db7148
fc138f8aa249c8e7dbc89cf735edfb3e
fc138fc8c7455e6e4c459a219a68c183
fc13909d10cddf76daab3c2a51284c98
fc13912afd7bf2968dc58be17262e7fb
fc1391b30d1664763656d5f750a25d53
fc1391efdc1820bf1339990268240d90
fc1392394a17fc1ac84930cf4b0e84b7
fc13924390e4b3ae2105b1a7b500851a
fc1392716fdc0d33569ce809dce13b2c
fc13930cb37b02c102ccbd3eeef4661e
fc13933278cedffc6f53868e57eb2dce
fc1393afdbbdda604dde3644b29fc642
fc1394cb79af12da267398914b0e8e30
fc13954f3e9c528947d2555fa5620d50
fc1395a0ae2396b1380f44b25b1a6a87
fc1396a8adfa622a9b7631b4be2d2ce7
fc13985319fc7268c3841d1820429f4f
fc13987c45af6587005cb50689c5b676
fc139912d60971af6999d4e81e2bfe26
fc139944dfbdfe567bb38085ddc8255b
fc139950ae844ed5a2d1efdb710ff150
fc139a274d38c238989de7098eef1bc3
fc139a2e5bc34c088d89b9998cbeb371
fc139a4244e850ac40b190c05bf958c3
fc139a90117d0f967e82fc709d7f7d59
fc139a94dda29077f16ee5b15d23a2dc
fc139acb832f46912d89da97aa5ecbd6
fc139ba082cd5cc48ad5a52857239b80
fc139c7b8d7966c9b85bccbcda9e4478
fc139c863c16e37ee59292a02ba930fe
fc139dbc9b2b8f47af61a53f51faa052
fc139e6919b21aa9f42395c14aed0fba
fc139e6e3caeed0abebe3497af183848
fc139e9187eec55cd1998599741e6e6d
fc139f6df4eeda06aa4ade4c2e51e94e
fc139fef3238713a9cfc4c90dcabc848
fc139ffc9e12cdb6e1223f0234fa79ef
fc13a0963ea9bf63c77436436ec99aed
fc13a1bda7f783d3872e4d3297eeecf6
fc13a1d6a550566b73085cbd1feb8767
fc13a205ab0c5bcde5f2b2efe467e4fc
fc13a23a9cf537d8bb06f6c67156f5c4
fc13a2f23e4c83d555940727a90ec4a4
fc13a33fc544e110f1a8561591ea9711
fc13a355d9299fb4c6b86d1b3ac97c79
fc13a37eda26ea7bd8a91e3cd5535634
fc13a3c8aea6ac5cda3f70e2946e6798
fc13a3e8b4a27c55137fef6a656b2b73
fc13a47a3ac601faee1cb9c953b071d0
fc13a4d898c41155eec59f154a1d9099
fc13a72ea34c41b6125982a099ad50a1
fc13a832501dc8d45ae072c3fa5f3e47
fc13a87fe455c2762af4aae1b1d2a2a8
fc13aa4ced133a7769143e72a70e79ef
fc13aae7ac2ebf888daf7b7c1af0504a
fc13ab0317f2eee54a994b4d7f22f873
fc13abc3ce6cbf1ba882482ce6111837
fc13ac298980bec6c2ef1cb5fbdb3b1a
fc13ad3a980d74d267cb8f7cf3c9face
fc13ad9a6119939e44255143148efc0a
fc13adb385b036c2a6edb9d4f3472fc2
fc13adfcd4b08adeb37226488b880181
fc13afffe52ba5b75a3659f394bbe8fc
fc13b00f50329b7979ada8baa8c3e7cb
fc13b08bbf988b21d6e6edd7e141923a
fc13b09e9e82ea0d016b6e9d685b13e0
fc13b236bee15f8ad49d7994c4a2db8d
fc13b251b43a4184ce4c3103385ba290
fc13b34d2e23d41eac4475b24f72d658
fc13b3992d6cd619f49d34a521cf7326
fc13b40b3643a783f40c77e6996c2df6
fc13b4209fe5ac2241329067e0aecdc5
fc13b4285077ce0b91ef240580452031
fc13b4328afed98f4a82ee3ac67c81f2
fc13b4a07ca23dc83a4e1c85b0a1b9a2
fc13b55a1c664d75c59e330ea11caa2e
fc13b56e2b3ec7c80d791c3932fd0aa9
fc13b5b6c894a2aa5055e7cec60b5e7f
fc13b5e2225864a94a06a16b67ef19ed
fc13b66e65b00683a856cb55d3e9206a
fc13b7140b912587c6cb279dd9f93dc4
fc13b72e71e3420159d7974c833c53bd
fc13b960e6b6e258aa155144255a88ae
fc13b982b2cc40df998602392b772c5f
fc13b9c938b79830de5bf414bc29a257
fc13b9df7357c7955771e26365d19946
fc13bbd771631cbc2ad157a9ac40c9cb
fc13bc2565b2451ac326fd600d331c77
fc13bc645696e4ace5e1044e653d53b0
fc13bdcd300a09d3df2cd3c0f2f12d22
fc13bddbab00354ea57dcb02cef696d2
fc13bddca0f1752c8c942f0267476c7f
fc13be62e8757dde93cb14a27673d37b
fc13be9fe915b6285b97fe077e128b1e
fc13bf788c3782ec18ac048073b2df88
fc13bfa472a8fb05861ecf777ae54160
fc13c00ea72925f2254c799bf9c70b15
fc13c069e9469071fd5841744e3f19fc
fc13c0e2606b4ecf68d93f7404cb11a4
fc13c12d65110eec99c938e2fd9b6f2e
fc13c13b86ff613a14ffd494ca27c738
fc13c155a4459081a703709131f772a2
fc13c2566494e7d84144234dbd2a3191
fc13c29b2decd4a15dbceb4a80d1f773
fc13c3265447978a7020ce3a35a537e3
fc13c392419a217e2ab6bdf679508430
fc13c3ac2cb1af5a6b5eee13026413c5
fc13c41fad989daefbce2f3a2e34f9a1
fc13c49ebec395cc3c553c404a36d874
fc13c59474b1033707af695a9a8a9528
fc13c5cc6cb1800000464293dae7400a
fc13c5ef6ff707dec590d1045f880d50
fc13c73e331cdda6a3f7e167fbdb5c77
fc13c7857aaa64295433b06b1815b6b0
fc13c7f2c2d24615b5f473c2250eabb2
fc13c7f619500807836fc1314f9779da
fc13c84070573ff1b10400c37fd4483f
fc13c8d63bf15e3a342bb7648c285b03
fc13c987711fba061ec577ec5d4530c4
fc13c9cac06857310f4cab2c8b40e9c0
fc13cab7d8e2c70df488efb89a4e014c
fc13cbd9c9c4fe6fc42d45c43f5591eb
fc13cbefc99cf618f69601d20f2641bb
fc13cc0a8f3d277e6ada72718948fbe2
fc13cd097f559329348837cc2187cf4b
fc13cddb9a9fbadb238a2a7cc6a445e0
fc13cecd4633f93b2dbb1121a7443c15
fc13cfba0cf6e3008efe4773152601e3
fc13d28ae0faadf9c583a8832b9094e5
fc13d2cb77d1fde3d0b3763e5ef986c8
fc13d2d20c8cfe915b79dce4fb5bd230
fc13d3ae729c721d4989fc65548e7884
fc13d432dc69afdee986c085ade44b82
fc13d466cb3f158ab02500b55278fea1
fc13d46f5bc83a8331556cf096cd39ce
fc13d47c9b375a71bbab4c12f9f585cc
fc13d4e9565c25e7b410ab26091dda3f
fc13d516139a74e70d93a77a38ff3af0
fc13d5e5bc6aeb18054445b6c342779e
fc13d645c3f0a880a96f2fdf21984481
fc13d744cb0018283e11829c5de9d2b3
fc13d82685a2043b238cd72372bae500
fc13d8c38cca8564275ad591c0b2714b
fc13d8eee4df0201e593e3eff6126bf8
fc13d97f1eb1fb239d7bb0ad8f82a58e
fc13d9a2540d1e1bca688d8efbce6331
fc13d9a843b2532fdec6444ce2be5604
fc13da29db7a01d801d1d97202087d11
fc13dc7c46688cca764a3311d44a1b7b
fc13dd3cfc3bb0df5367db5d1b6c8cb9
fc13dd7343b9289a47e5ae7f8fe68906
fc13dde84532b3812e8956c29ab152f6
fc13de341a816c09c68a4d574d01ec8d
fc13de79767982bfdf5b60c9dd6c51ad
fc13de8b87d6a469f95be1978e9c3475
fc13defcaf4972d0d917cc0161987414
fc13e0c45cf3cc29e28c8afe0be95eb4
fc13e10a44fb7009219b62e066505192
fc13e1579aebb9aecc61c8cb341b387a
fc13e2503ccc92568f845982df92d26b
fc13e4fdf743fe574180b43799335bc4
fc13e5abef1aeac9f6be2c2d856fa55b
fc13e5b1829e64f61775d3f8624fad11
fc13e6a4e1adb42979655703871383f0
fc13e70e9a4f02098aa3624236a7871d
fc13e748792c8bef4adbc4a0203fd568
fc13e81c0b0190bb04a3288daa0357bb
fc13e832845e9daaf3aff5dfec1f8ee7
fc13e9699baced2ae9f1fa149b05dfae
fc13e977f1ee98b6d0dc6d07996fa299
fc13eb3a958ac9f3a162a0a4a2b5a0a9
fc13eb5ffada04251077cbdb63219037
fc13eb642a8759b169796050bd631a93
fc13ec42f6a459e0c778bd3ab16f7806
fc13ec5ca4e61578f2f50030cb322695
fc13ed03011948b9c502fc03449f3a70
fc13ed21dd57af5039c6e91ed29c2cbf
fc13ee6e421be5f43a1f93cbbe80c53e
fc13eee7c9498ce9f16467b09916ca94
fc13efc551342250fc8fe60376cc4863
fc13f21188684471f746d1ec6529cb67
fc13f2930398cc065465a9f24c9c4163
fc13f32e6f3fddbef7fbfd9a2608eb68
fc13f3911522d4b0599ba6c7eeee163c
fc13f4f9bdec86fdfdd42b2f5a72a462
fc13f550a93f83c206586f6aeb0ba519
fc13f5764ae1c45c30a563e90e97509d
fc13f58c157674ab53c05c32235a549f
fc13f5c7b03cdf04eb02e616df9a6807
fc13f6c58c08b375ffa96bdf2077c3d6
fc13f6c9d00fff1cc2f3bb8454cd4c35
fc13f7a2047c4f59de48140271762b3d
fc13f7f86d418a2e84788413e914970d
fc13f8a6e5b0c28f34f2a4912368b754
fc13f9ad6b7f4805260caeeff5a85148
fc13fba5318217b2d11c7bb479e93bd4
fc13fc2c59a420a0fb41fb2df3a9c58c
fc13fcdec57a5ebaf54801d44559ca93
fc13fe8ed7875cdecf8eebe5066ebb16
fc13ff364676e5855359a7da0d3addf0
fc14009cac143d7ca611c7484adf5c3b
fc1400e32fed69ef9cfe743491837494
fc140148a795c6f1ffc0ab55d4c762e0
fc14022deb8ae52bd2dabb29d7a5b792
fc140240871ea6912b93e6762969afdc
fc1402c4f1def456888d72a84aa52f0c
fc1403594582888bfbecb27764a62a51
fc1403f4ecc16efb78ceacafe7f3923c
fc1404c29cf3d94e6401dc394ade5d92
fc1404ca49356ee98ccba082aa30c40e
fc14058d34773a58afc34df96517ca42
fc1405f472741f8741da016b400caf07
fc14062d311e3706bfcc3bbff15b620f
fc14063ca65d28050335fd603eb7d384
fc1406d0dcea608d93c9ef9b6f0e313a
fc14079321cd3fb424a59ec5ae8274e4
fc1407f0ceb6fc158cfa5844ff73ab64
fc1408231e3f4a982b94aa6dcd3cd045
fc14088dbd1dd462820f3aa0c5cea46b
fc140890821f39cc34522ef75cb9d890
fc1409d67f6a3f3e49892c358a5cc338
fc140a827249be31e948d531422a6410
fc140b5881ef7c5aab496c914f36fa40
fc140c9937542cfbcce0b9020d3f4642
fc140e49bcc7d5a7719860308e42d98b
fc140e8f9f5aee981bc1840976fd7410
fc140f068bec8b1f4dd8f49149b429f4
fc140f4d2d8d6a6df22aaebaf4b3a511
fc140fae423fc3d9357c7e7750816d7b
fc14102609d454176a02a875dd86f72d
fc1410b3d55e2cf6e955c030ad008398
fc1410b81530587e03635c168d62e6c5
fc141155e21a0bea299f8e6bb02b4fb8
fc1411d11d0a29840eb43ce588c52ec8
fc14137986735e85644602833b3b9e20
fc1414072b6dda29aa225f0066381724
fc141641bf2ea54380d6e4007cc944e6
fc1416c1d04f181731e234ec0449e251
fc141760ee302e8f14d28646d2d5990e
fc14179043c9c61ec56cd6025a33de31
fc1417e47e3f1f0ffbb381b19a069a90
fc141804799a99be62e4ccbc980d7cba
fc14197cf01cd9a1655455b25127afd2
fc141a1796a6a8c370dfe444a9494986
fc141a2b09de40d01f9d1616aa59cb00
fc141ad47f931364244cd2be75249c53
fc141b07d3ed73aa2362c6337b39da6d
fc141bd3124527c34bdffb41cde2cf8e
fc141c0cb39aaf39167358f50e7c762f
fc141d14c09f3b193ffe9abc7b474368
fc141d6475aca1fd2bb67df7fc7b5136
fc141dec31bcf447e45c96aa6a876053
fc141e8ad665890b9cc36154dd40b328
fc141f5263aeb78c8d53f4742ef9178c
fc1420787a5cebc8481c4de36eaa228e
fc14211602f2370be5ca4e4f3cc94013
fc1422cbbc74522148a7e4a6a3429bf5
fc1423883dec909c9b90ab622b5c9527
fc1423c86e37ef7a964538e335a8a8f4
fc14242b221b4390b2247a3602e1d5fd
fc14244f4721a7f099d041b9f5ecf7ab
fc14245770312b104ea022dcf0ecbfb1
fc1424c7eebf1c1765e7a5e2633e501c
fc142529e4dd6530c213b4361813bef9
fc14257fc93801ee43f9ac59f2eb43ed
fc1425a56b8303d8b2c65d6b291cb202
fc14282db5706e71927a0929773081bb
fc1428cdf09a581e476d4ea4cbe46adf
fc14292d4eb5a8e5fc1bdee59d07167a
fc14292e72ed093bf511f67e251e67b9
fc14298ba0019707a5fd02858cc77df2
fc1429b544c0d53a892f3b7074c9b2c8
fc142a528caa316067ebd513f4ce7061
fc142a7e70cf250d6851af5de5dd643e
fc142b2188f63e734f8d8a6b33dba0ff
fc142bdc2b5a3c194c6d1cafd49ad6c0
fc142c4947177b6fbe61172f9ddd3c25
fc142c636394209eec55a8316bd16bfb
fc142cbdb0ee4cd54b7902c8336bfc04
fc142d5f944900d5520f746718f32274
fc142e37a92afa509f4d510e5938e230
fc142f3eba88a4eaf38f51e6a7d18336
fc142f7b5abfc2b024d0837765be3d9d
fc142fc01af08bb2f2d4d5c659627b9e
fc14304293034dea4254aa478528645b
fc1430658923e0427f4cf7b7919c9ad8
fc14306b032acd12316de41529126911
fc143117e553968e74411ab65cddcebf
fc14318ed2bb724c916fa2295dec1881
fc1431d12432c04ca9f7b88010188668
fc1431e3af1b323f082d16d62749512f
fc14326456a21c363bc04edc043bd920
fc14326e7b6b4348b0e02b9ca9d37de2
fc1432b605a9fbacf306ae63535832b7
fc143357acb3d8ab31c14392749662fe
fc143375a29f8614a2723d251292fd47
fc14339650c7f451f6588290fcaad209
fc1434137a636a3c12fc186d0f17d940
fc1434b0ad3fa16a71e07354ab8a9fcf
fc14350f3c4af8a1a7b115e9d5a6da05
fc143596004b9281573d4fe577b9f502
fc1435a794ea812606f1e3997cf4300e
fc14361226b9b4895c9ae267b1114182
fc1436705b7a2e4fb3eb85b2e72fa7e3
fc143700ae32597c30ce57dfdfcb4cf0
fc14381acf911916c231a1ed0ba51f4d
fc1438a768b9627fee9ce76a14b7cdb9
fc1438ad0406c0b190285089fdb3266b
fc1438c4649266050884e2030c62c8bf
fc1438dbc884a5abf33c80fbc2e42c12
fc143935ca25ffc643d554ed359e36ae
fc143993c716e2f793a6f156dacb220d
fc14399fff7d2e51fcb7f7f33ccc8d3a
fc1439fd3d6f6a817162c50828640e13
fc143a3f4b8b6d2cdadb3bfa9db3c5f3
fc143a814cb39c506bb61bcb5b1b1d63
fc143aa34bd251cbfb945bae22a6a2ef
fc143b380535686839f48040cccfb6e9
fc143bd5364003bb50fc7055ae0de019
fc143c0cfae6d297e804ba2eed36e77e
fc143d6db37564444631a141d20f09a3
fc143e4bf3a8553db498bc5135adddb9
fc143fc51ce16b9b0349530439296e12
fc1440434825c16a5143e6ba4febe77e
fc144047805c3e6e293e3696f5025f92
fc14407c2079ddea2513e6a8636cd8bf
fc1440b16480fd08483234b01911a7f5
fc1440be91a19452d5aa81bc1c31c08a
fc144171f0233e2b41cde181fecf01a3
fc14421f8c581d39c0dccd3f124fb420
fc1442271e16b8a452e188bf1fc54f5f
fc14443339073d38ad33d6c2a152e26f
fc1444fee4a54fe6716d3f67a82a7e9e
fc14456791b9b7979803fd804dfe1dc7
fc1445c633d586c4629acfc1df89a1e8
fc14470c02e2f5c3e6ba4c947138c831
fc144846ab2b0d63059f9730165c149a
fc144998fbbee92390ff482f724ff35f
fc144a322464543e1169b2c84d6a2161
fc144a43fd81e527b1da17be107abae2
fc144a878b4bbde8b63d621dc155803b
fc144aa4dcc4c2244445e7d0d25f35c0
fc144b9e722be903e061c59ca7c9ee3b
fc144c3fd0881b3c54857da9839dd6b6
fc144c7aba9931deecbe6f308f888f20
fc144d4d5d617bfecb29f0b1264620fb
fc144d4d83d1a62840455b0a0d28d4d5
fc144dc4ecdbe8cdd143a1608d088138
fc144df444c8dab4953a6c113a117160
fc14515d28161578a9e38e3a661f3904
fc145243e159d40dfde6ac291f134ac9
fc14525efa72e2cf2c2d2889933f8002
fc1453a05fd0f3cf1b2c55061dd85908
fc1453f67803e095449332c3c678a06d
fc14542bfde0e7826a4af7e0e2943c4e
fc1454a1dd0a1d91d1e3490ceabc2022
fc14552c46afcb814096f07cb469d0ee
fc14557b9e1420cc5ab86c2935e22aa4
fc1456545a5a8abe11e7515fc410a61b
fc145708a45ab9c63ff184ebb91cbd02
fc145788295cfdd85696e4b5bfc57bee
fc14579f11c77183f9d08ebcd20accad
fc145808b010fcb87931c172f56d9a62
fc1458ab373119ec483b533c77ca538d
fc145b2b80dd930e4ecdd446a9d4dbfc
fc145daac15230c983b2a59a5a14bb23
fc145ddc1c826f84814bb514c30aa7cc
fc145f335c8d2780e0f1f7bbc5dce4cc
fc145f3a50c0d1542eabe2c5adaa2700
fc145fd3e53a958c470e5ce813678e87
fc1460904bff4391c401ff1b184bba57
fc1460d4ad9ded5820fa36e1b8287a7f
fc1461267bb31f1d623c012d9318703d
fc146472182e8871d565ae27909590f5
fc1464b10d11c292137cb7d511867639
fc1465b29d0c07bfc052d303aa7473a6
fc1465c26d48249cfbc396a62538c90f
fc146630ecf4af20089f368fee9ca2e3
fc146743b7c0444af73c6229b16ba5d8
fc146773df149c07b2fe7d124d50b65a
fc1467ff8fd4f83fa6ccb2723d333580
fc1468820f5b6ff27aec02464b362e68
fc1469f6a9251b201460da5f6e2c7fcf
fc146aeca859812f60cd1003e9290700
fc146b06707e0fef7e08f7e13e5e0741
fc146b234f174959718309eacfc1101f
fc146bb6d3c8c864d7485fabc74c1cdb
fc146be1be33e96a9e700c56d132f541
fc146c4e953f5044e92ca4e411e0af60
fc146d30e7241b8da088a836a0b97387
fc146d439dab837a7e70857a0387d8f4
fc1470d84da0c1961df5d72625ce4100
fc147112384423b13539ea7e15633ec8
fc1472a80a47610e0b432ee4f3b7fb96
fc1472e55e5e16fc3bceda5b99084811
fc1472f8eed3ea695a512cee20cb9690
fc1473e1ebe69d3fdbeb34d8d7a4df7c
fc147518afa5caed65aae08b35aecfe1
fc14762412cc2a5f38b9c3db88c183c6
fc1476e8fc395b661383842967c8e9c7
fc1476f0556a36f2d6b335f8e559d03c
fc14771e3c7f5a156bec53fa3df54359
fc1477606c99ff7397edd3f40b590d54
fc14776931385eba93cc884c24c000d1
fc1477819504d4f77230c4ebf45934f1
fc1477f0b1c23bc5433af1b3c834b856
fc1477fd7d935f1d950b322a8f69cfe9
fc1478dc9cafba031a6aadd685ff00e1
fc1478f4a7f080f129a9dc152ff46894
fc147b82e50b0252e67355508c4ee460
fc147bc13cf4bd4f2dd3bc4ed8e16a63
fc147db5b74bb460184ebeae6e83b839
fc147dbaf9dadeaa34ab4b7f82c1a884
fc147dbdfd87d66b9d9954a7b44d2f35
fc147dc9fc400d41f6505e6e6fbfbbe0
fc147e7828a62eccafdd99edd9cb0614
fc147e90f84c7725639f61f4dc434cd7
fc147ed354af008cbcbbe91157def753
fc147f60408802bdf9d90f712a812ce2
fc147ff2179762623d27702dab92c0a0
fc14811899beba8d0540f19653a0aa1c
fc14819a521faddbb62046a9faf106d6
fc1481e38b79636186ae8a0230ca349d
fc148269e4dd241716472e267c12bad0
fc14827d897388d904d308efb17dcacc
fc14831da9998aeec7e345d6d5bd55aa
fc1483d61895adef3dc0eaa03fed68e9
fc1483faca05012e30e5bc3fcf29adba
fc1484c3c88fe1fa482c1477b561f69e
fc1484d23361f95a017bb6ef87e02a62
fc1485e6c30172b4f8f0b3995ebed210
fc14872a05ee13cb610f46c2bd7f65e5
fc1487367c79788a3d8dc3dc487871a3
fc1487f486583ed1dac3f21db4902ae5
fc1488e92a9e3efdabd7f01340737b35
fc148a9a815bee7669e6974fcc58c450
fc148ab55f88df3e999f21744e059d2b
fc148b5508ddce7e961f11fd779536d4
fc148c17c2a333e7d7656f3829a57f11
fc148f49f620fe43b67c7cfc4fbb212d
fc148f99ba623591ded067566653fb92
fc1490e1059488154117cf319b5d191b
fc149184c26a344e858c530d7dd86d01
fc1492258610dbe2cf261e968ebd2d80
fc1492396dad0939436ef80b080b8ff1
fc149264439af471d3b201284c897d46
fc149315a3febe50eeb8f61bcfead9a2
fc14935ca9e64162172300ad7799929c
fc1493d4077b11113f886efdbcfa9ac4
fc14943a359cc8576213450aae0021d6
fc14948a85bf1ebe121eff9c3e8bbcfd
fc14956d0127d4d6c95d4a827ab3d293
fc1495c9051d0b7fc2d9551fa5977c64
fc14973d7772e096bf262e25d2f7b086
fc14976ec5013c8b298e8736cb0b8af0
fc14978fe7f2094633c1c6fed4d0f14f
fc1498627e3a5acfd2663222c8291efd
fc149878417a0afb323d04bc52cf6603
fc1498cf96b0883d89ec5ac0a46b15eb
fc149a3c897ffb8b891236b4d75648d8
fc149a6d415aab25389bf35b5d113d1f
fc149ab48b50c04e344a2b3dd78b596c
fc149b4fda43b21175a3614d2a26ca75
fc149b7c1ea4855b859efcca1ba0fb3c
fc149c2a5542443668ae6ce81f1b15ab
fc149c3457f1309fe3977ecd32cd6340
fc149c40ad6805528be81acb20b5008e
fc149c82d56c28375e2f1192b79b610f
fc149efa9cf0e9778af3cf0e3afaa7bb
fc149f10b3967ac89cc00a397c8179e1
fc149f1daa201849fd7af112e03b2f5a
fc149f4f651f9919e463591398055c63
fc14a079d3d7a192d40920bc9f12a5e3
fc14a1d8c555087061c574f60f34d90e
fc14a27bab071c16f587d54bc2f98f3f
fc14a3837ce7a7e95b6b24159698e40d
fc14a39402699e91246f31d774439df9
fc14a4269a1ca235040963e141626100
fc14a45f2ffb7fe52e68dca1906ef7fe
fc14a46a469b54bcebb251cfea0d72c1
fc14a48c1a2596f689eed9a22c81a17e
fc14a4984c4c854a66251762d26dd829
fc14a670f76f65ecf4fbd337848e25e6
fc14a6d8a0ccd9aace913b93e31e6af5
fc14a745040393d7c3cda8947b46e15d
fc14a8229c8fd26049f773eac3cff03d
fc14a84c3861a9d84550ee4e4f637ba3
fc14a8b7dc4f200f71268f233aa5d10f
fc14a8c6289b763a9c9acb403f09a801
fc14a949e4e17582f26906d12c52a2b9
fc14a97e6091abb62ff64b25bc476600
fc14aa4542af5e11323cca12c0b13599
fc14aaf483b46c572486967cc8cca149
fc14ac2476fa4e39ee4270bf59c27660
fc14ac80738ac0b2fa52c419d2cf7480
fc14ad175e8349273f46be76706bccfa
fc14ae16416838b268ff63552fabc975
fc14ae3ffd46470ee8c86ecebece7a74
fc14af0a8b3f85ec5d6af2d8d90d9973
fc14b03495f0fb49e21e950400730f4d
fc14b0ffd1b46d9b83d1d7e00c2d2d3c
fc14b192fee52080c82be657a5a30bb6
fc14b2428a60ca07b99ad55799a7769e
fc14b25dc4cf4ebc3abd3e6459a13a36
fc14b28828b8f403f6300cce9428c630
fc14b31f128c976bbeb298512606895a
fc14b34cd48df4c2f6c7fb7b8187bb65
fc14b38bcc700674d9b7b8bfbbbd7f38
fc14b3a0d7745ad3373ba46a52235d96
fc14b431699d20f0a10cf1f063f9690d
fc14b4a83c494965025bc64ffef3e009
fc14b5888ad818d4f1037d3a2ff775a7
fc14b69a5db7a3c49ab6b84f3814393d
fc14b6a29694b24355e4e753a5c777f5
fc14b7e895608edb5d213e9cbc7d17cd
fc14b803f5ad332f9b95fabc3992ec62
fc14b854c24a917bb2431fe51b3b3f8a
fc14b89b342409217c0641a41136dcbf
fc14b8fe2c19f8ee862103b39d8de5b2
fc14b935bc439ccf7614c987f3e22238
fc14b9df7e137f7ba013e28d3c69ab05
fc14ba664287893874e9425c7ee66977
fc14bb3f16889f73a55d75050be619f1
fc14bb6f9bb09630023749ace6efdc8d
fc14bd02bb09a90ecfa43d38033d9664
fc14bd258405af6896349b5c6480c49b
fc14be2345afdd211de965ac4ac216bd
fc14bf6939bb5ee552fe45e08f6c8ca1
fc14c14190cb371c82fa8533614331e0
fc14c1572cf090d3d6eefa22ff6ab01d
fc14c26340787d82ffc1aa528e714ec4
fc14c29c120c5c61dfaae6cd274755fd
fc14c2b3c0c8887f71d312ff11a19558
fc14c2dbaac62937b429d7d7b2715f80
fc14c336b7b8060c1c134f4d526e573e
fc14c35b8d0e43b8710f289ac38ea0de
fc14c5f4f9d59cf5ce11c46dcdce9e70
fc14c61b1b76370dad45d6bebbee2713
fc14c644ddd2de0a945dfc7c914444b4
fc14c6f3aff294fbcc464bf09fc9e464
fc14c7264c28926ff39e0db5dc4b50fa
fc14c72d581e4a9532866fb631d80897
fc14c73e770e199bc6423145ad6eabd0
fc14c77c73072397634cff3e7ad0314a
fc14c78f25c62cf565e62aceee7f5506
fc14c7ee8bf44b765f30d1396fad2f1f
fc14c919a68771a1dab46a9c85121e9e
fc14c933578317644ba2c1b7748aa26e
fc14c9e5b31f5f0e334b085686b447e0
fc14cb88e072e872cddcc5d4c5cb7a5c
fc14cb8a6fc2817bcec13ac69bd263d9
fc14cd74c9e2bd7a64382044ee9cc060
fc14cdc85d7e5e97ad5589a60557fff7
fc14ce594db6c32efee9c404910894f3
fc14ce7cb2097894fe7c64f3a14fd554
fc14ce902f6182ecc58646094e5f1ddb
fc14ce9c378c71c85a675c11a2513b8e
fc14cf20f8e387c73ba628360de994db
fc14cf6705be5757e37fbeb8652602da
fc14d0588fd9bfe024ff855ab0fa3561
fc14d0659aa92e2c5cfa876d918084a2
fc14d18837cf443b1fda4f0e1f7e0400
fc14d27e6b04ecceb8a188ae05447b13
fc14d2e75e8480de4b6d0d881a806d90
fc14d4f5416d940185c3e6f2656cd2a1
fc14d537224ae9990fa97b7a570f5137
fc14d5c1fb69333c90c612750b6bdb56
fc14d6026178e6d1737142e7dbc918c0
fc14d6b3a05ba6a0d07f73b6c65ce188
fc14d6ca0e346967570c29c4eb296925
fc14d851ce37e22d71967774ec9d93f0
fc14d853e91ee6cfd028636208189511
fc14d99b392319ad0d5ec2bd2169aa92
fc14d9aa910b95e7cdc3ea8be097bb33
fc14da97752da9c7bb109a794aa4140b
fc14dabe0e7548eb21fc1a6dcd556743
fc14db16f15b50f6ac085bc95b83611b
fc14dc7d8fd9dbc36664d968e8a11179
fc14deb0b270097ea2e75f17da768b25
fc14dfa99093ebd70d5b88ca6c915151
fc14e07818d8108a8bfc540a53c6aaf2
fc14e0bc952cc1a8bcda678663074439
fc14e19ace9d09c9ac1188af3eda268a
fc14e1e9162b29a8d91fe261eb7b466e
fc14e22c56fe9f858aecc0689bf49647
fc14e278a07ba6b1e2edede3683fced5
fc14e2c4c602a2234ac5582bf970ec86
fc14e3064b729df938bbb5aab317bd6e
fc14e30cbec45aab94f7b6ac0a82bf36
fc14e3be631420cf5c4d00391cc81d6d
fc14e67e001fc5aa1ac52a41dc8736fd
fc14e71526d5c7b5451b48d535b2992d
fc14e72bc137c1b7390d2d362cd582ce
fc14e7b88453e60c2e7fa0b0f397e327
fc14e7fbc23d49bed15d4b0986841c25
fc14e8248006601429c4c9d17dd83c80
fc14e87333792ac8214451669b47fc0b
fc14e95aedacfb78295a6975964f9e74
fc14e9ae51bc908971bb6cfc33bbc1c2
fc14eaf932b76c51ebf490105ba843eb
fc14eb29942e09b67e30caf1838e48c0
fc14eb2eb23447d69a9c353645d47b5c
fc14eb5229ebe4b79e86700c4528cd35
fc14eb6742653966b824b9544d2a0ed0
fc14ebe1d697939038f4033c5d9e62d0
fc14ee975aa8995140d6d1f22f44f20f
fc14eeab571a2154ed942489a450bba3
fc14ef64cabe18e1173744351354b459
fc14efe2c5d89d67640b38d58914c657
fc14eff876bb9b4a3b362ecfab558e69
fc14f121e26cbec9bc2bf03e4c090324
fc14f13859de557e2e4fccdc9a0b7bc8
fc14f1751d1174664e2e3b89dd9ac344
fc14f1922dd6e99a79fc3ea69eccdf09
fc14f1aa75e007b81c8d2812728d7379
fc14f2652e502224944237b68df5a40c
fc14f27951bfffe05f9b4c5b645e6860
fc14f280821b84c873eef3b4cc8b2f0b
fc14f38f1adbbc21cd0057d0e25522f0
fc14f3a27c3fb19adcfe597bddc004ba
fc14f4cb2fcc5418a0e640b9838dfa92
fc14f4f1aa3c84effc1cf9716928b35c
fc14f5291b217affc78afc56569fdf83
fc14f549d303f37468d467d8c15a1aed
fc14f5b836fea2ab7a69ced4c4ba4bb4
fc14f6247d9a7e615eb03efb62e8b931
fc14f714da7ae47701cf04d1753e1d55
fc14f793e0e3388882738559d3217f07
fc14f7b3a351ed7f34ed3db45f1168fc
fc14f7d6d742c9ddcac8437ee657c61c
fc14f7fc9d8cd3554da57500dbd5ec16
fc14f88e61cef1eba854c648c8ceae39
fc14f8ceeee016215e4580cec16dd4c0
fc14f900fe23772440ff09204cdde066
fc14f9b8d98a0fa73393fbd90678f11d
fc14f9c457e263bb7eae818533a56e30
fc14faebf8231483e6aae078584725ca
fc14fc197faf746e127507c96704b0a8
fc14fc40aac7417810a83d3ed2e9b15a
fc14fcf308f36dc9146a00229bb40ca6
fc14fd20b46ad2d1f49475883156205f
fc14fdef1b9f2fd7f0a941a5ac83bfa6
fc15000582493d3ec0ef4ff10125190f
fc150051e08c8e8e6b9b636aa2ef41c0
fc1501a5e019976a92f09db4ed7c16fd
fc15021c796d7e292b98a27971093c95
fc1502718608f055d6550eaf9bcc8585
fc15027c61bc20c44502fe199267c82c
fc1502eb801f5baa3abec84d57736a64
fc1503385f91786e71f574439370d00f
fc1503ed7eeec8ddc54a03d31e856c76
fc150556503669a4464c3ee97a1c51cf
fc1505e7560bd7a6fb913c248fd4511e
fc150714c748bffdac37f5ba9edce52e
fc15087ab754cea39725e74e0ca9c963
fc15094d7e7d9bc7955e30dce2de8de2
fc1509e44ba617a910027ef6ac85bd7c
fc1509e971823d42ed587de844d56795
fc150a9dd273b8c09f1750b19f0c1d45
fc150abcda519f901c5c2c3a3a261d5d
fc150b09e5bb4b76f57adaf136c8f7d0
fc150be203827dc08388abe28a5e4ab4
fc150c07e88a46a13b6a91551bfd2a37
fc150c30d3452a78ca2eb1d9f42f5b45
fc150c54a46742a6158d416149e7c27f
fc150da149deed0e2eb0b976ba69b3bc
fc150db4d6dfeaf950131262b28b95fe
fc150e1e2aa4406f954d152db4fe04cc
fc150e461355f607bcda8439f4e8ac6c
fc150e74f9f068103adb41e79c6d9b98
fc150f1e26956a322dd80868a2f06272
fc150f3fa7691dd56ea3fde67f0d4374
fc150f57ec47ec56e8aebd027695b9fb
fc150fa64f5ac325de30c1672503ec45
fc15103fa896c63e607d19499f80a054
fc1510b3dcc9d96ea0d8e445d2a73e60
fc151153050fc32a97ce91a623fb7998
fc1511961f104e54f9a825c7f40df472
fc1511b233a0848c581892501d2b6273
fc151213469a6fb9c4e905d9ef6d73f0
fc1514a22f006c781bd1beb33bae21fb
fc1514c3261511d153e6d2b2e31e8ba4
fc1514ca11f015313e47e43608b6c2e9
fc1514d3799bf64806b8a1734164a97c
fc151537b8aa75131357571e84157993
fc15161f178de3a29068fe399aa59ee4
fc1516262d36cf3513cd2e949591fe22
fc151753ca0fe4fc777e1a9e3dcc3f8c
fc1517ab9e1eb5e6fe30fa763e522c2f
fc1517e84663131e5d090415b29adc73
fc1517fc7fd54a7496a3f4ea65c8e7dd
fc15187fddc09a6b9001bfd2a1276d40
fc1518810e9a3b4e9b925f798977bd50
fc15195a5072ae257dbb8c5f19748289
fc1519fd29632eb42f3495b8562795bb
fc151a7c3e6b6af050146e4bec699ec9
fc151aff3d8d60f49f26899303c89a67
fc151b04a73c52f71d8422b5f39e8f19
fc151b7a4afbee6565d63c7ea80bc9bd
fc151b990303ea40777a816ee3206cde
fc151bb5754caa1136cf7bd2d1d94c04
fc151bd27f40f6aa2bc923efc825bbaa
fc151cf77fcc1b8b795d5d4f1fa95f30
fc151dbb6ef96f4cf7349a1ece0c228b
fc151de1c54f5507de25eb663ebe143f
fc151de8d7a77d99e8c143d3d9961567
fc151dfa2dca3d0fece31950e10159b0
fc151e668ea76b7325800f25f6c9d812
fc151f750c24e8ef9804db75a6b3fa5c
fc15202c7954eb657e70654d5fb106c8
fc1520c2ebf7cb04dcb6e598c0fc5370
fc1521238a0aa4316981bb6f5e90fc58
fc1521b94db5b566e9b8dbb079fc397e
fc1522591796abe9b26d5988f4a41701
fc1522d5274e932cdeb65ddadcbb424d
fc1524434801c09cf85f5a784ba5d74e
fc1525e1de75dc9f584e0ff7833cdb6c
fc15262f9ab9ab5f385856047237eb2a
fc15266576a650a236b0a3d206c86691
fc1526ee970bde6a8bd48ba37a0210e7
fc1527048b4c5bdd2b664a2f5565deb8
fc15270caa5bfc5581c28a6660d34d22
fc152759ccc5c41a68cf3e5434065ed0
fc15278ea95290f98c62f1dd95454537
fc152853dd0507523c162bb6824ec44d
fc1528d52cd19fab1cf79447c5062dfb
fc1529908f55cbd33f10186e05a81f00
fc1529c8f2d6c684a7e2ada045c0fcf6
fc1529e52ff14a9e6cfa8075a5981d82
fc152b4df9254af8e5bbb197b8785871
fc152c16e33d28b215ead9d6111c8597
fc152c28ec9702a3e391990ff69e4f85
fc152c6e06fd644fea2c161a5b3087f5
fc152d0c2804b79d30c3708269c288f4
fc152f3000532d6571db7b06a76d5614
fc152ffc3ca5dcde7fe23ca8f05f1510
fc15300ae2e8a41834450eff7fc0de7a
fc153035cc6114c643a2dbaffadfcf7f
fc1530880144eca66cbfdc321124abf5
fc153099a23b5097c433a8a4c7529c8e
fc15316bea79b6e804d31f63d25dc2d7
fc153248d159ab9e3a07247881efea5c
fc15326ddaf01200000a838ecfe623ef
fc15329d82509e68910b45d0bdd3cf5c
fc1532fa2590e7234517b470a21eb2d0
fc153388c74744f600c44f6a373b013d
fc15339916783e52faf4277ed721c283
fc15343bf7aceb8fb487f0b7a2800f22
fc1534c65533601cde3f731263242d90
fc1535aa27bb111dd76ee68d075af119
fc15362a04eb319f6c34d48306a12bb9
fc153901bba55e4ea5124ba55f6fa1f4
fc153a6550e6392c48dabce311b054bd
fc153a66024f97314e3adb9583d896af
fc153ad6653167b7410badf549e028ee
fc153b1d188a00f1af488aafaa976f4b
fc153b66884ab9d411499a4ad94862a1
fc153b79668b5d1455c6f807da99db9e
fc153bb48b206ad13cae9ce2c33dede4
fc153bcd0b43fd786380e205eb2ba4ba
fc153bdb47b33b61e818ba12210a88bf
fc153c9e6ca26997c19326d03a37b89f
fc153cceca819d2613b0ad12c5bb3163
fc153d2967702b6abb8186aa4fa94210
fc153da01d1042b1a21338764f0ff10c
fc153e52c482618f5c455945457e8f3d
fc153e941a53969283ab123c66878864
fc153f1d06b1c4fed8562cf05707e532
fc153f571b15a52f3afc84f18057a14a
fc153fa012dd30a99c97f339913700b6
fc15416fbf2773f0a604c6eab2b0d43f
fc15418a201270cca24e298e3e1df60a
fc1541b6a32dd7a0b36c4592f0d71866
fc154231a556ab9007acf91cc4b5e764
fc15439c6682edd6a267878786fdca9a
fc1543d906a50956faf488f980182af4
fc1543df2df6d9f3a41ae19cd8092d52
fc1545a012e6029fdbcc9894b8ce0223
fc15469ef886929c89119f6582a16a78
fc1547a44c56223f50c61e037a59f22a
fc1547bf2c37053cd73c8a54ed6fcd80
fc1548e718e7f6f446e3a9d0db9cd7d0
fc154949c696fa2020a8b4d2529452c9
fc154b45fb98918ebd5a80ff422aeadb
fc154b6937627b6bb22821e71fc28742
fc154dc5201f7d79a8ee3fad4d4e4453
fc154de1f1a51a9ac47e13cdf2186bb9
fc154e0ac2d954631854927f1820b6b4
fc154e2422f0b30b50ec2a90c22fdc64
fc154e56095a57cb548d17e8ec4e120f
fc154f6e5460149425e9d1b254c526ff
fc154fbd4af4b1a06e9a9e5d16e4a99e
fc154fdaf9edc3c23cf61c55008c078b
fc1550d4a740abd872593107493504e2
fc1551c0add20ac8ca4958eff853de91
fc1552fde4d4d3f6900cf691c3ddbd55
fc15531bf3f59f018ba9c714939ece51
fc155323004fe23bdd55a820cb38e45f
fc155345f991d4108fe13cbff23c6415
fc1553654ba9eeabc180c7b4c7c89319
fc1553683f091f579c72b7ab4b7d05a4
fc1553af1769fd312d55ab9ac04d4234
fc155565e963e89de55b6862a51422e2
fc15561914b9bad40f2ab2da552ca4d6
fc15575026c5da94bcb8577d66acca21
fc1557d92f3c2b3a9255b0c22085bfc0
fc1559a0205f74c3ba9b965bc6c33508
fc1559dfa7bf4b8bf092222920d74141
fc155a12cb994b07eb9db787401c0950
fc155accc537937fe99dec41d41491d0
fc155aeb3cb83d8b340344637995705b
fc155b1f9f62b8981b37f0cef408bf64
fc155b9ff5a8ac367ee2df9466dc2818
fc155befe25f688c51e218053013fbbf
fc155cfb71b7a8decc48a309e2fd41a3
fc155d200fb73203791ae8e4cb1ce66b
fc155df695e1a96a49386bbb537a46d3
fc155e17fd1b25bd47a938a5327c313b
fc155e6c26c22ec24bc55ebace4476ac
fc155edc755b39c47ebe08ac66ffaf0c
fc1560d5ad0da4c9a11e84d1b01a76a5
fc1561409d9ddd8b4413efd973659016
fc1561e110f0d96b2e3c79cad2c883ea
fc1562a89e557e2365c3f1128805184d
fc1562f1a79df971a4b8ae09e3685948
fc15633ea68e504926294f4cec723cd6
fc156350ffbb686409f38da01cfeb8a9
fc15639688166cbe3b1835c86be511d0
fc15644bc7dd6d42768f3de705b45781
fc156471ab62354400cece14a1cf95c0
fc1564ae50a6e103837620eae3662cce
fc156569fd6e6811f82877d7bb1e3c6d
fc15659aa6ab34229973ec2303d7b9a9
fc1565f41f5a77e29ea44b25999c7e65
fc1566a4c97c6d72f729029201adf536
fc1566c8df953345a100d16890c79419
fc15675057865b021076989b465e7397
fc1568947b507cd2d29cd78eea030d68
fc1568f3d9dd2bdf0bd3b8322c3387a6
fc15697fbed35f20f545785315320285
fc156987be7feb0df699460e2c7a7619
fc156994d15e909915ac52b5a4d220cb
fc156a1d5737ade5d68798abc8f33e7a
fc156b0a7ddc5ac013da8ae8b9caeeee
fc156b66c48c57aa3b3488fed0fca3a4
fc156dfc222cf412335fc9937619162a
fc15706fe1aa36425fc3aa061fe678e4
fc157076ea2777bb2b34996d46303323
fc157090f8bbccbb416593093de4db45
fc157180d46f4e07c674db685293a2ac
fc15718615a20ea1b18b06238b1d46df
fc1572a27255f20cb14e8db273cdb72d
fc15737d85c65ae1f70539e8b983102f
fc1574ca8a508944a9f9c69334a5d75a
fc1574dfafe3b7bf121e6cc6b98dea09
fc15766c7a6654bfcafcb02c492a1897
fc1577139128fcdd44e5472dd2b7c689
fc1577a00dde64431782c55cdb4947be
fc15780304850a87b81dcaf1bb5a2b9c
fc1578a7784c2bc0b05557121dd6c1c2
fc157a630f7b0f41cdaa824ef558e403
fc157b42ba68367ea62d323ee302d423
fc157c480abf577e920b9233a7a73ea8
fc157c8d960b9cf21c536e3f28356d33
fc157d134d6854a7fd1ced02bc1f06c0
fc157e1f5a535ad985054da746960eab
fc157f2d6ac65bd5967ff0f43b450935
fc157f7970adc68304cba62a38b4be64
fc15801922b6319f0fad18ec7efc6c60
fc1580bca525e073b915f0dafa77b890
fc1580cd5f35a680e2eabf97663292e1
fc15810bc7953982bec29c21d9867535
fc15814491d50196695e882de2a87bce
fc1581fd2159013f8bc1832c48797b43
fc158206337ad9a9db1feb732c161aeb
fc158242888f03866a6ec9510ac7ece0
fc15834f64c27c066a207e1dc6c5c135
fc1583b8fef726a6569aa517a39a7f31
fc1583d54592a1c08dcc12cc3534ce8c
fc1586e25b4eac410b91913955163ab2
fc1587346b66b07d7d34c3c4e3ab21c2
fc15873ed97f281cf103159da189b19f
fc1587543f7aeb9316fdf33dfcabcf23
fc1587dc5137b6d8471985130b306756
fc158832e444eb38ffa68593064a9364
fc158891cb4d7a5737c26aa2c85c3fd3
fc1588f9fb07bb6537e3066eda724a6c
fc158a31e903980db686444d7384d8cb
fc158b66f85562d6cbb4cf3ad7fd7251
fc158baa9fdef21e10721c2ca0af2c10
fc158c11cbb87f59178d9326d3dea1a7
fc158cbf873dc0c511d5581f8dad7919
fc158f4b17ae32bbe527d3efbcd060a6
fc15900419e22e566e24dfe21287f69b
fc15904ce013f69b72ebf24381143f20
fc15910fa25a1e7377ad6f184e3e017b
fc1593a4641eb87665ab3af1350819ba
fc1593e88abe86df8d99dddac80aa9e0
fc1594949186c1cc806139d4b72768b0
fc159536e1a3b8cffdcb86d0e428b42b
fc1595a7de89858d91ee498ccb035720
fc1596ab50b9df3becc795a5adf316fb
fc159787378305b9c7a6a260f9923559
fc159824c2fa385f14b13ad40bd80125
fc15989b7bcfb1f8b9d862e0392839b1
fc1598ddce1fe659cfff97aba1fd7b6a
fc1598e87fe37fd8bd6721b84d85dc77
fc159a2158cd0dfb7a21094edb8555c0
fc159b28767fb2f5aa2e9d9db6a18080
fc159bc55055e6eb892be1bba7ce73ab
fc159c3a4f02d2dd6857e093e07e6090
fc159ca6b52635d3891453624573139e
fc159cb929559ed0908c9e565acf873d
fc159d08012e3274f48fc99d456b6c3c
fc159e0436edb1f79f0765f300e977bf
fc159e20116ff7bb70a39b1ebfbccc52
fc159e361c663dbb4b8a47ee0eaf8969
fc159e93d02e31f007f5e0a46242868c
fc159ffeff6363fcce798d551d1f7c03
fc15a0c139722f2c076bde519f088f12
fc15a0ded9a3ee86861783c45fccc0a1
fc15a23cd543fbfa9dafc6923083fcb6
fc15a274bedbfb72c9954230ef75a61e
fc15a2cbc6766bdc7d06bcb61dc36298
fc15a312cb05bb064c29f644e46c2706
fc15a33233025c00f54ca903c5929c5c
fc15a34fd12badf69d366dc5730979f8
fc15a3efe367e1e4454056e65abfd920
fc15a4a53cc5e04e8e64cae7c7c6c6dc
fc15a4d7e24524be7177fe917381b3b8
fc15a630d4ab2f8f269bbb8f71a9c03c
fc15a66bbc19e218a813ec05b721f1ac
fc15a80a3e935f52004fc5b51667fa37
fc15a9eed6ca4e47c2d99ed64e197c64
fc15aa9e37803b96210b3053c22b6d43
fc15aacd66e76f223ca5cfb96b77229d
fc15aae05b2612f828590d60f4c2c7e7
fc15ab9255d20c2b15b701aeac6d9b2f
fc15acc42bd52d36641e317a20ef0496
fc15ae592ccb0678b75f19471e3304c1
fc15b01a87e0b9888b7e4f222e72e02c
fc15b15bd9da43816733662f032d2776
fc15b1b894392ea6f7c7b374a8076700
fc15b2119297ca363ecc58d8d36a8940
fc15b41bb34bdcae30e67f198e837fcf
fc15b453d4118bc65ce5fa75745d8d4f
fc15b4820eeb978c94090a707ad64f4f
fc15b4929230a1cccfbfbb9108989d45
fc15b4a06c89e12c1b90be004746dfd2
fc15b4b67370314c0745c0b39c1b141f
fc15b5144684c581cb9c73ea1148ca9b
fc15b62ca295778fa43b824bcb0360cc
fc15b636a6a59b2f898768741dc72dc4
fc15b6639a1425c7e441bfe191fc9a24
fc15b6837abaca44f38a3d48852181d8
fc15b70acd3602abb8498e7b8f5ab560
fc15b7d2f16de729f7cff1bad28d7b7c
fc15b7ff512fcf8d00518a353c455064
fc15b869de786979a2e9c24e9191d321
fc15b9508a1f61222c97cfb21627d0cf
fc15b98a68f50673b4e9371723d9fb80
fc15b9dcd449b4afe6c3febf0cf7948e
fc15ba6117f5449d6457d70eb4493484
fc15bb86bb160463275e6ee9ecaa7470
fc15bd153160d2c176cf6301bb8bc3d6
fc15be4379b3059e8d49142af914a746
fc15be5d3600c95bcbbaa54fc00a6ccb
fc15bf5364e27377685a52313a09ba05
fc15c0daf4411ea28ac61caf0d2868ba
fc15c13dd7342c6fdb5698228699215c
fc15c143d8371bbbf4db6d815c4a7023
fc15c39db4b3b9fde8d9b85cad5e24dd
fc15c4c49c0a2f4645df16cd9f460031
fc15c568bfa427f4d95170483219aa37
fc15c61e219408225b1a01e3617f60a1
fc15c6a6e4aeac36f46c6c77a9f851dd
fc15c7b8599f33129859ff07f1fbd8c1
fc15c86e91b65af06a4b4b9a32be2f74
fc15c8e3e0591ff59c356347fc12babd
fc15c8e81ea18f9bbf5ce40af242e46c
fc15c9b23b5a0625298905a5a761739b
fc15c9e3c8f90db42d37d04259c481a3
fc15ca13862abea36ed9ffc4bb447651
fc15ca90ee40ed67b1ff0aeb1fa108c1
fc15cc1c7feee7081779f971f8dffcb8
fc15cd9e66bc414402074ec2b09d9863
fc15cea0c32c75fbdc5f2d91c7c94379
fc15ceee800d85efd8fa9876b383ed42
fc15d0395117336e328d6ac65b5b8975
fc15d0e5c2950cc9dd0a7803757374a5
fc15d113c7dc9094d4104bb418c7ad50
fc15d217f46cf65c9c04b67cce24812b
fc15d261661dd8d60c6e7c2d27e03767
fc15d2d53a701d7f82b82441dd56ab02
fc15d2d80074efd6e15f4478e174b3c6
fc15d354f7af084055fef51dfeb04874
fc15d415989f2a34e793495812754086
fc15d4e2b63709be514e4397c687299d
fc15d56d664ed108cd76a48cf296580c
fc15d5c2eab6a60d0a609f2d37e20c10
fc15d5c4a1c1ff27a7b49ed8e107bebf
fc15d5d6679f5791ceb0b58c6718e9d4
fc15d6177f18a044e12724a1e8195bb4
fc15d6531fa597c96c36c3f0d9452cb9
fc15d71a24e2f8c77be7b19154a03a6b
fc15d7e4cecb1567cbd223861ec8c1a2
fc15d86a917ea3e97264306dfd781392
fc15d89608b702a6a18e2985928bf2df
fc15d9241726926087af358877a90b31
fc15daa685cb056f58e5724fd41986c6
fc15dcac29d9db1092ccf4f5b2875c20
fc15dcdf2d6223c5712f601aead4543b
fc15dd404598adb479805e027b36c3de
fc15de127626132a01ffcd9de8717e2e
fc15df0cde2870ad16c82a6b1a8d8a50
fc15e1666f2e30c6dc3a1d1a329eafc3
fc15e1e75df15dec626bd55bccfb6aa7
fc15e1ea4b39972edd393f8f5531d7e8
fc15e1f0b66382bdbd9f870096d0a537
fc15e34cd5eabe710550abd25185e682
fc15e40e83d49591b4c604f9781df60b
fc15e492ab7289ad2aba1e2ddd68246f
fc15e5bf8070796b73b708adc7234b6a
fc15e65fcab78d9ee8be86c7dded03cb
fc15e667c26e3ae892018b16211117f1
fc15e7023969ab6cb014a20ff3035804
fc15e752745c655ace97cdd8a6007a5c
fc15e8b4fa55750e12e1bd9f74214cb5
fc15e8c87b5e3b4a8f8d3a6139d2eccc
fc15ea0aa6760dbf6e76d87065ce8272
fc15eaa9561a4ec36dbdbfff5d58059a
fc15eb100fd4ff7a7b9ea240d9f8e4ad
fc15ec162a08fc161da0673039174b99
fc15ec280222a3bd64b742789496096a
fc15ecfa93cbe773559a5bf0d8cc35d0
fc15ed30af2a54ce5139a1d7f3fb2d27
fc15ed50ded0aa8c3d7ccb35b9431ea1
fc15ee0b2b7e304bee204e24f959beb0
fc15ee351e602aaf1dc009638c2a7918
fc15ee5067b30b0ac2f8c642528e1c7e
fc15ee98ca0499b902039cba196b190a
fc15eef244b2a9dd76f1b9db9811473a
fc15ef3fd6a2badec7acbdf435770271
fc15f0788d0a6d5ad0739b7f759e1fa5
fc15f175779c1844175592ce9cb16b90
fc15f189bfed82e2ed9bc8c622d7f763
fc15f1ccd546ba9ce596dd91e64f1a15
fc15f1e22cd3ce624d0f69fab21eba43
fc15f20e2c8cca7f24625cf0cbee19a4
fc15f38119701261b75515ceb9c4343e
fc15f3b099ac96fa5748e44c36804f40
fc15f54339e9c06632f8a90df0fb7c96
fc15f7f45356db84dffb5e2673e33846
fc15f8cbd4ef285b78d89aff607eca75
fc15f8e784a6de22897e79ddfa4468fe
fc15f912697dee0b3648d7c5b88630d9
fc15f999e30172d1c87d4377c6fe7fec
fc15fa749dc0f2da2fb4eb5367d915f8
fc15fa9f8440a269d506b42e18707040
fc15fb24ce5476852b744d7aa062cefe
fc15fbb0487d1084d9e479d1e57db62e
fc15fd144487a8b82c74c91780b24807
fc15fd52a1a68d203f1f5377918db2c9
fc15fd5cbc92f09765efd45e6ff1fe95
fc15fdc52006f2aac4a40e96eb6ed2fa
fc15fe45737425371aa7d8797e5b7751
fc15fe733269f2e673861db13796d2c9
fc15fed0c74600bceb3dad1c266aeb40
fc15ff9899359ab033b38a777cd03937
fc15ffc008557397fbd3caf9864b2d3f
fc1600b8dff02ecd7b61bf23a97854c1
fc160201f0db1e53bdae452a00b0749c
fc1602cec0c4a33adb73a8290971f631
fc16031195f52ad49b2d35612bef21c2
fc1603352bf20446c08d1afd78e65173
fc16033531090b83640b0814bd6ce396
fc1604139d2371985487942788aa06a7
fc1604c357cd06b4dd9d87a3bcbbf799
fc16061c78a5cc46879b8f8d5da2c922
fc16066fdd63df4030c732875377c303
fc1606cc751de4df5fc3cb22a6ffa6fe
fc160730e2bdb22bb2e9ac3029690707
fc160762b5406d6e13d1e810eb67ad90
fc160772b0a19dc75430e5eedaaec65a
fc1607902c4726305c4a7afaf001036f
fc1607d21f57ea0d26f31d17e4993150
fc1608abe0fccdd38657914af964dde3
fc160a4110c5c2f671baca9a6a4103ab
fc160a8e6ecf75c4e00febb2100ebb95
fc160ace21c81837692b339d230dd4be
fc160adb2b67d9f027e3f18ac65775c2
fc160ae545f7cdac2c9a1f3a9a3e265e
fc160b2d0505e202fd4bf101652eb75c
fc160b371f9143bf3f5479ed2aa91f6e
fc160b7c14dc7450be47cccd99482887
fc160d40c8a4184dd03e158ee3fdd07f
fc160ddb9b2268d30cbc73364ced70ca
fc160df8315d822e0c9214443dbda3f9
fc160e6c116404c0689317fd036f32db
fc160e7e3d866552b75ca35c346c9ae0
fc160ed588cc360b76d25cd824951ebc
fc160fd861adf678f3f72d8d4ea4c491
fc161182155d1b9ecbc1f5bfdbf9b308
fc1611998dbef780f3786b705ecb43fc
fc161278e1eb84a6b7325156db427482
fc16131453c2544beb9d60ea604d2759
fc1613ad89af9f9617e4d6fe3ff1aa5f
fc161491604a1f50139d2a1bd16b925f
fc161519b588762bb03f248981a2b60c
fc16156d514dae133810f786c3e6336a
fc16157ad4eaf10159bf0d00881537dd
fc16158baa599cbb922a736997d461df
fc1615e0fe5e6946056099b73d2c5e47
fc1616e7367ff9dab6619cea32d09463
fc1617b782fa4d1fc6a145b5aa5c0380
fc1617dc4ace819ccd586f119c8ce3c3
fc1617de2a00fc9cada4f62994284f26
fc1617fb308e2a2fb261d84d5d9cf76e
fc16188f6ecc1633e73cc0c84a81fbfe
fc16192cf19b20fc7e1d24db9c285821
fc1619868acee9c963c3900c3ba52063
fc1619cfb0e7aff456825a1f969bf320
fc161a0bf301998e462575960755bdcd
fc161a18abd4782859b8f3a687798060
fc161a5ca6385f734ed024ee9f73ea7d
fc161cd9bdd46ea80e4c9d60cf508c06
fc161cdb7c4dfa648b549142544504ac
fc161f621c33f3bbe2f4f410f2fc9735
fc161faf24aca1827762c470e6a72bbf
fc161feef3bec9f20c30238916de2677
fc162097792d0823f9c599b7c6da6a40
fc1620bf3621798e7130725a0087bc70
fc1620c75c75ffd3617be5daa290ae9e
fc1620ed2d16db58df84e96576e998d6
fc16219c6da2a040061b2bbbe681ea92
fc1621c1f3b609d35e7539e5655f99db
fc1621ffa7bcf6531c5429e94f31fa5a
fc16220d76cf920fb914e6ffcff31433
fc1622456ad2813f2ac780e4bf074c0a
fc16229ff2a301817d082d1fab8fc1a4
fc162414f615f3c469137a4d1df36fcd
fc16243d353842ab0f22d18924e2efc8
fc16268684bea9b4063be006a59e0a1e
fc1626e1bf3e89602e20affbde892f30
fc16275b4a9ddd9179aaf209c65678d0
fc1627b2308bd308b574d1e603c6eb89
fc1628c36956bbf087f9592b5095b600
fc16292bb89c6f6958159813e7a578f1
fc1629cbe789ebdad4eaa0794a254d30
fc1629d61f64a6cc7b7b0b3f03d486fa
fc162a054f6d633bb7d7407915961c65
fc162a6092155f27adb573e8665bffd0
fc162af3e96d66a47e9613b8a3bec2a3
fc162ba5d3ea5c34e26b1aa498a9f0e3
fc162c9a4a807e843d4e3d44aef60455
fc162d06089ec84342748a4fb57c5ded
fc162d83e4984a59ba5e9eaf35ac04ba
fc162d928f683751a74cb045b8db9f4d
fc162df287800dc9384ddf213519224c
fc162e40b1048950624f1b9d0be08a16
fc1630754b2b10fa7ed462391be8ed54
fc163137be80b1b714e98795b0a7a15d
fc16315545437e421c42a671c7c8cb80
fc1631686a8ba0a59e94238b63297a6d
fc1631806de56441bd1ebc861902624f
fc1631f843fec9bf38a0a4c21c5b4acf
fc1632ba8690a3239d6305e57af2f61e
fc16333e6a90bb464b52af711b98b6c7
fc1634960c0ade0ddc4a17625740fe49
fc1635563258d6f0008c7aa737580d60
fc16357e1a54a7c6806a2831d7e0bcd1
fc1635ff3f020fcfa96a210dca5c541d
fc1636b2d0efa2255c1da6782f59a285
fc1636ce30b7610852b98914c7d4427b
fc16373f756efb33454e93c464130fcf
fc1637b0a11f282b16b3b9700858f501
fc163812e4020d465a383290d0a51377
fc163910770daf8503cc473924df829f
fc163a723204f57136ae3bb1aa1cee50
fc163a8e5a110b0ef378c0245aca59b3
fc163aedb5d84155286d18f086c35dbf
fc163bbd4b8341840a2cbd3a5fb5fd40
fc163bd935f816d889fe708761969109
fc163ca377bdd3f474be670fcf6e8b31
fc163ca9f922635e85bbcfa0b635a634
fc163cb13eb527d45ca11dc5261cae02
fc163d433e53539a7964f6abe0ca120f
fc163e1390ef4dc5376cad3198561b39
fc163e74c19dc9550669376c1a9e7bcf
fc163e77b710eff1051238818f1232dc
fc163eb207f5b59e6790c77c62d94640
fc163f452f00e85d0665c348056d9210
fc16400f8306584b5aa9e3dc478f6bf7
fc1640265be4a92e697aef238f27d558
fc164117f264a9a34ef67f27bb64a42f
fc1641c089e73bf396c5392b8b602217
fc1641d707d9cb1ab237306b89a5ae6b
fc1641eb326de5cfd7ac0060f0e51836
fc164294d0a774ea533034bb948dbd96
fc16438ab43ba52e7fa992687e7a94bb
fc1644d6dec542feb6a722fda60a57b6
fc1645343d0e9cca2fe3e3cfe5f12c5f
fc164636c89abf0e9d238f9df47c7f4c
fc16466b5b1ad69866e85917fa94da2e
fc164767f6803417d7173c171985e70c
fc1647a1fbb911f35336bc410f66418c
fc16482051d8ce8b4156099d7390625f
fc164891b759b475f1b6957a78ba3d0f
fc16490162c66bb22940b910743e3a4f
fc16498cd4226e347bdfeb6624bede55
fc164a08e71ac49222493ba374557699
fc164c7b1d5adf5be14b98ec46bdf457
fc164db0acfbc64bbdcdb9697bce680c
fc164dd881ce391727afcb37b9e8fd59
fc164de65c18ac80db0935de428f4c35
fc164df01693dea16d84455d3caddeae
fc164e1f4bfdc52a6fcc27432ea16299
fc164f9424b74955e18ffac1ed89bccf
fc16501ac5843972d2d900697c363dda
fc165089ff8b8ec3677db44dc266ee7f
fc165127b72e6f9c24f789d86a3aa1c9
fc16517c662809a340919f89624d4099
fc16518c6fce70d99242e5493c6d0d26
fc1651cd6a60209e9efaf52a3df7c4a1
fc1652166ec7ef2d8713b3b921e703af
fc1653fc2f4955096bb794bdcd1b6c66
fc1653fe0138e31a1bc0cb4a352e7735
fc16543f66f6ad919e513e1fc055c79d
fc16550ce5658d2d7687c7b17ac4c660
fc1655b730cd39418b9a85ca55db61d8
fc1655d3478142a4aa31fa2a91a056c5
fc1655da32580cef75c49901a2dd8ee0
fc1655fb1b99afbe9d91fa8afbae0318
fc16568bf8f3090e66ac3b06626560c5
fc16569715a1a6963f56d28507b879bf
fc1656fe2afcf382d8eb610887c41386
fc16577c5636b39e0e74151132a4e796
fc16578ff75d9b749d2eaf4cc930f962
fc165946d98dddeb578d82db49fec411
fc165949ba453e51caa4dda39152261d
fc16594e23482f78691b70c29876a7f8
fc1659764ea491c5b37e691c10b57c0e
fc165b0e83138e531db7147109872109
fc165b9584d65f86666a399627411902
fc165bb02fe912c66ebe4401a3e86479
fc165bcf4deb7f603b2d1ec101aeb493
fc165c187126abc1098c3b6d3df2bdd0
fc165c2cc74f6a0f8dcaabe3606f2c53
fc165c5307f13600ae28c8acebbbdf70
fc165c7b6daced1d480ac689cde9c993
fc165ca5728b5435b5a9b333e93ba7e1
fc165cff1b6ffee41b704a4d163a9dcc
fc165d1c127e32e57b1245248a4d9849
fc165e8b74c9cdb7230090ba38dacc0a
fc165fbdc9b43663aff66844f183aa1a
fc166060f707011c6db1147f26ee51fe
fc1661328dadd9cd60ebc3e6b6e15ce8
fc16616c901c8bf591e820936298042a
fc1661cf9a0ef271e4e57725e1584eb2
fc166224fff28239578f6e4ca59f6fcc
fc1662536d7ae119e9d749b38d4918a8
fc166255a85225d3920b9b5ae8918682
fc1662b2500035f06987c9811f50c592
fc1662eb0e5a2bead8ea584d39a3f563
fc166321d46825c12bf6755a33756317
fc1664302f236a231dbf769455fe76fa
fc16655486da05d9bb61e93682b26c16
fc1665de0037bae99e6568595c3e6855
fc1666d4a46400a81e814ae5e0696585
fc16677e64d2dacdc778dea4f2348950
fc1667e4bbfa15143c7b59d493409047
fc16681a7d8c63ddef9900030ce0c88a
fc1668b5ee0bf408b77d740211151e10
fc166905f2f355dc16b795b2a1f3b7e0
fc166ae93b4fb852432a3216af897af6
fc166b4bbff07b51b3857a4950522efb
fc166bca8de20e36081459e61926ae00
fc166f4641e60726ae38059626b4ab20
fc166f9bf2acd175fdcdbbef489e297e
fc166fbd8ceb53f85be536edb5ab873b
fc167043801f85eb4f0b3659939f8a2b
fc1670c27b1f7482692503fffaa8a21a
fc167101a3b46fbab5ab2e6259428298
fc1672b48b219f0765adeeac91d99d66
fc16733d4c7fc50a5dfb2bfeb7855c68
fc16737014949add864391f6108d84d5
fc167397c950466b9caf47d491337701
fc167432e3f00fcd6ff7d24eb3e7fa6d
fc1675e2baf194b87020be1fecd4ffc2
fc1676174a881b1dd9a1c75a7012029a
fc16763bdc6e2ac2fec43cd366648393
fc1676a23c6138d6ad2795db58725577
fc1677a299bda8cc77a71545a5bb6712
fc167836122b4ab4c7b4f2390914d32b
fc1678903b52a333f6bb140ff89467b3
fc1679ae9ab1f187c6efdd58637f8fa5
fc167ab87b25329b57517f403aa058d4
fc167aca152560e719fbc36354aa66d6
fc167b30bb65bc90a467a772dc6495eb
fc167c41568e885f206ebca7cf727600
fc167c45b25eb2eb16653adca64d04de
fc167e46e7bb23d677beeeeba1549f5a
fc167ed38aecb7677139017579b9e37d
fc167f07e20df8b2e9ff18cc3a6272a2
fc167f70d1e2197b5bd03079b9066cd8
fc16803e25b81bd9768b04b91abf2a0f
fc1680b4078a83f3b218224262e6baee
fc1680c2d6f1d7461a49b4ed282e3ab0
fc168227529e7cfd863aa43fe5779bb7
fc16829e2cdf181f82c2711ecb128d41
fc1682eadf3323db34e3a7b3d0b74eca
fc1683ec07d934225be31c08b82781c5
fc1684a998cd5636539a2d87285d8021
fc1684eeb6a6b77eaeac871c00fb8953
fc16856279e3bb170917735323a4654e
fc1685726495ed89e4ee836d919f5180
fc1685c1ca76a48616fb7f54f258e2c7
fc168601886fd67a894185544bf5699e
fc1687dfb686e5c20429254ad2a7f009
fc1689b3bc6cda7dc9b81060cdd8af3f
fc168a933464e07ce24f48ac3bbeb091
fc168acf7d252d51f50b2c8a017968fe
fc168ceb7ee9d0aad562938edf007db2
fc168ec35cd9b959c435b664e75c528f
fc168f40a2effffd05ec887ad4b69d0d
fc168f7e5d293896f093fb8f0299e700
fc169044b9aa35c34f9908eda6c15234
fc1690c7384cec5161f21c0d3574f750
fc1690e91c124fa54294e032adc51630
fc1692084400a6f81b072c42df76f929
fc169266d4c6d73094202a2dad68f257
fc169472bc302cdc90232bf2bbd32d8a
fc1694830f46bbcc3817d4a6c3f59e4e
fc1694a52830c31e66efc42fc44e7a7c
fc16956db62e641866a121eef9afb1ce
fc1695bdb24e574ba82d8efd6806f828
fc1696d794f9f4c5fd9afb40a1ebda69
fc1697d60a0670ebba5944dc843a9dc9
fc1698cc6fc323c1a653ac9ba9d0a08c
fc1699660492adf3711d233dabdd0ece
fc16996dc680ceb6a3af257a19922870
fc1699dc55c5bf16491d0b07111e4cfb
fc169c078774e4e1f2ab310aeb2fe504
fc169c126e1ca5ca5ff5d314a8ceedff
fc169c1646062efc72aa5ada3e8b3ff7
fc169d2270cdff01154ec883bd1f75d0
fc169d6511c125bbfef29ad1db2c2cac
fc169d8b7b21766ca8feee890d748e0b
fc169dc32ccef0b957e136eaa6ac14fa
fc169ed52b13cbd9752d3c5a643e4596
fc16a002ec9a0afc3b8147d0b5537256
fc16a04adece39867db6b4de4ad89f55
fc16a07d95023f8ffc0f02ebe258addb
fc16a0d327d9d86264bbd1cac01802be
fc16a1f9d734bb5b632808f1754f2845
fc16a339bec9b03d6c4f8e48ee57e848
fc16a3af2a5e7a9c6b1a9763319512f6
fc16a3c57b8f7b3150d52ef75649f708
fc16a3faa4284687efb031bd33b98907
fc16a5c07d75979124bc131f48f617d0
fc16a5cfd27079b5f9ee52ee781cc785
fc16a64d82254c001e5fd11e534e34b6
fc16a65c29c6a8896b60faf6e11b4341
fc16a7817d84cd1d7a460331435f5abd
fc16a8e048f03dab539d34862e7797bb
fc16a9e25718943d89008b69b309e378
fc16aa6355b8e5c9b0b273999401a7c9
fc16aa797a1b35837d070bbe77da1794
fc16aa8a3e3a50cd70050fc1aa23a439
fc16aaa1f5fde5999dade8b8e2f05645
fc16abe53478c54655d8d4156aae9c35
fc16ac45890f0da54afd38746a7360ac
fc16acfe6bc8f7752eeeb2b7774c0142
fc16ad7f2ec969859f08cc7969cc0fd0
fc16adbd1bf9eccdfef0f14f2f2355c2
fc16adc55bc23426b099482f94cfc9f8
fc16af2fd8d966a339055c091d40268d
fc16af903fbe14d511ce912c956465ac
fc16b09dc58abf92436fe63afe71d760
fc16b1424de18e2e831b9452ecf3e8fc
fc16b31c990b13cbc3359bdb3fafee3f
fc16b3ca03d656c32291df78eda96e90
fc16b42fb0dba1301768c005f52dfc41
fc16b4ff9de0d174ced9f033783332b0
fc16b530b25a7565531ad772d6807eb1
fc16b5e166f1cba10fbbad863ec68c02
fc16b71cdace36354e405c44abf1cc7d
fc16b7429d5f3e4c786343938618ed94
fc16b7ace8f2ed30707da7542d3a05b2
fc16b883dfe3fe40971524736a04678c
fc16b8988581a907b1c27c5d083e7f5b
fc16b8f315aeb8a58e9b3e04e961a26a
fc16b982b47a2c7560938b62d3274221
fc16b9b58f91f2f22b9f840f0f978b67
fc16ba55fe715658ff5b43936298ec5b
fc16bafbaa3a1ed26612fcfbd79b60e5
fc16bb958a82693a0ed95b782f2c4fd1
fc16bc481e705cc96f9ffb3b3a197de1
fc16bc58a6998abd2254982094ff59a8
fc16bc8640754fc8a692dc79d49e6b8e
fc16bd71df72a0cdced366bf1fc6c309
fc16bd7536132f7c3703f182239d9e90
fc16bda6e5048ac475c368597cf5f471
fc16bdfd7aac23e8cb55bd42322d9e3a
fc16be3bb009e801719d63548f9a1f8e
fc16bef5e428c9f5921cccf7da6a2634
fc16c0201dbde3ef152568a89e22b05b
fc16c1586b7789a288685838451479fb
fc16c1692883c0d39af042838f5404b1
fc16c17b4fdf2711a13c461959696273
fc16c185edb70e4d3b6d6d1ae0ae5b63
fc16c2c0e97238f50339d0d827403b3a
fc16c3cbdb54416cf60391dbe5ec81c6
fc16c3d14926efa4759332e21977e785
fc16c4a214f57d32a305573b47b356fc
fc16c5a9cf1abd91d6bbfc5faad35e7e
fc16c6eb15ebef996efe09c2016b2edc
fc16c77fb90f4f3f54cad5007bc8369b
fc16c7a9f56f6b3d467752eb53a7f211
fc16c855115677c0ec4848b3fb52772c
fc16c98713359833e0ba0aa3737947ae
fc16cb012438fb5c5ebf95dab6eedb03
fc16cb3a3ff06a4503cb036a8e5e97f0
fc16cc10e2f24cd2ed9729c32dafc065
fc16ccd42ca78678e052e4279038f839
fc16ccf376bb67827c3a27a597ce6fa8
fc16cd85d282f7f2d9e30bc4cf738010
fc16ced37a3b5c90f22d2480dc8d5233
fc16cf3771111d42def3ca0599939396
fc16d047183047a8f71a020d8673eac1
fc16d06fdf3f4d9c1a2ae9f0a2e61c70
fc16d0ab26e6a2b3321676c26871870d
fc16d119a46d9591d04576ad89688636
fc16d1ad5efe5c0dc54cc098ab302b92
fc16d1b4c8cda5395636d2bdba9f3760
fc16d277c5ffd7628013a495ec7a2aa8
fc16d39b58f430cf62323ef8164ded43
fc16d6e1ec1f9d44df4cb5145b15ceeb
fc16d84021f18a76a269f3d610679ba5
fc16d8ff6e301d66103f6b11d607e72f
fc16da398eafb9213e79991736a5b688
fc16dafc87ee40225b169f309f80b353
fc16db4882cb7aa08682aa52405121d3
fc16db89430e1f80c7c851a53d3b4883
fc16dcf6e555f5d8eeed55d26af23564
fc16df10c6011c9879206f9dce1d5ee6
fc16df8830e5c335ef16be69e1f32ddb
fc16dff421a6bff5dbb2d509caba4b53
fc16e03f3b1d9f3b81a98f8cf28688df
fc16e0a2f41504803ea9c89e8bb2818a
fc16e13ec5639a3d90dd3ea92128ea96
fc16e30d2562df791ba0db1ea848164c
fc16e4e48fb03d31a20902d3d98e6e58
fc16e637e9312c5c36c7bc59bae68005
fc16e6f15cac8f353712408dcbb75ea5
fc16e851ec3ac946675b179a67f9c365
fc16e86275d3c827483e0a290c66a674
fc16e8f4352bce3cd5d8f6a44770d985
fc16e91b7b8b6d474452178616c09cad
fc16e94495bae0194d0a9ef49f854299
fc16ea80e947eac04570387a2a558508
fc16eb1d6b3c8fbb8bb4cabac8491e8f
fc16ebeac51ef3e2520793545a202127
fc16ec77552443e8a48c5868c1f6a153
fc16ee0610a2b1958198edbb7c4f6a6b
fc16eed011901f80d823ce51c223160f
fc16f05bfcbbf7b6f257fa2475cf32e3
fc16f1090cc4ec65f41761c2e010cce3
fc16f1b0b50a3fabc648ff87af6407f4
fc16f2088dafb41be460913a4a0c1d0f
fc16f2538c2858897a4a123ef02a3ec8
fc16f2c9cfb7b823703a51167e61476a
fc16f3c89e3a71c2f3dea1cf4d509a4d
fc16f493700899aeeebefdcdae15951e
fc16f55fe5def4f8a4aa2b5c027add14
fc16f83a631151314866f991d47a2480
fc16f8d2b88329bb03217e7acfd82fe3
