fc2003e6743160ab7d6e5a347da5927c
fc2003f6035c497b66ebbf482870c964
fc2004af7e7f0e7ec64055aa10e932dd
fc200594de7ef007d46ce3eb7495c6f4
fc2006176752eafa8884187a7bd26ba6
fc20066588d07ab252166a265d11a4aa
fc2006cde36a4481391f2c2bbbf2cff9
fc2006f5919410dd79f614d1638163be
fc2007c211b0d1b50b1ab11e93a7230d
fc2007e9389f2a4099272e3f19b767a5
fc200841ea211a3fdeb91af4bcb5c335
fc2008537056e538cfd5e31bd902e379
fc2009def2ef330a87bb1cfef75c1698
fc200ae5a3e2604691884f5f118b0b2a
fc200af68586284a4c0952b543b1b3df
fc200b8c02535b3184af058514fff337
fc200d01ec97f61ad561386d8ae8098f
fc200ed641ca08d156208239e105bd39
fc200fc77ee9ca12386ccb8d38581892
fc20106b8905ada8fb180b89cdbf287d
fc2010f4c9947511cb423e3686c1ed26
fc20120a62efa8f7fadecc1dded0302a
fc20120aaa640ea0ad5c54764b624011
fc201212cfdfb5350c40a0dfd7756634
fc2013008c41ea671e47d5ca7bf4e79a
fc201313a1ad5eb63651a23aba7816e6
fc201379cbcc157ce449c1cc02f192ca
fc201435ad24d92624a92bd7a6804047
fc2014ee0cd626e51d040c743376769e
fc20154c3bdb0868fe3cea8e444be726
fc2015dd1002552afce25f13e573735c
fc20169b0f1272f92276ca8f7fc9475b
fc2018103221d0b8d665fd1b3f5c9bbe
fc2019721592f4d85f29bef0db1c51b6
fc2019d1ee7f1066ba6ebf09775abeb1
fc201b6704f882563c978b250e706645
fc201c2c72134dd4d8c05211c7ec7bd0
fc201c344b774f7f051f043a067074f5
fc201c440cee929134e0927bc8d6b1fd
fc201c7417b24fd2e1a5a1fc00579540
fc201c806a1307f7962e1f9d7d848b77
fc201cc631571ce3492af0d53726aab0
fc201d6e3b032e91d844e9d1235360a6
fc201dd86b181bebb664fa6db059d4e0
fc201de457a7e68b74ea8c6486f25d01
fc201e26f8fea11dfb851570514ff62c
fc201ec651e249be083da5db637eea1a
fc201ed4b8066394954c6a984c820b02
fc201f10869c49947502fa1b58e30919
fc201f6bee77594426d88f88aabf53b4
fc2021b92a49f26f84c032cc4dfe4716
fc20232a925328851803adccb7e59147
fc20237ab9af31e058c0ceac519b9811
fc2025eeff0d8de554c2a3b2690f9f8f
fc20265f75feac527276a1136cce119e
fc20269a72d0bda558f8e32adb5c7507
fc20277b12d957fd176883e8532f1454
fc20279e1707559d94203bf191aa364f
fc2027ce1153c365019375e3b6ca270e
fc202926d41aa61191d28d4b34bda055
fc202b0bcc5a002a2c31f3aa746c7c45
fc202bef0b409a44fe887eeab77266f4
fc202cafbc5b4564860285d069bf6d40
fc202cdd411b65bf8ab04ae8f3aea4a4
fc202d46861d0a983489488ee48f33bb
fc202d4d1c84ae5d0a7098fff5b01811
fc202d84ee1ecfacb8a606ea558c59eb
fc202dce59f5d028ed9b056991144afc
fc202e738e41bea1f66085200331bafb
fc202f0c48fb5e302381dfff473ea63c
fc202f758e5cb669a28dfd660fc9afcd
fc202f93e8174d27ac0a30e4dd251859
fc202fc56d096dc85efeb907da5412b1
fc2030492a00e6e2633b89c25d9f911f
fc2030776479ebb9cd8dba63a9a60ec0
fc203146403c8d84fd25692a9ad2f8ab
fc20333773291a8a18f105d930623f72
fc2033aeb9e5cb226fa86bf73290d94c
fc20356799aad0b5264c3b5a1c6c7964
fc203569dbdd4184060d634c6222c0d1
fc203628ec6c830842a849c6974e0f2f
fc2036995eaff993632ab22a44d51687
fc2036b3cd715b181fa4f596216fa136
fc203702de97162849857938ee334ec0
fc2037628aec4cc35044246c3fa90879
fc20379c4c5e232da7a1e8d0b871cbf6
fc2038763cf35c1e0a1fb06adfa64edd
fc203901c9526bf44a60386ab1a671e0
fc203ac6238f4046113e60e177d5157e
fc203c8ab82fdf1ddcbfe4280a9bac4a
fc203cabddf1273b5f91c79a07f9d0bd
fc203cecaa494516031642e16ee56ea6
fc203dce474ea5ee32d620fc986b5b8e
fc203e263e75e0cb4c09e766b613df48
fc203eff9c8418651f3419181169575d
fc203f557be27fc106e2ec348ac3e1ef
fc2041aee76245fac15218688eaa264a
fc204220b91a36b06cc01a98f4ce8e27
fc2042279bc94b5479e9f560f1f0510b
fc20426ba7f3640bbc643835f82b57e3
fc2043ef2cd0e9fa0006dd4533648641
fc20444a93d2fea7f738ada138384a98
fc2044e7b666c442246238fd27eb447f
fc20458803fe4fbb550603a243650359
fc204596c248482c5dfa1177e4395622
fc20464e8792ae0035bc103350813bd8
fc204727fadc154099079e9c0ac648a4
fc20473ab476f02074cb810c02174922
fc204841ee00f819698153ea891c8712
fc2048cd280ea87a90af0dc26b0fab0a
fc20490a8a7f5fd7755fd9dc353b0f9d
fc2049bb757b72d77d01c4b9fbef8c96
fc204a757e5b395c616a468e0787a779
fc204acfc47de51bb0def8fe4726b317
fc204bc3b41f8796694036afd18cfb47
fc204bf85310f9b7897c9f1ae6663ff1
fc204c20111489b4ca58e66fd0412551
fc204c539ce42fcee6622f6d0acc5794
fc204cd445fc0defddcd988dadf4987f
fc204edf0c91f27f09338f7e1b83f612
fc204f139ea67cd4d8cb39d4fb3b0a77
fc20509ae88cb162e21841c7304de490
fc2051932a53a5a3d7b960d96d97e07f
fc2051b35fb8a940ae737ed2e0413700
fc2053a1eda1cc787d591fcb6ca9d297
fc205428a74d7e7cf5769cc0872caa9a
fc2055047ffdf89ebbf64a457ca01576
fc205554e622977189df3a31f798eb77
fc205634999cc34ffb66e3adf33fe060
fc2056af10b4b67381d33d45669f7212
fc2057547dcb48ff6cfa1a566bb21791
fc205892894f6571ad595db49e702ea6
fc2058cc252ca6fb59248345f63b7d70
fc2058d5153729cc2a21ad47008ff70c
fc2058fab88d93a59108de91f2db54e5
fc205960e24877a3920921717cca2aaf
fc2059b41a716c974cd39cb66267cebc
fc2059d66f8016ac848a529c97bd3f19
fc205aa0ad9700ada7241b30bd610d9f
fc205ad6e747bf80ee5c3d7e67818beb
fc205c75dae326000e5ead28e98e983f
fc205e794059c7fb56f8242bf6f0fd5f
fc205f06cf263b2363815f2fc937f287
fc205f80a9860b12987ca8d0b57a566c
fc205fff3269f206a11e8c614fe2e832
fc20604bfcfeeddc669489663249f10c
fc2060f800184cf73a1f1aa041234fdf
fc2062b91ed1bcc8da85c78d61c19910
fc20632c1eed0dbade4be4fdaa0b22d5
fc206338aab197c2dfb1361a172c6830
fc20634ce163dc01135f9be09f3c001f
fc20636c682ed59c0c09f387d56d09f9
fc2063dd48ce85131fd4912c0bff41f2
fc20643b9a6862c56997a21bf580d6cc
fc2064c7644e5a8a83804243b0254cf5
fc2065264782fb385e12a498c67019f3
fc2065667750e1b08ae4eab43ba3ba3f
fc206601a3275b754e157a28668845f0
fc2066aca9ac8f2ca6b1737b2dc8559c
fc2066e4b5fa34a0b01bdcfb6c8cfe53
fc2067d38c89b9eeb961c6db6787f94d
fc206b354d24e3f72ba7a71e12150b37
fc206b6830944edf7bf471e5164597d3
fc206bceee5803aa0cfa754d91f6d3d5
fc206c2bacdd1c6e4301d6eeccb208cc
fc206c2ebb9d56a91c00245a13ab197f
fc206cdf3faaaa1c92a38cc5d02962a7
fc206d8a8f9a69ba2965600e8aba0b0d
fc206e67d2911659f946858e67b66a95
fc206f93a2f83a740195054318ee11dd
fc206f9e78826136e0cf32fdd966d049
fc20744d961e19cc3ea18dfd7dc821b6
fc207485b9a00e1823da89eb012aabff
fc207558744d68ea31c1be5c124d132c
fc20757bfe9f3163bec8165f359dce53
fc20759ba036b07b8954e324555aa20f
fc207610287314aaa67ffb472af88e88
fc20773b34d678b43e11c04c9b06e359
fc2077a1820fc07677390132d733bf7a
fc20781dcea3b759b92c851706daf933
fc20789a13f9383bd28df4fdef60f7fe
fc2078edbe3109e96d8f5b6982aafe3d
fc2079284bce11cdb6eaac4ec6b5bab6
fc2079316651514d88cb76e5b04ffab5
fc207ae0abe3d5a9bb0eb1be23024a7d
fc207b45bc865cad4b60746e1605c3bd
fc207ba51bee4b1d49dc781fb34bebb2
fc207bb1bdbfc7e373ae0e6cafc1109d
fc207bf8a977e633543a11f906ca029e
fc207c3f86a156ee6018e7097f15890d
fc207cce2e4dce0356143b1857cf7b42
fc207d633b049afab1c4a71f30cad662
fc207db867486e117faa6f658c6e5aab
fc207e97d290b02473e3b16471c67176
fc207f32874bd6aabfb6eb47805d1fed
fc207f47f3032b9efc3d4e9033a649fe
fc20801cdfd3a679865a4eb8309a6ef8
fc208047e1c5e93cbdd0ad62390951d6
fc208138042c2c554e762ca898d7e081
fc2081875e16d8991fc8b89ae4d64ec9
fc2081e05a59da1c25dfe2f907425d3e
fc208287dfc87ca499b22f1c278c51a1
fc2082945c27a351c085f23125da4977
fc2082974c37e0ddef9bee37f2b7ee3f
fc208426655135d6b6e7df5c9b62af51
fc2085101dbdbfa9f193f60f2f601ba4
fc208567bbd0ef035e275defa810c452
fc2086cbd0d580a85dc27ec99f4033fb
fc208772c774a40d29ef24ada8ee1f16
fc2087bc929ba94891b1b5ef6364bd5a
fc20883e9fce6b4ba4497342be8c53ed
fc20890ab6508e7f6aeb3f7050098f9b
fc208a7af93319a0ee31b25c089233b5
fc208a98cf1c7d3238ca0978a0983ca8
fc208aea79d3a45d6fe684c712321d85
fc208ce1ad24172930960e740a6da028
fc208d1357b909cbd0ec9b4d80526fe2
fc208d651c1afd413e2a0b03ff5450df
fc208ee001b7306f381ae5af21afa526
fc208f6cf67e41239768c3d23ea9a912
fc208fd0354389cd8073e5c0691d41e0
fc208fe8b103b1bd3cd093c6a6aff27e
fc2091505d883fa30694525c4b203c35
fc209205ac68ac6a7657cd1e55db0ee2
fc20926b9365f95105c1b91c85914bae
fc2093e3118ad9944d51e682bb6f4daa
fc209501247ade596ffdd520be76aaf8
fc209a16e22a93c4e3d5990db0ea2f9f
fc209a7da1d011666b5a60e864be7bbf
fc209ac39647dbd7b0587cf2d5fb2487
fc209c52bc19a4b36b7b216485769694
fc209c5f62a19edd2633da85b03d711b
fc209d94e39e081f6ec60a0cbd30e20d
fc209dceb8017e207c4e5138ed6c79d9
fc209f596518be0f8adf5eac3ba4f935
fc209fec96d025a378860e10733bf7b1
fc20a05cd70834d743c018dbe3dc08cc
fc20a1685362ca3ae085e61b2eba43ea
fc20a46d6ef1f6e2aa35b87de8ae6ec8
fc20a51f5c7bd6b415d4bd28d112c50b
fc20a575f158da7d2c40fb4b57740bb1
fc20a5998a1396259bc96ade576bd150
fc20a662554e1f338965a92465fc9fc3
fc20a73de1208e6fbcef9fb8150c7cfa
fc20a82e21988c454dd9d2075e0a4664
fc20a8516bad5f6c4f51b7096f0ab4a3
fc20a88cf3e80e01accd47908dcaa52e
fc20a95044efc2b92475c48793dc9972
fc20a9a207e1c2fd1572605ebd54e7b2
fc20aa55d9ca490c4dec0deb1d3a94a1
fc20aa8fd390c3953a3b0015eb50b199
fc20aaf52cf29689815747757ca5a65f
fc20aaf8d85afe4336fcf2f5249616d8
fc20ac90afb2dfe4fc1aa5f3bc3fadec
fc20aca735cd19708c3aac20f0c9a3d9
fc20ad58dd6388c9342ec416279afc00
fc20ae830261821b767155dcc6f439c9
fc20af18820c885d39e5bc63c5b9d383
fc20af494689f2868fb6a2bd4c456e05
fc20af559cb5b789e32c529b3aa6b5e7
fc20afb9fdfbb1b028b7d84f75273834
fc20affbf9dc98d5dc1d8178a05565ff
fc20b02786eadbfb557152e76b571283
fc20b0ad13c02afd9d47bff1b2ac51f6
fc20b1b9edd00aa10edc5bc498ba7f79
fc20b4e2505eaec12848414a5b145eff
fc20b5a463d7ce47fa2da964f722f989
fc20b614eba66ef208cf1d17452c82cf
fc20b667cc536593f540fcdc6f3c3e3f
fc20b68db671d9ab45b26bf39a27a8e1
fc20b6928a87057cfd9f0cb82978efc4
fc20b7d4277af986c98d4943c8262c3d
fc20b802c7f54b7045ec81aabca2427a
fc20b82a209fea93ce258e8325046122
fc20b8ce8fd98004c1059bb0b48c923b
fc20b8edb37ffb2db91c285cc7747441
fc20b9078f1c81c234fcb44520ee7393
fc20b9562dad1021c9758a8c79e9cb91
fc20b9c543ba2bc7962367a084a70e78
fc20ba001d672713b5a8990b2244b4a0
fc20ba65703fcc0c69faf7ad56f66c78
fc20bb39c9ea0a5b42673873e0f10438
fc20bb7b120fad5dca957b03d7e57b2d
fc20bc88c698898ec8ef05fea2bf1e41
fc20bca6fad764b90c2f5e72f53ef360
fc20bcfd65bcaa2dd537b84ff1ac3074
fc20bd3860b0cde4225cd99e0400079d
fc20bda3d8bd85d18282c463a4dc99a4
fc20be51b4d9eb8ec8f19e003d08f013
fc20bee8130b7fb1e216bc5719b7d38b
fc20bf09e059f2cb98c2720ce6d5b6d2
fc20bf7dfc9dfa359fb51f0fe953e89f
fc20c059abbb1a6d8ebb34d648f91ea8
fc20c0b660c7f9dd7b2805dc96e439db
fc20c0ec87d11a9f79d1e02460c9017e
fc20c0ed3529485cec3489d5882030ad
fc20c11980d319f20d35cd0de593afca
fc20c1e6e01687c345d4d4b3c89d28db
fc20c1fcbc57e3a5af58fa14dfdb326e
fc20c219f0ed2f5b58b6e2ceecfe7d0c
fc20c237f32b49e55e0f23e0fa517038
fc20c2c70afcb761b0ed0fa1200e91d7
fc20c37fa951947e889a4156262ba6b1
fc20c3b77653cb07577568ed874b5a9a
fc20c40889bbf5917a64d585eba1dda4
fc20c503e144a659aeef3d7cd16f6830
fc20c5ed320f025f651e438b637328c0
fc20c600633cfc72c840f81333e372af
fc20c6249cbdf2a8004501113bd87e95
fc20c6e06118641033555d3e1d9e4c35
fc20c7227b0d1c730f8c0ce3422d298b
fc20c79bcdf8405f7268c2a79952772a
fc20c8300f13b6912216cd56d689bdf8
fc20c860d4c2157b0f4d71ecb2ff1510
fc20c9f816debffb5992f5e9c5f3953a
fc20ca07f418084d98f00f3822813cae
fc20ca78143ffd4e564083aed2ae2b60
fc20cc54f21ed7c42b0ba7878781d6bf
fc20cca04fe40030acaf167e2f9abe1f
fc20cdabeb14ad1f5b96a09bc1569b06
fc20cdc43581b3a365680185e4406df8
fc20cf4909d7c8bca14b40261fc07d82
fc20cfcdcf79f0ba82da33265c3c327a
fc20d01134f5bf8fc5b8c0ff7cc232a3
fc20d07eced8255f146e2da15ff3eca7
fc20d118d7f346b07013a60e17bdf62d
fc20d1de00bb8c3d33a37bdcc7d3755c
fc20d349a6336af2b139478c46285538
fc20d34dac6159c4b4b6104988853e11
fc20d3fc6a15cfa43070185bc47a4720
fc20d3fdd456cc8d9647e2420bb8e7ba
fc20d43e7b16e56b4e2cc0495ffaf805
fc20d58b276dd5f1072b8183960dcb6f
fc20d5baaf7a74a1fa40f0d3d9e92459
fc20d624a54de31b68426bd9d134d960
fc20d6a191f0f00ef31dc24a1aa971e4
fc20d7fcb49034190e75d19daefffe89
fc20d8742fc4c037de294a6dc0899d2b
fc20d9165b71df386ce61b5544b533a9
fc20da11c646db5cc1244f585f8bdada
fc20dba787ba7192031f1a07fc4a04f8
fc20dcd9d4098287c4ba683be1faba80
fc20ddbd659b634425144e3ef05a709c
fc20de843f352118232b939d5b155c63
fc20deb0ccc0266d11f338f197580d08
fc20deccfa18816e883892969d4ebb1b
fc20df1ed0b16a0b0713ea6875d8da53
fc20df94a4054ab19a901e3531a961f0
fc20e048980b23c2ebcd2acabe4f2598
fc20e093a9f01364c6df7981dbb1a470
fc20e10056a65775579dc8d0c9657033
fc20e105832679bc4a0035608278ea23
fc20e105b18f38ad464b58b37d94eae5
fc20e28f142435370b87a1cb0c274f22
fc20e2c4a0d3cc1c4ba677d4fc7140c3
fc20e3db77c8be3731f2a3516e51962d
fc20e4bdef4094df10a04ef06dbafa39
fc20e4f40fdde9b46af1d07c3b0a8807
fc20e584eaae1d6258b88233f9303d12
fc20e5acf0409992e4b4d08a6db0e7d2
fc20e67d1cf98a81acfa7345582dfe8e
fc20e75f6048f6bce05d5bd46cebaf46
fc20e7d02352b82c751611c56dbb565e
fc20e89375c7e9488064f6ad9fadd323
fc20e95acdacd13891e2f2348f4c06e7
fc20ead7560bf5363e9aaca4bd9678f1
fc20ebe5a70c7944266cfeaa14aee468
fc20ec2a631d7a2cec387d9fc1d50f80
fc20ec455dae380ee1341fba41e1bb7d
fc20ec93c3d9197740e354ce4728dc75
fc20ecc937575ed96b89ccf19dc05f40
fc20eced454f906fa5df0bf56e8a466c
fc20ed13c4c3c694abda9920b214a9ac
fc20ee722937fab34242a40541df8c1e
fc20ee792adc9d98a514024c40ba8ffc
fc20eefcf90ebfe9874b05355952941d
fc20ef5126efba7451d8c97ca7129360
fc20ef5fdd8763f7e7941122a13fd8f8
fc20f085076466b84a9886403480c812
fc20f0abb648a6058cd71d578d3ea1f3
fc20f0c3c546cc19e50b6f216b054682
fc20f1495b85200fcb03be1eddb3e9aa
fc20f16be10422f92e019837beb730ba
fc20f1e15b3a4cdc900a65663aeaa45d
fc20f2c014852c41aa8ffae17c8ae610
fc20f40b3bc0d74c272de3986086b014
fc20f4ce185c46ddf16b7a81ae01a59f
fc20f6daa872e74266622afd322db437
fc20f7395646cae24a57c6f2553778ad
fc20fa0427069196f2a0406ce5269bef
fc20fb1a277bf6a74764c9145f3a8a6e
fc20fb447e013c001da8a3721598c506
fc20fb61b352dbfc19529c2dabf2e052
fc20fb7ee00809ddb1d07f6a1a4928f5
fc20fc07ec4378fccf303485305b291e
fc20fcf768e4ffe0a313012e6d6ea74a
fc20fd8bc8ba69107c7b0275815c6f8e
fc20fe19eba7b69473e93664c7323fa2
fc20fe62a05575237cf4540c7825375e
fc20ffbc62c5ed893b4efcec1c2f2033
fc210046e7b979a22eaf557843b1ddb4
fc2101d0164b3ae7cce3bce363800a95
fc2101d7d43cdccdf8c6f83fa5035ce7
fc2101da8a1cfe2c3a74b1c4c4e531ec
fc2101e09d53f0b0f5ade5b2051bb721
fc2101e73123fd3960ba00286cb5cdc9
fc2101e9d19f3765a761065e1798845b
fc210243a97d3f71e9f82153d4ac9850
fc210292bebdcad327d51adab1f5c959
fc2105cc967d3b01454011ffecf2ddbc
fc21060b9574998515622dfc9394b13a
fc2107a5eb9316c8bcb8af7a4928a98e
fc2107cc35cc8af569e449e3c332d64f
fc21090902b7bae63bc2b5be46ed619d
fc2109e56817b1f0b4285eea11ef6cdd
fc2109ff0b10146f6f0e546d59ed3ad4
fc210aa2fd760a104ec4882745ec0d39
fc210ab2e8523e775f10da3022b693e7
fc210ab2f36882018be5f0aba636ec7c
fc210d16313398622e9cd35a5a624bd0
fc210e45a1c73d321d921c44493c1b06
fc210f5059b651c2114e2247e075fd7d
fc210f7d777233c74a81c7c8fd5dd08e
fc210ffeddcafb873afd25deb1c223bc
fc21103d4d049dc1c644dde0e2fcdfe0
fc2110fd2d39c6e6e2aa8cc4b8795ce2
fc21114e0546738a556e9a32cf8e28fa
fc211199a552fda927ea6bdf8b22d15b
fc2111b9ae58e4aeaba14d66070d6570
fc2111bb2117d526b707b811e6a50705
fc2111d7b0d90f1300237cd758cbb5e8
fc2112b5e7b234e9503547f83fae1398
fc2112c94e150161e1a9bcf6dea2ab6d
fc21135f2f372b2fa2f21a3e8bf18063
fc211402eb3e7ba3afb097bddb61833d
fc2114083707495589595c66b11b2db8
fc2115819a49f4b49b91a8f9017c93c1
fc2115feaf93a601f8f99d0e9b005aba
fc21167c19d1e61315e41c79a48cf4e1
fc2116baf21b9022ddac1d1285466caf
fc2116bd74a125f0db487e8c6b467f8c
fc2116c9a2fcc15f86f941ed3d7014c6
fc211737c7436f92a382db7a3fa7fa1d
fc2117cd01cd0578d86d67b772f30f3e
fc211932988ddf7de2e813281caed901
fc21195d4a6fc17ca6316447bb129f9a
fc21198d31ee6e305b95268b3430c94f
fc2119af0bd282ce68f10b760e43288a
fc2119e1f26f834205ce96bf4a388ed2
fc2119f594cc7283732f9cb47f9afb4f
fc211a119a05d38856923baca7c2a8fa
fc211c21d2b30f83bd16e06de6e1fc01
fc211cb3041df1e447749405fa77be40
fc211cb642c290aa35d35a0fad0e30b9
fc211d06b418b4f7de539da4ebb34021
fc211e9121b41a21076067f3467ab1b5
fc211ecb1a13bd81a3a6027b2172e1ae
fc211ef13e72a3ab0eb38c7849d772ab
fc211f03842cb6f99a722fe639de529e
fc211f15e0b7b4863c5a103384db15f6
fc211f24e1f43013df1dc47c0dda4dee
fc21205d797ce40c7257f73751145875
fc21208a551969697eaf0424ea0908d5
fc2120c271d1d7851193101e6fafa230
fc21211078091d26404bb47041be5637
fc21218e22e14d3cc11d1bde1b10e439
fc21224922ce8af93c792b9261ac1932
fc2122795631c61b723d350174191df7
fc212292c19600ed931a3d431ae4e0de
fc2122b84fb8ac017d070457d6228210
fc2122c624965106a57df063010e5b0f
fc21232db408c36936bb3f16f84c09dd
fc212345e6d68be7a119ebffeb1931f9
fc2123d5bf0474ac33deccdd98645681
fc2124365f187d56ccafb2a772a03df7
fc212483fa740006cd917c9b871019e0
fc212571dda9d9e4c9690aceb2aa52bf
fc21268ed00cae4686396221f14692a0
fc2127d52d3f65de7b19e5d2933f5de5
fc2127d971e94074ed8dd02d01d1b8f3
fc21280e83768f1af599d2711aa92174
fc21282edff5e0a53a3d20e121ef537c
fc21282fa893b0d1937d31c46b972dce
fc212937b0a98165f49766f928dec3cc
fc2129db22cc4cd15836cb8bc1a2aa27
fc212a83d57d2a988fdb916176e24bb4
fc212a8f6f6d455415e475f6d7073b37
fc212afd39c6c1d8e4426b25f85952d8
fc212e46d381cadab84e6fdf9c6c37a9
fc212f7936239ff0f4c9896e2820ff2d
fc212fbfd7b98d8269cca8dcd3874bbf
fc212ffdca1bd039bcfd8e3679999d67
fc213048dcaf83e2cc969d5f47958d31
fc2130dcd2180b4a3cc64cfe6e868f40
fc213140d3147e8b7b0ce8b1b57fede4
fc2131b297365b1b633b4680f4d568d5
fc2132d9bab0801987ebecf0cd3af54e
fc2133a383c135e61e03716ddbf36790
fc21340a1086ced53fd4d7e985d8739b
fc21348b9ddda22bb0d5459fb6a0a951
fc21351bb0efc3736cae679c90d1c735
fc21354feedbe84f7aa207fa15c4c457
fc21358fa5f2c35c6c8c90afbc7da2d3
fc2135d69fb96d290fd448c845442ac9
fc21363075ca8fb0bf06b97fc5061142
fc21364ddd702494bde012aa33747b11
fc2136e9f92f22b2d64f0acda7ed4726
fc2137aeda5bb744d3860af546bce4f9
fc2138722f4474396007cfc7364bbe49
fc213945631cc59555b009051d6684a0
fc213991e550b2de001f701d704433bf
fc213af8ef78a8a7a3a0ab7bddeeb927
fc213b014f44fe7a6905ba0fa48a6e91
fc213b07da70477e597be088ad0a87e8
fc213b75dbc8cd71088b9f4e6712810b
fc213bd0bdda6ff80c62f582f6d12403
fc213c0b401166ca5aba6203c31d812b
fc213cb2d9343ac16ed15ec2641ce9fb
fc213cc36dd2b70cd645653489a530fd
fc213d09dfa8a9dd2d983abdbd49e65d
fc213f058bfdc4093ab0add70ce36d91
fc213f47c75095a504d73c4d8e8c0554
fc213ff6e38e58ecb216b7d084b490be
fc21406ad16af5d7477fae2406bf88e0
fc214093ea1325612a8c4b30c0732987
fc21409897f1a1a0fb00eda90a901c7a
fc21409bdbc8060dee06925bbfef1647
fc2140d5d9a1e55a5461f6457517b540
fc2140e31d0098ec3755f3c2ea829a29
fc2140e7b89c3bf6f649bb018f90be60
fc2141ee1076f6377fa5a8239039f346
fc2142a94f4c94c796d5bc706fcf8362
fc2142e74a15ca0dc6b021135acf1352
fc2143325ce48834de88acbe207eb6b8
fc2143c7a6e862559ee3d7295623e576
fc21442ff44dd31aea9bf231cbcfd667
fc21446a052ca7d42a4b3364d92fbba8
fc2146821b51e5f0ab2b99ee6cde54cb
fc2146ad9f3e9d447b7b47c69388b164
fc21471585ce726ab6c87bd3ce1c1531
fc214736135d69e717d8d62be0c5cf30
fc2147918a5b2fc418dd2170f5c7c815
fc2147c5dfb77d13e0a02c810b6adab1
fc2147edc297f1538520d0ac84888ec3
fc2148482e81baa62dcaeed4df7e84fb
fc21484f3f2a546b163c29b4124d0d7e
fc2148e9fdbe89c9f318680e631cc020
fc21495fba21a31bb6a409031689e2d5
fc214b9ab4d3bdb8919f911f7bddee8b
fc214ce09deb61d16e95638ee3e5429e
fc214d08adcabaf148c201aa7a73bf8f
fc214d99a97493f5ef86ef0b22656ac6
fc214e021a0c2fbcadc0369441402f6a
fc214e2049cdf9544ca42d9cee60bb22
fc214ea7dac3f6134f12b5a7b8ea894e
fc214eba8e0a40627130f95acc83442b
fc214f0ce9c336c163d21b3cc0a63624
fc214f31289b9b192b692b3c58eacb49
fc214feea3f35e90d6d518ee05b79fb3
fc2150e250adb7d0d8400ecb896d2db3
fc2151631561c6208d8757316f55710c
fc2151a84485539e411ef2870b0174d7
fc2151cc4c0f5cd6a0d6ed625f7fcd67
fc2152cdb2385f6e0209895c354ff2bf
fc2152e7d1d2669847a7fa7290223abb
fc2153194becbe411a842d38d7be6810
fc2153a1c59bf8b5c8d4ff57a629cdc3
fc21548061823da4c89ee7383315304d
fc2155864896c6cca4eb96fa9dd09dc3
fc2155d7641c7a85c457c4542f55fbcb
fc21562f64d37840ba1ab699d925dc30
fc2156ff1b1ea5c6b556a57325f5569d
fc215881cbade5391e9adfc055fb260d
fc2158b6d09bc23dbae88fd4d4733241
fc2158c1014c8ce1230e2587eeba6d89
fc21590a7c15c38adfe801a8dd5edbd8
fc2159db696292e348474a6054b39c74
fc215a008c33c026f04234d1ec82c32e
fc215a69916a7c0bf400c5588d0654d0
fc215a6f86ee1aa608c63b601d90010e
fc215b10ace7261febb1823e6a0063e0
fc215b7a0d3987a927aba6212821c381
fc215ba3f26b5426944bae4747ac56fb
fc215bf3535402af7b0159be1208d27c
fc215c7d24d4ca68bfc1c44c0e3f477b
fc215d2d7d577892d7bb01ab04426cf8
fc215d747939699a84721fab4c1db9a8
fc215e7cbb35e0f975a57cc087747224
fc215e9d85c4b3da1d9a53c3039ecb31
fc215ed81390e8bbe2dd30851a3ba74f
fc215fc77830c0d2428a7d9a26853497
fc2160e632ae18d5fea7cb83274b2445
fc21612bdb53020ebcf73eee1276f665
fc2161d2d460019c47c5feebb2b81770
fc2162715061972bb8219184d02f4740
fc2162d214576cc84e4410d37cbfc2a7
fc2163a21a37b6723246a5c28ec6cf8d
fc2163f34d37d7579e356f7fd3b77cfe
fc216411a511877b34738bff1f2765bc
fc2164b9ba361874ebf30159c6c7d4ab
fc2165499f12ea88b5664a1084e298cd
fc21657ad8d93ac37b127d7a03b7dbd4
fc2165fdbffddbd6ae7a770056cef475
fc21663d4fb2a6ae810e5747cd4718ed
fc216817f1248d01a428fca86707e565
fc216831757310770858816ef822b87f
fc216876ec8bb3a613c6968288eeee9d
fc216883ab098797a383cc95f7c0ebf0
fc2168e1bed3ddd8d586fc2e29e2633b
fc2168f289b7e9b107477ae5d3aa1790
fc21691360ef364393527134cdbee57c
fc2169c6974f01faa565bb7e9c085567
fc216b9b14bd4bb61e262630972cb9d0
fc216c0f2912621fd9b9fa7e69aaddcd
fc216c6f1921bb9df69682f39c4bff7b
fc216c7030f6882c7fea96f6dbf2ae22
fc216d6d043d0a092287126bcce08f80
fc216d7b5859115a618d3adc83359349
fc216e1ca28306aecb958cabe76dc791
fc216f22b6cd59a173da0ba41e7304d6
fc216f491116423458f0e174cc56873d
fc216f8938cb2e91bae0a75199d363dd
fc216fa0062e46afa64fc88561b5d430
fc216fba801a106f6bb5395a1b28ba60
fc216fcd0cadd377b043229c8536f655
fc2170038ad96611cdc4f9ced9931591
fc2170cf4e6c86ebb4b3492376808a19
fc217146a167940b4c82cb37c0dbec3f
fc21723d0e26678c436eb23f3d59e2ec
fc2172406192e9cbb58be86c382f1943
fc2172452df9cd3f4c662f9f8efd5d80
fc21728638e8ae5fc8cd929ec4ea2561
fc21729ad3d43279e3d3ea7ff3f895b4
fc2172fe8f00005fa263f08a64dbc22e
fc2173936585b836819d00dab69bc4cb
fc21739714d730549689a1c47a797457
fc217451c25d2213648cc33d537af3e8
fc21748e5f25d276048d9d3432bb611a
fc21754eb200eba05208c0f8dc9395df
fc21766fa4db33b20276fedf2a67bd3a
fc2176acbbc07305a6f1d6286049eb50
fc21776ab74958582bba175d85a23ca0
fc2177989bf3dc41a88b77d3d1d6f4a0
fc21781bfa8629deaec879c9fe9fdf29
fc21788a81d1ab8b1a99dd2a17707007
fc21790302363edbfb56f1afa6c9f2dd
fc217939c187c00e4d00f487de12bc7a
fc2179c58b2c7b5d39622c6afec06e9e
fc2179f816e4bfd0215af48b4c69c4a0
fc217c1a4c89ee3ad5f299fb37c3a0dc
fc217cddceed50fbdad378949205476f
fc217d288a122006c3f7949d6032c8ae
fc217df805ea96525105b679aac01819
fc217ee1258cd427ce56fec1b78246ea
fc217f23b187f83c7997f939f6583ba7
fc21813980a5b28bfcfb937da61260de
fc218139cfebc66075cb12f76c22c671
fc21814fc717283d8476b6b3c71ffe40
fc218192ebb9a42db203018d7168e839
fc2181a3f3716bffe5a61eecc5de6317
fc21840959c82ac9561b56a0360e948d
fc2184d31c0bc80380c5948b2b068044
fc2184fd6add16fe5a8a867cd772725b
fc21853167793dc671e09226a92add39
fc21859ca0d3f148aec341a30dccfbf0
fc2185a1b238269ac77adf71eb6db196
fc2185bdafa723444183da36d064a959
fc2185da4a3edecd480b372693767b60
fc218691b02a91adfbbc8bd168e87e51
fc2186d469e5776f4fb1228ee72b5db5
fc2186dbcce2f82969204dd17900653b
fc218775ec2fdeef5da60c329cdaa598
fc2188001099e9756dd787c32e8e2e60
fc218908fea5dbaafe289c6aa0b79f00
fc218994d55cac73d63a0dc07057523d
fc21899c919c54a94c6ea900c5fc0974
fc218a13cdedd0922be40a8cc0cc1dc2
fc218a3c0ee4793e9260a22ac36e2d1e
fc218cbc7fb4f512de967d2b4ec2c966
fc218cf17472652c9a595e433f61fca9
fc218d9d99b39bd958c74d156d0b559a
fc218deeca581033c72692b071ced3a9
fc218ebf9526a1fabf65b4c38b65e920
fc219127fc9605822a48fb2fb49a532e
fc2191dc71552455547ad654ea35c695
fc2192227b2738d6cab6547747b2d415
fc21922fd7b5edc7e2d855b28127a7c5
fc219242b0278f03438937aeb4419fd3
fc21929cb7fd9028ff3843ba7bba2282
fc2192df00216347dae57f581cf0f234
fc219369cd024d9e0e031750c5f8df67
fc219372a5d3a3d18f3722ef0db471b0
fc2193b16fa852d3dde56816cb8e2d6a
fc2193d7ff919c4b41a33321b9bee730
fc21947cd0fb734387a7e78212df9820
fc21951e5283dee6edc52d15329346a4
fc21956cd4456a25add5839175bab770
fc2197866cba0cd03f69b23bd0a806ce
fc2197d1c174f08e1eda3faffa3fcca2
fc2197d534110d9fd30fee9437472969
fc21987d6bd312cc34e2424e2d0f8974
fc21989adf0bb5eec9cd2fea1d4136fa
fc2198f0f8b1c2752a7d51376c6cea61
fc21993fb48058f87203605008c5d2df
fc2199877eb0ee3b42cb167aba92f531
fc2199ebcc9447a2366c788d4d18900c
fc219b24c76c4d16f7131e0ee9c11937
fc219b7e079a00d76ce3da521fae4163
fc219b88e993a06010d395bc63f51674
fc219bac27150cb74d1c34ef8d82472d
fc219bdbe82e79499eda33dd02a8a76d
fc219d23ee1e3ca36072928c2764485b
fc219d83782e9cf66410aa3d8dcb7736
fc219ecb57fa32afb15461d3f08242b6
fc219f7000218e195eebeaaf890bc7f6
fc219ff01ff9a1cc86cdfe5a09abbcf4
fc21a0bc55b0b7731df53ba615457f35
fc21a1162f45c07809032d88f926a551
fc21a19e48b81cc66928592cdcf00a1b
fc21a1bc02312f67a5e6d665428fa5ce
fc21a23d2dfa61d9d6de0c45dced20d5
fc21a26f9bf56090505162df53bb4c45
fc21a32d75df3efb70a48f680e18ae6a
fc21a3a33105419ca773630e6609de13
fc21a3b7e964adddc362c8a679d22020
fc21a3cd7fe5b3263f8849711e59f2b6
fc21a42ea48cfea1de667889131ce9d9
fc21a476752fafa368068acb0cdd2213
fc21a4e1129aa79aea4895f071427b06
fc21a57758e1aab64d7a047a8f5dc97b
fc21a607ec4ddca19247ca99bcf078fd
fc21a6e8c0c93c9dc85d36b109b30716
fc21a7096b5a0e42414299b574d2f796
fc21a8331057a17aa5728353a6ad487d
fc21a865b899e9012bcab8acb91562bc
fc21a8ef1a5aad9fcb64c91cb69a4f2e
fc21a8f2a25b77a250b547c21b7f0a90
fc21a9444494d6d499a7e8471af300a7
fc21aa4586c27105aec139eca766c519
fc21ab7994e388222e10f663dc90b4e1
fc21abae301482decfebd2cd9cdfe860
fc21abe6ff1372369335fc75d3781ad5
fc21ac0cd0b2bdfa1595cb79e9075e4d
fc21ac9de2507df8fc812e36089a1856
fc21acdb31980baf4e21b724ddbdecd5
fc21ad2854a3af249fb5da228e4c80c0
fc21ad91a67a8613cd512a7329d3cb87
fc21adb313dc5c955938b1cbbfef07e3
fc21aef0d8ee77374640d6e9f57e8d80
fc21af5bb523ff2b9529fede4b323e50
fc21aff6eda0ed66f10f7b0668e41338
fc21b10abe91dda92f6ff94daa6a4139
fc21b3ae948f4141c4990af9c4bcba28
fc21b4922e4087bccf8e7a14d78a39d3
fc21b54918037c3226a21f2a284969a2
fc21b56418dbd54e90a59cc78f74ca6f
fc21b58112ee58bad5a9eefd16669d31
fc21b5cbae063e76ec08b1e7d4a7c8b5
fc21b653c7ffb8fb9add99e3a5047a62
fc21b68b97b30238547d381912f03f61
fc21b696c98519fbbf5e58008d259118
fc21b814e0a4c62aa907e7906d8614eb
fc21b8a47a7da0d90e464196174d90b4
fc21b9673bb4365ea65e8a214cdae396
fc21b9bb32fe789900d84afcd6a269e7
fc21ba76a82c3e5b315676aed28efa37
fc21bac2fe09bcc83e7f970ffe772e9b
fc21bb0d0435b1b15825fe3820361cc1
fc21bca4422d199799a4dacded4ae2e6
fc21bcc0d22f5e8f3d900c0c88b441fb
fc21bccfd784e507f57730219ae812d8
fc21bce72172d5b84fa13b1091225e93
fc21bda5bd41206485c2aa2d76e21918
fc21be2e47acf1476845a4ed83f66fef
fc21be5227cb2276083667afcdbc2d65
fc21beb68e2ced3056faf5ba9c5652ea
fc21bed9db6d7575a6cf34eb7460fb20
fc21bf94f15dab32abb3a1a407274726
fc21c098039c7b5597c8c77bb85cb8c3
fc21c13ef6f48382deb449c14040fe1c
fc21c15b609e74dd503e31be8e862f8a
fc21c2938fbda078b951daeaeaa38ff8
fc21c40feaee7e9be9b8290d3857dd91
fc21c42a9d70a9ef759ec4e1134713df
fc21c66575f75124d0ade31d6c066441
fc21c75bba1c1e51c67075fc8d7c51d7
fc21c7eae38b4f3bbf49dcde407baeaf
fc21c8c2407bebc5227d2ac039a3dccf
fc21c8f454d73fb31a382c4dd2f6f23e
fc21c9550a3bcdd4db03716c86ff177f
fc21c95bce224846e2884834c6b21a1c
fc21cb5fbdb133dcff64939419421b44
fc21cb6cba81512bccf081f8da106539
fc21cbf081c8643aeebad797b03d9c09
fc21cc14c27eed7dca038bed5853f72a
fc21cdece23c6c39d5d39d7ba2ddfc2b
fc21cfb75516d1705f403a1eaa99999e
fc21d0db52205b95f9da59d94b34f45f
fc21d135d660a6a1048365e8dba91438
fc21d1b716e00f0eec513becbddedf33
fc21d1f1000f2a2acd65d1512cfef498
fc21d59d4444eede5498f00eb24142e2
fc21d5c64813acb6f016fe782f5a9365
fc21d67174c4ead3625150955ebc82dc
fc21d68f82c6b954940617c246097798
fc21d8c27e781bc5be22a6d528789915
fc21d8e387dbcd2e627b97bfc5b8f5cd
fc21da55f7982d3c283b44fb6f1a1b18
fc21da57789645325c7a0881ad02c88a
fc21daa1e84140a9eb338e7ac34c8dba
fc21db0f912d05a977a793e564a27edb
fc21db8d5a5b7d32145366e5b7edd610
fc21dbca843bcd4f4cf4965810dd1b56
fc21dd04719c6b92f17d3fbbcd23dbb5
fc21de5c897f684c10670603c5fd9602
fc21de5d19b66af7191a236435625fed
fc21defbb13d7b140698e83ca6db7a85
fc21dfa61d69cf48b4647ad5291c29b0
fc21dfcdcdb7dc0031c7d63f0943c3dd
fc21e0fb5a7474a6cafe299e103a5cd1
fc21e3062d9bd72dff8d0e6f035e370a
fc21e40c440fc0bfc9e5b30b94cfb7f7
fc21e42f48e1ce1b4c6f6d5da0b997a8
fc21e456bc0890c71f8fc9e6ccb31ea9
fc21e48aa524211d704ea12750013d0a
fc21e5874138f3705ecadccd5945f1ce
fc21e5b70493fbeeef36bcbff96f776f
fc21e5ca8cf0d57782d9688da89b4cf0
fc21e639af4b4405a4dd3d0ac980650b
fc21e640a1469914a7a1e409caf2b2a0
fc21e653624a89609d09a01ffe24fefd
fc21e694b207fe9a3b2be1790c441c06
fc21e6ee8078fe26f3f56b4f889fbcd8
fc21e6fbf10b21cb6f34f749904cf700
fc21e7383a6508746acfca16cdb26b76
fc21e760d1516065d806f8fd13e03e2d
fc21e78a59024366de6b95eb51b3b203
fc21e7c89428868d651c39b251474420
fc21e7ed17fc60184293dcc74dee08f6
fc21e9643cc6597d6c0e502d0b1a4920
fc21e9e2a60ab870a34f60811c607be2
fc21eb0e49e4a602914b3adb3ddf7d6f
fc21eb501ce088a65f118fb52ae9cd7e
fc21eb84c2b523a2f0d182d38e923807
fc21ec3f9561e96bcdbf5503d595763f
fc21edb17207f4b0f72ee1f8e493b84f
fc21edc6e2ffc003b593de479591b87d
fc21ee04d30e27a968ed8fe9719364dc
fc21eeef8b8eeed0b90d13509f9fb0ff
fc21ef24d9d970e879cc33b508d631e9
fc21ef281ea7db496e531ffd5db58ebd
fc21ef3a70f171c94c318e28bfe788c5
fc21ef624cd2acf002662d9efe5467b9
fc21f03318c7826489f120fa1250b629
fc21f0bc5cc0c0e60af1e3b935733ead
fc21f10e1050ba39f9c5b9ee14680119
fc21f1d630913ae9ad60bfcac5175bef
fc21f31792ce774e6995d402e778cf9a
fc21f399973e8135a128e0f80d93ea70
fc21f3a5e55d73a99dea6fe0548c4fd6
fc21f3cf60d0105cf60370d7517d3c47
fc21f51f0d5e3621abee70fd7869cbd3
fc21f56fc2f6cd83a5f43dd5649f84c7
fc21f639163af0c7beb90d569de69c72
fc21f69551e708208ecd9e8572dd1b25
fc21f79df201a458a3cccdc173935a83
fc21f7c3ab3a12987ff5bfbf0de0eb39
fc21f7e9f016f9e4da7715c1e93f0c34
fc21f896129c39a08f8782b0cae8e3dc
fc21f97ca14b7714f6d61d2dec118c17
fc21f9db11b690c2efed1a6a9cfe9c0d
fc21f9dde537bd165fef44a140e0e235
fc21fad831f2a9d413bc0a2bc0980606
fc21fb1aca0b1eaacfc6b5507b032956
fc21fcc9e3b9e81952f94c7dbd08fe60
fc21fcd77e1b4411ceaa5a99eed7b8d6
fc22008fa5f9220d48ae40a1525c4ff8
fc220116554f2ee34adb1cac150f50d3
fc2201981b0723e181f0d51a0a823639
fc2201bb18a6dec0104c323d42ad2de9
fc2203b9b6322262f7cb85e57b84c645
fc2203e427afb13f74ca2ec8db05e8b0
fc2203fad4ad97f375ceea5e43963f59
fc22049db457d748f89a3fdb5c55f0a3
fc2205b897959ee4ea5aca1c264a8b04
fc220727d3ef52b318bd2f32ef30c255
fc2207692f835f4bea6289d9c15269bd
fc2208f6bd17e8444a20457ce3e1ac8d
fc220967e9843b29a3e1db614a34590a
fc22099185f5938eb8c57472481018b9
fc2209b470d2c033cc0f6cb5eebd1af4
fc2209ccdb257805dc9a3c2415d0ecd2
fc220a3f163a886f2b089819a69e4750
fc220ab22dd82d3cf572cfb73c88feb0
fc220bd6b14e374913bb6371eff6b8c3
fc220c767c14f14c4f331cbb749a5420
fc220c92556b967e1230970fab53bddc
fc220d689c0122ed64ff5875a91380b4
fc220ea86f8b75bff662295c7c8f25b2
fc220ed3f2dec44f4fd4210f5ab94981
fc220fdd06a590f029a9fe42af3af644
fc22106b6e12c437af35a75f78ccfae4
fc2211d2e36f5aad3ba3721c6da12377
fc2211d3fbd65f36e749e59380b34aac
fc2213524a6da8c9dad27f7855f4a193
fc22138d9b89aa34025dc7dea2dce572
fc221466634728ae85218670589b1d71
fc221493818730e5886483aa4218b0f1
fc2215e9aec245d39ad006ba1a277818
fc2215fd9f417b58c3c5d02e79dbb6bb
fc221688090d8458a39cb7c252cbb490
fc22185632f04f70eb1b9da2f76f9e5a
fc22185a35d35a599a5f7c9c6ab3ebcb
fc221b3921bbbaf7834cce961eb6154e
fc221b9d399c5881480290a1187409f9
fc221bf8ef3c5bc4d490c21e6bd84e4d
fc221c5a80969031b40baa7eacdf1079
fc221d08cdb72fe309ae3283a76e48af
fc221dd6116e99e90f13c49fd251f440
fc221e913b0501c9a6ff463f38807262
fc221eccc109d27d9a0e2f7d67cff9dc
fc221f92f6d07979b70266415acf8911
fc2220477d7f1102de93c6c54be88ff5
fc2220afc3141852dad4fd7b880d3004
fc222109a975b81c023ba07e6957e8fb
fc2223d1ec9dfd6ab7e22997b8f636aa
fc222483164547d2d3033478fe2e9892
fc2224d28d89f973a300f1b7b58b5277
fc2228697ae580723a9d5056bf7316be
fc2228dbc68502a651963a7eb6da3808
fc222a17d22f1494da2ea0f72d982f02
fc222a228610672469ba99841512c4c7
fc222a38c0725fd853e3b6f257322880
fc222a59ce487cc421e617634896f79d
fc222abfb5b01dacea4c94d420c4f317
fc222b4daad5bc8a6b9fa869e6c562bb
fc222bcad2ddf5bebd5779cff2a6b29f
fc222c981960b2a35e83ff03f0ad15c0
fc222e17d9c81c98718acbc74b93b3c7
fc222e5c38ef3b15b2b065ad2cd945b0
fc222ea383320f4a10a524a96698018b
fc222fef8c3ef10221edf78444102d19
fc223027b1a01517d874bd6340035e47
fc2230a620673be2a99f28454a5c8f2f
fc2230bdc830dda9af00dc889cac0c44
fc223116a065d60ad0d3fc09d08ef976
fc223157c9e5f32807e086bea1c3ef98
fc223197d47c18cf5e9ff34700ef7c47
fc22325896db5940fdd9cec2cd0382d3
fc22327374d602d5b4e950136026db40
fc223286f8469298a7851a073e2e93b1
fc2232a1e83368ab64043f5c315a64e1
fc223399eb64d3d4642b7d129713e4e2
fc22345cd6bb5d5b099b19b2f554487d
fc2235206fcfb5e320364f162a649bdc
fc22352a71ecda42b3f0a8139e2d5af4
fc2235888b44bd1b34c615d89fc6a6a0
fc2235e222e15f814b1257987641b66d
fc2236ed3ee9e47a47e8d7a71cb37688
fc2237493bfa94aed18b2db445adaa40
fc223751f67057a840f6c67ecd7eca0f
fc2238827357a4bdb0189334af6caf50
fc22388890b38c35bdae191384bcd71b
fc2238a7cd46c362488232150c55b22b
fc2238c1e9591a8328758ca8d7e9582e
fc22393e0353cd5b9ad9d10a7c17bbd2
fc22396f96dc35a1e5c1fe5d2f5d17f3
fc22398535e63d146f6a30d35ce51318
fc2239b81852c447aa637a956648eb9a
fc2239c0f087ba66f465b0cc7faeb98f
fc223b1d0eb747bb6ab3f2dcd3a8c88b
fc223b5bed4397eb9eb98d56dad00789
fc223c426ac35e4011a809fa31121d86
fc223d7354947ea1acb70826ed4c5302
fc223e1619711323e65295719a55f382
fc223e9c9a21739d5a895f87765ab425
fc223ecf8b147c60f9d0bcc9ddb3c2b2
fc2240883d44d4e910f4bf8915e33665
fc2240db0d7db34e921d4c5e85d172db
fc2241255badeee5e56ea3d51a20dcf4
fc22418d1e601e83cd1f80f0d05bbf22
fc22419ee84991b5857172de1a28241d
fc2241f69e5af3ea8c183ae4177aef2e
fc224250031320a7a74b094290d35457
fc2242746c2db438d8042f6540adb5a2
fc224285397147c29da1519fb140efc2
fc2242d12d1d0cdaeaa3ec5cdeee04d4
fc2243af3e5d78ef2bc33f7f169094eb
fc2243f5bd54361da00bf78c8542c21a
fc2244f9572d0e2d6d4e91b182a5fee0
fc22452273c24850adc612b9dd1399ac
fc2245763e9aee3cd34c180883edc7b5
fc2247952c3d3a7ef8291a2a19c033f5
fc22479f376fd0751af9bbd148388380
fc2247cb7f287657180d0b50682ec0ce
fc2248250bc22cd55e4ddd9cbec07942
fc2248f4ab8bd0c0e04a5f36d9f5b592
fc224904176efdb52c5a18c46b7728d7
fc2249612c38e937c52bddaf89cc9a5d
fc22499c81b1e7b2d30e652d30cb508e
fc2249f3ec80d7bf873b31a2f8c61104
fc224a26cef08dec4c622b1987f599c3
fc224a31cf7b308819b798e9551c098d
fc224af1df5268f248cbd43c3a50ff98
fc224bbcc93da5914be5117a94b5f69f
fc224c4662153a1aab8b864e40347127
fc224d1bedb9ab5af659caf8c19d4070
fc224d51a4d3629477fbe486798ac324
fc224df06253041999ec5311574d4c8f
fc224e26fa337ca2df1630db879c4fdd
fc224e29a95cfa2bb0b1fb942514848d
fc224f70196f822a4ee0e5c5c4054d32
fc224f73acf9a5371174194e5931c125
fc224feb9abd9325a9e898e02b83ce38
fc2250f989f6cff25a32482e6b99f128
fc225113c6f7e06bca0c6b59bca78337
fc22515fc9867da760b57040051498ac
fc225287132d823604c4809d43044402
fc2252ffd953777c35fa26f325208e56
fc22534ce15efcedb18d294f11434b2f
fc2254041dff2ab7fa277f20cd19bb12
fc2255106608e7a28c8e3d2e6a092fd6
fc2255cf2160215f0be5e595c2a36620
fc225606ff97bd999088514a38a936b6
fc2256518abe90c1b7192d2e519299f0
fc2257c93bdaaa61fd350c813ae6a032
fc2259b357cc405bb655719ba20b9506
fc225a4c603c9481aafee8d4c5869b60
fc225aded2d23f85c2e71e4a8ef464be
fc225afa918a4a67b73178b2583c4de8
fc225b0bbce66e00e3006a689194375a
fc225d94aa01f9cae698f205334b139e
fc225dfdbbe0ff2f4b415860165849dc
fc225f05065132d336321611888060eb
fc225fa2e39d21fd5de02d03925c4d8d
fc22622fa720f8c839f6589c6cbe62c6
fc2262a480d20c54c67845cc4c60a36c
fc2262dd770cb9ec002a3000fcb64e8a
fc22631ec4add9063ac9c332fb2c1e32
fc22634dcfdb899f3be96ee70b2b93f5
fc226396ca1b94de4dd8719993bc2b0e
fc2264287e1810c26364eb6f4c953d57
fc2264a0169a787a8d0fc3457708c6aa
fc226506bbf3533df34b0699d22500b0
fc226522581645e347345e556df81438
fc2265bc4aae04349d246327cdfc10d8
fc2265cdef2caba63ff77a27a69d8ff7
fc2265ffb082fcb946b1e233f794df22
fc22667ef691d0e129c582c418e298cf
fc2268af04c40e442a68699063c0855b
fc2269451c9aff9705834e53e0967de3
fc2269d146ea80ebeaba3b38ffc8be88
fc226a6ce3a928c37d727ae591cd0980
fc226abf3c117979eb7f90f0c394bd65
fc226ce8f3f7442e173038a6727f1e2c
fc226d1d6cbbd0222e352679e0ca3fe8
fc226db56f142bc7c8ab9766dc90741f
fc226e376ef9b67f6c9111d59cfcf3cc
fc226e3ec8195691f4b5d2fa7946a960
fc22702ab1133fdc35756454af739db5
fc22705783f145fe0876524ec518c621
fc22705d71136ed03e6dc2183d879e5f
fc2270bc75cb656091c882b1b37c422c
fc2270c5c8cea19daceec74508b7c133
fc2271c657f8e777d6983785e250e03f
fc22724f605f2bf2d82ad40b968f4218
fc2272ab6fef86e4d4895238f6934c52
fc2272e5c6f1e43e69f029036d1ba2b1
fc2273046af525c42840758d3e99c5cb
fc2273935e90912af1ebb8f7b6bca890
fc2273cfd42a7d54d9425b9f6226427d
fc2274af8d0534a63069f9419192ec20
fc2274c36d4ec3f8b4defe385b477516
fc2275236432d95dbc1654eb6ff9fb68
fc22753b89c83cced893baa746c39eab
fc2275474c2cc5bfb26835b94d17d17c
fc22760cacbaa64e9e08b0540b4229b8
fc22782b3bd306b4e2a7cac2ef36b4f0
fc22788213799cf2c0d660fa44f3eec1
fc2279c290437b470392ea8e1a7f59b2
fc227aee9eb1986dccfa66b276eb6d70
fc227afeb46eef336f8e19ed1a87a5b2
fc227b190ea09ca0793949d21d387a67
fc227b47e57ec71da87b5e904ebeab16
fc227b57a5648f6bbd76d23443db665e
fc227cc0960b55212845d9b50ff05f0d
fc227cd488946b22edc517abbf73f633
fc227dc8ab1f236f5c2db34fe9bed654
fc227e945bb3eac5b1a630cce48bce2a
fc227eb66d89f335b99a82761ebfba5d
fc227eca7614f117b33dd42b53aa3520
fc227ff2c99b5ecb92aab0c5a2a43bb8
fc228051d305d1bdc5adbae06bc597d2
fc2280715a4f77548b0debe8f9edd483
fc22807662e683eed634a6ef6ab3d52a
fc22808ceafb64026bcadb942ddb0377
fc228135e531e4d474844369de6f7bea
fc22822a18758bac259a9b18a38d45fe
fc228264097ba3cc7b12fca4b3c13877
fc22832a055a47c27d1108ced1ea3984
fc22838c2254afc31f710d9a68e29982
fc228488df67428b57c2717080f66d0b
fc22849ab1cdf8f5889e2edf8370495d
fc2284d04ed382aec7c658e8bd8574a4
fc228567ea8e8d78ac92151f57368476
fc2286c219c9fa0649f68ce1e2079663
fc2287261c7514012bf29ece3a73a0af
fc22876182cc09ae130d35454f40ef4b
fc228763938938aac126bf60b059ec61
fc228829b636f3f005baa269d616e8e0
fc22896ea384510a955f1b2476c11db8
fc228996ede83fda40ab0cd17b0ce71a
fc2289fb8fcf0d8dff88ec091ff5a0f0
fc228a892773bc18ad684c1df074ed70
fc228ba1853d6115cb2d3049e159dcf1
fc228c42be19a831761188ab2f67821c
fc228c447e997a5d4843324eca6228f7
fc228c5503c4350ba616fe658ffe7470
fc228d03f27b7695cf731472735a7d98
fc228f343fff407b935935ac8f167427
fc228fad744594e0c652c3a0d8cace5e
fc228fb236f2c208c58d59f5cb85f091
fc22909e9ab349ced9b056527aa0a3d8
fc229129bcfc635e02ba25fdbf3f6f76
fc229178e7cd850b24d1a77c6d6de465
fc229181d6a25429459fd12936c092c4
fc2291cf20427ebbcfc5b3a8d9c35aec
fc22927c98aeca315b05af7efb588c0b
fc22928e50ba928d135776538531e563
fc2292c7fa016d1440f00ec30b9d2d30
fc229308475c172fe0e33250db8eec3f
fc2294287dfcf3b2bf3932767ec5b311
fc22959573587dc54e7a4b13507c57c9
fc2295d6c46bc61ad3e9ce84741de927
fc22961f25009eac85251e50d70aeb60
fc2296c02fd95f7a882729a5508f9b90
fc2296f4836f8dbf43ccdc0808643294
fc229804ea350aca2cb6f1f587661cae
fc22986b5127be538266864ec4c8cb8e
fc2299e3cfc085643c56d0bd3108e859
fc229aacca9f62bea87e923ec7cfa40a
fc229ab133760dc450ed7b0ed8b688be
fc229bf59cb876aa34e1f0e558f11930
fc229cb0200e22fb59f471d2858567c1
fc229ce8f231d67ee9078c24638d84a0
fc229ef9e10b8624d0e2f575cc28190d
fc229fc833d2123cf9b301152c53f089
fc22a22160ab7423829d004e3c761cec
fc22a274ca98569acb41ee16dc46b362
fc22a2b5f0a7f2eb96c908173b38c7b0
fc22a2df83ed9fa7fc078e7012de3239
fc22a37d530ebbe78d6e3493685d7050
fc22a3bdcc31911f31ed9f2deeab58d1
fc22a3fabfd38c749a699f3ad9721fe5
fc22a4078a4d5d38f3efa5efe5b528f9
fc22a4588412812b90a1c704dbcb870c
fc22a471c1b7062384241d24d4d2309c
fc22a5151087d84b2cea56fdf3515421
fc22a53283a698ce6223d08254f7579e
fc22a53f41195e45c0e1c71f7a84663e
fc22a571b9a363a63db4f2cfef465af7
fc22a61d235a5ece647ef6d0e0570063
fc22a6afffb881d7e4c7f701134f8598
fc22a705f5467cf26ab0fd5b621ebb23
fc22a7990544ffbc84f017bdfb624321
fc22a7c099dcdd0a3d8dc3b79cc127e0
fc22a81556fdc51a37fa71dd182694f2
fc22a818d151df386e75e6df19e85817
fc22a85d137946e2664a47f69b57dfa0
fc22a9bda20028f4eba8f31068c2a69e
fc22aa072f739c5a18997253682f5a5a
fc22aa95d1529e49ac04706a7351cb59
fc22aaf38e0f002e360b481f411449d8
fc22ab8375761f35ac28cbf19f94d65d
fc22abf437e679a1fae44ef1d328d8e2
fc22ad2af22aecb3580cbf3359e81872
fc22addd33ab4e08960eb5d1e36d148d
fc22aeee8e36297149dc693b23ed9074
fc22af622e96e0bb832664c543f2f71a
fc22afccf78cbd52e9fa3d15fd97bb50
fc22b03ce70bf650338d68d717565c50
fc22b0ab592f8265423ef2c929a9b05c
fc22b15e8965524274fc76c8c3290470
fc22b25b9bd02c4a10b8ff6daffb8072
fc22b28137aff59a1c6d6d7d485570db
fc22b3cc99e72ad8c5639fd13060ef9e
fc22b3de1b6d56f924e52e0ba0ebc3a9
fc22b45401de4ccdb032dee4cdda8aa7
fc22b455ae1c5a04120ee00eb4f20a64
fc22b504a1e3ad9b0a4928f920a19dc5
fc22b59261f557c59f176951d7a7eea8
fc22b658372f56a37072f441177abff5
fc22b690360f2ab6b02f4e19c3799f5f
fc22b6eb20296ada74d50d55e0426d4d
fc22b7267ac376247cf04f6aaf56d839
fc22b882e32d52e45a9e2257a9fcc944
fc22b90e71c6f81a0addaf1743c1da99
fc22ba6eb63b0905ec0910833b8bf9ce
fc22bb0e1a6179288b69ee20852a8529
fc22bb6d88c70507f12fcd710b418c51
fc22bbc03d890a77d857c491296d6e70
fc22bc145874de0dd88a65258c6eabb4
fc22bc3d976ad52d59e6234c604b698f
fc22be2920e1de1cc311fde87cd96f99
fc22bf8c8a0f7d0f02ca6a9f2c9fd8cc
fc22c073d41c4df5ba84cb537b1f185d
fc22c07babd999bfd6c3bc38d668f330
fc22c0d9b77126834034aef7789f950b
fc22c11b1d276a423b2a08ec3574da91
fc22c1e2f5e93a5bfc8d413f0653dd85
fc22c2bf99bc9636533c95bd8955d700
fc22c31f8079ba6b8a5a95ed56b40567
fc22c330daa856d1d484a8da125dcd4d
fc22c332320390c3d71307582de45b03
fc22c37fef9d64d8f8ede8c14c15944d
fc22c3ff3c8fe86ca47f2e3168116ff9
fc22c4005e0ccc59cda00d55d912cbc3
fc22c4a911c8a0dde2686c18c77171ec
fc22c64e2842ab530ab6e500602251b0
fc22c7c2ac529db73dacd95a9d4ea3d1
fc22c8cf7053ea6ab32bc24ccb9c03fb
fc22c9dd9b4732b77635e4f7c659b379
fc22c9e658600f5931d591fdfffc375b
fc22ca88f273f95691391c4581b1d18f
fc22cb015d663294410e7b741e9fbcd1
fc22cb9e7e018d9a8b13e3cdc69b36c6
fc22cd114e77603fe6c68aa104605826
fc22cddac8ed2bc07f6c574f4bd290c0
fc22ce0ecdd116a527773cd89733ef4d
fc22ce8409467cb1a20fa9b357e5b1e5
fc22ce8ecb86d802b2ce9956124f2f11
fc22cf28d9b1adddbbd731bc945f0675
fc22cf382ec92506d6b5fed3c5c554c3
fc22cfca9a4d4d69a0dab3704de1b232
fc22d194d4c972e765b10bb3b3c067b7
fc22d1a8f966869ba80a259261b5a49e
fc22d27cd4980fa841bcdd2d6fcda0dd
fc22d283f2e0bac579d5527cc963e6c4
fc22d29945e05e0464d18088ec4ba160
fc22d34f6bde12687c1f7126e90f9464
fc22d39117d3275b2f38bd0dd6557c61
fc22d3f6a6c94543164e9acc8cb3e6e0
fc22d433292eb708eb1444c6f467d2af
fc22d4920adec64eac5aebf0919e1f22
fc22d51a1267eb8682bfcb0941f1bc29
fc22d537ab4731d9a1a466e3ad0c5696
fc22d5bc7dc582cf07ae55b9e528c8ee
fc22d70f547baf4a80afb6e7b88ce8be
fc22d79a89a0ae23b1a60cb8acbf817e
fc22d7bad5f50514c7fb001e5e086040
fc22d8f8677a29d7534e3e4f1b23886b
fc22d9171a6dc2ca518df4d1fc278ab0
fc22daa05e0ed407fe81ac0432696e6e
fc22dacf2a27d5c31e2b7ca447296e6f
fc22db1e5e26496913e1bcdad9f58336
fc22db9f8ec026c535a00ff5a7db53aa
fc22dc73fb90624fda7e0b6d217548b2
fc22dcdbffa5696eb68f1b40759c5557
fc22dde029b10a3b5bb5641b31d8b560
fc22de36f634b790efb9d9aa1dcb5cf0
fc22de6675363793efa93ad167d5f28a
fc22de9e0ecaac1ba0acd859e82be178
fc22df4a89b2e2daed39b21126fbb802
fc22dff4060bcaf234e497a3071e3852
fc22e08840a89669c19c584428b89d66
fc22e0ac4836106736cce65a282d2a62
fc22e1ab4211746b3f8da0ed6ad7dbfd
fc22e218a1413e5595e1223abe8d49c7
fc22e2bd83934dca483c45c0f0f1b3fd
fc22e2e9587fe6e1ec0c2b527c175ca1
fc22e33b055a74d4883fe3c48c11c159
fc22e36ba6f37e1225f43e6957382f90
fc22e432ed5776f9819bda5b768516e8
fc22e624870202e3b2b5cbaa48aaf880
fc22e64e0b2d59e6946d0d7e9cfb8593
fc22e66673870649b76716649fae5662
fc22e8c8b38bed6e0d1ab0bdbbe67b9b
fc22e8f60570ea00ea6772d91777a9c5
fc22e8fe238d75f8bb92adea5c511de0
fc22e929fe2c9db72af6be9389370468
fc22ec0177b260e706d31c383f024776
fc22eca088bac5186b800028c3419de0
fc22ed5bc4de5491375671dc6a15bc36
fc22ed8dfa7a7aa3c181607c3084210c
fc22ed9f75411fa660a8d3989c63434f
fc22edb21003580bae63dc994518f49f
fc22edba4709530d80e3adfa6995ef08
fc22ede7bc605999c959f2f59296ffc0
fc22ee9216cedd10048bf2e5306c66ef
fc22ef2ea359e0de35196b4851da39a7
fc22ef808da9b47d596dd06926fb2989
fc22efc11792dc30f6d794e249db0d48
fc22f13062b46ab5bfea4c7bab140d57
fc22f18f5eaf56418820fc6b51587919
fc22f1d6bb694b06eb8df29c818acf30
fc22f21f59f34376143291771b34815b
fc22f2b4e3d4b33a06c3bff2d79ae184
fc22f35c10d8ba9613adb3c8c50627da
fc22f36a015ba8e8a3bc5a27d9e53d16
fc22f399f9db2a392a68a28475091d4f
fc22f483478d5ed13e16799bb577de83
fc22f5b5edadb2cd97f5bd85a9fe19dd
fc22f5fdd58a800926c9864ad14996ca
fc22f68ee5963d6ffb02512b62ca18e0
fc22f69e532b0865706e45ca4b86c57f
fc22f6bccddd46d51f0ffb00cdd2a6a3
fc22f7187567a5bf5f4146ddf9f6490c
fc22f7bfa25f6bf43390bce2e834cf98
fc22f8df9d47b46bff17d65ca38dc14c
fc22f8e775aa822731fd5c8663f5e819
fc22f92ee68a013a3b5303ab1302c563
fc22fa9c65f4bff88e85bd3c4760a646
fc22fb9b2b6aa7d1800807726c4ed370
fc22fc10b073870453b3785f31575418
fc22fc829b2472f688c5202f12cbc9e1
fc22fe3a0caff369606f0786f8c4213a
fc22fed98973125ca6c828ca97986cfa
fc22ff2da7816e2b6bb9c84cf836caab
fc22ffd57e60881316bf0beb981fc5fd
fc23015cd549886caaf178beae33ae2a
fc23016657653daa61b02952205d8141
fc2301b167bdb82864a0d293cc7a227c
fc2302c6e536e7bf07b644b6ac65eb90
fc2303a67b833063e43aae6d470ee2c2
fc2303bed642d847d86d3dbb4de6a921
fc2304429c38a68e99e9cfb6deef2649
fc2304836b30897c5fa569c859c45c9b
fc2305116c84e20bfdad6b5dc9c8eeaa
fc230524aa3129f7f24c7c4ca66cfcb2
fc23054e1d25740d0c8816f52fdbc384
fc2305bebc0771346f88ff04408f6476
fc2305c9f8676fc2986fad19e163d355
fc2306be53b77ba6ef2395b2ed591f8a
fc2306d7af5c2b40fd5a04477e984c40
fc230715408fe54e17ee8ba82a4650a0
fc23071f8a1a3084a4632e1e3a415cb0
fc23076c4f5290c89295f83770ab271b
fc2307e43d2243b2ea41e7b6ada68953
fc2308b4c17cf5858e0830fbb7761a8a
fc2308c1cceb4f9cda12be86387e3313
fc230964b2dee775f18e15c4dcdc60d8
fc2309edcdbe200215bd5d3c19060b30
fc230b6b14fa0abf60e974b264d2919f
fc230b9ed3c4c468397c9d07601622e5
fc230ce9b70c10ba9c233ddd898941e8
fc230e438f92788f0b7c243b65f0c59d
fc230ebf4c4a5dba58c2559acc119bd7
fc230f588a37c51faddf028cd8cc107a
fc230f58f6e181b924f560d860f756c1
fc230fb590e87810e3708c6cf248375c
fc2310362343b7b39d4048351a984ad1
fc2310f145af9352c7397d504fa718b6
fc23133241f5bb6c24e452b8d04dd8cf
fc23145ef8184730979a574a0517a790
fc23152fc11932d489b4f42159c1625d
fc23157a2c8acbece03f13a0c2803412
fc2316c8c60d3b9696e2ff21d6396311
fc2316d88afe9cb2e8c81de5d7b6ac36
fc2316e69ec058b32ea952136b178d34
fc23177a81b9d8a9ba7795aafd612f0c
fc231908486810692bcd2fc6766c2e12
fc231a909434e398cf736f8951889457
fc231bea713cf403138c39cfeff7b469
fc231d0816316694c97ad4cb1c8aef58
fc23205c967618556e8baebb0860cdad
fc232194d8f460ddcdec9db87d610ed8
fc2322899d6d267906322f3804679122
fc2322cfe71d0f0951129326f5802451
fc23232dc77c55ed0449442d51beee20
fc23253c641ad92afa5e1c5905ed8886
fc2325b25405aaf32925412c27d7d07e
fc2325fb0a3288bdf6a2680d64abb93f
fc23266387ec30d3e08e630c0d63d240
fc23267422cdeea5bb00d3f0fd8fa940
fc2326cf47c5daa46b675a43456c7ba2
fc2326ea410f7335e8b56cf5ca8475d4
fc23271d85009c534bda0f1d4fb23680
fc23274f2c8dd68bdf0cfa6e7ad6e468
fc2327f60c806c275a81f6a9ddac08f8
fc23289d7378ad170a11420d9c64f07e
fc2329839c9b9e582ddcdf9214b30b0b
fc232a7e664dc2873174614c460570f3
fc232c5979f11044a44dbc93ff768f27
fc232ca9d5c6e297ecf5bd3669390447
fc232d093f02981aabec978a3c526560
fc232dd9ed83c0e20afe65ba3c78de2f
fc232f2069bc5dd0996efcecd0bd9675
fc23308aecde00a6e0b918781e94fb30
fc23311d72f81eb8de74ec12ad50dd21
fc233132723cc10160da3132713d5f97
fc23319fc93e93261c8e4e191740fc92
fc23320d2d97311294d10055a74b7ff8
fc233242f051f1fdc0117278d39e8b49
fc23325603450d14c5e835eae7c42a84
fc2334111341bf7c5347e9e2e4853c7e
fc2334bc8fdf955c3e4214929d1afdcd
fc2335a58482f6b453867325355d07c6
fc2335bc10800e92951170b80a9b3b73
fc2335edda71d50eba2634bb87d89a40
fc23360b7e98f17c4ea49ce6036631da
fc2336aaf125530ed338fb028bc49811
fc2336ce16a2bf2a6e3c48f80cafce71
fc23370ac666a8df953e3c919b377d57
fc233756b5aa374f01599a6b413f6c00
fc2337e3bc5a98c9fac45d4de4117cb1
fc233803104b74f259f82a570060390c
fc2338e25e999df1615fb3106ce210f4
fc2339d3c16a0578241a7994fb8c8eda
fc2339f9edff6aaae716ef4f0d8cd196
fc233a3f309a0a9890c7e92b885f092a
fc233adf70d57533bc991edd970b18b2
fc233c3a59b867032906e67e69bdb57a
fc233d048de17aef55fd08ab2201937b
fc233d23e2d1895dfbc56e575b33fcd4
fc233df99ff99acc3120a4751b508e62
fc23404ef7607f306f3b04de820536e4
fc2341a098576a021b118e3202ccf6e2
fc23428f5b8005488d7729a37febf984
fc2343f0200634bd748932efeceec02c
fc23442125fa8692241f352b0d4a1600
fc2344355990c212ba064b93a67d37ef
fc234466e3ec51f6197ba37e61c6e6ef
fc2344ac9138add9802a6190bdd52783
fc2344d7da3b7c0fd94aafe00ca43737
fc23450c394f646018a3a402af0edd65
fc2346bc82b4d5c482fac10464a814c8
fc2346ca5f493624fef4ad52d90d560e
fc2346e0e0f59ee9f1e2c9f19121890d
fc23476a5bf469ed1eb3fcc269c607e4
fc23488ec22859b7a960bb9bef4b05c7
fc2348e28a947cb320a34cc813775fc4
fc2349b5723f4150366ea2a493cefd76
fc2349fbb6e845826316e4886c54b093
fc234a4941e75c298861e536e4e44c78
fc234aa6f35820560b0d4672d65e3e22
fc234ad2c4a9d0839de8bee38093ff8f
fc234ae116625bf486369b8bc1bb0215
fc234af1f06c2340e037255bb588be31
fc234afe720271d9a5476f8f440c727b
fc234ce2f4fd5ce0801664d63f795dd1
fc234d0e82eb13e1b74ffb507fa70c74
fc234dcfa9a374e39e30f12a5a1a2e83
fc234eb233a17021a67b262302a01c14
fc235253f8a140f8c017bf7d5157748a
fc2352836b9d677bc4e55132e78cc1a9
fc2352f43221e6f7a4d8707aa8e545c5
fc2353627ba5999324ba72cc79d18b06
fc2353a07d764c05067c2e310f191013
fc2353c100c071a5c668ec978a40ddcd
fc235443657cc8d749027d00b7f18d65
fc23552728a16631a880aa42dc81489c
fc23553e99c0df0ca890e88d2883cacb
fc23554338e272bcfe5c1d08a5821eb1
fc23555719936d005cb1dea493f130fe
fc2355769ad5faecd646dc7dfca7e352
fc2355d00c0e791050588432801d409a
fc2355e9e5f304a612fc2a82b01f6e80
fc235613a3a30a560644e7ac1cae84d1
fc23584d5ce0afb2cbd0610ad18a8f5a
fc23585d4cbd1146462829dd4f64ea87
fc23596a8783a81b41b68131caf98eb6
fc23599f3da68bb7ce977c1e2840dbd6
fc235aa99c730018e1b9e334e02c44fd
fc235ac92a815e53c7f03b7f4d5d7de3
fc235b3f8b954a7436abbf566c664ea1
fc235b65ee1b6ece56dcb7d38f7c0861
fc235b7cebc70fbcc111c3a1ab6afe24
fc235bdefc347bf455837d12ac76dd1e
fc235c445f8faaf42ae0c8fcd81d5e7b
fc235ca7ef29332a1c1611c3645bc9a7
fc235ccfb8776ef17c9c44c264150980
fc235cf7adb88c1c58fa472440dd3c60
fc235d567f8b56fccce62f1a592b951b
fc235da2a4d7d20c8be60b3c84974581
fc235e41338da688ff2b81c81ffe5740
fc235f994f0ef73f00db956246c1b503
fc235f9d9d956921104389d589722df9
fc23605b58dce2f5a0148a5c19206a42
fc2360ebddb04c44aff7594ed2f95377
fc23611922900c163c3a6dd0df9cb404
fc23620532fddfb62003b58395f85953
fc236283a36061029858fa905c983e7a
fc2362edb18f6c6489c7557aa628f9bd
fc2363eee2dcb13e244921cf102bccf0
fc236525851f8dc652dd7bb36ec2aadb
fc23657a960a8ee76fd93e792769c1a9
fc2365ff50e8a4cd0ae7555be6d5dff4
fc23662e1dd05277a3ecdc6a15955b8d
fc23666aed933d3781185d61969ff255
fc2366efc3835bbadfe2268a52ab294c
fc23672aff4f9ad928864c519b0d32dd
fc23687656cf69b06d409f5e493deee8
fc2368858b454e7befdb966d252329cc
fc2368a227e0ea5b31619d6c6cccb9e9
fc236a806fb88fbe2750197597e4ac52
fc236b6e7e5904d9c87b644b176e68b5
fc236c4233bd4f6d2a35bd5c895a33f4
fc236c44ee3ccc0ae6127facf6ffc01f
fc236e458d34c04a36c27a2583efe0e4
fc236ece54eb82cf4ed09bf9c148e30a
fc236ee756966996987aafc1d180ce2c
fc236f2343c5384f75b513d55e41e970
fc236f5f16e06043042a589afb9a668c
fc236f80f2ddaaf0e1473ca975074acc
fc2370200cf27e5ff2ee597ac2e591e3
fc237035f0ce08d4602179bf3998fcf1
fc2370c0d7e478aff9e0743d083b4095
fc2370cfb0a3ea4015168b7d1237e221
fc2370e5607a4ee9c3f670644eeb8e2e
fc23712ba41b9c5d6f1903dae7de1c1c
fc237169786141e1bc1937891a0610ce
fc2371dbb875388208e00d573e24f3c0
fc237295070a6b108f112c7b009a4842
fc2373180b4f41a15fe7111825e72c63
fc23733157c774300ae849ca915a5b27
fc23737f412ad4d9cee0ae407f0b37d5
fc237566aa8c011ffc8dfa898b540067
fc2375987cb7d5fe3a08ae87b70349da
fc2377d0478b7a869d93e961db04557a
fc237816dd322e1d8781131b46c02fd7
fc237885e8a2372a8cb7099219d31c25
fc2378bd9be4581b1723dc4dc3f00e0d
fc23790b51eedadd0e92ef053b475ad0
fc2379ef6e867f7f9c55786f323d6040
fc237a3a5c449c586adc8270e6ffa4a3
fc237a89fb9859be33a34aa10345d2e7
fc237ad5319765fdfd9b86d388215014
fc237b75da78f05f7322971edfe51cb5
fc237c3b63b8c61119b4a2cac4be7fad
fc237d663779667b645f5f2665c4ede3
fc237d6c82cc0ed389208323412701ea
fc237d97eaf73d1e101bf949e3a32ed3
fc237dadf8757d17495fad93e5c135a0
fc237deb0e14c769a7ccb0efb015a640
fc237e3b288c87d5d65a4d335203dc79
fc237e7e2455435e1474c4beae45fe33
fc237ed43001dbcba732ed506a1df32c
fc237f499113488278c2dde88c11c78c
fc237fe3a64b872143c3388819247381
fc23816f2534143a1b373ff2f89f1dcc
fc23818b41d95a5b09d0490918228bfc
fc2381e95929acdd7b711b0595f23ecb
fc2381ebfc6838b84910448332f43948
fc2381fa4c33a15037622ce716acae1a
fc238231b53456f08e50c91f6fb94ff3
fc23823bf9ead758e8930df4d4540af8
fc238335a007444400013d22b0c42b38
fc2383f4b3fa54838e54b4891e2d235f
fc23846f0ce123a724645a41198e4255
fc2384f3f32cc967ed521587f9bbaa58
fc23851a2ec7b012b817308d11e3f253
fc2385398c12959c23fd1d3181217570
fc23858e58988662b29db43bc305da7c
fc2386e6de11025fe2bc2e612e2e551a
fc238714807bc8b2cd1bfc31a3045144
fc2387364eecc7fdda4aff71ef705848
fc2388b18e1aa2cdc05f9f374b13b789
fc23891953ca7ebbb5d6a41fad77fc68
fc23896e49ce90ab513214de26df4620
fc238abdbe9b06fb1a84af1b751a8d52
fc238b2fddf4f182624d13891b10cd4b
fc238bbc2b13a2d291d8817f2292a9d4
fc238d56038e9e5094038122ab07f016
fc238d607b50c46b4100496acd7c60a9
fc238d6625d65cbdc5837633dc263f47
fc238ea79b557b7e8cb5b707e705d0a8
fc238eaf8c7aebd1d3706bdbcf4c582d
fc238ee3624ae18cbcf39b4923b9f1a1
fc238eebdac21c495ed66f0cb3b1a24c
fc238f913657f6a8c7cb78e1d8698f77
fc2390800c9ce4ac04c61310d156d57c
fc2390f3df3260d45e18127afefecbb7
fc239149afd9de7463871865a1c917ae
fc23915a18df1ec2855ae23368cfb40f
fc23915f80124eb3ea86de1bf1b70b70
fc23917f8973c3a63fe432137c44018e
fc2391c3b03c5e265ad1a1ac98cedba0
fc2392ec1da2a9792b43e87b2096a72a
fc23930a9e5ea24432be4306ab60a1f6
fc2393d93f25a02bd6b41f34d5f040fa
fc2393e63fad0d4531b3b3c3f2b9a1ab
fc2393fc7aa190bb2bddf415273fda87
fc2394529fe86a9b04c7c6efed62ee40
fc239453d36f81847025fa26fd106095
fc2395444b8f9496b8b420846728878a
fc2396be14f01dd3be2dedff478cdfc0
fc23973ba55598c02c8e382be0f95aec
fc239744bad8d8efbe1ff2db4efc21bd
fc239875c1709d122889bcb1008eaf08
fc239928a9a57218dc699c02590ac0a4
fc239bca2bed03248330287c244879c0
fc239ca8708e624b477514c8fc27c2c9
fc239cb249f747f28aa2d9e7e124d97a
fc239d03efae899979ee6acc93b5581a
fc239d4121cfefbc5f5fcc3de2717557
fc239e186d5df9f7b65c21a5970a43b0
fc239e18dec917e2567e94a6cb71af11
fc239e3a7cbf316d57e4fa8a38fb324e
fc239e47c238cacbf77926020e680982
fc239e530d3e63ea257891c4f341a5f2
fc239eebe054a20d19d62429ddc98547
fc239f2b0d3719241729b23b15014043
fc239f86db409b7fce831d95568eb11a
fc239f873762bd718023a8ae4a3447f6
fc239f8ed1675aebe84530fdbde2ee12
fc239fda14beb63307845d9a60b07143
fc23a19139f31faef200872f7269b940
fc23a1b90312fffefac51803e46b767b
fc23a1ef52a1bd43252a221fbe7f2514
fc23a22482f0c994267d4e3742765c15
fc23a24792fcc393879ab07d15016d84
fc23a247c56469018eaac708332beac1
fc23a3415f553be0df506ab1a6e0781c
fc23a391f859808401b991759b0d016f
fc23a4f5f946ad88c8ac32adafe79f20
fc23a56d9fd757f2916165a7bb47d360
fc23a5caf797f6eb75d5cbc40370797c
fc23a6036dec56caa864e3c3baa0ba9e
fc23a69fab2e48ae7b5c44696d9d1a4e
fc23a6da39731a941f783291e3bd690a
fc23a7f984d2dae8ba2afc4d23eb53c2
fc23a80110e41967d365926d15c12344
fc23a803f3d2d3c06af748523ff3bdc5
fc23a8223fb6998e86de6ab165644e6e
fc23a866d4f087ba8201a83ae5dc5ebb
fc23a884932404e85f7443c459cc36da
fc23a90021235a119b3175b2ae14a5e0
fc23ab82bc5039ba0aeada1358c325f1
fc23abf236ad679c0fdb87a5e4e2273d
fc23ac2002cafc3467e3610fe3cd49db
fc23ac209da7a2659d9cf83c59e34d7b
fc23ac3e4cdd20f7e461ba315225b2da
fc23ac638ddebe4e1d1fcf7d2da1b4f3
fc23ae576d15ff979122093ab3b064ef
fc23ae5dcdcf574e6b65e35d048b61c4
fc23ae6d2ad16ad4301a2d85ba0575a1
fc23af85ef1dcd0bc3c91e440e2d0c08
fc23afd7a79b4e62a746a2e294174a75
fc23b03d35809991f870713e427022d0
fc23b05117d6fcf991ed2911031f7765
fc23b094994838df7645956465e8c960
fc23b0b87846464500c96e832725c54b
fc23b1ec1a983f85d5fabb10ec43d816
fc23b1fd416fd2466663ce1555205e7c
fc23b244194c9f5be2ac126d080eba32
fc23b3e370f6628749b610c45428ba0f
fc23b4a480d1fe46009bed078ae333f2
fc23b4cb4290e05d5c5e03207e206eca
fc23b4dfc2ddbda4daba1960b9e5211c
fc23b5a6da14b17491a468555cd1ea57
fc23b608fd06bafe634b6fd1a2e43c00
fc23b65033ab08ce23c5044a15c80a0d
fc23b6eac8f7a98995e4a7a158212e8e
fc23b7020f84c155154a3c698cbdcc90
fc23b705573e399c436d9b5df70cb4c3
fc23b85e414ade61fc46a2a2c9ece1c3
fc23b925d7592c7a5d80f430772e797a
fc23ba07fc8b7846b9ebe34877f234fd
fc23ba7260be504540a2b51a37086897
fc23ba9225cbf123ac6c59ae2dbc63da
fc23bb40cf63c726e1f15cf300cc8c27
fc23bb65163eb24070a7fb2b1f391202
fc23bc2ed7997b6be7f2b6a0031c964b
fc23bcf5bfd42cc65c1553cf556461bf
fc23bd192ca6a0733a7715269ec37b7d
fc23bd91bbe7afb2baa7566d162f6db2
fc23be28f6fdba54263a20b35464f79d
fc23be4b2b0914a0d8c5af63d4dc9ac1
fc23bffdf3217e16e3e7c3267aab2078
fc23c004cfda623a61096a2eb38bde0d
fc23c054c80eed3d6ec9137ffb050828
fc23c069c04abdaa3545d5c979665e60
fc23c11fef31e0ffb3039fa000f26acf
fc23c155adeb0682b786dfc8e40d3651
fc23c2cf845f1382708963b2a1d8f6b9
fc23c32b187a6d4078d75f0f34fd2513
fc23c345dc739181680d517fd1daf120
fc23c385f36c46cf6bab725d4a5ae7ab
fc23c43c946a0d09fcb781188908d879
fc23c47804b6d9b19773be66c661cb37
fc23c537eab3462bee2aa396056038c3
fc23c5774c6cd47cdb00a97048a1dd99
fc23c837cf9ca52fb0e4d1acd6d9f8cf
fc23c8dd26b38ff55419d7562543f602
fc23c8f18c6656f25e4e050b7cc71706
fc23c938ca00e375890d679229f16360
fc23c9ae619e5a5867385522dd242b10
fc23ca1aa6d2b7c6e664cfe5fcaff347
fc23cb68c656a62eb0cb0d2ea7891fe0
fc23cba4d88c496d6d72837e1a9b756b
fc23cd14ae1500b47db7130c3c80612f
fc23cd9ab3ecad0f8850a8523131da3d
fc23ce2607a3b26b201e568b6f3fc36e
fc23ce6b81a24080c4b772e19723077d
fc23cec1c33cec6dca689d09c62e3f09
fc23cef15aee8dfbf99d7fc88a67d716
fc23d057188febd764e1ffdc25d12c44
fc23d0947e866168dc82a0b5183c1193
fc23d0b2827e81f2c79e759af44b43b1
fc23d0feee0af501f2dd86156567f0d1
fc23d2debdcfe25836c3c97da21c5a6d
fc23d45859b8468a1925e205454d1c20
fc23d4fbae41de59034f300ebdf9f4ed
fc23d55acd82489294889a629fc08003
fc23d5a0e6bf809d3179bb8cdfc7067e
fc23d5a6fb263db421d5b95bf5426685
fc23d620357340fec7069302166c5436
fc23d67e2d95d6e933b1a9b6dc59756a
fc23d6bbc03034c779c2968bf677fa82
fc23d72437202096fcffe61e1d524702
fc23d8e80218f1f67371d56f7f2a4bb4
fc23d91b4916cdf197dcbcfa52fb9d33
fc23d9c114f491d0d490df9baab3ae40
fc23d9f463cce4cf0539634592ba56ed
fc23da667f007d237f79c2315ff5cd70
fc23dbfa965add54854a2af36d023393
fc23dca7b6ccc972737a42e8895ec037
fc23dcf0019fac2f6319a04fa07d03be
fc23de904bcf7cd6dbd70a88a64eb630
fc23deb39bb10e3323db5ca018243b00
fc23decf58c2b6334270ca7ddc4af94a
fc23dfa8b9c861ce4f38ed7dc99f14bf
fc23dfae608022895c08898928a5a823
fc23dfcc85764a75a06184771bace1f0
fc23dfea601431780ed68d6bee321c32
fc23dff8ad31135c30908aad8a3d9579
fc23e01cfa8ec15c13559cf411c5e55a
fc23e092e5e22ad51846e00f982e17c3
fc23e1583376b9409eef3d65cffde0fc
fc23e1e88baf79ca6551ceec7f4c8cf0
fc23e1f6e48d9be9eff5b644df64d50c
fc23e20adcfc40f064cbc6e2c834cdfa
fc23e220eca9e0db8ae499d2e5985aa4
fc23e34a543c190c763c34fa49147702
fc23e35323d2b02fef7b8f0a9bf44243
fc23e35775b9fe83361ddbd4b4648c75
fc23e3c3de38b84520d09d9949a56fe0
fc23e44c297ce6cb389c38516de2a789
fc23e48c35f93a6c4294574b9ff4b376
fc23e4babc28cd4ac78506c68dfa1491
fc23e54fdc69bfd35972e268bc56527b
fc23e56e5cf64ad2408f63c558f21bad
fc23e6589388ddff9c9b5686e9fd6bfb
fc23e77441d6d9c8855004dcbb7fbb7e
fc23e812799b2d5405b2e056b3aeca64
fc23e965f3ed40064642c5707da3171e
fc23ea2558c360964ff96d9467c053c9
fc23eabc8c189e61c38030d78543bac8
fc23eb0d81a9cab58e48dae9df9fbdd4
fc23eb12e60e39afec0450dd5fcab9b2
fc23eb2652fe693eaa9305bcfe6d2d68
fc23ec74bde7c23705d994401ba17816
fc23ecc633b80c510ec09c2574e5288c
fc23ed71146a09efd949b2491284247c
fc23ed7fe0ff764d5517e7738f35ad24
fc23ee3c5d87708d1894226eb3353a49
fc23ee68b60fb9ebfd94160f9fd9c550
fc23eed909eae4c6a3db3928a7d207f0
fc23ef08ad940b732144b3212589c88d
fc23ef35d802d99703f37f771110fcd8
fc23efb2050edec2c7aadc90c6195985
fc23f0315512918ba8b729168be2c180
fc23f093b63dac3fd4e9ef8666930c5a
fc23f09692a92e5715a64fe81bd8fdd0
fc23f12d5802432bfabea6707927ea36
fc23f3277cad181c5b9eb7cf6c35d8f5
fc23f3d2c465d4e20af3e66f87bd747b
fc23f3e06641186b0c520a95cea87e05
fc23f402b3b9b99f9d6da9dd4a72e4c3
fc23f482a8f5c187b53146647181b219
fc23f5632a7193acf0eca5ad75d5c1b4
fc23f648216ba0042d5b3b9c1a69091a
fc23f6837d920b8387faf062733d421c
fc23f68bdaa43fca8094f2cbb217e05d
fc23f6f494ecd16ae81c7e0640cc7c60
fc23f710ce73984f8c90e4bf11f33f50
fc23f77f7722c877ebd7f49a865ec5dd
fc23f8ae5ca1f8b886ecffcea7172a98
fc23f8e6d3e1d6ce88c45473c313e33f
fc23fa8c3ef40a29f3c26f30bd03cc4d
fc23fa91642cfd430dcc1df0b26b9379
fc23fb7bbcdb80d8f6ce0619f3b7357c
fc23fc08543d4930729e3b338833c390
fc23fc31ebe75af1ce2e44566e0a4362
fc23fc406abfddbbca78a06175b94c11
fc23fd7ede6f965873a6b419ece12195
fc23fe1ef05e4d59b6adcf6c195dc84b
fc23fe45ca2133aebcbf22c804be16a7
fc23ff331e93e14119ed94a1cf54c7b9
fc23ff59be6a98ada2e5c31c61698b03
fc23ff61f9633019c3d03271da7f96bc
fc2400540ea5868896ad4e2b4d956f44
fc2401486cb9f5970529ee76f26ff688
fc24017842e40056cedea2af374d8867
fc240314f6ef157af2f8cdab626b66a5
fc2403be684e6e7d98e723ab3f83d50e
fc240447d821544a982979bb29f94ce8
fc24048ae3086e7bd53474370d7e5bd4
fc24053357bbeffb2f744c72d18952f5
fc2406fec9b336f9688ab26b74accab9
fc24070892b7b21fba10ff0d028294a3
fc2407f7682c5c31f69b8d2884fca91d
fc2408feb4401c93187a951e86224849
fc24094c9bcb381caa6cdc4683547928
fc240955e97b0635cc57f9fb09fa2e61
fc240980821902a5f33c9509a334e241
fc240a0942dfdbb9abcced3b0fe227e6
fc240adf21c21e1c5292e5fe785fc747
fc240b43561878d22baf3b4ba19c0518
fc240b73bde4681be8bf577903f360a4
fc240b93df87b0fe82b6746902d24a24
fc240c3276d0ba5474295790f1e23fac
fc240d8c4b331d6f1b4cdcf852d51680
fc240e4ca6077e23a4e1d37d746729e2
fc240ea2c54e223996097f5828a794c8
fc240eb4339dd86e8886003beeddf2d7
fc240ebeea1cff57981580bccfa87bb2
fc240ec22dbeca5e3e5ff95008660e3a
fc24104073694209f618f0af8a37dcc0
fc241114a7dc4ee939f90bd23aea0713
fc2411bb063c0e8ab9dc3c74b5f74292
fc24122646fed6cac299a22c941714c4
fc24132a026d4f34e15a5c597d911b03
fc2414a503549b6dbce2ba7860739ca2
fc24151b2376f5fb50ee77b9014b5dfc
fc24160392b2b7c1198580aa7b566c90
fc2416991d46e506da5f93e1c3bdf529
fc241725ea18df33779d0179da5842bd
fc2417c824b9f08fc3b3deec8e59dd59
fc2417f5204f7f3cc76c8ee938e2bdd0
fc2418a2e2987f665243c62e63ded6b1
fc2418c352ab4e1580c6e8e4cdebf46b
fc24192551fa1d9a684ae581a460a03e
fc24192af508a174c02dedf6eaf9200c
fc2419402eb0b80d2a742d0347c56477
fc2419b08684a085a3624cdcea4dcd9f
fc241badd76349817481c7a2db9004b0
fc241c1578f6f7a44a8aa9c7003d151b
fc241d2bd89d8f50145a98259dfa34a8
fc241d2fc6368e48e87b6abbad5d85e2
fc241f27a1dff897ab5b2f8623605c1a
fc241fd0cc82e7d5b90a0b23f3eae61a
fc24212f1a3ae3aa5d749ae24ed1abb3
fc2421b1271e366c73cef645d989d69b
fc242284a6022918a326e26112697a3d
fc24229104220c35fabff18229e411cf
fc2423681d346bf9d6d336ca98519a87
fc24241404f08972e730a6c336d24868
fc2424b6755e8f8df9bb65baa4f701be
fc2424f0b7e23c22ae7e5dc664f25d96
fc2424fca0c5c11f0a14b9ea4bceaf00
fc2425a29615020ad1ae2cc39042441f
fc2425cfa466d2682f13a68906019c3e
fc2426c953387ae5ba40ab2d0b6893d8
fc2426e0362a32086445d261f7607c84
fc2427dcbb7e4b6ac216e060674b5e26
fc24285ee964d56372e48f7c465b712c
fc242861d1fe7d1f92c0a414f7ba6f1a
fc2428fe961a4323a4df1f635ce9c448
fc2429834151cd451a3543f5057d434b
fc2429c4f3b2dca38788f25e2e28c747
fc2429eddc20c3724c8d4273ec135721
fc242a2c3f980dea10000c9177c93ab8
fc242a7f32e02b7118fb90a60982653b
fc242c7ea25dd1d79a88e01331ccdde3
fc242d01d6498353a2c22b7b03906cf3
fc242d08cf916b0e5c7b8b362d11e75d
fc242e57f98ee8086d02676b98f918b0
fc242f63ae12345153e1d674bad053a6
fc242ffce585400a9ef5bfc37fc3a319
fc243017e873312e4b680c833f77a608
fc2430311a8467b1b3672dc42008029c
fc24304e2de44a30f47707c1ab49e106
fc2430703fd1e82961d778885d26d23e
fc2431062c4c1568d37190172411a1b8
fc24332164fa03ae1eec4d4b03634677
fc24348e63aaa8e47368a4d8863817a2
fc2435403101a2d5261f08ddc8d88386
fc24363d6bcd1cee4b02d22bb95921b0
fc24365f4696581c0eaa820e71722e49
fc2437a67ef813302ebfcc23261ab182
fc2438c3083e09eed571041aa1c5b604
fc24393fe873f113f276c57cbf18d654
fc2439dfc4ba8cc1c4c6d9026760ed64
fc243a06257776f904faefc671671d5e
fc243a2980b30b3ef58f72e67d41c656
fc243ab2e2822154618dbb4dbf385f6d
fc243b385ea54aa11f219587b118a78a
fc243b508394f6967efe6bb4b4c951c2
fc243b64eb52a3085fe6857a5646708c
fc243b9f1201e3eea80d0ca1c58e9e90
fc243cdf2c2a82acc038eb30a9dcda60
fc243db1a1ad7f1d14b28e18c79af84a
fc243dd9a0479a248eb31d2f556c1859
fc243de8b78d14c9ccece97fd17cff3a
fc243e07bc1eef4214b238db3e5a70de
fc243e13b9cf782b13920a0b1c914488
fc243e87dc9fccd7c8f76837fb58b81d
fc243e90d0e6942ec769e4604fbef810
fc243ef343dfa63100c569fa1fb8785f
fc243f289d661bd04e269041b09d8c3c
fc243f861e69afea734b1555918ca801
fc243fa426e3cfdf1a1469666fac640d
fc24402ccb1bbb6768fc200e5461bb2e
fc24406b0f362d51bb3b4fc985c30f0e
fc2440c5166964a69db4b67464a0da8a
fc244128443acdc6b08f5f9ce3eb38cc
fc244128a817bde996e1b11a83bd2d85
fc2441335d86b0c7973febafa83c972d
fc2441db2f539196d91e788836421e20
fc24430bfd6a70f28cd152c74a6caa1b
fc244316fe5c1a5966e365549171255b
fc24445d61bf26e6350fc4112a93dd2b
fc244484a2370db17be8c4d1b8b3e54a
fc244518d684dfef8cd9253ed16348c5
fc24452bbd07826e18e1db05d03fbce5
fc244568f39edbaa487063722d9bb51a
fc2445e2f0a824f28499879a7ffee64a
fc2446e28033e6ff77227077565bf004
fc244782c589f2a3876a6f88e7b354d5
fc2447fbd05f62bbcdbfbb64428afada
fc24487c32d36474045846941e5ef140
fc244934d6ac900f679717d58ac2af28
fc24498795be991ec1dfe5894bddeca4
fc2449aef5bb1be629a2c08cf54c0565
fc244ac10c54e3f9b102d68b1f089eb6
fc244b51118b7eac2a6b99ee8d348ccd
fc244d492c7b5b780f3914ad70733585
fc244d5fa6e698ffbd0f376a4b66b4d6
fc244d686601ad3a43f46d65a0ed2f5f
fc244d85e8ccb677b530cb8b7a6d7289
fc244da5c4aa92d2d91ab9c8349e9a50
fc244faf36a9be53a261ecbbdb14a52b
fc24506edd0b8d41d7f114276b0d1a2a
fc2450b80c12b1587b0499871dafbae5
fc2450f6dd62471fde154460a5d4fa41
fc2451564e24c2be5a28f407fcbc7f61
fc24519c9b48f69ca225ed711671c0dc
fc2451a285c7d4642f10ddae665b501f
fc2451e8cdf4e1338bb7e199c0d1ea44
fc24527c06500cb59832af17d344c161
fc24547481bf36274b6f72424021cfd1
fc2454d3fdc55526d3b95fb46c04f33f
fc24558163f5c3c09549f885edab16f1
fc245686081e5ff68a08bb10fdc39378
fc2456a034e030e5098079f996570182
fc245801ec688a4cc73641c1f02a8117
fc2458a812aff49b4278496ab0bd471e
fc2459312c58f4a8ef2da1b436182f80
fc245b581e8dbc60bc6901b195985bda
fc245b8dd67cd0112d1bb3f763f3c60e
fc245ba5b796f6177561e1266b865bf6
fc245bdc8007b937b988da974b13d0ec
fc245c02187550c99bcdc2ed52f6f9b0
fc245c2952a5523d3861ffccb408a45e
fc245c3d101be75071c27da97d28982f
fc245c92b1acc82f29ca1ab8c2d9b760
fc245d8abcf747a3fe5872530104ff0d
fc245e6d94f24fb87a93b6fa782f5444
fc245f0c3732479f52398f9a6b543488
fc245f837d9f5ba54b5eb95e8a4ce985
fc245f98dca2d2a2b796bc49d240232c
fc245fd678e87f37534405b2544d11dd
fc2460391e996caa17f7fa3bba95d9c4
fc246049545fda1b3edb4fd9c4d1bcf2
fc24607a795a83ee5844328218309ef0
fc2460eb06c125c387b833c0626bd403
fc24610269c9928d7e17f6f2c48be01e
fc24629a21750651bda7743afc4e70a2
fc2463adcdcc65f723f1d1a83f10c9c0
fc2463b81ec46132f689c155f5d01799
fc24647d6c18a89d1cea3e6b9b8e9109
fc2465d9a86f1ed15d8c6c695d5eaddb
fc246670f81804d75614d179a1e75a5b
fc2466e64a638e8925596daa7c92f242
fc2467b7c6c3fc461a07a01f7538629a
fc24680372a5e37c36d4a3827154b456
fc246818d864fa82677ee5515891c77f
fc24687b8d6de3540669d51f07dcadd0
fc2468db5ae63232b76ab8ded198d367
fc24690286b4561a7fac0c55f376824d
fc2469eab9b82aba081a23d18c5c13f9
fc2469f7980f58b821ee9cd1e34c3175
fc246ae960eb96811ba292666a1b3f60
fc246c67047e939c596996c683b760bf
fc246cf4ca95d55a9b9d6fb3c4213c59
fc246d5fef3d7c41cc1d1855b2963216
fc246d6042d203afc668597d82d50c36
fc246d71e001574c41e55876a2cb4d60
fc246e6ff0f58682a81fa6abceec2fea
fc246f0d1ba55853f465d5d67968ee81
fc246f11fc0501a346ce8eae0660532d
fc246faa9b234ef43b5b4c066f609f0b
fc24702842332b8ae7673a782b1e3ad8
fc247064d2fcefd63ee53de99ed989f4
fc24712c593b1eaba344bd3a4bf9082b
fc2471656cae003b80ee74c78e0fd3b1
fc2472e28eed7f3f6a81c555f354d2b5
fc24762e9651699ceb36d3ab3f4f6afb
fc24767bc787c07668f440512e2b47f0
fc2478bc43ecaf37939024c63f9c3434
fc2478dc5edc941cdfc11478c859f355
fc2479ae685380599830b4526785ec45
fc2479eb75ebf36e031d8150996ec4ec
fc247a6d276cdd5b96f909574a492d56
fc247b0edbb52e9dc7ca7e0312c4603e
fc247caaf190205d745cc960fa9fe213
fc247d6126e1c2c4681cd7396abec3d0
fc247e23d8d7cc4e8759f5a1a07aba3e
fc247e38262dbbeed8f7954f9fd55331
fc247f32f124a49cb03d06e3bb6ccc67
fc247fb1234e99ed2b08aa95f5a5a7ed
fc247ffeb7f9b203cd747f2f8dfaddb2
fc2480c6a96c9f622fa0f4e760037af9
fc248162cac4aa45361b56f78e65a5ff
fc24818a268e3bd95be8679fcce00ee0
fc2481f052132f7cabb332ce3bc0de86
fc2484728eb3ccbad8a1a05c2f7baf42
fc248482c19ca1d02c4539ff77ef41f3
fc2484c64dae70247fc3d2d024ead467
fc2484d8c50548841134dc03d7251b17
fc2485fd4c9e175d3715f8a944191723
fc24875c5892e4d3390f9e3485c7a74e
fc248810d0dc740bb3e83bbccb8b802e
fc2488261e670200c61f8f00bec8727e
fc24886a115db118b49eb114b2f8e890
fc2488a617c17ad5df13071a49aa336d
fc24892e11f8bf42a74c3a77646494f6
fc248a054f43ac495a92bb49670fe5ef
fc248a54cb63f8e0338e400aba68c36e
fc248ab431a090345066806cea8624d4
fc248ad24786593944774a701cb00672
fc248be48eab2cee182ab1c40c1b0010
fc248c107520b257d9299f320cb5e7c3
fc248cfda04e4afaedda557bce64426f
fc248d80e077ae8fc3301f30ee18f8ff
fc248f059f9e98a96b8381cb313a18ae
fc249036f39cd29d0460794632c8e2cf
fc2491035b177317699f152d7b17ac2b
fc24910a900dcddebe7a6bec658884b2
fc24915ec56c62c6e746c4d3356e4ea9
fc24918d13ee6dc9d2dd5c5279c39d91
fc249193a677e44957bf76e1f2b4412d
fc2491c1eeb7b12b7c39f9c5ef33cda4
fc24928c50283a87c83be5a45e56e064
fc24931064669e9b72a5106c3d39b3b9
fc249366d3a8797c40c519c87e00ad91
fc24939910257a57a5aaaf05bdd66e60
fc2494bf10b58cf2d1eb8e61105fe82d
fc2495138d6daca813a817ecffb434fa
fc2495626385aa549e155b3171d38036
fc2495854984c3244847e7ef716066c4
fc2495f2d347679f4493f69235c83983
fc24963400ff65619f6ff863fbbc5940
fc24964b3c56dce752f44f961a6628fd
fc249671851fe1d8e91bbb076bd2218e
fc249677c8cf7631e4b55a4ffea1166d
fc24968f01851c71e941031542f4d74e
fc2496b1dc5be6e099f4da0055686c62
fc2497292c8568303a30349e52902bae
fc2497902020eb53cb1a5c6391e6a034
fc249807f5405854b58a6d12a8e7e1d7
fc2498ac9c1785d56441b4ac79ac2e95
fc249a65df7fcd357bba47a9b8a16810
fc249a7eeca20916576c56b85857fc25
fc249b134ed36600997d169302e68a43
fc249b9c090ea74432f78263d8f7eca2
fc249bd1b721e62ebf072104a879a418
fc249c5f14de1f52329f269264e5654a
fc249d243589bb10894770c087763b60
fc249d94f0767d0ed84e293cfbbc1150
fc249e0a96bf26db0b08511b42db6bf2
fc249fb794b7d46585eaacb511edaabc
fc24a067143c439af9cc4d0bc4859745
fc24a0c6af5b8c4f1dc54bf2414f5340
fc24a17b86ffde0144ab97005a36c80e
fc24a20b7976c49697bf2a67b9e366f7
fc24a45493cec3a7ef43b87d77b26e4b
fc24a4886390600f2060581af694438b
fc24a49318208a10956609d5897862f6
fc24a546312f9661136b4a7754ee1912
fc24a629af5c21662ab8826787497c40
fc24a6daa9b89557cf4ca08e41fb8a63
fc24a70d0b7155ba9629da64315dd7ac
fc24a7d949697bb25898e6253d11d096
fc24a8a1b5bb4723ed7dc0aaec627ffe
fc24a8a3e22aed10794fa46bfdaeb01f
fc24aac3a15e9818ec6a48b1237db02b
fc24ab00800245017155a997a00a0231
fc24ab88efa3e87d573b10d7dbcd13a0
fc24ac1c43ef9f664dc6bc2f0863004a
fc24ac339121a771e3051592bdb4cd78
fc24ac69bd5eeb4def1f11a8e3d044b2
fc24acb0b9800be3c6e6f3303dc405c5
fc24ad36c01f819c0e164a2b36b059a2
fc24ade1431fe0e7cd6eca44388d3859
fc24ae30d7c04f76abe571b2a7dee99f
fc24aed26d82c02a3773d63fbc4c4c67
fc24af68429281c96149575bb99b1f90
fc24b0e89f2d7f78fbb08c07be55d8e7
fc24b0f6c87fe5769ef7211486d288d6
fc24b10b2b226c9fa288ea135b8e1d48
fc24b129006b5121b9a965c933c3d72a
fc24b16cec2882710b809d7e7684a862
fc24b18687b21a122ed416dfd5485b19
fc24b1a895e2961e7f4072d1d0bd29c6
fc24b2454d55217e3002babcbdf31547
fc24b3b44fd60a94211f833269ca7d68
fc24b3ea375cfcfa196acb241ed93193
fc24b40431476f18cbd703da1431a15e
fc24b4233b0f91614d7ff483109f139c
fc24b488ae9619e023fd8173462e4d75
fc24b4dc55dddce2aa61187aace9ed2c
fc24b51d570bde416f9a153eb42e9f1b
fc24b52a481da7e83b98a6e9833fc2c0
fc24b56c63bd27b3f3dc157a60351799
fc24b6705deb55bd3e9e8b48f1a8c66d
fc24b68840b782888bea4a6aba1b3046
fc24b6aac4335091601cd7f668699e1d
fc24b7b48b1f938f55051c82e820b238
fc24b7ba474ae3b319f283761324052e
fc24b7f2c3ccf796d4d5bc69e5d1072f
fc24ba0e55d4b5b4b2291541f0aa0103
fc24babef9f727b4d6389bda8c5a6d6a
fc24bb7d33436bc48c97e146b8725335
fc24bbdd62a1ff1d7a28f7e3011009ac
fc24bd1828f017e1235b9208c69fb0c0
fc24bff59791cb06032b4403333159f5
fc24c03229dea70d3a0804a34acd42f9
fc24c0bca50097119b20d0e3f55314f6
fc24c0c9060487adabc058ad9f6485be
fc24c16a76087ee8ac7fa7758ea7e75d
fc24c22ec68c6c9d11a7de5e78b92ff6
fc24c2769c0d05d5d864aec6096d6206
fc24c2ef6800986fe24c5dc34b390e5e
fc24c33e6c764672a9d2c259ab09104b
fc24c3559d55180696dc0d78c23ecc89
fc24c3912fd614ff700b331fbd2ff91c
fc24c3f25ff9cb26a2db46ae0688c249
fc24c457e3411fdd233821327e087525
fc24c4ec94f3ad304d918794a6b584ca
fc24c559e1d037954818f646da24f35c
fc24c56b6eff33cb197f7bde48a0b968
fc24c572affb1ad7afb1ffc50f92f519
fc24c648b5ee835b56729c89a21e6b0f
fc24c64be664398bf784126b87d6f47f
fc24c661c1d7e3d695f11699362b0273
fc24c6e4a8789effe85a0e3f3be87a60
fc24c72323fcd1ea7656f57256da986f
fc24c7b10f442cb168b820636edae32f
fc24c88e1fab83edeef96ca35d04504c
fc24c9a5d412753e815246ab16e8b1b2
fc24c9b7e5c8e9edaeb7b96a119d4477
fc24ca202fec038e4c97a9de2c716897
fc24caaf4a02eb1f4155973f2ddc2c15
fc24caf78105fd25bb957cb0b9a4e34e
fc24cbf152e36964a9cd0c148337dc5e
fc24cbf1ad376093a1190a073b409bd0
fc24cce9592b4df95fc8857a29c26172
fc24cd7971261e05c8a9f9119718ea80
fc24cea597c4343bcbc5f2a90d090332
fc24cebdc9fa48cef04a05962898d9f9
fc24cfbf95e6c814483373d16a545f00
fc24d187e3193c9397301664a5a455e4
fc24d2b959ebf52daef1430d29007f50
fc24d327b609d120c5744621c6c3d565
fc24d34f650e9fd2014f36a479040518
fc24d35988ff84a7e93941155fd1a0f4
fc24d3c2ba2a60d94d5d7b89a6ff9d67
fc24d3ec1cbda1f4784ba56ba1e1beb0
fc24d42bf3756730a6495f954f5c44cb
fc24d4ff2defdedd65ec9a1f7ec5a9e6
fc24d57259e9e10bf8be1b6638a19f54
fc24d5b6e286140401eeab0b2f528741
fc24d6725b06a98a3f9e9f86ed958117
fc24d67dc712cc2858bf535945293b59
fc24d6e8c3b7ed10af43c744fac9873c
fc24d7bcb8ac6dc8bfb060556bae8023
fc24d7f58d29d260b2e3ee74380218c6
fc24d85872c30aff4f77b2fb87b5befe
fc24d8983311caf251a4fff5566bea91
fc24d9f5166bb50e6bc7a8085fc0a742
fc24da15a978f4a36fe0dfd2034175fd
fc24da408f1fe05edaeea9b6a091c27c
fc24daf8f29c529659a3d6d8a82d2c29
fc24dba6deaea9e729bb9396cc06f6f1
fc24dc094fc23299a1fcb440a0a32948
fc24dcda649d4b464697f907e0efd8b9
fc24dd2515559699875b7a4a0cdccb51
fc24dd4edf210d967ef35b50e3ada6c0
fc24dd9508a23aeccdb787fc92546847
fc24ddae102b63ae02049917ff257fe0
fc24ddec374865b98ebb5cdf043e9bb3
fc24debc920d0167efd012e20953758a
fc24dec388d9aa35756ded48d85e4a7f
fc24defff40be18372d7f5c21341063f
fc24e07dad0f765770f88e40c4ee3eec
fc24e099cf29df3ee1cd29be66647ac5
fc24e142e1231e54c322b7841e37e36b
fc24e17a64a9e689f096f76106252383
fc24e1895f14ec32510d384ac42a11ab
fc24e219a709535657a051a060bd828d
fc24e239de11599c6f7af237cd9d36b9
fc24e247fa7d0ec9b4650dd530d3e6ad
fc24e25bc7b103bed0a823782e4334ae
fc24e2dac07e20fd5a8c666b058f2d4f
fc24e2ebebdb9e21dbd2f201cdec57fa
fc24e375eb4447a9ad729f5a296f7d8f
fc24e4c97d1e077d2bf8a237da44695b
fc24e53fd648248cf92a0ff0883adfd9
fc24e60441c798d98321ebb06b58f220
fc24e64a4c495df2a91425e896ff5c41
fc24e7990d8c914b67e0da35d9974620
fc24e7d42c0ba3cbecfbf43d1c08ca85
fc24e8c263df726d714eeb1be4f9c47c
fc24e8c4411d350004de04c55d81d23c
fc24ea4f5813ab06a1853df321734477
fc24ea96e9c7353e1067700ee28f0dd4
fc24eb5879d501e8d80ccae7a5d03ee7
fc24eb58f9264766b0db491ed24cd901
fc24ec4f6f23d36e4f2532b364a7ec65
fc24ec9c16f873f9252c41b69366513d
fc24ecea7c411c2f767391134ea420d9
fc24ecf6bcf61ecc0efcfbf8322ff67c
fc24ed3c4f55ceb0cf7d896f5f592e94
fc24ed5b6d2c3bf7708861dcf205b94d
fc24ed93921d412d3e1825b8e05c08c1
fc24eeb34b75ea1816e37f6941bdd316
fc24eef79ee2f54abc9bb29ac995f25e
fc24ef16b2f865c1d8562bf3afa29ea7
fc24ef3f2e2f68bb992edd59d33ef55f
fc24f15d8e173c984812e33b5eb9fbc3
fc24f23b27f5a2e6de5da86d8181e6d2
fc24f3bd22c5f5188b3f6b068e218ea6
fc24f4793ebbafecb05936753b69c380
fc24f60d5248f7d1daaec9eb3d00ed89
fc24f66ff98083aae555cbb85781425f
fc24f6e3b450148e8dc4d750b5d1b15c
fc24f78cb1bf00de2c327e3bbf6cab76
fc24f79782d9612569bd19ac9125eaf4
fc24f8624978ff93975ad4ed054affe0
fc24faa04c980955be3ae61dd47a014b
fc24fc58aaaebef85bd527ae0c6784d0
fc24fcf9e63da981df38e5dbf87a37a4
fc24fdee9f10dddc77e80af11be11e95
fc24fef492f8a28b9c21dc781966d8b0
fc24ff8680d92533af45a514e5c22e0b
fc2500b90929a038e5db6dc350bedb00
fc2500e1745b7c7bf732691676d4e937
fc2501128b3f8fab3809b514941ca617
fc250196f75c70a7e1a6639e8067322e
fc2501ef0db9fcc4a80dec5e5da70cbd
fc25023890c94e8b3662046aaee738ce
fc2502b3d3f13d96a7becf9674280d03
fc250303d6cb5f4bafa43b9afcb107d6
fc250331868af99ee635c0f0ad47fc40
fc2503723429e4dff21683cb044eef4f
fc2504431dcddfad75b54fb705f31e66
fc250585075793137ef67e1b57452718
fc250632525bdf53359d53846b07166a
fc2506aa725474f9d5d088f6186e3d95
fc2506b200d1db908811e5732672d70a
fc2506cb57aad7063177c55e25e1a8ff
fc250774ed4443e75f25824d58d9a550
fc250977c3cb4086522c1592ac345710
fc250a0a4419c1a549fee35b7a702c01
fc250a1ef8d174e646327ffba5dbc96b
fc250a210159aaa699c668893f9f0345
fc250a2f62d5ce5d7235d1b64143f886
fc250af43165ea2c3d7645b860c94930
fc250e0320b4c375352cfbf6f59de6de
fc250e6f5d13d2e549c036fc0e592fe2
fc250e720e360b79e6a1e1dd6909e1a3
fc250e85b57fb3ddaa3248c4a3f0d6af
fc250f12601f3b7945737e25ad29996e
fc250f26b54bb61a1dd66689466e94a2
fc25104333e193e6533d4e74936d300d
fc2510c04d5e29e28f70fae3091eec5e
fc25115a94c44026b6135abf57593e72
fc251173aae8ecddccdfceb8274dab8b
fc2511b525843e18d3a73bbbafc2343d
fc251207f86f89e146a162570d71998c
fc25130073167ecbbefa4e0d1e2a72b1
fc2513100ab54c5fff6245015fa793ff
fc25131dede6e1e15ea650ea0915f8a5
fc251360c1264f7adb8fa72b3240954f
fc25146c18c5e15039c2377771a56044
fc2514eb9d696e72af7749a2dd0e8ff1
fc25153c332c173f1e6284448c7870e4
fc25169cf54e999867c4423a3f9202ec
fc2516bf4daf0a202aa134ed46f0ee21
fc25177e0a02a1740631198d25812110
fc25178b75ea21b17b6f005f9038a0ac
fc2517d503482d08f594e9b5542d2bce
fc2518db7d4b5961ec89ddac18156265
fc25193ad7edfe26e320cd36126ed39a
fc251ae81251f9bebf38d1b87bfd459a
fc251b2e231a0a03d2c8ce217868205c
fc251b9ad2436c9e2658826eae042305
fc251bf621eb5315ed0bed385534b540
fc251c1849a596f996c442a171c13154
fc251c821aee5aeca3ef8ef75c0c73e4
fc251d5f8a2607670d14a2692d3af2da
fc251d72c9a4d374db2307f68c9a02b0
fc251d95f41f23d831b5d260398186c7
fc251dad64a384e83e02c3e74aada1a9
fc251e9fe6a783b165ea7db16bdc73eb
fc251f7cf8b3bcc815e438c5175a9707
fc251fbca4d46ed220979f72c30ceaed
fc251fc2c8a494bbff273471bf7f4289
fc252005d8ee0e74c2f7fee18700b20b
fc252020036cec97006e7d9862fe2980
fc252024e2269d40ca5ec9592f0463b6
fc252037208aa39be0c4cecd86cf49ce
fc25206bd227acc81c86a899676fe46a
fc2520a545f23447ae6b80f3df52bfb8
fc2521ce415fe553688dcd393d2e7e50
fc2522585ddc8f3bd6b040932e36c294
fc2522592712eb85bf899ae5ed3dbde5
fc2523a89ebf699d3b04860c77e90d22
fc2523c8e55b32a8be9362fe1cd97039
fc252406d2174206d209555ac74ea84b
fc252472ebfefdff5ad7d88de091b95c
fc25251b37a0b42fda9d732a6242b18c
fc25258460bbd4dd6c3829b1c40a9025
fc2525b5cea404ca3a2e4d9e91271916
fc25262737bcbb8ca6efc78f703bc89d
fc2526a60c53bb42613954337633b7e9
fc2527796356e3d27c71f37a26e5d951
fc25277b0f42b31675a07f026625bb18
fc2528822b278518db6ee265615ffa50
fc25290aea36e338a54ed448054fd564
fc2529358dc523908e0fe646d16661a7
fc2529a3097df7a8cc53eb82b223e8f3
fc252a99efc520f8efb8db3c0e4a8f5f
fc252b70edf1d45a6c58f1d632eb758a
fc252b8424ac9727f776499fbd046d30
fc252b938d07ccdd270a1fadbfed748d
fc252bc9b844a58861fd8c94bd5bca7b
fc252d532b60c4c62e4b781599b65768
fc252db5567d4859d385bafed0762853
fc252e1324ff96514c09445d1979a7be
fc252e6c84f8157974ed7f34696fab5b
fc252f930d7a29797b427eda52f03a43
fc252fb6346b9d6b0a4735ffbd9a0ae5
fc25301957748b372a9595703c0bd1d3
fc2530ef12ca73b87de46bf72cdf7a49
fc253103af0d5311e8371c3f5b07706b
fc2531b584bb63af713e54a9578ccb34
fc2532c332d1747a9904d70b2bd44562
fc253301eb457dcf2a95d20b057fa5d1
fc253364b330cbcf04a1be64748e3ec1
fc253387230e52841e73fb4fa744be6d
fc25338745308bc7c80cae7cdc2dc6e0
fc25356702eb5551f7036ac2a650d50e
fc2535df10b76596821dece084d52297
fc2536452398a6e4b92f8165a9d146c7
fc2536feabee66d567bb794c6a05d350
fc2537abf912c5819dc296e92dbde559
fc2537b1081781daf11147ebd458bdd8
fc253a69df971b63ef3db993c4592f44
fc253a816fb2dc3b51ece9a743142b94
fc253aa599278963b8ecda5da2a59df1
fc253b5dedccb67a73620cd2cd3edb6c
fc253c423e0265e7b7a031ba111f08f3
fc253c49131afda114bd2b4715840349
fc253d78960259ba436580d5e3898977
fc253d8a107a14da5d244905fefc001a
fc253dc86c542c50fa0a06e9975511f7
fc253f20706483c39315c6ad1c3d161f
fc25403277e82a8fc2aa274d1c37d4a0
fc25417a3a8e616173b9561976910aab
fc25419515b122461cad3dc277c07590
fc2543d95bc813c95430669a59b835f3
fc2543f6593ef26d448335601fde8739
fc2544267e8222788337e32abd631140
fc254443c2f753deb8af41800c857c62
fc254470d9abda02b05f085b2d3a68ba
fc25457947e814b84dc6569c4e230030
fc254595b13667e152f1e665402b7a80
fc2546da9b9a31aaf698c61dcc5c3445
fc2546ec5da282a65818a5c04191fed8
fc25479f02202ed48c8327375c1249fd
fc2548346eea1ac99c5d4a21e57d19a0
fc25488800cdb58a17b43320cb8274ae
fc254a2d8911179b32d842378ef7cb8a
fc254b48df824752714fd2349d763013
fc254b562017651de8b8093ed6330edc
fc254b5cf3d8d83250285d1c23d87c8f
fc254c0deef620e554bf91a6f3bff7ce
fc254c0f69109ded63530e101e2c72ec
fc254cfa9b593cad65c41353dd79d9ed
fc254cfbfb8a0c9d6cf0705ccf44310c
fc254dac684aed9fdfd5492ea62b9202
fc254f100b36bb6a4e0eda4cc66e817c
fc255075919ffe4eba24b3a731195f03
fc2550badbfa332b0048ae677412d837
fc2550df37852f5a918ae1aeaf3f7aa7
fc25522032df938e5c451b9dc7f8dc70
fc2552b3d0613b689b8cb81c5855fe72
fc255466aa3e95270f7f87f19cc3c83d
fc255488746a6599a18e42a62365aeef
fc25553b0ced15e412d2699332f8d6f2
fc25556b14b9cd187ec9107d79d823de
fc25559b2f93cd5c9b2176e15206c0e2
fc2555f6df53bd4aa20e39bc1e1fd8c9
fc2557337dd58b05159446b97decc102
fc25581e23cdfa4b06687568f2173c49
fc2558438b684b1f61e7ce8100c43b43
fc2558a0efb02179ccade9dedda168f0
fc2558beb70c93f3fe928fbc1ffe28ff
fc25590c57b33ea85c3d77ea93598e7e
fc255948772748289266732efe71110e
fc255a89a5fa4a374174db694fe58cc8
fc255ab5b1837beb02e544ef93e1aadf
fc255b1d58889af7d94b8fa1d5b6754f
fc255c623caa58a4e25c48feb2f8c0c7
fc255caf78190e724f34e84496ecd0e6
fc255cc304b3f97520b2115deb081340
fc255dbee25923398204f60289f81159
fc255ec5c5892a23ce3d9c1405a340fd
fc255f22dc393d6e34ac646fcfc72917
fc25610b55bf60f97d997a64f045268b
fc2562427c4a86faa4cd6cf2a4437929
fc2563d34667f76ea21175482e31f1e8
fc2563d7f5f3e1d806cd64086658a11a
fc256436722f0abff39dd107d264292c
fc2564812c571ffe7ce076843d49f3e3
fc2564cb2ad69017823cf164540102cd
fc25659cb048fa7dc352814b66756de1
fc2566158c7262b513cedd04c1664cbb
fc25666760eb27db4d1191bf16cf6ad2
fc25675731fad14fa2c5c10a828709d3
fc25677dd278e96108e225340556ea26
fc2567ab0ad1c99c57aa11f224dd4333
fc2567ac76d6c51e5ee23ece421ac799
fc256835ea38b8dc82616b91891d410e
fc2568912b27f588fbd36ac77e117f1a
fc25694ab5f05358f862a4b55b99e322
fc25699e950741678ddc2800f44bbc50
fc256a160ddca8ff257b7675fc6ccf75
fc256a93b5156ec53d91bfba443c5fc4
fc256a983cec62d54f87b1fe665a589b
fc256bb6831c72fa00451c95762ac10f
fc256c340dbf7b23696099c8a087dfc5
fc256d54aabdb9e3d0f7cf282943aafa
fc256d668bedea085dbf7b4570e96506
fc256df194a7b12793ec71173b0d030e
fc256eaca86846d8ba4a072fddc59ef7
fc256f03e6654fd6d832db1df345fb32
fc256fcd9498afbaf984bcfe990785d2
fc256fd20e7305e93410df9c38878c10
fc25709ecea10581019234f92d9affcd
fc2570b2acf596ead058a2ded6c1d135
fc257173ce639066ae0406205ee6df99
fc25722fe5a4dfd82f0aee8cd54a248d
fc25724d5957e00ce0306f9e6fd48ca0
fc2572e5e56d9f4fb093d977309dbb58
fc25745122eebf16f33781b63023dfb9
fc2574b2c3cbaa19d82bb925ba5d24cb
fc2575903d983b4cc50b0c71e6da3ad7
fc2576dd0519e8162ecc10912949ad80
fc2576f9072f17c321aa16ec8f82b6b9
fc2577a52a4243a6d09dde9f923f951c
fc2577ce050ebf689326d3adf5837a63
fc2578379c242f0626e46e039f08a1ef
fc25786863eb2962625322a0d46b58ae
fc2579c24b2a7c972848b649047cc785
fc2579f7f74ff561624fae752a263641
fc2579fc5b9936f13dc0a1f4014476f3
fc257ad8bd6256db030d735560af8df1
fc257b6e8093ed78d1d2f1967559d0f9
fc257ba1fa7cee225d9a7e976312104e
fc257be2054efa03ead33b518b393911
fc257c79b55bca7e8ec39e95e866a794
fc257cd937cf0b4f0ae07ccf960c1adf
fc257cdcfdf800481954a11e1118f6f9
fc257ce05a251cfd5c67ea5c80b9c3a3
fc257d54bc089dbab35f3e328228154f
fc257db5eed97791727f0f20cce3ea1b
fc257f32ce04d7c9d70b0dbc2af0ea6f
fc2580250826699612ad960de35b62c0
fc25808a326b898dfaff2223c70e4f41
fc258092835897449624a85d3389e25d
fc2580ddef3742849d08be78002bb17f
fc258126eb0c1b5f2e22626dfae5eee2
fc25815bb6ed201a68002acb994ceab0
fc2581ce7f3687719c885f52663dfeb9
fc258253492ce727cae6255fe1ef4f33
fc25839f6c4b05acf58f4c638e9f5149
fc2583de34da1b01db11769818bab5dd
fc258541933bf7e1ba60f8d56498a02d
fc2585479c6e5cedb9d6cb2cdcf4376c
fc2585cd99f105137ee10b4e9451af40
fc25863a1b3a0240c70cbdf7cdc98a5d
fc25863faac72df159e3eae2d1202890
fc2586a81895be84fa7a8610d7fcca56
fc258710aa1bd631bc8118f903b770a9
fc2587556984cc4e2e2bc5f4edc27c72
fc2587abe552170fc8065e83b829c33c
fc258855198ea78dbb491b0d8de7fb40
fc25885c4b86265b1d7339bd61d69d84
fc258987ec3859ffa6f870812d3fd37a
fc258a8fc61828f3a6f0b0864dbb323e
fc258badca119d703260025a2d76a566
fc258c8e10ea74dc62b8fe5b9e06c433
fc258cc78d96560afdc42512b93e72c5
fc258d3b2b98880773f22b85012fca11
fc258dbe8d83ec9679ce18e6c645c430
fc258e9d50e643b7df1eea1124b1fcf6
fc25902454bb994d6c498a312a35ed40
fc25903f0d4a2d01a5d6ca8a8e3d23d3
fc25919b53a28974cb77e663608f75cc
fc2591c301c20c6915d7088c685ee4d4
fc25936249ca2e1d1c1547022c7a7a7b
fc25953635b3212dac1edcfdcc639c73
fc2596476c9919acc12b2ce7d620f06a
fc25969b597c6749080ec0c04b47805e
fc2597753d68ff9f58707edbdc7b9565
fc259799136e958de9f0b6e727ba9695
fc259815b9c14805365228d89826004c
fc259869a7ad0da585e72c225d57d959
fc2598ff85cc89cebd5b186f83bc09ae
fc25990807248461bc9fa777afadf190
fc2599260a2b09e6ff49a70b8f75af19
fc25992e9508c4b23e104c40552c0c28
fc25996129fba2992a7d97384f687dcb
fc25999847ad385133b1809aa2fc0e70
fc259c83fcdd833c69f37d3258b614f0
fc259cefb4ec270291290e721b21a4fc
fc259d6b5fddfcc8cde9de412f3ade9a
fc259d8bd9408fe654a01248ded41546
fc259eb70a7fef91c33a16e257200079
fc25a19133950e57646254564f0fb92f
fc25a1c66ebe3de2794f8d3c24e8c5c0
fc25a22d939c27deb882573c684ac587
fc25a28452f75c8843cb58cfd5e3779e
fc25a3169ece95db4305c7cc2082d36c
fc25a4d8e830d49aeca58451221cc986
fc25a55dff04cc3298b10fbe471d2494
fc25a59886ef0b309a793d7979b9af68
fc25a5e6ae860f9dd988a70eac3c9cec
fc25a61cd73897f6b8148d6224523a35
fc25a61d66972d9a913ebe2365c5db50
fc25a7f1ee961c3494c5e12f224e42cb
fc25a80e07a89866b9434363a02dca4b
fc25a8e11e311e198ced54c556a71a57
fc25a907e926262bd4e50946ee456490
fc25a925e4d483bc582f08846bc648e9
fc25a9475235bbc7fb86c3d8313f4939
fc25aa177b29768709a8e5197778c830
fc25aa480303da2f259a8594e123272c
fc25abd2665feb20f3f77f34b9ad1f42
fc25ac7f80b46c0152ee96fd14a38529
fc25aceab171ed9967e7a9aecc1516b6
fc25ad9e8fa1d7b94ae448739893f542
fc25ae3057dfcc4fdce6e634e9ef32a5
fc25ae3b2d2aea0c31e99607683d7400
fc25af4ec6db08530ea0da3d506b0afd
fc25afabfff667d17030c19fb01e9ef5
fc25b02da5e05435c555f5b6180e1f7b
fc25b14cb2eb13417d30a5aa3d28d029
fc25b21e11bc565f57328b538060c221
fc25b63b28ebfdeafe9a24ed0d9a32fe
fc25b6abd7ae22167d5dd1e192aa1403
fc25b7a4d04faf81fb961a1d6bc08747
fc25b803d736b048eb669c451e94d053
fc25b835c0af1f4092c521cbf930c9f4
fc25b8b82a97d43bc71968902bc487fd
fc25b9439a7f2c2e30417465a4fe9ecc
fc25b99f69e04bd96d93d0e4b933f3e4
fc25bbb5ee416a5a4cdb1b1790442e59
fc25bcb9ae5339301e4349b8b9991071
fc25bcec9c8ff158ab7addb46f001bcc
fc25bdfafe035afa950bd4d3ae49745b
fc25c0b6e13d900f8713b0fe1575b68d
fc25c0fff35b645481ebd66a4d815627
fc25c19618c33a737e3efcb095688763
fc25c1d3eb6b990197155c2c5a7754f9
fc25c1f994d0f26c16e202add34106b7
fc25c1ff1e56ac988a7d637f9b203e20
fc25c200662dd73f920e45fda644b3c0
fc25c20f858100ae2b2773e4e63738a6
fc25c21aeb34b8044a50b705a7f3196c
fc25c277c9fb96c273737771f69412aa
fc25c2796e6d86cf7b7e532f16d74bc4
fc25c34cd58148e2d916b3591531baad
fc25c5d1e8ae53eaf25ceed1bbaf36b1
fc25c695d78b7c37bc0bf1bd06cddefa
fc25c70f8aa35b314374c45262c85d97
fc25c78856e27c4b3aefd7eb453f2b2a
fc25c825b54420ac04fbc61133abda33
fc25ca7566db50b36755f04e56ef97e1
fc25cbe4f3cc2732acad4d9db767ac45
fc25ccd538d35c888fab2ca3b6f14eda
fc25cdac70aa09b10458992b9de84294
fc25ce97f82a4e5faf31477c523d9b13
fc25cefbd30c9442d565b75eb8cd7150
fc25cf0e553342d5ae9e76a4ce68854e
fc25cf38f3f5dc944fa8fe398d6c3496
fc25cf85daa8be5e7112894f1b8d4f8b
fc25cfbfe43c1a867cf62de6db850265
fc25d14d3b9c0bf4522ef88e34fa75ca
fc25d1f02942de9d0838dbf31b8283f0
fc25d2fbe2b998e8b2548be0646b19eb
fc25d3524724dddcec7f6d696c62f2ee
fc25d3e5011b0b4cc788045a1dede0fe
fc25d4139a15c73c49600edd5d7f4980
fc25d41db252580e196887b143dfde9b
fc25d48cbf5c07194802447b554be97a
fc25d59c2463c3df75de131c0a0cc479
fc25d63faf03fa7bd8cb8cd22e3ea9db
fc25d6835d2530f6b8f97904bcbc26d8
fc25d692498ebc086de5c66e2b11d493
fc25d766601a95d5726d6e9362325431
fc25d77d15cd9ee4559de238f4127ff6
fc25d7b18ad1332fa55bd5f884d29a66
fc25d965e843c77b982fb5216b533545
fc25d9d728f84362ca13ea7533b034b1
fc25dabdfff3b6f248907fdffa869e81
fc25dace9a47fb4a21332f6f4b23e14d
fc25dbc46d8fd31c8d3314af2846ca58
fc25dbcdc63f82f1896bbf8d70040dc0
fc25dc535c7b633be60a59e699813cc3
fc25dc9c80fb681337408536c55abd02
fc25dd9211ced9aeb19125980143c161
fc25de2b1351883ab3a7beb66ea7a5d9
fc25df9b21df15ea503897a52acbe351
fc25e01fe9e1f52b997b44b567f8b59b
fc25e08cad80b7b65bbc3d32bd9ed709
fc25e26f1d2ba5f4832becea7e624bec
fc25e2889a5e88eec88cfc1a0402a8ef
fc25e2ad28553395565a281dccf4fca0
fc25e4de301debfb134b96c9c90cdcdf
fc25e4f42de1062cd59fd50eb9187c37
fc25e53776930743af0c5af0fc21a8da
fc25e719462edb8ae7491b9bae27c17c
fc25e7ebc6678bd70226beadffa05789
fc25e8841aaadab9e20dbdcbee776051
fc25e8a9f52cb2ff1c5f34db4222e981
fc25e8daef1dccfdaa9eab2b4ade5851
fc25e9197aefc1a2ce3daba739b86b5c
fc25e982c34157d2316529fbd0edcfb8
fc25e9aa7b0703e0c7ea652c32aebf64
fc25e9df96a6423eab83e0d7435c9091
fc25ea66e822968f283fcecc56cbe27f
fc25eb16d1485f734f4c87cfe67b7646
fc25ebe1baa42fdfa20bf3cba71877b6
fc25ec90ac6dfb0242bec007073e3bc0
fc25ec96529c95ac548bc8b17f78ba4e
fc25eca58d1a4e572d01352771eca056
fc25ed13926bd8f81c8f13792ae9e5f0
fc25ed3dcd7f5d4f75dd3144625fd731
fc25eda6c55bbc7c3784e411334597b1
fc25eeca9be6c32e0d31064fad5b143d
fc25ef0b4cf44895b9d05d6773e9be49
fc25ef3fe396fcb7419d64a71cfba137
fc25eff177573631c354ce68771bdaa1
fc25f0ddc6e8c296750db6c5ffb10c57
fc25f14f9ff83f826e0ec4fcaeedb8ab
fc25f161d2c74a1323f0b26c7cf66be2
fc25f2875c73dc4b5d31ca013fbbe0e5
fc25f378b325aecce646d301fa577e0b
fc25f40c2a556eae642e84106a92f08b
fc25f451e2186d0e36fb84f63d60b75a
fc25f4c2813069e1472569a57e7a9760
fc25f4fdbe6a2fb45d5613ac0e174ba9
fc25f54e1d912f3b0dc92c1dd23f0e92
fc25f553c7830b4d35a1d343d194900d
fc25f57f95d48f9e8d85c5612c69a6af
fc25f6b6234eec9561f358adcfc66bb2
fc25f7892b9ed37d8553cdfd75ab630f
fc25f7983c8998e573475fdb41e2da4d
fc25f7e2c2a400a235ebdf910057e517
fc25f8303279f922d018c2cd9c8276f3
fc25f84a51823d90a0f0afb4ec189fe3
fc25f890ea0fe347ee90dc3cac6e0032
fc25f97e346d5fc41befd840daafabd8
fc25f9ceb6d873955d556a992a5d1614
fc25fa02e0137ba2ed1eaa247f77ad5c
fc25fa6fc0c13331d84338e48f77abc0
fc25fa89a789feb7257b87ffe5949c21
fc25facc0deaec5947a4ca89231d4543
fc25fba46eae2264f66861113d2f13df
fc25fbc7c2d67d92a67f8380c2eaf0ee
fc25fbd3dff2f94ec3f5da81602e7355
fc25fcd658e06ae2e9e9285acd24968d
fc25fd317cac450d7705279055a35c0c
fc25fe8afefcf3d8c83ad45a2429785d
fc2600abf1ebbe62633ed39925605f72
fc260288a66f4553476e54ea78995b22
fc2602c82683fe078258c5416b224800
fc2604a30091ad9c05da53b43cdfc0f0
fc26059c3d000168cfe33ffff5d8d48d
fc260674e2f854ebbd6ba4486c99fb08
fc26074c1caa38aa93fdd077028fa42c
fc2607c9e22d80c5cc78e21f26f436e6
fc2607f865bcb304868ed48020df925d
fc2608c223997f1ea5dffdf7b92bbff3
fc26095c16602f7c5e9597ca7152c566
fc2609d166d3bd6323025d25f3a0a57b
fc2609fde49d8950585b95b80458f2f7
fc260a23d8a7fd62a845ef4c06cf0130
fc260a532892d033ac97cd7346f6f266
fc260aa63a5e3581c4271bd31ddd48f3
fc260b6aaf219ae6b57437fbc9e977c0
fc260bee2d08a9f57783d1a34f9465df
fc260d68e7736bd8ed521611c4154560
fc260d9a207d10101e31f05057eefa9a
fc260dcae49ad1f7197ee77eff586ea4
fc260dfa9f5afc23c12232852f4e91ce
fc260e4803d3f211c10697dc6c182a88
fc260eeac0bc8304aa2c7fd53ac51d00
fc260fa7470f7c76708f2005ddaa7257
fc260fe451a17823fb5fca5ec83b5e7f
fc26102aa4e1675a00d60156d9a8ef4e
fc26105a9defaae46101a2ed2ea371f8
fc2610cebbc8c493228895bbd51d17f3
fc2611a6462b3cf213516b37eea831c3
fc26124be2bd6d47b265513e89911d0c
fc2612c54a33c478ff110b4c77d0b661
fc2612fc732233a190e9504c5d437b82
fc26135281d4341146d622294690c995
fc26137331b4196d4032b3afc0aae847
fc261438b539534078a21385c679e7c9
fc2614c9d295506d37554e9266f5eae0
fc2614cf391f23b23c9dd5979f9eb9e0
fc26151441f7c108b0da255d2feba9b4
fc261555b06ae53546879680cc390cde
fc2615831d66f3f62583efe4e8b1e70f
fc26159db899f7ea4199804edd3c2b5e
fc2615b52a957b8a886c7ddd497fda93
fc2615c03c587643e9fcfb8a9774d011
fc2616186d8d4f1209e4172b95cf6453
fc2616740e5817b9d10c8c5cfddb0716
fc2616b19ea6f9351e9bf23ee255c44d
fc26171c0a1e78c988e8b2791c1d27e0
fc2617e3534fd1e383cebcf4f253d27d
fc2618e56d80eb1958303e662721ab10
fc26191636a360ca6ce1bd0709b3b76f
fc261a001eb3f0cfeb2df6235b60c038
fc261a39893525771140cdd32bf5282e
fc261b96afdcbe01362e4db9f9465278
fc261b9f911da27803f65f5324290a54
fc261c8fcb23509ec080e3aee8400693
fc261dc2024eb18915d091353d58a3c8
fc261ed2b8cf80d93bf0dc6ebab5382d
fc261f1b1e6fe087a9a5a318fb50138f
fc261f531330b6451fb7962579b682fc
fc261fcf176890bc0ddc90757a23d8fa
fc2620b36b479990f7c58f4ccb2551af
fc2622baf2c6e3acc8e26a6f5be467d0
fc26235a5e1b9fb75dde2a6079166b10
fc262362f7b3936b99594edd48e92722
fc2623874418aa83f80d35b5dc01c7ae
fc2623dacc4f3ff6afc2bccda8146127
fc2624df30da9669ca8818f2baf8a0bc
fc2624fc329123cf5f1ac49d165533d8
fc2625bfdb11753f74323d43b71bd273
fc26280963c5a388685f15eb6f92f983
fc26287c6a4ebc8987a7852dfd93d512
fc262922eef501143fbc65ff91684eae
fc2629c722d8d6baaebc977529afb48e
fc2629f77fab8cd1bd86c761c961c982
fc262a038e757d112c066f0276910edd
fc262adcf27eea2f7ff833dce9604bd5
fc262b6f8d360734d12c5b2a420d28b8
fc262b95a6476ad97393730159ee7913
fc262be3132810846a4f63fee3e62ae9
fc262be663418dde6dbf814a1b10b031
fc262c1459024b6e143191885a5c8780
fc262c58bec95a6025dfd0ed1bbe6c60
fc262c7914bd43d5022c6b76a676b5d1
fc262d2285588b03f74cbbdd5f25f19d
fc262efa8dc1183b0ce84ae4da4f60fe
fc262f7ca05c0055fb8aa573fe2647b0
fc262f927f6843ee6b8e8ff83357ed1d
fc26306845d021647a589436cb2925b4
fc2630e85388238372d55d9deab1c560
fc26311cd5a45b3e5fda07a89cf6153e
fc26319f9a808a4bb014d996ce1d0df5
fc2631c6b46263eb84abb4bf23f811aa
fc2631d4c55f79ba897d6488b21e54b2
fc2632e5997935cfcab6efc9627f81f1
fc263464a3dc49fcfafda4f39139aeac
fc26351a0414fe71ab47f267bb26ad7d
fc2637ad8ffb9dcb0e6654e0d5f022ef
fc2637d6957e5bd8646c831621d6640e
fc263be116885d2d5104f41b1f706880
fc263c28a75bfe46512f34bd8f56f379
fc263c56cf91d93c81e3e0f6dbf3ef2f
fc263d1419b0533f47ac5d2514181bb7
fc263f4abb920555a29f93e31d1bc8db
fc2640c68ad746baa15235360dac56a9
fc26412a5af1b83d2bbfabfff62af239
fc264132e3a68cd173258ebbd799c5f9
fc2641525b752998d11172964076ca3d
fc2641a1486a1a2a27ab5e7a48ed4f42
fc2642175cdb648628391d3cc83f9a92
fc264353970856c55614f2d8e6d1abdf
fc2645c2b0839998b96457d729f686b8
fc264694222cf5673b2cc4b02959318a
fc26470dbf04002ad497e0154db9c6c7
fc2647ad2ae271cd3e6e870ca9f10289
fc2647e7a3255e081e0ba0e40f2abdb3
fc26489c69c72faf496b970728974cd5
fc2649639b2819b462d97b5885084a69
fc2649eebcadd957831baeeb9857b2b0
fc2649f118b7d489658e72e7279ad5fb
fc264c3b39487869457cac95ed945e90
fc264c7df386ca98b7158899e346319b
fc264c92db3bffe421399f2f5c372596
fc264cbf13b58a1795d8ea9f363c60e5
fc264d690bb940b48710f96de309af78
fc264eaccf48559a561be5f10038762f
fc264f3c009ce1fb7b1f3daae925da95
fc264f6054a142de9f2bd57e7d93e752
fc264fa93bcf479c255be0906791ef56
fc264ff081a64bca6f05ae5b324d2df8
fc26513d58ae2ad34825aa501d36ffeb
fc2651cacc4d4bd458d497e9c05a976a
fc26529ffda220120375983f31cc0b2e
fc2652ea93b0dc566b86415bbdb0c17e
fc265475f38780c7cb3f258f26f7fe8b
fc2655199ae8fe39c8cac4ef5b7a7cc3
fc265576b87d3a9467a58b332032147d
fc2656852ab1897e42df2859b6986922
fc26568bb9006dc127666f64ab53768a
fc265742f9eef302691a463cf4517390
fc265762d06dbb19e4e5232c10009083
fc26577631a68743299e297682a822ee
fc2657cea68ef72b727423842268a04d
fc265a932c87e15853aa96d201299362
fc265c4e18331c8e7ddc8c0d562db042
fc265d2f6fda57d97e6451092a1803ea
fc265d350268add24045390d9b780850
fc265d92b4320b9590960e2b6d7dd123
fc26616deeb73a8fca1879fa07819798
fc2661d012c1ad1c25d0d49244db1ba2
fc2662cfc68c2eeebc0f0450225385aa
fc266337e04a76097676599130968944
fc26638e952137a5b07b98f56e3de96c
fc2663fe7080a9d2789de94cbb1e1480
fc2664bb3823959110a34089d572cfe8
fc2664ec8ba43753a40603aa9163fe6d
fc2665689a462ec91237b5b0a94800ca
fc2665972a6d925717476185a1e0e1b8
fc2665a1eb373c0a13f403e63a0af5e9
fc2666e0bbf6ee7d4273728968c69588
fc26674fa809c5e1da707f5c0017de65
fc2667b8f52e507e51aa28a8e5b10486
fc2668bd597e07c0d4af9d213e697860
fc266976f53b2aa482026dec3a0702d3
fc2669f04a904ce612b7df71dba0f1aa
fc266b1b390ba9a3e5a9869ab3f53cf6
fc266b6660e137d0a05fbdf252214d3d
fc266bbb5b56b7ad8a42f9e81d86587c
fc266c6387ac3cfb3544cb6e9f365e95
fc266c89bfbbc78ec2047502e8898ec3
fc266d8754e0f1a41a409b3b4fa98d32
fc266e34bad6fb650995f54b179ce63d
fc266ee38df2f18d95d49bac55e03a0c
fc266ef7678fca2da16b870b4245f11e
fc26719eafdf2e2e1178c4c654a28fb8
fc2671d62df345f3312d4b948660e441
fc2671f572f0cbcc85d395a3d7921eee
fc26726aab0258a589878d63a622e12b
fc267290fc5ddbc4f1c7d6c921a086cd
fc2672d9b97e497b37378789770434a3
fc26741b14910922f42381989101fc98
fc26743afcca02153cd06114dafba220
fc26746823fdb74639ffda6635ad2a1a
fc2674a8480efba46e7cb718dedefaa5
fc2674aad492d3982133d9f884bc8d4e
fc2674ce479411d92010d6a8067c4b64
fc267559b95bce51a327c6a55995c517
fc26765737daa29fa9987d7996c7d6cc
fc26776df4f4994e6fecf76d6d462997
fc2677a086f677c8e171cd18543a3095
fc26788ac61a5d7af57bee35dafc09a9
fc2679ed30dd8a2a3f374b7ea7eb3d11
fc2679f12d0f78b30d9403efbea9b64f
fc267a7f15626ff995f17f291bf12187
fc267b384375723e3171959ff8654e88
fc267c4bddf5a49cfc6a4bf616c3fde5
fc267d316edc9690e8919d451b7b3c91
fc267e9b62358962a3ccec9f66f99861
fc267f03fd48cc2033702ffd1d20b970
fc2680377d9970d5c65ac7ee1c6c305e
fc26808e295ae25e67bc845e12f7deab
fc268095203d893b6142f97ce805a29c
fc2680b6f4d6c30fa4040e1e7552e003
fc2681519b3943b30c221540d7a26c88
fc2681be1b0ef521cd9d31abd982f9f2
fc2681ebdd94a735fe74a8739e14dfc7
fc26824127d5e7944c93a90faf4c5ae7
fc26829ad6f4eae933b09d1d1f6694ad
fc2682a8b0bc5eefbc5b5a40de6e1f47
fc26844830cd1ad67c41914135fcc33a
fc2684a50f95b01c8fa568b319dbdc39
fc2684ab1fd696d8fccaf3f8a0ca8ab9
fc268622d86db171b63e36c8f9460d9b
fc2686eac65e63932ce0092da4137762
fc26872fb876d343f7c74c10e0cbd0f2
fc268758db414b39e2bd5f43c1503694
fc26878fa7f4682d6633b40f6c0131b0
fc26879930dd6fff4f4a4a173f794d9b
fc26882596e4e6da480450cfb63a1e67
fc26887da9275f45082737679fc64863
fc26887ea8c7996ecfb7a4887c8e1c62
fc2688b1ae85b5b18edfbff704cb0165
fc2688f7fd4b3b19f9bc216d9465fc57
fc268a8a99de812796ce008e8469cd0c
fc268a9cc96fc2411a200549d31fad27
fc268ad1ff9fa5b7b041eca193a2285e
fc268c1116a635a42903034761e7a9ad
fc268cb75ba9b77a06782a7c87048743
fc268ccddaba56b1adfe6701e78def80
fc268d7b533bb9bda6f9880ef6b18c62
fc268def9c4e98af1c45a16fd584ca6d
fc268ebbe6d79ce0e6fe0fcf41c1460f
fc268f082de2575b21c3bdfe281dba80
fc268f7b9021d9e808309a96f659e626
fc268fabc5b9a9aaeb73fa1f7297c379
fc269023a3719def5a61d234a28c1fb5
fc2691413c5b2f6e341fd5b43933f086
fc2691eb62c7091752590d107142f514
fc26926576497fb2d3d31e6e4d1dcb2d
fc2694fa7c4b924b11984e12a7d5cee0
fc2696370bd1bfdd3f9ddbb05af76656
fc26963a18103aa097eb1b5b16f55b48
fc2696f929accabcacf1890619f6f346
fc2697e09ce0d939f29170ace7795cd5
fc2698a34ffe5bfa4e9ad342eabca5be
fc26990e57929e3b3e1f3331e2267632
fc26993363f2f06b1da049b510887151
fc26993cfee4cb1527ffcdaabb70c290
fc269c8c3fb650ed6202568b52f9f007
fc269c95ed4c550df3e53ff92b570a59
fc269cc0a138639cd51fdafefc23a4d9
fc269d1432e772d12252477a4b727bad
fc269d65411cddec16e0d5d85e2555d4
fc269e597f55bd6f0fe2bfae0e0cf018
fc269e8c788bdf4e9537b24fe80a31ee
fc269f6f3b9910df713fe8031a35897f
fc26a01ec6ead84680505e3cf22252e5
fc26a0660f34509a4968bde44d857e3f
fc26a090ec2c11392f5624df40c1a7e3
fc26a093cb2d80ea00cbba2218d42fc5
fc26a2805582d6b4ff658103fcff7e5d
fc26a2c14946d50e5e270c00551b3644
fc26a3cc8fa2b87ae27a50d855ebc953
fc26a3dd696b6ef52d0dd832ce539814
fc26a4abc202c52b311efa7bc68fc4f0
fc26a511813d47714c89763a988771c7
fc26a74a45b90758359e2e50ac613449
fc26a848fe1c61421778658ee9b23237
fc26a89b44687a0329994d55c12acf1f
fc26a8bf47763f3b23c4b52c2d7891eb
fc26a91378f0cabf9e5aa4f180769ce8
fc26a9160c8f1a6ed5bf35cc33782cf0
fc26a98f6ed5fe7990b80abc6cb48480
fc26aa82dacc662935a7f72eac218f00
fc26aa87882e7940fdab5694af7c4188
fc26ab849476ea85b12a8842df5b2d60
fc26aba635001d0c165ed5de566982c7
fc26ad2b751cd55cbb515235cec2a335
fc26ad694c1a0f94f442dccb12bd47e3
fc26adaaa60efb9c6954d3e4c74033b1
fc26af10f075410a4f418d09883e672c
fc26af7d980994c62b62c6ac9518b104
fc26afe3b7439007dec95ce9a4951012
fc26b0490a158e5eff1117a98c91469a
fc26b10f2045eebc73e00ab75028504c
fc26b11784bd18473ab9f49b29980640
fc26b2e8376c65be6a4d90fe55e49b70
fc26b45570736b77853020fef4a00e83
fc26b49cbb722b2c79167851ea284fdd
fc26b50137cf302ecb6c4e310adec18d
fc26b510104134a8a925a23cb9a7a56e
fc26b52e08aaf3cd955235b2f577dc60
fc26b55e17ec88df9a94b2cbddc90bbb
fc26b6f83d4c0764d6d67f2c90decb1a
fc26b751eb707e49fe8c712143fbba70
fc26b7a4a14bca197884d3f52edc2b8e
fc26b98c69f21f378a559f79f3f69d56
fc26b9b56071aae657e860c24921017b
fc26ba1876d3efc79933ab2b399d3ce4
fc26ba31d389e2472d9f5966ce905738
fc26ba90a8ae1a025acf545da7fcbaaf
fc26bade863124793cc04e61ab9b4713
fc26bbd2c536b7ee6e9ee4033bc1636f
fc26bd16bc238cfb36ed8b01b71abd2d
fc26bdee0bf81d5a222f5497df0a08c6
fc26be0842d4a4b17d29210c63398cab
fc26be5f9aa89c657e876b3576236057
fc26bed2b47bfc5561b6ca2b4ee6120c
fc26c0835fc0c1acca014e7f0fe266d1
fc26c1753f2f46b0c7ba5302271324da
fc26c18a0277097fce5e933d238522a9
fc26c19a0a7095e9b9104bf5a2459af4
fc26c1ad895b9257644f20ed52baa730
fc26c307e6d0824c19b3dc2875a13276
fc26c4754107cf2d117c6846c89c2ab0
fc26c4cbd51d777bce82fe7c69209d01
fc26c504586642be6359fda487fadad7
fc26c5bc4e8a5ea9e4b1e2ca9a9c3dcc
fc26c63798fc13a499b3d894e6745120
fc26c6a9c612cd0974a6615ff9d842a3
fc26c8ba48aecff734c12c6da7712641
fc26c8dbf055e7d9dde630a19103e1d2
fc26ca25ad7da86d16f42cfb91f1e56e
fc26ca2753dc7dc6cbaaa87fc4935ebb
fc26ca7d91a09ef9d200d825bfde9998
fc26cb64123e235a057e803e534bfa2b
fc26cd513091d41f87b6c94d9c8dac00
fc26cd741c21b31c5ff19e0260270eff
fc26ceeedf8b1c7c920ad8c40b562bbf
fc26cf58af0d1ac977a32da18c04ff8e
fc26d029c5070c45a430c440c8cd4fac
fc26d04c27c19c90f6fdf4985f091a10
fc26d0d3b62c6021e3c2cc2a99ef330b
fc26d1b45aeb2d925a7761b4839d8e12
fc26d261daea798e140e5433c5f1369f
fc26d2c4adbcf395473debec8a5a3760
fc26d495016d235ab3a80a59f098e15c
fc26d4d69b50847934b269bf64edc28d
fc26d4f72c04aa888a79903ed3338eb0
fc26d5219457dc1d596da7aa4563ce88
fc26d5a06ac9889bee6e8160dc4280e1
