fc30003f909ef59082e30b20bb852aff
fc3000e348bf1c73e9d8a750bfa1a612
fc300431274ed6316f2495549317f44f
fc30049cae2d9ec5f9d4bffe040de9a5
fc300547364debdcd1f223aeff9947a5
fc30059b97ef7596db0eb5e8d368ec7e
fc3005db48d243daf050d3cd27405220
fc3005f87bdd58989589c9cfac97fb18
fc3006236f6f0b82cc7bf7a80d9e10d0
fc3007340c82287daeccb5fc3e7da2c0
fc3007b7a34d7bab1596b6a828839b33
fc3008939d9ffa74b0541675b7002e8f
fc300a7a4ca81eebfe529ade211aad81
fc300bafa7f46ab96a2cb7fc42c6d12c
fc300d3daf418a8c740250c72516e3fd
fc300d48a5c205c4b74374423c1b71e4
fc300d54eae2f55057d1c363e03c70d9
fc300de2da0548de21e82ca6dec36a96
fc300e031ec6132b45cfc48a6a2929bc
fc300f6527140616fd3bf7461c56f2cc
fc300ff4b71e85485d47f851390129a0
fc3010a1f5c7e16d633d7658e24d4d2b
fc3011229a21e491d3705fd914051d1a
fc301258db9923bb1194b62584b3cdc4
fc30131f26dc7c5be9fbae40b2b7d2eb
fc30139ff2ad1aaaba0107c670858d3b
fc3014ba2ced138bc7e8028af1bd031f
fc3014e71740e5e1ccb59ae192fe9b15
fc30158717d7bc54b06e1d203d279305
fc30171b22f84fadd32e6429077f7782
fc3017c0585c0903c36fb1809c2e8404
fc3017cd128305aed4d1e45990865fd7
fc3018c23088c89a16f781bda1300504
fc301935d4d03e579999094ad49bf544
fc301b4b6e9014eb42d9e32cb66fab41
fc301db81970c5cf912add6aeb4cceb3
fc301f0730d2457dd095adeb7ce9399b
fc301f3401d5af2e86083ae88a116bf5
fc301f5ec3262f0e36faf0ff27127919
fc3021e3f4503c662f205754d7de6316
fc3022e813b904095d62a806049ca6c6
fc302357645a0c33e23182c8c280c86f
fc3023a091ea3df669caf7973dd1c816
fc302547be43fee98532a0be7f7fbf2f
fc302578fc04687169fa9aa94dfe3b70
fc3025cf712b7aadd8dc864059d35ce0
fc3026533711f8a3d2bb36f057aaf78d
fc30265b48e1be12806d543ed3383d63
fc3026a793d27dd29854ae9d45e1e610
fc30270c1b7767ce469c7514136a27a3
fc30270d57523dcfb386b9d75b80cb53
fc302859e689435dace25cb12688d955
fc30285ceffe0f601cf054fda726aff8
fc302922c6c2370d3d2880ea3d579165
fc30293afb0c6455a9d9de574e8fdafa
fc302b550d02b503283ba2f56b2707c5
fc302bdbc334173e3573419e48a415d7
fc302bdbdf89b04c69d6861c820f52e5
fc302c3d4941b925bb5ea0e80861e392
fc302d30db7e1aed8dc246e2a6ee34fa
fc302d3b142555c61c42cbafdddac800
fc302de22eb0709202850913859f870f
fc302ec7bfb21026d6752070e15c991b
fc302efd4b114c0e5ad86b01c10cc407
fc302fc7e2bcb819fa92e311086605cd
fc3031f6bf0fcac62ff9e0efe0ab95b7
fc3032a48828140505fe48998fe0f615
fc3032ee94886258696318f68fc886b4
fc30334aaf4cd891ab1a095a082d5d37
fc3033ea9f304c7f2b0ec640119b3518
fc3034272a9266e0d255be158e5f7b51
fc303536838d6f761e0ae5e0a483395b
fc303553972eef943bd556c4f2bb22be
fc3035a61a1eae7c8bbff46ddafa1a9c
fc3036a2084cad80dd93f95e9e18562a
fc3037b09f3d26c0b51946d742c45695
fc303809ab47f0ac7aa76a2c201f10a7
fc30391d278b42c038c6b51b81218bfa
fc303a4e75bac3cf35f76baef273d882
fc303abd3614eadcdc326374b2f8f91b
fc303b5ee00b148cdcffaf3b10b8d590
fc303c085ea7c766d07b390669817c10
fc303c2af5ca2b9ab06b586d0e75ae7f
fc303c50549576110e3310feba160e70
fc303c6a51d9dccc0e4289ebc1aad328
fc303d1ade032f759e3d670d938f6af0
fc303d76d67d64ce7a1764e32609faae
fc303db82b30b7a236ae191e0ed6310f
fc30410f29adfed4e41fa6715c1779c1
fc304127f38b8c4e6d121a957e9c7f5f
fc3041465a3c9b1134b9ffc7a469f033
fc3042533ee6fa7f75c85ae25c7c17c1
fc304272bd9980b63046aedf1db14066
fc304298d12cdbed2c8a072dd47eb3f2
fc3043ccd9c5edd79b3cd8f4d131c2f6
fc30445334e6f43724c4a9ead5f32386
fc30448d2c1676b411ba37a3ab0fb873
fc3044e12376659e367489719a2037f5
fc30450ab94dafbb8e29361a46657178
fc30452762b48cf9cf507ab5c61246dc
fc3045408d7d634301272405e20582ae
fc30474ed3f2c7a8a95e6980cf118f67
fc3047b1459511db85f21b97126b22d0
fc3047f3922cbaa426a6ad3d367162c3
fc3048ee43d61b2b4682539980e20056
fc304935fcd0f023d4533cf5f0b7dd9e
fc3049fc2691f5bab18c0ac637fa9e8e
fc304a14226321daf305708d3ffb11d7
fc304a79d2a52a5bb57def28f4664ae0
fc304af2205bd0d73cbbf37b124e1f95
fc304b3c6bb844131e87fda4011e1c49
fc304c4dc834a5dae0b3699bd01b1997
fc304c8e35e9bf4860c3993a8d355eee
fc304ca1e553d83b17d703f45045bfa0
fc304d2f7cfef212843fc10038bce483
fc304d4ab2904d65673f94abed949acc
fc304e2e81a5275b8f6b36d853c5c240
fc304ed04de7867617403fed798695e1
fc304ed994eb71fbdae0e2cc86f0c0c1
fc304ef0fbfb902f057c786722abb691
fc304f628525974ee8455c12fca640d2
fc3051306791d44579d72916993d162a
fc3052611abe2fc9dbf1cacc433e65c7
fc305360fd41c78c9ee0bca303717250
fc3054f93359560154c1a5c038f720e2
fc3055386cd76d034e23593f204afe33
fc30556295000449534102ec452aeecd
fc3055e84fa00daf1f333af9f56a4a6f
fc30566fdc011b2c07c01383f0246c6d
fc30578aba6019bfa888dc96157207a6
fc3057e0debe8fc48d4cd9076873cbe9
fc30584d72a55dc7ab45ecdbe3fa7781
fc30587fda793b635a3d81f7927ee413
fc30591fef3de8ad05cd156d0c17d45d
fc30599914f8279eb0372c6a582616b0
fc3059d5918be46b2e714d1087af2fac
fc305a2ba8ca3d9571449ce55ffb5562
fc305a414d5cb669eacefb02bbbd7d5b
fc305aa0ff58d28144fea8ffeb6385cf
fc305bb1e9037032ae196b328e6c4553
fc305c298dbedbcbc470dad8f9115fff
fc305cce51c3f374239d2fa2427d9326
fc305d87555270bf4c679922e79c68c8
fc305dfd240870fef283f80e1460b14c
fc305e14aa74ea3db885599ed891bd7c
fc305f29ff75cb3ddec044138a203114
fc305fa7ea16d24fd36bb89053b8460e
fc30602c297effb67940c040c6e74ef6
fc30604a375dab741e5b4f67cc8d5ed8
fc3060e382689849ddf454400eaaa80a
fc3062b234329be5e04f3817b4500eee
fc30631d5559eb1f61aa199602ca9bf0
fc3063bb0caf1b5d376dde89be41ba91
fc3063fee47d9c849d632dcd1941d16b
fc3064bce00bc6a4fdcade51171fedb9
fc3066401116b86fac0a2862eecb1e19
fc3066b0c398fe51a7cad98dde429606
fc3067f9793924b791c77e61bacf0061
fc3068fd1f2b9cfad3c1be18cb1fde83
fc306907540925de1032e0fda53c0aff
fc30696b1fd13d10a896a5b6efdb55d4
fc30696d7d670b754129b0f15c0ac537
fc3069c24f524a461006a2d0c7a52980
fc306a96ca5a878dfe0299770584abeb
fc306c1c81cf11ebb720853a18a6dae2
fc306c40caaa8bd20bee99f52e683b76
fc306d295fd27b26a08425e7c997bac6
fc306e8499e43560fc028aa620e48f7e
fc306e922b5529a8acf02af9022ec07c
fc306f076ded4570cc466758d2826990
fc306f398131c6397d6996da31944c4d
fc306f4010d9d76ad0a5c8d97291812f
fc30700094c6aca9234224e263fee409
fc307093c5ac5540d602826e680d8d5f
fc307162a000fd1c89b8fe8dbd267092
fc30718e9107c15b16c345eda1ae0525
fc3072217aea32eecb460e13060cd4e2
fc307224cc131ac8d3f0d59b447b2920
fc3072b0640869949e268c5e92b0fd5f
fc3074e0bfad4d53a9e88d8818268f0b
fc3075430c77b20116d658a62fa913d0
fc3076b5aca5a87e9f03b5ae0f6f0f1f
fc307715731aa2b56eec7f2fe53f855d
fc30772fe79ada306b39300c7fd6e690
fc3077955a17adf685c7fc6633024c20
fc30779eb971e2a7a5f60d750f21c35f
fc3077b7c6eb0c97da3cc1d9c51d1f89
fc30790b6c614cb150a252876f76d6e8
fc30798855c0aef3082f1b0d3a643eb1
fc307b129371d3b7ded521ceb27b043c
fc307b9b3b84eeb3cc3903e0c889724b
fc307ce8bac294492d77a405bbb790ad
fc307db65dd2d1030d88f07dc1bba0e0
fc307db6981a10c2ad86c4078f3d1c00
fc307e2277a7f243051d80e4719d9155
fc307eaba34ffbe84ef233529d643aff
fc307ebc75e2aceba25cb401e6453680
fc30806c443def49b5093b007ec271e8
fc3080e81cbe27ee205d0d242d1923ff
fc30810b7b9a014d291adde3e35b0e32
fc3081ced69995fec986eb64a183044c
fc3081e7f99aa480ef38e852c133b1d0
fc3082127d6bd8e6b39684b7d923e280
fc30844e7180e3aa4bf9baa54418542f
fc30847bcc7b1d922ecd41fe25bde558
fc30855b92f9e9e2dafe3248f4f7f32b
fc308586f99b50fcaa7844ea750f1806
fc3089421f838a4a696762fddb916779
fc30895719119fa245c443642d8dfbf0
fc3089cb02552a55f99291b7407ec403
fc308a2da6e9f473747cca193628110b
fc308b87a79e078760861f9f3aee7efd
fc308ba599a635887b70fc77ca8bc6f1
fc308bd6afe03f4a322fae7b4bd36c21
fc308c726a7a6c6626749125c4e91c30
fc308c9f2dd6d3b3f865e70a0cce5206
fc308d0222b88ae5a47466f981ab18e9
fc308d3e2244e76f26b4e153a5fbd5ad
fc308df3ed1fad65d82926b8f5744a30
fc308e57b24e93cb21893e19ca312e0e
fc308e63e0c73f98a08b87793d1b2d9a
fc308e957a9139a680e22031ce94672a
fc308eec97c5d662d1530af3b8ac7a34
fc308f62d84b1bf83f0ffb00aef1aa4d
fc308f6f0fb46676b6c77e6c342a5444
fc308f8adfa5bdf729b83078f3320e0a
fc308fc19ed78aa996b6a428189df8e2
fc309027386337b11353454cceb14a57
fc30905857d51f5a251c0f8ea1dd2207
fc30909ab973bcf6fe1c37ff12c5165e
fc30914b0472121a3799c1dd6bb003de
fc3092c1abeaf3725f99884ff26ccc91
fc309526fc8e7d5ed1e6c3c210d60a5c
fc309578e38a7be3c7db4e0ab4bbf036
fc3096a99aaca5191f4114dbcf20da72
fc3097a262fc7e899b5038995c9a6130
fc30981c86d910c50c898e2e5e76ad0a
fc3098b2748eee85ea04453d2cb5fde3
fc3098eb104b2384694e12b45312f3ac
fc309944c78241badfe177dec734cd88
fc3099a7dd4534fc28b6261257a72ef3
fc309a16d1b4337a18ebc8cd78ac7c06
fc309b073a867f19f4c604e04d07cafb
fc309b2e81eca8d2d468377eda11374a
fc309cb2f4060f1e5ff0ddeb95fef64d
fc309cfbf25401f160dbbc428b9c5010
fc309d272800dd12c99f2d67ea4c4b1a
fc309d63cad79d16d8a9962a4d9f2143
fc309dbc022093584c4912b2f38f4763
fc309df91310d1113f011c5b482db20e
fc309f2dc0f3ab993cb360a5e50153ae
fc309fdb5903cce3a1e8a80412d51132
fc30a07c597feb7377e9c79a8b92ff5c
fc30a0ea545a96091a50ba4a385692d3
fc30a14e6a5b4b442030bb8758810149
fc30a21a6b2a2d7c76133d2fb3d8a09c
fc30a23847c0ea1e09cae51c13b65c28
fc30a31b12eb6e8dfdd62d4ccb92e57c
fc30a3353f929b70120b87258866ecc4
fc30a3fc9aaa722efab506869a38ccec
fc30a43a72c079ac1a30fc0af4e9ba72
fc30a4f646c237eece1c8e0138e154a7
fc30a5abe35fac799e478950d03f3140
fc30a6e12235f529f6d18a1ff290f293
fc30a735969faf0ab297d49b645aa1b7
fc30a75336d1de6c54c06283fdb65bd0
fc30a7aa63d388499e0136e07f24c6ca
fc30a7e10c2c1083b0c7f316ed09756b
fc30a7f29a3b8752fd043284fc6b8d5d
fc30a83047c3cc3bb8db5c51a5debeeb
fc30a8bdfbeccb534a4a7d1bdee34458
fc30ad79ed51d928cc6221f85600ef4b
fc30ad7b0b0a5a2b1aef9b8d8f27965d
fc30adaf7eb42c11a5a6d46a374a3710
fc30ae46dc4b25d928fe342385d8230b
fc30aeff7d21387ee9c7f7a6844b7c52
fc30b2198769da54a98482aef0807d11
fc30b2ff254c86572be761f8645f888e
fc30b3b9b46e8b41b33e86266af0666e
fc30b431438c6f1a890b19ad43a5ed56
fc30b4c758d177adbb57aca22e9edf19
fc30b5054f73744000bb48072115b7e9
fc30b5e038edae48867690649d4cadfa
fc30b6622382039161b1617974820344
fc30b6ea0f534957394cc3820e9db594
fc30b83927a96700915056ca1ab73dbb
fc30b83e926bbfdab0d6e3f62fe3ac0b
fc30b8eb2e3256ceabf288621624f86c
fc30ba54ebf912e5e37dfd0d49ba4a9a
fc30bace33519db60a56214e808844f0
fc30bb7bc5c9723f2246ce3a070c4ac8
fc30bcd6f354d5ccd1edccd2f6f191ef
fc30bce408794d05424eb33e95b084e0
fc30bdfd0aba4b9bb7ac26f3e6d3489f
fc30be47748be820f18bfc0999ef7df3
fc30be87328c1dbd6d0a3fb427d5a8c5
fc30bf19d9826f9521a5211d35cead80
fc30bf48000002aeca9c26fed08f7b2c
fc30bf5b43883bdf87e3560cbefa2691
fc30bf5fb35b6f3c7307159c5bd03f39
fc30c0d4edf84b3b3e8589ea16b27df5
fc30c2c06bcf6eb85a67f44911c1261c
fc30c466fef9d79bccf8eab67ca56aa0
fc30c4c9f541c64363af06702c244b01
fc30c5172e99f460be784ebff333b3a5
fc30c54845206de4cab6937484ba0ccf
fc30c75497b527a5de1b91f7e1f4f447
fc30c802361d08887a706b99ca86b632
fc30c8a625a735ee3dd2ec55620dc3ae
fc30c946b2dc2a0c1608b440b2097bec
fc30c98cb2326c5abbdc0a6829af83fb
fc30c9e0d35cb084234792244f8084b6
fc30c9fcddd74f2f2a5aec6d6d77e2ce
fc30ca2bca79d81d3cefefef031520c7
fc30cbb82400061255fad40f7cc8b81b
fc30ce3559afc6a29c2737b6a11cbcf3
fc30cebad090c940d6e319a553daffe7
fc30cec1d3220ac639ae661e655a5822
fc30cedb4d5d3b828293456204146ce8
fc30cf56415d600bfb769e28e0b9d1df
fc30cf8d52e4545155fa8ef55d3b3952
fc30cfd878d8df126374c80f172b0942
fc30d001d882d804ce14fcaf0841012d
fc30d1afe7b46ca6139edf2ba1309d34
fc30d2423ac49b018ad82f585e563163
fc30d2d993917e6d9f6104e1206b14ca
fc30d343bada8a696c20e9816a55f9b1
fc30d3462d0c9f8ec455ede04022a4cb
fc30d34e6492a60af4e0d31cb9202102
fc30d3a2d1dcb84ef024ea48bbfe2cdf
fc30d3b5e5e8b7b52749c7850075039f
fc30d6261868f77fdc3bad563b4018e0
fc30d6370dd6f9a0bd603c63cac659d0
fc30d68ca1dd417abb07b7672c330ca0
fc30d7023ca86af8de47692c15d89bf5
fc30d70931b2d41cbca4d4e665dac49d
fc30d7281a63891af10980f39bd96c1c
fc30d77aac71a048cbf66980c235348f
fc30d84df00117b0950d2697c7477c11
fc30d88129768ca74bb4143df67d2a0e
fc30db45eb3d4a59d077e8ac51c83b10
fc30dbbc2ce4f80c641c9ea7fa3ff8dd
fc30dc48fcfb915dbc3867fc2537551f
fc30dc92a4911004ac43aa61fe344c9d
fc30dd20f16f1476379d3f4e8dc3b11a
fc30ddcc56502d450c5c52aac205eb9e
fc30def6e84d26e9bbe9073df3321baf
fc30df0762cb986e06fffa0a98b708d5
fc30df264ef8200c247351924629c53d
fc30e0a66c5e94d424e6772489bd4fa9
fc30e106d41ff7da90fc70d2369c94b7
fc30e1545ca24d2d7f2350dc503c59c0
fc30e1a7e1cd8393b0fcc3a01900932d
fc30e22865b8579fa3a86a8c73f48eb4
fc30e2cf8586329f72ffdf27ee495530
fc30e30f83a7b2b7edc915196e4866bb
fc30e51f32892f4d53b52200d8fc9c77
fc30e54d8d02ad4a8a015c8834db8c60
fc30e5c864ce1d0da35fa6617f31dbcd
fc30e667fadc8a6123f172fc1d9adefc
fc30e7f3defe4ed66107232e01741793
fc30e7ff39a21896e2f54bcdf1a2e56c
fc30e8de0baf9768cb053d1224f94245
fc30ea7d9e53fe12c3b12d4f4712eadb
fc30eaae72f08d8cb9c46d33d2731174
fc30ead4a71b220d7d37a0e86ae14656
fc30ec6f4b66842191a9321b27319fca
fc30ecd7696dd0a749966d983d0e21b4
fc30edfeae739f54cb1285aebe15bb75
fc30ee6525b48b967e0858d303eb836b
fc30ee75d67f422cf5aacd1f5be4ab11
fc30ee91b200bf1a3b53bb3dcffaf144
fc30eec95ebf1df78cfc18b6ecbe6033
fc30eed5b8ea5197bf9c0cd48f36a68a
fc30eee7601de25cbd79f254d147784e
fc30f030d298990ab0a0866bdf6ced1f
fc30f03e2ad44a9cbf6b25a3336f1a62
fc30f1d41427e6cdd9027002b3f7a599
fc30f23ad74013be233e9d40804d1917
fc30f2598c837870e1fd1261e02a8cd2
fc30f26ab7deb65de833f39e9d08ec6e
fc30f2ccc09fe98a094b695f403c7af4
fc30f2dc0bdcde5e6a246b22ac29beaa
fc30f4cad5fa6ab06a15fc1681897b5f
fc30f6dd02464c13f842fd358ccc8f54
fc30f6f3c793250bf1216a8410aaf847
fc30f7f2a01b406989239258aca51a4b
fc30f87adfd84915ac361643a6087420
fc30f88a72a22d9424098b8e5b2fae14
fc30f8fc6d8e69cf99cd831e262e7820
fc30f9f82d7eacce452347744fa09faf
fc30fa843c62ec2375a72d4884dc8ee1
fc30fcaec1317443b07e0570d6de0ae5
fc30fd176b0213358e8b06d993fc1f80
fc30fde0feaf1109a32b9fefb8f3b559
fc30fe7cf9d7478ed1bea367e8811e84
fc30fee50da65c23f9400437c2d0808b
fc30ffa2029df6ca217dfab1dacb9296
fc30ffac592ca0ccf692652f405d3bf9
fc310037d07e134a51e6cbf66630ede9
fc3101b2c8b208313f4efb6663194fc1
fc310285ac32a4fae13e96caea276bec
fc31029d3157957ea7fae9f496bd0b87
fc3103f739510cdd2535b296b6c3af60
fc3104867ce21b5af59006d80df21cdb
fc3104e740f89b38b584135cbc030ff4
fc3106071e0de75c019e071eeef23159
fc310632a0b46f69ab7154d4aa6927fe
fc310653471349018493cceaa9f46cb7
fc310750f56ac9c52b24f01f485708ad
fc3107c9096570c57465bf332dfbe6bc
fc31081268cfce0c46a83e5f6e2d97ab
fc31088467e0a4b386f4db1d30508702
fc3108a9b1d894e9b8da00ff17cef641
fc3108d93276f322fc0b0b51200f1012
fc3109eb9dab615354db921496db547b
fc310a65ca1e3daf1d0e4a0ebd592f53
fc310a6920514e86d0cd41e1a603aceb
fc310a9f61cf952987c290bdc3ef456b
fc310ab0c44e20b0cbf8778ec34d2d20
fc310afa9033155e4b4c01807ddc9e5a
fc310ba4738578e877e1413dfff5f915
fc310bf9b7a7c493c122725a872ae44e
fc310bfdca40bd79c66bc543aff59251
fc310c222eb52a53faeb7c013e0c8372
fc310ca48ff240044585fbe7bc2daffd
fc310ca5a3144d77fb7f17528dbc261d
fc310caa1b8bf624564c300999124b90
fc310d97b761919d35aca835d5218812
fc310f02d8435d1495c39a7420f464c0
fc310f2a44e6aa3598e24f3418d12bf2
fc310f4911e2f2f69096e88d871f3c94
fc310fd67fbef474f78e299ae03cb25a
fc31108d16437178ec23cbd72e57e269
fc3110c12c2780d52896b41330906f4c
fc31114b863f65b2dc231172bf166d29
fc311192f877562a9fa79711758e9a07
fc31124a8111eb7f5eee59e4c9d15d6b
fc31130eaaf1915ae234ed287009c1fa
fc31147ce76dc5e61e0acfaf62555e80
fc31148b6d45c2e71f6560942708c15d
fc3114a1afc8a6371297ae3e9406e9f3
fc3114ad3035ab86a434efae34e3cc92
fc3114c53994e9c65a5ec233e68acdd6
fc3114cd2690b6edd8a6128e6dd0f21e
fc31151570f430db9119e7fab71c9c3f
fc311548a8cb3859ae7668c5805fa007
fc3116d42135327520ea202e8b6534b3
fc3116f6fc40593ba41b4bdf30ff8a5d
fc3116fd79df130f3ee91bae700fca77
fc3117a99f78d13ec11ba7194c06f348
fc31181689a32b3606fa1eeb0f3880b0
fc31181d1c8dafd796d8f8c5bec52f70
fc3118d8f64e36bfd263caea572cdd3e
fc311948f546e260284d1c398e9b0e71
fc31195978f101cb13e94cfda1bafda9
fc3119af2f5b3a731e68db3fe210d26e
fc3119f64af0ada218e4edd030b09124
fc311a4488cc4389282fe75c1d652a63
fc311d0034dde4812387b3b94854ebba
fc311dd17f96b8c5763cae153481819c
fc311e09d08791c50fcc18cd8e466dd0
fc311e1344570fb87831b719904565dc
fc311e9f0a288323e4a77c490c2cef32
fc311ee4c3b02f897959426da1b9d269
fc311f5ee7ab11551c56d78b05af9121
fc311f92fcaf1d79a19472be4bc83316
fc31200e4dbfd51f1b472a2be5c3e739
fc31209415e84e15e3cb0728009c6f31
fc3120dc76d1c013ca45d4c3a2a6b54d
fc312161b17bef8840f7bcf4d5512c19
fc3122ab1324e35aa2c8ee409162e6a8
fc3123b754e76d5a3678f06f85a9a556
fc3123d531e096a67871b7d3be933ddc
fc3123db8069910d9ce0b1e663839827
fc31244f9293b31ae4261d3069515a12
fc3124bd55eefc251e249432bed30f1c
fc3125269f7e8185bc83d15705871c10
fc3125290375cd52156f3da9541103c1
fc3125f82988e6b76ee72a855fb6bbae
fc31262e7190dafbe20f02cae605e2f1
fc31266eceb538c6d7139b9a2a6364e0
fc3127ad101756063b03368c1ff35f32
fc3127b80ca84f678ddcc5fa52e1b5ae
fc312822cc5446d35077deeea4de6931
fc3128ee41e3fb7ee96cda8d066ea2d7
fc3129824153e73319d92c96821b9547
fc3129c2a0826fae9ff6c75519e385b6
fc312c2dffd8934db7f8ac9c71b7bba0
fc312ce6b15c5d6dfee5b2898f1ea506
fc312d812a4053005ac00d2ab79ec639
fc312e4d611604c4930cb2be088dc4b1
fc312e94399a7284cd08f4c6d11f37e3
fc312eb729d4581b381d41d590b65952
fc312edf1a1e3113b4df6cbb4343c58b
fc312ee2ec671621ebcd83d879f0009a
fc312fe3512ccd6022f485f241916575
fc312ff39761906c1a25ceeff75a7fa2
fc31307f3e8a84542f58281c9805751d
fc3131253ccea917fcbe05249da9a71b
fc3131aa0fdf66dc5c7026db6763bd79
fc3131ae29098900eb46697f294e5d30
fc31324f11978932e9d6622dc3bcd9db
fc313281187c0869739767856ad75895
fc31328536dab6147e6c0e1e02f20604
fc313295c9c74a196732ed572d800ff4
fc31340db9ffabb766aa63811d8e67c6
fc3136b06e90e960d0aeded5dcfd74c9
fc3137144aadf952869e7b493902a9cb
fc313767f26d6f722dbe06342a1859b4
fc31379eac42fbac31c00a19313f3841
fc3137a862198c4fd49416b765db1241
fc313806155dc16b1eb006c474453699
fc3138647aa92d883667508b20ed8640
fc31387340dbb73ef9394728d154aa3f
fc313904cda50e49bfb80d2fe8796f03
fc31395f68f2e4af0df0b60356e3820b
fc313a9682f49655516d1077edd5ed73
fc313b537b4f1a179a6446f160052fbb
fc313c2d7243499fbed35e7b432489a0
fc313c788fb9271bef0490c9c85524c6
fc313cfd8428aa6e0c34c76116366ef3
fc313e5ed0f150343a39e6c1b003dc61
fc313e92669312d466abf8dfec359d80
fc313f5812a68735eb651c1e5d7e6c59
fc313fa6376e84f8d317e4ea87357567
fc31407c0fff8a67575c3bb924dda465
fc3142afc63bb3236c40c4a87bc3d61a
fc314374999188727e82cca193e9b471
fc3144ecf291879eab0092d9dc183a02
fc31452817b76cf8924e2004cd37c70f
fc314635c47425c77573d8275f49feff
fc31472aef04d4f1dba881c0c9aa5f8b
fc31473df62f56b945c48adc63e03200
fc314758d2de52b0400d3b312dcb72f0
fc3147a433be2a03d5b27b162297019e
fc31480a572dc690fc6bf90740249720
fc314855e78823933d8ce06c1704616e
fc314946707785a3e58e12f4682e773f
fc314978da95d6c4f7a8327c163276f0
fc31497d75e6ee57bee4c5a4bf5b024b
fc314a130ff54ca6d910ca8b2b09e457
fc314bbb7eff4e391cf73d9acc392fc0
fc314bbdae36778da9434c56fc5b0917
fc314ca9ae631e151d652634a6fc1818
fc314cf814d87fd4f00832c94a913d30
fc314da7f59cbd096283e628af929730
fc314e87ee61088fd55812fa23f5e846
fc314f30980301770b08763bafd59df6
fc314f436d728edd509a6c6c92251d07
fc3150d29a18367cdcb4ed1c3f18392b
fc3150f48428cba3b603d75551960615
fc3151594ed26c4fb47efb57fb20d31a
fc315202ddf57d2b96cac4ccac328b7c
fc3152398ce746f2defcbf8c04711236
fc315276ea6329129ef707db26312fbb
fc31557ba566d5fc781bdf0fcdd120e3
fc31560a4d6d372aa9a2a8f4e17160bb
fc31560bbba5531e57dcb135637c3a8f
fc31575b30e0c42c553a0103acf7af7b
fc3157e7d1692d99a365cf2347e9e896
fc3159e6fff4d33eae4a699a302ba631
fc315a5c00dbb02477e28ae50c4c3c2d
fc315c24768a1adc30821f0588b5f004
fc315c8665b7b2f519ed4f0c00fae3e6
fc315e5394d14ff59e67c33c6353c532
fc315ebc6f2f857f1450ffc801ab2bff
fc315fd8bf1b2b1a81f5f943dfb76942
fc3161891de5e79bae1f2414478cfacc
fc31623ecc8d58b41bfabd659b98d37a
fc31649b20f31e2f0c0c825623101d5f
fc3164c28a903dc9908e9e0cd297ed72
fc3165878d903ac8733c9dea1ce55560
fc3165bd9a5ba0c174d9d1dd54b4d4c1
fc3165dd353144f863b79db6d6028ece
fc31666a3d580391c1e52ef256e75bca
fc3166745f43e50dfcfdd8b959dab275
fc3166f7d14ae437114104479dc130fb
fc316826645acd9921193aaa85673973
fc316a27bc6003ce4bb257f07e06cc0e
fc316c20f0eae94bf23f7c0a70ab7311
fc316c9a873c9257fa9042e09099d2ec
fc316cc3f801173cbd731f0caf159338
fc316cce6b40a0a30481304e85236f93
fc316de924c6ef28a9fb361ec7db305a
fc316df6b2d3a303e3c0eab6f37ad929
fc316e5594e2ac3191665eb8adcd17e0
fc316ea013541181e5b5a383078a1047
fc316f9c9fcc1f1c9030b0d91fa86aef
fc316f9e3ce450572bc00ecd2cdd3e56
fc316fbb112553498cc4351e86cc094a
fc31700d7e908a66f9d74b2ff3b387ba
fc3171c1048df69e84c5a90753e5fe3a
fc3172eb0898e4fa77e6c9790017fbad
fc31731908b598603e151f08539ecc40
fc317372b3507024b04455b0af5ef09b
fc3173c1e4c3245a591827fd8f4063c4
fc317409484ea498f8702b663c4e1978
fc31744d5bb504b246cfc955f2b75e85
fc3174be8103c0c55992748eb8eef59d
fc31758b2b579d60e273cf74c73b4467
fc3175ea5cac7601c7388f1dc28708e7
fc31770faff489cd916881c03cf49afa
fc31771fb91b763f5e043b9bf8332df0
fc317756ddafc546a9fd19779ab5cf75
fc317764d7a01b77a4e583063879ccdf
fc317879124b37697e83382ae96caa80
fc3178ebcb786a26a32de5634caefa1a
fc317977bd47a0ab9918cd8518df6677
fc317afc87cfec4a0d099fc824cc77f8
fc317b2888deb6f5fb29c9544e6f3231
fc317b30a19e6629a28661bb7f6b98a2
fc317b62c1843f7caabb0885fe60d692
fc317b6fddcfaebbe60ce465c2a94970
fc317bcd35c5be6bd69390fd9c7a5b1c
fc317ca02874d7a26e4e632c369cc553
fc317d7866fc834cba44c5e51014f909
fc317d8ac7705aa198cd304114c96bbb
fc317d9ec5807e57300f41a01846af91
fc317e087dd10b71968f1545ddaecbb1
fc317e5d158bff528d974a66a1e94b30
fc317e6082d5efb1f12660e1bfbb73f4
fc317ea7d98afcb1afc5c341381bd4c5
fc317fa58231ba30ba9df53a07556a63
fc31806475fe08080ade2ab0a6232d08
fc318096cdcaf2813e2460db5a59ac0d
fc3181952b9a4a396be2a88c81354f70
fc31824a1f793c6ee215b65a60ebd222
fc318281faba6947006d7e40c487191e
fc31837d4e8b0711503c51adecc57120
fc3184a3980c3b94b1593599d0669e34
fc31858049d002fbbfdef135a3b0fc19
fc3185e56c62548fdf865a3180f2885b
fc318629b80871eb27fe7eaf77b44869
fc3186f3ff5bba210d88f85afd6c4a9c
fc3187221ebf159b58127d4faae32421
fc31873c80fea3494cedec3de7d544bc
fc318901f6a2adb198229aa81eff30f2
fc318a04c501d76d6b80e2ec82152298
fc318a61eb434c5f6506fcf2a03a18a1
fc318af138f0ddfb709b882afa57f0d8
fc318b4464e89e94ca1b926381e8220e
fc318bce2849b35a3bad7ca2b7bf4bf1
fc318c1966941c4fa2e28dd0dc55c5ea
fc318d0a04a8877526643767dd60d044
fc318d416873f335578e46ad90157538
fc318df6776973661866c152efe6a11f
fc318ebff81ad6a415eefbc42a4cbda7
fc318f97a28851545707efdbd4bc877b
fc318fb74870220516692b704c0c3b84
fc318fc8a4afdc46cbeb3c3655daf296
fc318fc8ad5153306a0e20e53ac2c483
fc318fcabb03ab99702483792d7e79e2
fc318fcadcae47e4ecb09a47a3466023
fc319021b9679269526bef5dce6dc895
fc3190ee12572ff9fc94a774d759f0d1
fc319172b6573eae72d1778aec5e1277
fc319250c3173942ad365e17128df164
fc3192bf3f09471edd34aae306bb18e9
fc3192c252a411d181c20b30b5b4e955
fc31935c6b0e27a50efa110f1c2e7fbe
fc31960c0b5df21ce2a4d74cacfcddef
fc31965c6d5d4d41e221a224cc599391
fc3196682bd5d2274ff54c81e252c8cb
fc3197e0a0671aa23aea268b52de895f
fc319821422d3af0afa5a57da74eded4
fc3198e8b68f39a6da49510c142e2610
fc3198ea5c8561cdfa2bb8f49efc76d1
fc3199756c81021f4088acff1da6f443
fc319a8713c4522c8e832dbeb9853594
fc319be4969e157d124019761c98f9a4
fc319c8274b32a0c1d9c2085f119a977
fc319d21b6072ba79f9c580f50df5000
fc319ea4f1b6e51e1eb37a63eb560f2f
fc319f520eb358445cf044a2ba6c09b0
fc319f6af17aac4b4787aa5cbd466725
fc319fefa9fdcd0ff8ebec73eb4646a1
fc31a1d4c12329801d5be912d8b28650
fc31a2071e6c8ed073c85ed7237b6118
fc31a29e2302038274c291e38e669308
fc31a2d859a02dcdcc850438423aa37e
fc31a3f004ab50d3020998e83e3fccf5
fc31a472bfdfddb4e7e67f0c192cb1fb
fc31a6366b460daaa2d894c0be7d3771
fc31a68df5f37552d25757e3dad67ddd
fc31a6e5b9f6691d7a41024cde07dc55
fc31a7390f6d0d6db60866862956489c
fc31a79ea172353973f97878e198f1a8
fc31a7a2bb01eac3e98d81e766bef248
fc31a800548312afa41cf520d556bee3
fc31a97f835df026ac9d7dbdb873813a
fc31a9830db1554dd5d41037d977b63e
fc31aaa87f5a40474cb30b5123ac1fd8
fc31aaeb108e81ceb60956d4d61139f0
fc31ab213ce4e493b245f9471b2f9ac3
fc31ab2af5a0be6714c71181c42c7a38
fc31abfa18d013070269eb8b8d0df2c8
fc31ac381b69d0ae70b82c739f56b979
fc31ac72c8dac9c964bbb42ada7e02b2
fc31ad1a6a4623e48681de103f966b7a
fc31ad4fd3c32e4e3f68df29897ea505
fc31ad849be3a370cffb0daad1d3b244
fc31ae0758b2c9afc5bb25fe1d6f6f30
fc31ae0c29af2eb424dcc2b5784c8870
fc31ae37f64d77ad6680fd437533fd40
fc31ae53e35d233edf59be0a69794add
fc31ae7739897d92d138c31fe93d5880
fc31aedeabe1073750d2a53fa3f393f4
fc31b0f5aa33d63df60602bc5c11965a
fc31b447d1becc5e1f541e9fbb21ad65
fc31b4c137e0cffb223a57809ed7bbf6
fc31b564115ee95311ede2deb54ccd67
fc31b5c07cebc91eefe954ca95d0cf19
fc31b65f4e4d79bafdd49825ecb8bd83
fc31b69595f213227934abbb70fb123e
fc31b6f3a5d3c10753c60411ff594f00
fc31b76f687e006bf05408757d520ca5
fc31b7721d66b3cb1bc329038d4c0fe1
fc31b8cdc5ddd37416cfd1583e0d11cc
fc31b9744414a58a181aea273133751d
fc31b9cdd1788edae800eb52c0ea1b03
fc31bab1dbdf97c9ae9eb8622db4f96f
fc31bae819985fa4f751156788e15e60
fc31bda298127c85c875af72d6b17eef
fc31be67f3ade64de39aac511b910b83
fc31bf0bd7b5f78ac53b8b91b1e7d621
fc31c11d50ffeaef8a07efd21bddd995
fc31c1e0de4eb60582fb538f6a39557a
fc31c2572a24494517c227d580a2fcde
fc31c29dbaef61f3410ff471f6aabe10
fc31c35dd586cc0bfd1420dbc5469b3d
fc31c369c5a4f62c8d2b6873714abe80
fc31c381d4911f2a5839ec71195110e9
fc31c3e32791b1f29f37f9e15505600c
fc31c3f95762ad6830a873332efc7803
fc31c40e6b035409d3744891b0b49bce
fc31c462ea1f891e5126248aab46c932
fc31c484915bd6cee97ceeb884d0b5d0
fc31c5f7760fd661d601737d800e931a
fc31c70715595a0a51bfde6eabf2f3cb
fc31c8ebe41e59bade61a562004f7b10
fc31c8ff98d4b8926d9047eb2ce9a0f5
fc31c9dc10bd2360b4f60f04c2306aae
fc31cae6a86cdbd95a0002cdf443828a
fc31cb32f201c61d36b6b7dee5e5bf00
fc31cb511ab6456bf464aad1c1a796c8
fc31cb76d954ebacc7f1149ee2209624
fc31cbb233475a3bf5e79db41fb40dc2
fc31cc86694db3102f49008de7d0cef0
fc31cc96fd005bf009cce60945d468cd
fc31cd45e2c832f23abc31c116f46802
fc31ce8e1ca5491c640837a4078ff2f2
fc31ce96ec28f2e8e9a98188e0902654
fc31cece89efd928e8c35ad12b3b556f
fc31cf21449dd8b9a7ed618b212de0d8
fc31cf39e9a529b7cc0f92ee238e89fa
fc31d00d1ddc8f1fd86312a2e8d0fea2
fc31d0583b54a75a5cc072bb33f5fcb5
fc31d2d655608f4ce735cc2fd7792530
fc31d3c7dbcfea11fccb0129cf19757e
fc31d434683c5f719161c475293d24d4
fc31d4540081c2b5449889eabdb0be13
fc31d536479cb443ef0ab8383af07dee
fc31d5e1439b5324af0d82982a8d94b2
fc31d603b66928f2ca460c0dc91222c2
fc31d674d65a843ec7d33aaf065ee18c
fc31d67a902efaee41b67ccc2bc91353
fc31d72d14179de69abb90647799dc13
fc31d78cab57189650bccd328e7f423f
fc31d833386dae333554cfe5bcfa9ad0
fc31da68d7ab7cbb52be11125af3351b
fc31db496592fa290960d09b3ef29eb6
fc31dbde0bdcd5979bde48bf85c8387e
fc31dcda1671beaee7e1f59c28d6e864
fc31dd87dabdf774d30e04d0f641e83b
fc31de23ae94e0ee116cf12b03682ac4
fc31de6e65c19d51549c8407fc9af55a
fc31dee077e4f6d3a36dee74327f0776
fc31e0540984b87d25e88a430939a83d
fc31e116f5774be26b4d1bd2ccf50c61
fc31e1b13c0452606e09553db3736fa9
fc31e224c14784c19c516496fc9f8c04
fc31e233a0e094c703ccf41c12615d28
fc31e236aefc2a11ee63da9e14763ca9
fc31e2430e5d831890f8d2492e34ad1f
fc31e4037aba0441f1652012a220cc2d
fc31e45545749fd3cb955cb969bf86ef
fc31e4927454aa5ca0ef91ff18647f93
fc31e4a12109d08747e34e66f4a0e0e0
fc31e4fb7ab3dec8abc0ca68288c60af
fc31e64d3f2b4b27b97e01b5a39fce1e
fc31e7fa18ff1f5d64dd14197edecec0
fc31e812d39fc9816dc6aecd7742503e
fc31e8bd1427ea8c3d7c7a198c0274ba
fc31e99d5049138dd89b87eaa6a015e6
fc31e9cd920acf8321e48903427e84e6
fc31ea39b845bb3db2dd6f62e5ef66b7
fc31eada5ff5796e7df408cfa7dd4f90
fc31eb2c433865ae4b215956d0e6fd94
fc31eb690e1123cc06804497fca090c9
fc31ec3fcd7474239c4f654c224342c3
fc31ecb6ebaf0c6b6c393c1c92a60bb5
fc31ed2af391b09271eaf02486aae7a0
fc31ed553938d8f738cd7def51ed6f2e
fc31ed624dc5929b604b52e008e20692
fc31ee08b030a8fce65a4c3e17b623ea
fc31ee48c82085edc237dd83d05eb436
fc31ef207c8beb588a8cb6905d7538fa
fc31efdeeae238fa39dd9b9c695f4135
fc31f00d84099b2e544e7c815b3ac5cf
fc31f1338e8c6d6ac37dea32ad546289
fc31f159ed9ff29feb90066ca8de39fd
fc31f22f4ee4690f3752767eadac57b9
fc31f2cdde71840ccd4dbf41aee94feb
fc31f2f6f336d93660f934e75d48892b
fc31f33b7ea41a0ccf1f0a120d69c3bd
fc31f364ea442018677aeb585ad4b8b5
fc31f3a40477c4ed3d1a85a7b4ac6dc8
fc31f4a18c8ec5974eb3b2dd6c479461
fc31f4ad36844393f74decd9a55450a3
fc31f4b92fd43c09eab972235e2a4f15
fc31f4d3c5b5009d361ff675fb2f7cf9
fc31f532a385245c63d84d677d11180e
fc31f5805c11d6cbb5d9dc47c63bf2fd
fc31f60611657b296ffba960340d539d
fc31f6bbe34546d801792d2d0f574b92
fc31f720fef8fe0ae53cc46f06db8bb0
fc31f7496248215608f7fdf8806d244b
fc31f7b35b54c47b4b65f8969b734a60
fc31f7bb6488a3ea0238fdeed7783d0b
fc31f81de4788e74ab322fa8e2e533c2
fc31f9a238a0e09f5035d2c27581762f
fc31fa497cc1c542118935560af057a2
fc31fbddcf54a3eb2d83afce6d432cc0
fc31fbf1fb17c44232579259de0d4ab9
fc31fc61212889e8923020bc98262aad
fc31fc7545d5ae7cfd9e303197ad2724
fc31fcb10a3ba430d0abc0f119fa34a2
fc31fdf13f0ad88d3ab6e951c38628f1
fc31fe0c8d10689682b06de1eed9e631
fc31fe11f1b0c971324819a6090d0a57
fc31fe61985583b344fe0a5ef72a008f
fc31ff29339e3d37180fbd6965ebe3ed
fc31ff7130fa6d676e98e350d03e974d
fc3200e15261b674f7eb5686107e8dda
fc3201dc36154993623490d1774d1f33
fc3201e05b7d57e7509cfb3f899be47e
fc3203e75add18006305af47a3002c33
fc320433fd32a93115739859c0eeb2a4
fc32044ad7b8642349a81d7d57946f7b
fc320529d5a7e1cf2d7c60b01a4c70ad
fc320530c90966b842a34eb458beaa27
fc3205486dad0b0de747c15b80e0b16b
fc3205e00682a09caf9e870043480efb
fc3205ec3231e3b569604077cad533ec
fc32065e3cc8c65b4b96b19ed753b975
fc32066655514a6d61ef17ad57e35324
fc3206738d7da0dc0ddcce6fb941f24c
fc3206fafc3a91fd016d77ebc6139420
fc320703fc494f9a5e6f4422bbec6052
fc3207d4a53691ee68da2605eb036642
fc3207ed881b58ae6a00cb7e2e15e3e8
fc3209887ede713db1ec506a2ad92821
fc3209c6c580bcadd5ed060c74cea80e
fc3209ce41c3f68e6e78c96cbbb67969
fc3209fbd578e89b093724ffeeab7f1e
fc320a0314006035a3fa74e73851010c
fc320a95dd9de5b78b0401a5cf34a39b
fc320ae691c08c787769f2cf8d5df075
fc320c5c6d5458ef8bf64171d1cd66c4
fc320c63187a63808d3ec8d12176c840
fc320db82fca053343ea1912c3352f7a
fc320df83492e0795cd4f4ab3a4b8768
fc320e000b69210d45638b951ae2cfa2
fc320e239daf4178c2229dadc8674cc2
fc320e4ee1defad2b7078b8d9fa15fa9
fc320ed859d13f0ffd38feece9fbdeff
fc320efe75584e16c5df532847961acb
fc320f25a92561ea0b054fc9f6ce71a8
fc320fc275a2b0df180e38935b3a98d8
fc320fcbab0602542fc64049eb76de6a
fc320ffe159375c26e9fdc2985e338cd
fc32108b40729ee8149b9c6595b0275d
fc32119a1502fb6c9d672b3e55016762
fc32121c32428b5598481a8af7bd90c7
fc32123c429027bacb7b71b85daaff54
fc32123c9efbde8e6c3cd996332e5dbd
fc32124977ce8023e9f654f71591ea4f
fc3212ab6262d716ef9c1adecc68c0a4
fc3212cb312c3c7ed264f769b8ad9b8a
fc3212ededaa617f9fc140e9d444bcc3
fc321304324818d807b362190108c1ee
fc3213afcc09aba13255a73f280af931
fc3213b4d777dc25d13cfcd6a292a2b8
fc32142c926c2953b29a6715230c38d9
fc32145541359bb156edbba156036912
fc3215f57f64c6c00b0982efd38ad4b4
fc3216ea9e9d34261fd3f13f7677ce80
fc321846d95551ccaa86720aa406083c
fc321854468a577475ce2b452ff7bbba
fc3218b0bf2376a77d23d1f70c50f5f8
fc321962fded4e9178aaf253e00ba271
fc321ac75112f7353ddfd498fe200299
fc321ade57d8ee6e9c4a79bce5c77513
fc321c48515c5338e0629e2240ef0cfe
fc321c8abfae3b20fd5ba019b3f7aef0
fc321d8376cc9fad4cf02453d3cd353c
fc321ef6d9939f00e06e89b9b7675914
fc321f3eaba5a374bab272fa02dc3762
fc321f7a95e471663b9b4bd608758f51
fc321fe446e20747f33cae8648465c6c
fc32203fc615412cadce0474d3d16f88
fc3220ee035cbae7fd4f88c138913281
fc3220f0b7d2f5c3492e53a6eef52c1b
fc3221086a2237964786c140d11fe51d
fc32214bc18ca99cd4d6d320ab2a8e0b
fc3221b2f77ccfcea7d0ea0f27714dee
fc3222696555ab852941077445aba00e
fc3222c5130ade3761582eef001b9a52
fc32236a39474156a39d3f1162ec309e
fc3224155893d38cc4294e8781792496
fc32245e1e9e04d022e8431447ba7431
fc3224ce1da2420cf317a1e345907370
fc32254d882fa5416397c3bb06f18444
fc322554bd529743356f57eec83cabce
fc3225a7c3ad2f93719d462f79e17750
fc32265b122374a95052da78e95a630d
fc32265dbfcc88abac0194bf8788673f
fc3227744d398de398227b3af1d3ede5
fc3227ab54ecefbca63ef26f9b7633b5
fc322884866720ffaec34b4663f45268
fc3228b0a57d3ae54f615cf7cf827a05
fc32291795ffea0f342c4f808ca541fa
fc32293999e26d779cc58c9f97a5cd3a
fc3229f798d2c23dd743d5960b9c7931
fc322a1ac8cd8b865ecf00e692b09240
fc322a8bb9781c09a8e27913871c5f56
fc322aa3495686fa7c58602ff974b59a
fc322c2c06ab8d849b1e65fcdba90714
fc322c48b3c3262d338b7ef900189c05
fc322c6c9544f27ce1f554cb0954602e
fc322c7e220c9615370dd878dc513700
fc322c8840f506211af0500fba03aa26
fc322cd484e3755efdf4a49ccc997974
fc322dab60aaf9485acb295ac97b01cc
fc322e0742625371031e76477b41d0ec
fc322e46b9e07706b83546c339197f0e
fc322e525e4e9eeb8fc0ba5b9425a7d8
fc322e9761f47da35662f675b98e34d9
fc322f18fd7a733b9826689c5012fdd9
fc322f9def10cc6d80b635ca302acc4a
fc322fcd192173870c73007bcadefcab
fc3230761e8285d6570965585e8a72f0
fc32307860b123965bce3ce9d0e80d6e
fc3231208d578f83be4543d8ba4090f1
fc32316b02863e914e467e9afb870677
fc3231caee9a96ce0ed1697fbe220095
fc3231d4e689fdefefa02fea7eba509a
fc3232a2f290877925550622a1a10b45
fc3232ba68bbf7ac5a1ff74e6fcb0a72
fc3232e76c87cc899179d0db06961d22
fc323358ea44d0ea246754a13564a1b2
fc3233882cee765ef5a8d5173e1ddc89
fc323459eb55b9b65131196af4ba9aed
fc32347a137df6aef0b4c89f942a2ca3
fc3234e84941b890af206d461f3f17bf
fc3235d4a2d0d7e7227e1869cba4d11d
fc32363d7c3321eb17592d19658666d7
fc323646d66d3e0d29d9b628a51ba7e9
fc32376e421ee63f65fd6de7060af4f6
fc323782a38049644ec121ab15eaabe1
fc3239481c344071cc4afbc57c8da68f
fc323970f947c80bc0d8e7ed80d891c9
fc3239b02559280612ff0c7cd6b0438b
fc323a6a99fea5d8bed7d607ee71c100
fc323aaddf7b3d58e42ebd81ed380a54
fc323ac3241cacc5db2ce3affedcfb91
fc323b65b70e7efb9cd0e6c09e1d5ee2
fc323ba966f60784c70f0db1b3a57a3a
fc323c30a3a3fadd5ecc18bb7f3af5e8
fc323cba47b2388a331f32a91cc2d245
fc323d1edeac021fffd360d79216fee5
fc323d305fae6d03754a2cdc15b2e140
fc323d5ffa36c79bb485a810fb359795
fc323dcd08ce8ed34be65b2fcc7d85df
fc323f05fe885b71e30babee66ea3a5e
fc324018dc11e58361b36136a78efe08
fc324055842c0b2a941de4f0a8538d1e
fc32405cc43b65d2adcdade51b9cce64
fc324086ac0df1c74f050cc9b2ce6cee
fc32419472d90b39f46a04722989fb1f
fc32424cd00824cb8e36911357d9d320
fc32439bbfc7570c80e7620635b432b5
fc3243c6bc41a1d915eac09c09017913
fc324459c8a6797effcd265ae733a291
fc3244e787a9e65f1c7f63d449894992
fc32452b45e4641496e3de8442da787c
fc3245c3ad84b4d51925c0dca7e96b61
fc32463882fff085fcd72e66e9eb5a42
fc3247a114422e7afa00723fd0430574
fc32482c05208d0ebec9c5758a596dfb
fc324982a710c44914ab093106b43d1d
fc324a59925e01645e682e199b8b56e9
fc324b2caee096131cd38a72beb51669
fc324b3bee3145aa546c71504efdaca9
fc324be7a004fb7d06f9dcda5e398950
fc324c6836ca0a957f4b0839219d9c0c
fc324d4180260c1265d3a05576aa0479
fc324d759639c278e4acb3921e3bb9c5
fc324dc8f7f2504a9c87b8599a4580ed
fc324ee2308b932a9262d6ac61197be0
fc324fd063d8087e0b2279aa29d2c11c
fc324fedaefd583df53ec6c7db75ae42
fc32502c447f7cab0b371186ff6002e2
fc325109b06f9a0deb92abdeb0a8db7f
fc32510f0913184e033760c06433f534
fc3251a4ec81a20a571ebbcac4c8d3b5
fc3251e7debfec50f66b429ffe36b05f
fc325299461aa6a0e07387b0d93b76c5
fc3252f99dbdb3059d6f0d436e30f16e
fc3253308e9681504df1e6057c4979ae
fc3253adc18f55a046ea880070286fb8
fc3253b96d0d53ac6966060dfec719e2
fc3253ec48a731243f8e885f4f6bb088
fc32543262cfe504e8c3c9b4602820be
fc3254cd876e6d2951dd42879925ebdd
fc3256979a9ee1a7b6bf4574071c49e3
fc3257095843111db0c3a31c7504c576
fc325737f95e178479c5debeddd07c9a
fc325800075f6e0162c1118f7a924524
fc3258037eb00d9da3d1041f4937a50e
fc32583b24d2d9b6446eb6ef9e69b3f3
fc3258f0bda0b8d31822a327b8163fd0
fc3258f1208020f3ded7a9cc406bc2e5
fc325a5a9ca835aee305b33cad6b6c21
fc325b1a85a73da435ba893cd47d1609
fc325b2ae1233328b464aaa84131d4b6
fc325ba106d6031f909181d3dedf901c
fc325bde464a4444013b54bc76148a18
fc325c344280cad34f769111a364ca58
fc325c8af51c795d3171db32ce0d0415
fc325d51fd983bc89a4828b682b6df0a
fc325d8a73223e0fc5d43e35f5bca8a5
fc325f9e2f002b015c5afa77068d97a9
fc3260456441c105149bdb6b6f299d49
fc32621f47dfa85a7b39e8c7e68fb530
fc32628edbf1767e7e4967c7eed96175
fc3262aa19717353da3fd34d976839b0
fc3263834717c7dbabac4b9794d42985
fc32643f12c0401ad33c4bd741c2ee14
fc32655ad9fd2b2ccf16490c6df52a00
fc326627f5ff9a8236e4b5b8cdad2bf5
fc326686ede94d1e4d4aedb9b6e5d599
fc3267bdf6100f4afcdb8a6780707cbb
fc326842c347062ba66d3cd037a27668
fc3268c272dc6878b4a88131e0941ae7
fc326903e3ad8a9d994c891be029b907
fc32692b8657fbd86ac192d7064e74f7
fc32695e1d0f6d62c51dce0c2812e037
fc32696ed221feaf7b54544549b32305
fc326a37e243db03e80e564704ea4cf5
fc326a7c5378ecf77ea4849e4bd42cb0
fc326a9e24a378f5f94d95761985bf55
fc326b5f73a9eed7257f755a13baadf9
fc326b6772e85a93a55bff25ad9441f1
fc326b6988579dabf63a530b04f39eea
fc326bb5f0252e4e6dd31cb0053159dd
fc326bdd3243d32940eab1ea2c3ecd05
fc326be24bf99c549ee8c9e009e62d72
fc326bf187ecb5eff47134e4eab77e2b
fc326c71cf813f4f9907d3034313bc60
fc326c7a79ccf6c4e462c4e0431bcbff
fc326dc3748db8546b5fa706d41afa39
fc326e7fec26af47100387aea75d2806
fc3270383143f92b365c99d72b53daf0
fc3270a3b827719b222c3ed4515096d0
fc3271a95fe736558be42b3fb9dde325
fc327441163dfbe6aff6e6ebbd02932f
fc3274b4450ace646a7cfebae25c989a
fc327542de2cd322c2e8e3219d4dbd67
fc3275a9f8471eaa8120425e6edbaadd
fc32768359eee92ed7a9cfb11c9977b8
fc3276c6b6f89ecbed57a7c773f1539f
fc327750d899093233ad762aeb1cbe47
fc3277d742dcfe33735d0dacd19c2e4d
fc32781cd36ed0c4cda9f0e5b0fb681d
fc327828c8b7ff0b170eddfbf92da1fa
fc327866bc9ce52e3daa9713d4c396e0
fc327906c78f5288cac4f02eb9b4c374
fc327934a4cd16945bc3bd2a87a1b98d
fc3279b2cf9f00766b3dbb5a783a8fff
fc3279d660e72bbff09cafe0e434dd6c
fc3279fcd35fc6392cc520f8ed73f0e5
fc327a13b5b99854c7a2e362cdf8438f
fc327add0ddd3ddb78bb2d0bdf716d32
fc327bd6bbdd582d1bbf97a694e4b9f0
fc327be6a5b1c94387271fd2490bfbf3
fc327cfb04be815dea39c88ba6bbe40f
fc327f176ef85e7ce4bd2180ac6fb708
fc328007ba9c6fdd4ac8d340a4a81370
fc32810406c42fc4c88be9479e429b6e
fc3281180cf6fdc9ebb3f2482574fe4b
fc32813505bb9b82f5f9ed37e37fcd22
fc3281379682ef3a0a07384e5d7d6200
fc32815201f8030df75a250692476c8b
fc328180fa86f1e9457a11315fd21310
fc328334769cf17d98d9826123d1babd
fc32846e5c7bf84786b186a93c1d1634
fc3284e1ee34f365fb2cb6723e9604e8
fc3284ea275d76446059ad5beec19869
fc3285402101a50824c6a3e2f8acf939
fc32854343c11b16691703dd20c25009
fc32859896bf3b17d07ac3f1ae24347a
fc3286b46a0a9ee5d4c2756b4bc92bc1
fc32871a6eef7edbc01d6b36aaa210b5
fc32872e905bd042bb4efad81f7cb7c0
fc3287a520ba0222236a06be16c159b6
fc3287f62f9a5f6eef2beafc35c5ad9b
fc328841c655e74ef337509d78ea1bc6
fc32885c00d3146bd238fd47e715acf2
fc328888951cd3338c866b9a0774d1a0
fc328926348ca5bdb5021c195e4e6773
fc3289e5067adc5d450d8b694fc66fd1
fc328b801a0bf8eb6192be20a4f1ffb7
fc328c23cab09aa62d86ec5d8d382721
fc328c3bb9a7966dbec5a737ae14ed92
fc328c465d2f177edde0880ad0b83e89
fc328d213eb5d2b9527188af6785ff6c
fc328d39b6300aacb8381f3025499a65
fc328da8094f1edffb0a656efa0cc660
fc328e18290e60774ee7ebab46e9e286
fc328e569a668db625ef0ff2e3a6e7ba
fc328e9672a973173ecb013875b026e4
fc328ecddc27118501eb02be28e7b219
fc328ecf9b559343d0bdc66e05f9023d
fc328f589a4021a96e0052a943b1cee0
fc3290280c426e247dec666006f7bca4
fc32902bb0447290a6edf9ca20dbec3e
fc32906434586cda229abfe8f1905c5a
fc3291f8692e04885923969cee381912
fc3291fa395c531eee036a17936254b1
fc3291fadfe1ef1d9b548e7ab808e5b7
fc32920b54d3f3ae595706b0451bb118
fc32921ba7e44c6a0bc85bd6df440d30
fc32922dd370e9584054004f6ca3ae9f
fc3292ca1f196855f788993750a6e73d
fc32930d81b8351805e36acdea8ec8e4
fc32946cf6aab67621c49257743e0e6c
fc329475dc315f5e56175f63bf8a67a5
fc32947fb8405e2ae46d970b3a529839
fc3297d728f731f4607a614cb79aa9cc
fc3297e51757c868f845c4698f5f79b7
fc3297f3ab97332093789bcec290b200
fc3298e30d442d4b988b5c658891ab74
fc3298f836a137c6274b456278c8edd7
fc329ac976f389310e479e2c76b26716
fc329b3187358043dc50f2b1981eb3a6
fc329c2308897645c25eec299729ed62
fc329c5e60e988103d40adfd549ac7f1
fc329c7a5e3525b45929d2dde775d730
fc329ce2bd8eb48a032d2c87e98ef0e2
fc329ce7fae394ef3ff5c60f67d657f0
fc329da690614b391b6018e5d91423e1
fc329db2a9304178f7fd2d25b860fbd8
fc329e220e7bf43357a73210d2ca1980
fc329e5cc00c149e9fa952e7bfaf0c79
fc329e8579f7ced85d153372a64ce357
fc329eb1e40280155a44abee2e16f4a0
fc329fa059a096286b69e0366be6c767
fc329fb8a94906ad066f18709556cfce
fc32a08f7823760e4ca0e84d2c94c844
fc32a1547d12c701a5cc8a00700a6da6
fc32a257fb5824bb11f1a6b5b0e4a59b
fc32a25c1c0c31dfa791b4fcdf62d374
fc32a2d7eb25d0c39926642054afb7ed
fc32a3419846a5d5b24158a77a62ee13
fc32a391a3cf735c9085f4e03a785870
fc32a43c94678dc9ec73934a807ab6cd
fc32a44dea9bbff6aca501577a0ee1ee
fc32a5833fb0f517cf4cc61f3300fb64
fc32a58cf6508c127a1adeefa0a3a100
fc32a58ee7d53afb5f79aca714580d11
fc32a63e83176921810a23e3062d27ae
fc32a75f448a182e34590eb3377b4115
fc32a82b797d489b148119aa47077067
fc32a8faeb3152db8085cb04e4d96c1f
fc32a96c1ca5e13053261cfa5a11e283
fc32ab07d9e7f695bfcbfeb2349fa32c
fc32abae7716a5e9d93bd049d12c2020
fc32abdd0f48fd751e74063306d6821c
fc32ac461c1467a3d3e89b224768dfe6
fc32ad950949b22e56b8276ea85c0e88
fc32ade9a9044fbf9ce20544bbdece1c
fc32ae4facd20926e823147d81cb107b
fc32ae923b847a818754e58bef11fb31
fc32aecb57f4cfd3652a63f827857428
fc32afe330cf1781fa015c822006c671
fc32afe47dde3e523364ca5f00033a50
fc32b0961bdbfe216b4d985f70180ac1
fc32b0a7b6c8ee6234a8a0c42ed708ff
fc32b1492858356cf3a8c554b70f2e15
fc32b225b0854b721af37de4f06a0737
fc32b2b12f125f02ddbcb9124b0ac110
fc32b2c43f4327074c7e09aa679a0a2f
fc32b3926d63f1a4e5d0ce62b64b0dfb
fc32b3fe9bdb02054b7fa11ff9c8e3e2
fc32b4864e57ebcd59665934a96ef6f5
fc32b6175d5fc59cc4119a14f0c80e00
fc32b682eee1e2f62c5adee080ae4d90
fc32b7ee07b661dce99c6d82557c30a5
fc32b8cb97dee4b4e9b8d45a6517021e
fc32b95e211b6f0a4ca0f6dec4cd9aaf
fc32b9688948e1972a02bdb6d13f2e78
fc32b9690cd44fd8767b6a5b6abbef91
fc32b9cec3b4d22c8b90b71ee97c3720
fc32b9dcd743447854ab9226f2102d70
fc32bb6058f152e2e0716c4384103e64
fc32bbb7c640144e5353c1f80bfa1804
fc32bc30e533b429e428f8b2f56d2c62
fc32bc907e9d617cd1ceb9c226d0d437
fc32bce910c2a36a42a30ff76c5345b4
fc32bd2bfde9435eb535b584632a85cd
fc32bd74103714b9d53b79e40cd9eff1
fc32bdf9f7200d4a9986de86b0c04140
fc32be84e9d4b8dd5bab954c1caac5b2
fc32bed78b94be583ca0c906867eecf9
fc32bee9ec7c6b5ae14bdd509ae1bc71
fc32befbf81acea664dd88968f41e744
fc32bf47d8bcfa4603ac3cc9a7ea9ba8
fc32bf652b1e9e40c2454fdeff4c36e2
fc32bfbdb1f041a93dd6f45b15ee722c
fc32c05813af59364a91e88be75ae406
fc32c09b6283833ee5e62f8e83f5f129
fc32c0da909648858a8aa6efb1b11f75
fc32c0f9e466f5357a1fd6b00139c3e2
fc32c1a3ed0b3f2ac2bc9b3b15410471
fc32c259658b68c7f74d2598f33c541a
fc32c2c9e070520577cbb7e0e2b14f69
fc32c38936f82a4a82e9b4fc7963c440
fc32c4186944b3b13cc3145e0daa977f
fc32c50f20892b6620b137cf23c9a772
fc32c52775415d40e801f88378d59fc3
fc32c607657691f66ddfb58b2058d102
fc32c64205f8789b917bba3764b6f5e3
fc32c8264970199600991f81fd214d81
fc32c8c89de1b4f10792ff3d479d344f
fc32c8cf0f5aa1b964a9de6ba2453656
fc32c96eea94544d61f9c003924054bd
fc32c9a6da339b6e4f3477a5e05009e2
fc32c9ab14378ca02e71cf19030293ef
fc32c9c344821c7ac50faa4447f72eff
fc32c9f7069654c31bb4eb5172b44cfe
fc32cada9d00fc3a9738a268033340c6
fc32cb2f5cae1210f223898d553977ab
fc32cb360b85cb87dc07b6fb385e9ae9
fc32cb36b2712f21d65331e668ca0e6c
fc32cca178dde054ba68a70b034e50fd
fc32ccbb1899d191b24ded6415c0e9e5
fc32cd36844cdcc82cae5687e525ceec
fc32cd5922a7bf5f9f2ac6c1c5a24a06
fc32ce16154118a5fdeb3ae31678ab3b
fc32ce240f04a3b15a04977751c8983e
fc32ce7ce113c4ec96fe652aa913312b
fc32cf2e965738074155ba68f29f6e65
fc32cf8ace04a5d3de820cc7c0b2a22b
fc32d04ab30b97611cc901d769a01e15
fc32d0575b2415078fa79962780e77b9
fc32d132f16bb8bc3f1faf7dd144c51c
fc32d2cccb728d5c437664e85626f6c0
fc32d2d2cbe04b18f95ead6b2895cf1c
fc32d39c7a10dd4b1050edd89f213800
fc32d4226da90bec27ba85f496afaf93
fc32d47cf980e5ca0b69473258332e04
fc32d4ecd62aa920f30d91af6358305e
fc32d5bfaa37ab9f9a9c17755f144d7e
fc32d602847b783e84d2789b88fc7b2b
fc32d63d339a154d8f2654141d37793b
fc32d67124bfd35c76496f102fefa5a3
fc32d69018d79e20a16c9bcc62ee8b98
fc32d701309b5f6c3d140fafa03ccc30
fc32d706801dbbd4876c3c96fb2f497f
fc32d780385cbd046a1c1be3519d2cc4
fc32d793111f5483e53308473ac38187
fc32d7df41fdbdf03d9c1d1161efe5bd
fc32d8c2abd404ac66d8c57d5bb93d71
fc32da5bb3a13a55499ab16b07f07565
fc32dbd0a90927683ba57d1349412ae4
fc32dbe361bb76859aa6a3563a75ae45
fc32ddb741d42db3a722b577e89ebc2e
fc32de05246dfad3fdb1a096b7a5dfb0
fc32de305a5f076d1e468e3f7805f5a7
fc32def5de8725d491210aeba3b6c860
fc32df476bf600c1d422467d63853756
fc32df53c99f2bd34671fa0fd5565de2
fc32df5d639d9d83ffde867291c46595
fc32df9dd473c06445b00054c2ed8849
fc32dfb3e78c5c7127de1aa6aa043760
fc32dfcb0f5fb52f04357c75b32d2fe3
fc32e07c6cf6eaef43d0d62a354a604c
fc32e0d3e6e424fd65f79c630a0ee879
fc32e32a114bc2731959cd47744f13a4
fc32e33a46629c92ab62beeeb2ff19fa
fc32e3a9ed0b40eed45d47d87ab35191
fc32e3f9db837905795ddf6b3caa064a
fc32e3fa15f2d5af5cc852e1d49a0878
fc32e4fb0533d28e5f42d5730ec3f824
fc32e5919de8145ef0cc14049db8ee27
fc32e6b51894aebecad68da48607311a
fc32e78e2908e138dcf0906cedc11a74
fc32e78ea52f899b34a2fae4435decbe
fc32e8b96f4e4a267cd6a9f4a2658b3e
fc32e97024e68893d92227211574f610
fc32e9865991f2e939fc3c77e14e1f73
fc32e9a88bdc1e9388c1ccbbd75d46cc
fc32e9aabe65d7932863f1d3c46ef9fb
fc32e9ba656fd48714af8d6b56ce6d45
fc32eb8ad75487cd12264b3aace3056a
fc32ebc00c3557255fd61c39745c9b07
fc32ec1a1d0fa369887dd690df2e4c0d
fc32ecadc56b88dfe32cec73fd707c13
fc32ed624d6e52811cfbe4c5a6246220
fc32ed675085edf7d93623ce44fcd52f
fc32ed961652aeeac0792517c68e9d02
fc32ee816c8620cdb049ce7e3713505b
fc32ef0d6d87db103ee1c701f7babd8a
fc32f0dc3eb500f5678c4d3747e57583
fc32f1c7c4b7f54bbff5657d13e39126
fc32f30177283a3d901911ba18ba3ef0
fc32f311903638d9b5b343ebe027d79b
fc32f3a3c91f2c77201d1d92ab60c552
fc32f3de67d45cb2a8e0adf8f10c1370
fc32f4367bb743196b3c49457bbf59ca
fc32f4ffb2c339262b33334d35dc3e39
fc32f57c7902a0c42c74994fe4697a26
fc32f5c27660b4e185c716905c58f19f
fc32f72d0f9350ca0bb99815fdc42183
fc32f803c156acb06a3bc58ef942a8d6
fc32f84445314f38afdf2a7eba469659
fc32f96584f611ae958ab32b78209b92
fc32fa4356c0a04f8b18e52886266652
fc32fa4a224ee20677a27ec257b2af5b
fc32fbfeff0c585a2401c60de03ef16d
fc32fc170a25fefae25a1bcacb5d14b1
fc32fc6cda645e6e7c3353924319de2e
fc32fcbd97db03ba042ead1881e473eb
fc32ff3b58ec44f2731fcf7e7e3404ed
fc32ffe5341dc67d43346a26b89f43d7
fc3300f7342007db3a67910b6d1ba394
fc33014e419f57f2b30bfe83d1386d39
fc33015ef7d733350cb5dd9afb9223f0
fc3301c554cd7bdea291ccd1f78701f3
fc330227e0f210f193d49973252191ac
fc33022dfc568e6985800f8af9e8554b
fc33028dc1bcadce4fd0390f32a42aa6
fc3302bb4ef53c282b68a60bcbf1062f
fc33034c374f5bb9b899cfb0dca6f265
fc33044228e6f47e2ba8a97a8a4fa1f0
fc330486172f302e398c265ac78d6b4f
fc3304ddf2544205bd65bbed2c8ea031
fc330585b339eafe9fe8f77ddf8930aa
fc33061d6614888f8d24aec1f9e4cb74
fc3306ce9c557cfe884ed3dea9dcff62
fc3307124ec5a15ff450cab9769d991f
fc330732f54e909c5ab89dac7fb040a1
fc3307cb06250fe38cc4aa6d61797f12
fc3308aeb4cb1e95e5cb1abf74878a53
fc3308f8a32f85b00e544f3822bf73e7
fc33094b08d6f428948f4c12c2770602
fc33094f0b436028e2953497530411b3
fc330974a90bd7e7e6710d82e2c65118
fc33099728cbaa3fea65290542d8830b
fc3309ea8347bd9f048c8a3657a4b150
fc330a031d2d023ea24dd48a142bd9d0
fc330a98c51970502a94f18bb2b85e3d
fc330c185629e80d1e041cf4561152e2
fc330d50c3a0260d9330b52f4e62970d
fc330dbed9fb3b7ab1bb76ebb620fb95
fc330ec21908592fd79fbcfcb93ce377
fc330eeea193d8c0056055357ef583d1
fc33101f9b887bdcfed23052f4020d30
fc33104d42ca2e71b609c954ae91d1d0
fc3310657c82e94d322a354e3d8e4f70
fc3310804dee6e73221ec5498cb54e9f
fc3310a9f6b78b7d85262b2b28d77814
fc3310bc66d7e0c06745459a1f1b921f
fc33110e0942947c8a467ec5429f7a77
fc33124c211d2a4c80917cecc5c99640
fc3313571fe8c75c069c969395d5742f
fc3313c2bb619e45422f6b962da91068
fc3314d963f8c83103fc4525acb39fde
fc3315466531b83958254a1b1be428ea
fc331609ee1de63e15e5548e2a395ec3
fc3316385a979fefd770aac7de1c4858
fc331665be62469ea1f5f40096d600b6
fc3316f957b4d3fd128ca18ceffe4a66
fc33187b40c455f3740b096bc6df0029
fc3318b2acfda511f3a79e3494221c55
fc33190e25b89bb7bab19383c36665cb
fc331960ad06904f33f33d1370b55c6a
fc331b2ea73f1415729204deeccbc19f
fc331b97751adc7521c85a1a8724023b
fc331ce1644cac905afb0ba92b26e0c8
fc331d5f91360b0c2a166cc3cfda3066
fc331e0cd7cacd48c8f42c7128297a14
fc331f39df2244be3163b823570a1310
fc331f66696b821b54de15042cd9bf58
fc331f7a131aed51def8343e52abd8bd
fc33209c58e6b8bcac92f8228f147513
fc3321b04b512f94e6b041b0960a4f36
fc3321d700b25d7ed812ee74578b9a9b
fc3322373131b6b4d86c8d12a1c65e44
fc3323dd9625a3ea33092a6228a6fd53
fc3324a04eaaa6d33af1dc9a0309f066
fc3324d2976a98c3dbbcb621236fc5c4
fc332560155d8f10446040ca6917c3bf
fc3325a0fdb7a59088e65ae340606d98
fc3325c0f7c251a804e0f1d00ac50ecc
fc332607bf59597fa3356cd95178ae6d
fc33262edb55818c4ef3ba5a32ea0d6c
fc33268f3a36b1aaeef92a823b27c4f8
fc3327c29dcc42fff2a3e0b0d55dfe30
fc3327c8d6fcdae9b62c889b94e0bc38
fc3327d92556815a51d7fa55e3c7235e
fc33293c43a294016eb3e7b657c459f8
fc33294bb773436ca688c4a0dbebe4b5
fc3329e1fa69140e2edecbe64d16c21b
fc332a4c7de51a97136122eb088cb177
fc332af4cd1391f130c766293701aff2
fc332b0c35ddbae77b399109c959ce95
fc332bb09ee25ee0bb1a053254eef02c
fc332d5c9112e7d4db7d20887b3e220c
fc332efb844e68cbc3f90587bf550cdf
fc332f42cd1d7724169385fc438e1251
fc33310ac971e0babb3fc7a2e856958c
fc333160d92fa6d9aa03003cd5618c6e
fc3332bb6e15f35114a62f90346f0960
fc3333cc58c908839e417765b1e9bb43
fc3333d0a0a27c3110c26ee1843320ef
fc33341aa6df295a08e30985b743479a
fc33346b9c9c99823cd501f4714d4066
fc333506685f19f6b6615b024401a0fa
fc33362b97d1903e505ac402fec22eda
fc33374652607440a0e2b588d097c58e
fc33390111472ba9f398a267bf4de36b
fc33391beb028321e576564457a5408e
fc3339d18ed03178288068a88189325a
fc333a053ff625b59e4d270423cefa53
fc333a7341eceace0b4f2eecebcf0edb
fc333a9ec530f9b7c16a0390ae28d276
fc333ac7e4fdc99748b264dafeb2e10a
fc333af1b5f1ca3ff303aa31dfe808d0
fc333b638a2512776afed292604f221a
fc333c3a9e04efe643cf86e33e43def7
fc333cb22ed2d23aeba69def0e84fb57
fc333ce8343625921280ece98c2b1584
fc333d6c1e53489a2fe206278bb03abb
fc333d7b2d6c3a28176d089472cc37f8
fc333e228ff937230722dc3ad01e7236
fc333e86263570a677b6fe4db342fbb3
fc333eb74131a6021c8e44cfb9f97ede
fc333efa97cb595239875802218f5ada
fc333f6d8b2a5ae467f1648363b54d28
fc333f7dd9cb76a337df23b14d270e0f
fc333fc7111eba69e63fe3a615928064
fc3340ed4ba87680c3b096dd9b7839f9
fc3341f9cf797caa5e5a514b71ab3c98
fc334285b0716c940c67f65bcc861d96
fc33431c1ae443d36ea5a102148867ec
fc33433e91886910562da6292c30bf50
fc33435ab1efa869a3bef1c880a29144
fc3345693ee11a6ef172308a9aa0c2fe
fc3345b36481257d327ee3b8f23bfbb3
fc33465485f40af7759d67eaa04dc504
fc3347565908ac39a692e564d28601e0
fc334787aeea7e4cc59239dbb69cfcf2
fc33486b40e7d3d04516a9b90432d720
fc3348ad87f16d485ca4734e2f1f2e34
fc33492c05c4de456e6a7c188dafe9b6
fc33498f2af4e751a9c73f57c22278b5
fc33499f47752c6d42564c11273ce3d4
fc3349acc39146c05975630caeda799d
fc334a44011779aec208cefb13256ed3
fc334a61cf077a301e0c3641f380f787
fc334a9cd3576d256357602234e27c7d
fc334aa103ee6e4098f6208baec32537
fc334aa75101263aab4656b600571bc6
fc334aaa5c62eab3369bc861c97021cc
fc334aaf623832e0e8f880650d2180f2
fc334ab1fb2b65b18ce1603f0f986c24
fc334ab4d3482ad1f9d4c9b0700e5117
fc334ab753d761c642b48962dc673462
fc334b1ab6a273666fd70b509d94d49d
fc334ba7569b3eb2bed46e3ac5686050
fc334baf6819668b20cd584dcd5f81b8
fc334bb9049a319d153f6cb164699a3a
fc334c79c0038ddedfe639ea807fdfb1
fc334ce5c2609fdecce32c4e3dd53e5a
fc334d9bf82d2300e1cfee1960f5d37b
fc334e98a9b1a8139ec9d77f3c938a6a
fc334f6b24c5508beda2ea85d6507ac0
fc334f981475c141531bc6f62fcfccbf
fc334ff4460488df039c5085a84415bf
fc33500f2999430e4f5c3062330ad858
fc33505f8c0905765009eb73e7edd24c
fc33511ca5edb93b75ddb918da1b909f
fc33521992f3367515d401f132ad15f4
fc33523d5e652bdd1ee57da0372008f7
fc33531e6be9eeaf2cd4f31c77a03be4
fc33532e8df307ffdf964ec823e659ff
fc3353694a8050941efc03b7bce0dd2b
fc3354293f1bd93b614c9fb57f36ae66
fc3354cdc0df656fecbdbf9c0dbcb1eb
fc335557962f6c2654b851a69eb2add0
fc33557dfdd956faae400ed6f16bd0b1
fc3355adb288a5f50f8dc8df294f3251
fc33563a32412475a70e4367d0a6dc61
fc33578f5f834e044dc129299c0a1597
fc335793887d9abea0bbd8d3dc722373
fc3358e1cb9e736b6bb38220e6a7423e
fc33594646d73aa9756c8455728690a5
fc33596308b6336bcfcfe47a072b3b65
fc3359916f27af97cfa79e95a20842bc
fc335bb20ae4000446518e27f1897bee
fc335c638ffeb5f69896a3a62b83bae2
fc335d036a2c690c2ce41c0bd857fdaa
fc335d13a25e918cfba229d0ebf678d0
fc335d8472e47926b75f5d34f5f8bc8a
fc335ea6c52bd47f9556fe951251b079
fc335f1b04f3efef7ef1b9e99fb80a5e
fc336123d6747667efe7ad2a358989cd
fc33617f70652a9d120fbfbc6f18b1f7
fc3362b8291b8664bb14459cd9bd73ea
fc33656eca8a71043c8e422456dffcc2
fc3365dff5c4a8c1cfb9380bb9bbba84
fc336601447f6abb661a6fb585747151
fc3366e99441761c2a5aa1667f97570e
fc3366fdba496cedfed52140f12778c0
fc33671293793ac76fab696d51c25443
fc336734df31308f79a4c95357785182
fc336784e2c9c9519a506ba3efb63f3e
fc336832d103ad74c5c09faf9f0ab21e
fc33688b11190b878eb78bed07460317
fc33688d9ad68759bb29bde4902b7f69
fc3368bba769dff6983590d4e854859e
fc3369b2d3a1487d76f05506f4b2e85e
fc336a39d2c2bd1581b19edcdd92f365
fc336c577c39b397ecbbae63a7219d62
fc336cf8d1db9962f593af6b365ed2bc
fc336d30ae36839561ada78bab332018
fc336dcb173ea9cfd9bb7df760602e70
fc336df1792b1f4be9349809500e5e53
fc336e2f87a816cf528ae1fc83e6feed
fc336e98d3ce1bb0ada223b8259f19e6
fc336ed3ffc5086bf3021a45225db8d4
fc33702777f4426c2897b6d7fd49108a
fc3370551adda69cc4936f4efb507560
fc337105f3db83a9186cb7d20037b8fa
fc337218b5e879684652ac7a2a594801
fc3373975b87e3b5acf1948fe4790e62
fc3375e9612717f3ac0c84293c099173
fc337658b5585de15861e0fec14a1c33
fc33766debca1c3861e7d4db0d454e3d
fc33770b02d30bb250f31a36cc01f886
fc3377b2f8f2890538a43ba669662967
fc3377cce319cd76e360fa24a24d54aa
fc3377ea0498253ea74f6f046a8002e0
fc33782a77f98cf132979472c8e695e4
fc3378f5e45e7b475fda4421cad96311
fc337b3a673d7311c18ddfc0fca3b959
fc337b5bde3a3438923ac1ac9ff96f56
fc337d77aadb80dd3f853a828c58a105
fc337d89530ffe5d094bbb940ea5d961
fc337dc856f53db1bd28fbc776fd020a
fc337e858797a2f8bb00989bbbc0e3b4
fc337f8cace039430fe7ba9416f3fbfa
fc338055d5f4d4f4a077292800d8ce32
fc3380ec25d57a16c51151a9eb14ef43
fc33810ee5def05a2b589b417be84c4b
fc338131997f583c4459d95288d3e4b6
fc33820e234706cbf3f896a497acc38a
fc33823b855c524e0c2ceeb3c14b01c8
fc33825dec6eed067069d9f8752ab315
fc3382b1045d891b52d93fb490ae3218
fc3382c985861bbdebf3dd149b5f269a
fc338595e871ee15e1ef5577b7a2739f
fc3385f36f2fd48de9699eb8d53f9fbd
fc338659712cfcdb8d592ad87c562f27
fc338740cbcd11aea43e836989115cf0
fc3387971ad680cd4bd9f84bd5dc5050
fc3387c4d44bd2141d0707a71863cbd3
fc33883b23ef69c10a467ff363480eaf
fc3388f895d9a941a47ae0ebc7206b40
fc3389299086eee38de326dd20f043d6
fc33893c3aa6e07b762a82e269d34e4a
fc338969a893839d1928692ffb471016
fc33897a65a9283da50ef681b344592c
fc3389efa7549ac6b016639fd2f13afb
fc338a261c20c395c28ff7d669fa113d
fc338a8c54a33eb069aff26521b272f4
fc338d5e5bde2f10e10572dbec9001e2
fc338d8bcc6e308ec81ec61feb424feb
fc338d9997048544c100ae54ae769f36
fc338e3ec52bc892f788c76a3f8162f0
fc338ed37cc051fe716f20ca1d88cb53
fc339086100d8669bba555638b27b38b
fc3390eee9be1e5b4c6dd8a049a97e62
fc3391a24f203079f854fe9071571569
fc3392582a3b9a559aeeab30ae592bf5
fc33930d75a3224dcb800183a0af1eb5
fc33935d11a64951f3d1f275bd4b5826
fc3393d5c12e2d23087f26f3e28c2e31
fc33942052be0af5ee9c6a26f3acc6ab
fc33943e5ca1a7002eef6705806b4ee0
fc3395f775f8fcca3fc8b6d98a256d0d
fc3396b88f31636817d31f592a0da848
fc3396badf1d63c261931e5ffe46f673
fc3396ec7dace261fc25b3a6c7ad9914
fc33979d3e3a88b6fc93183fb829924f
fc339816a49856c38ca44b1ecf425f7f
fc33988d464767746b6f29cb882e894f
fc33993519345fefb13284a4c4263c4b
fc33995f0aac3756461d548a7ae45683
fc33996ea834d61cd6c0a8b5c96402b8
fc339a063dd966725093212bbb267d49
fc339aed6a2cba36b28ab06cc4c323e6
fc339be2d75580094519c4bab68e94a9
fc339d2585499b14d4e92338fdf89845
fc339dc2ddb4a4547cb68290308a34ef
fc339e23510a460fd74071cfad248cde
fc339e4aa7e1c2b87b0ec2e390c29391
fc339ee5117960bebdeccfc424224185
fc339f6c4ff19fe48bff17d4e8a7de05
fc339fa398b74b303c650411100115d4
fc33a08672f4d564508d176f9a375bcd
fc33a0ae80172bd228eb5bad3b0e9586
fc33a0af955e428e36bb12795235f2c8
fc33a0d61caaf1dc0e53847f3e062af4
fc33a11297f9f06d8adcbc1a87525939
fc33a1b737f84800fe486fed4566d58f
fc33a1d631d3921dc159ee8d296c935c
fc33a216e001d1d90adb624cc8e2ea0a
fc33a2178712e377382e6c1ac9897a38
fc33a4e66788f49d280be290720216ef
fc33a4fd09c257dc17e4c181a6029196
fc33a521032b5476c2c4aa73b93620b7
fc33a57acc86748f3c20ad360bfa39d8
fc33a5c2906db09587249f3c6dc0e433
fc33a6930613742028ce0b9ff799c810
fc33a6c68f3861b3bdf43e2ae8cc616a
fc33a6ed11f02b3ce47d646e3b90ec0a
fc33a7063550f1b867551f0d3d772254
fc33a75d296b7c4ef0969295dcae302d
fc33a7990d722ff0a94fb6851f24ede3
fc33a7f64265d25363ca86b0139f2e70
fc33a8038e496a9dcbf4cfa13f45c02b
fc33aa709d4f12f96a86520ed5e79622
fc33aa987b753289f8247a4a4cbcb058
fc33ab85439cb0735112b6e6b387c79e
fc33ab8a2b4f38a06c5bd269aaed7925
fc33abc7d70b6cd42b477b5ff24c27cb
fc33ac1fbce3e56085a60d172d94c94c
fc33ac2ca0f8c91617aa2adc50396723
fc33ac9ccf5cf67a0e0f7051f24c6418
fc33ad217a1f30acbb72d88fab542683
fc33ad2d8f06ad5e5a0da84b4b9d4dc1
fc33ad697f80eec0bb4d1511b7c0e0f5
fc33ad6b3e33c4f5d11d1fa49415c900
fc33ae527ef13142fc85089168863820
fc33aec8f44025cbf0964a9333590080
fc33afa37ff1747a184898f69bf5df80
fc33b0fba9ec0e70aafad0ace78abb4d
fc33b16cae3ccf4dac2399a9808ebe79
fc33b2b829b01ec9c43be57c37ab721f
fc33b2b8e87f73ae4ffbfa09692242d8
fc33b2bf7ed0b5d5016f81b0aadc1fba
fc33b2f201cf763f4d3c6e7e67acc638
fc33b3140b03840ed3a198b43f596cf6
fc33b36b585f8aa7f4c54eb2c54f3dca
fc33b55f4d5bcf8aaf0536c64ab4d25a
fc33b5ab1d74bc6b513d356102d0a99e
fc33b5eba19e86e24067082387466579
fc33b5ed6e5e4da6b3eb2ded0d730a2d
fc33b6bc0fb44a4b826f8a7d7bca7503
fc33b718ff9c8fa19931e3832ccbe332
fc33b98d7e4a67213c120062a7c65e57
fc33ba109206b652a94a80c1ca7a37ae
fc33ba68ff3cbbb1732ca9bff7005e1b
fc33bb3d70278fa499358c938d145af3
fc33bdfd24e61738b74003a9b53c9f20
fc33be09056475e1b9f9dd24806200ab
fc33bf1b25e08d1c5358cb5ecac65519
fc33bf9346d9f8ee2c37af1378d9300b
fc33bfae36bfcc6cfe77ab593a22dac5
fc33bffc4ddc5554d623cb59aa6e8c37
fc33bffeabfb696ebbe1f5073167b86f
fc33c06f43e7caead4bfb89a04303d45
fc33c0c094f733d39b05777bc6763708
fc33c10850c6e73aa1fe1352cc227076
fc33c10d748a70c735dc3a90f0ead9db
fc33c1145b5d80f18b0d24e17008d23f
fc33c2a9ffd254f0626478ab80943a9f
fc33c3b096fc5a6b962d2d3c44947a0e
fc33c5d09662114e656ee2fce60a2de6
fc33c643a1a3fbdccfb2878c11321e74
fc33c6784523feb846054b2e4cdb8d8e
fc33c6a4041c380ebe2dfaf1f2e6cfd8
fc33c77301f3b87437097fecea5a25d2
fc33c834a6c98c8a2d5cf3134c66b05d
fc33c8910b15a86f7cef8f3f2ba74a86
fc33c9363a9dc97b6c998c56ffbd771a
fc33c97ab5acbecef0fa62fa9a73836e
fc33c9f62726fea8089ab525f31d481f
fc33cae512f6edf1910d78ec417ad60c
fc33cb3708ae5c91c42ed37c680be814
fc33cb6a7329a473cc7f2d08269ed9cb
fc33cb8d639f4f6c3f3f5ac1a5f49649
fc33cc140882455a6db3b762c82f65f0
fc33cc9e5c7e61020081537d106861e9
fc33ccad1237abab1174ba5c0dfb2671
fc33ccbda6b63b49621bdf111d281b9c
fc33cd9c4dcd8d66a5dfe823d45a9fee
fc33cdcb36196ddc0cd7b9ddbe2a8c30
fc33ce88fa567557d4c87b11903173b2
fc33cebc13f3fe4af561597a59ba1f74
fc33cf64847d5f8fab459c9b5b584c48
fc33cfee0d0846869d60dec6d270707b
fc33cff1f03b4bac8c0d611baca61d9f
fc33d035a7822b70d4a6e25d6fc3efa5
fc33d188ea3291e478ff87dbcfeec7d7
fc33d267089025923547522c256892ac
fc33d2a93f77172c758d022a55c1a81b
fc33d3c5f3cdaca054928cf16c59e5fc
fc33d3d34daa4f5e6288f4f06d9c4c9e
fc33d3e5149e4584af67d074efbef100
fc33d5915c56bd5750ebb110266d345a
fc33d5a5d132e402bcac7654d0218f63
fc33d618dbc87156b0e0603b8d6bd179
fc33d6b3d4cac27dc50903333fd3323c
fc33d757188001f086ac74b151969f06
fc33d7e53f57062edb74df0095bf8bde
fc33d8653e98da6a18c21eb1831e6594
fc33d887ced7a4daeed7097ae5c768d3
fc33d933375827e0a23c2cf741e97d57
fc33d94e07b44507a7674871c8a64fed
fc33d9882a7d7b2a35411f20200c8d78
fc33db9bf1915d8a0966e72683d3f748
fc33dbbd172b36a65eea067a417230be
fc33dbdde3a65b654bf093890b34f361
fc33dc5398dab5e985922ee7e1a013fd
fc33dcc3f6bfef9b92b1e9545881b18d
fc33dcdd220855e17b8647ea1ff1e0bb
fc33dd8804e7934c3cde451b4ff8dd3d
fc33dd8c588ccd68be7a1e56431bae92
fc33dd8f6f95dacd084d609099882b30
fc33ddcfb144942120eaea1a821f7207
fc33dde6c7c5b1e29366b3e6f870ad1d
fc33de1fe66cce614daa40f6c3e4395c
fc33de715994c1fe8964901a15ba02c3
fc33deaefdfd2e91b7f0b7d1ba0f28c1
fc33deddcbccd69237965bef6c9cb70c
fc33df4bfb1079ebe1798c811ed7968a
fc33df7bec18dcea2e3d40446fd1c140
fc33e036c49a3237ee64f74776b4833d
fc33e21399f442dc03028652b9ef9bcd
fc33e245f953fa987d72e6ba85495964
fc33e2a02adcdafb3c52721038b80be0
fc33e2e69ebd86d7cfff1bd990b869c2
fc33e30738589499a3117749873edb96
fc33e3774cbcb568b16ea2d68190fa07
fc33e3fb4e514a43106c1235bf07a592
fc33e50b1c0d5d08cc10c78d719a74e1
fc33e5b8ac6bb499231f88d74e39f7a7
fc33e5bdca67a5d8f8d5bec3e0d5ed71
fc33e5d2da0bd9a523ce0e693952f605
fc33e6f6432eb71d25099123b9690b60
fc33e791cb062c07bf1a3572d53d4feb
fc33e8bc94851df9895b670d40b051c9
fc33e8f7b655cfd41780b0af9bf6066f
fc33eae3108d0ba7ee58171d991d66bc
fc33eba846c911f08daa1eb481db6399
fc33ed21b0b93ef75434bbc5952a898d
fc33ee9696b691d36c99ce7217f9a935
fc33ef2b99ce9bdabc45fa7238fb5961
fc33f069dd89f0407fcb3608380cb6fa
fc33f1721eef015a0f14bda0787a729d
fc33f29669cb604c3862ae9feb792081
fc33f3b7f08d2960aac4c7c549325d5c
fc33f469c023880c34a8ce597002f462
fc33f64af12e5596be578d4b63394d00
fc33f64e5e641a792075b05381629a77
fc33f680eacf1b6f152da010814ead71
fc33f6861af57862230932c56178f38f
fc33f6a29111c1a18cf16afeeecadd57
fc33f6f45d07d77c46ef7b87a48300ab
fc33f8b2965c9261bbabd7a5dbfc9048
fc33fb2de4afa8bf3a83ea225ac3738e
fc33fba9ce9d2391ba000e1fe0275ea6
fc33fbc0698a2995a8e0fa6c92af858f
fc33fbc271cb9487b3c26159dc51719b
fc33fcfcae679671fc55c807477b8d65
fc33fd6cf6f8c4e024fdded966747a6e
fc33fd91bce37abc49d7a72010a257dd
fc33fe16323204c955e32564d239ec40
fc33fe1f17528bca4f6cd98b45933622
fc33fe725399596b27cfebfbc36f999c
fc33ffeaecd8ca569c5b7112bf759d55
fc3400006c9e3fdebaeec7cedf368c2b
fc3401cb8291853f57ae678de25ed477
fc34022a9eff0c8aa249a90337f482af
fc34022abf0ea99078f9e375849e1909
fc34025fe31c67311e8a38bc7ab6338b
fc340306542116e648283264810e5cf0
fc3403816d3a95460bdac9891c891e21
fc3404588bd26a79adba1fae1bf9a0ff
fc3404666aa039f121b51575a3fe95dc
fc34047568b9741b47723f4f18cf5c63
fc340515d6a43765cc3a5abfd2227054
fc3405dee135538b69f63183fabfa31f
fc34063828a235f6caefe1a444cf71a1
fc3406c5ce31b98d7131872a6e974600
fc3407c67d250239b772035087a005f0
fc3408197201019d28fccaeed1e7b57d
fc34098515b11b2e1fa6d768da5a3000
fc3409ad6c59706596e9c20a88c41c11
fc3409b0d1ec1badfdf580b2d5f432ef
fc3409cbe92ec95ae2959a1942ab4858
fc340aa928e1f7396653a38069219ee2
fc340b664a67a4a9a9b0f9fee4b43043
fc340c23f2f4b320f1f8023c45c8f175
fc340daa0cb08220943de902e07cc231
fc340ebf14922f398698f2192c6f8517
fc340ee09ace72c1fe3b48ac6944d098
fc340f1284b1f068743d1f9912eaab1c
fc340f29b94d496da11b364f55fad54e
fc340f683e662615eac049989f556532
fc3410d97cb87a75f293d04ba8ad2c31
fc3410dccf375dfa9080e5d9aa3b516a
fc3411dbda9c693c5231f4525931ab57
fc3412bebbc76c1afefbd02385097ab4
fc341447377d60146ace83d988db18e4
fc3414b407a9030b461912dbaf5b35cb
fc341506d05b6e77c1b7b8d5c890ed85
fc3415129342caaebccc6c5a6fff3a84
fc3415ffeb542d40b72ae207a6972c1c
fc3416a6e6f41d93f398a993237ae08a
fc3418e03b9f4eec935cc60b7f7a2306
fc34190dbfb464c4e267cc4009077ca9
fc34191e3f270fabb8d608d724d8029d
fc341a9a306910b6d098195b39e9eebc
fc341af8a1acca8ffdb6424bf0710f0a
fc341bd058d8d5ba45dd7720e3c131b3
fc341c60b66c90aa1f0075e0574af928
fc341d049c35a344a11bb1eadf4cd9f0
fc341d388b07c0b87e4153068f21f166
fc341fd2a91473743c46eda88a16d759
fc341fd93e6681672fca85f40aecfef8
fc341fe57c81314c9442add9eba5bf92
fc3420a6d01373f386de99c33ae0da6a
fc3420be0dff365e58d77e5aaf0a6981
fc342105956124969632de554490dc6f
fc3421cb1b9f51b3d2bdd420672d4832
fc34236d44c151db0e35473b8e80a8d3
fc3423a0d22ed663f7223e6679643759
fc3425344f388ff3e28e060fe0bab97e
fc3426995868d089110aa2cd099e1e8e
fc3426c5e0059269828ac5217b626f74
fc34271cb6679974525b6b76d83811ea
fc34274f86840db2c283778b7547ec27
fc3427670a530415772486c1f6b73482
fc3427ba2736beb7c5980d799e0ec130
fc3427d20e85c45631a3025f53940a5d
fc34287a449808a07d5817d8ab282d8d
fc342902838a275e41396774b7764584
fc34293faf945c55538e57f5a32de649
fc342a70f9e9475dadeab0337b4175f6
fc342acb963baf3b5c60b2b670b00e8c
fc342b0d9d795b31b88a1588ecba6a03
fc342c14f6e2fd423b294a7e972d3cd0
fc342ce4cc8e50d1b0e509b0e75b43c9
fc342d138b935013d675e5cec11d1c3c
fc342d57623f269ece818105efb310aa
fc342db7e575500497d697aceed23c13
fc342e6ec841d855a65dfd68f4038475
fc342ecd40cf51764f9542c15415b867
fc342f0c081b34d2e8de17b8db8603a0
fc342f553756618f367196d959680aaa
fc342fb1f442eaf4cfccaad8064b3c24
fc343031aae312727b7c45e1f5485c3b
fc3431dd48c666ff159c0fa88cae63ef
fc3432424fa6bed234caebb510f61da3
fc34325b8558046b06ab8b0c35488f30
fc3432cd66eadb93faf4500b785091ba
fc3432edef73d90aa9e3174eab1671e7
fc3432f3bea5a579a9426dd228d46010
fc34337f99dc31a4bae82fe1263f7720
fc3433f7bf8409ece3737a0673d6509b
fc343484f08ca37e0a9886efd6804308
fc3434db92640b4422e8e2af1dab317d
fc34355f991179006f1d848812969ffe
fc3435ac2b479084a7e504967b562c49
fc3436aa114854e9a5a930051a830d08
fc343756b54659f72afa986a1a3a6eb3
fc3438eac89ff068f5a6ffb3bb2335b0
fc343ae8948ee144942aa1377e61203d
fc343b49a08930e2bed56a3c194b14cf
fc343c78964c151e5fad7103c01332ef
fc343ccd46bdfe9bbac8b8e58a6ba3c5
fc343d1ec226b064e87e8bda97760fa9
fc343d3fbb347a449e43a236999f65f8
fc343d650a4514867c3f383bceee1af0
fc343d6d581ad87bb852e1468d279736
fc343da8563ffe1be3174d73873e1090
fc343f4e8e1a05b44ef267dbbcdbc421
fc34407df47ccd5d73800089376c8558
fc344090eef1e39a1885a396ac294654
fc344092bd08fcc7e5e6dda61b10ea30
fc34409999bc5e3193815d2c86052e74
fc344192916619a5ac0f87280107ba2d
fc3441bcc971b500e18b771145f97da8
fc3441f7e86c043727e7045fe3f8b133
fc34430ce5148491eaf8dcc13c40cd5b
fc3444801fba04509196511b79701eff
fc3444c1f1c68d2d8ccfb02b9912dcc3
fc3445505311fddecbb5821c24f3165d
fc344562bdc577e70addbd5102ba7336
fc3445a6c1fa1a5feaa95a210bc5ae0f
fc3445ee66d02aa112aade9547fa8e45
fc344613e0d2964f80264d0a905076e1
fc3446505cd2e2f08abad04149da9e75
fc3446bba7799bb52999770a9bff82b4
fc3446ca02fce785cd958c2e8f22a221
fc34475a3cd554866b996ee2cdef53b2
fc3447ed8ad1f3883e63a64bab5a6ed6
fc34485f13c11935897c833153365d1c
fc34489ea48d0c3ceccc1d896f3666e0
fc3448aa664c317cf3fccde7f015d38f
fc3449aac30af5816b6de3954630cbea
fc344a395709231b7d80d467e3abc3fc
fc344a765382741194986822ca41df01
fc344a8453b50395e2ba92b29e063170
fc344b1b84b7d0d96f69c1e3fa85c088
fc344bb23a3f1848069d9a1015062a75
fc344c2b9ac2a1f907e1ec3adaaee6eb
fc344cd75e1102ec97790147cf1b39ed
fc344d6de0d6491ea37cf3e553c9ed19
fc344e1067da768c1af7b5a205bdb99a
fc344e7c4f295aa37a2b252d07678cb1
fc344f4118e51019fd5890cd5d464ff1
fc344f6f56c7ddf705fc846013ab19ca
fc344ffafe46e865a619c5a925fa6315
fc3450a618f288b0da4bda0b0b7e049a
fc3450d9d6cedc5033ff52f7c15b820c
fc3451628824907412dfd59880806e30
fc34538d286d5e0449269281932d8b2c
fc3454bd5dfde3fde9da9fbdb1497ae8
fc3455b846b1b40833fa7b772b0506a2
fc345618d264230ce856b52593e5195c
fc34564db4e550359e83ec4e813c7e73
fc3456f2e4f1832eb7d713d0d919da08
fc3456fb92c266701728ff80e123271a
fc34570845f6521638f576ad5ad59cf8
fc34570a2b65270b683f13a98d58e0ca
fc3457b442626dfefcb5c198023c2884
fc3459df6a5e5a61ee0d236110bb14fe
fc3459dfb5a227ce20016662f6eb3e53
fc3459f3351dfff4a61fdedb70791b1e
fc345a0b8650f46ff1d80bfe2192b6a8
fc345bca13dcc71b72a300f70399e362
fc345d83bae6bb2f45982174e436fa73
fc345ddca4847ac6841b5bd745edd599
fc345e5fddeb1119f8805d9da9f745bd
fc345e84f5b7b01cb89705f63375465f
fc345f2c354fcf6f1c0d16df81652b8d
fc345f2d7d731f90805f938bec9cca13
fc346063430a38d4045be298926bee40
fc3460c0f17804b9777f9f86ca864456
fc3460db34c8bd6ae845d1db139faf4c
fc3460f79fe1338311bf19ab599573d9
fc34622f0f65b83ec1eeda922e912007
fc3463f64e3062134ec22c513dba4259
fc34640cb6f7bce81542c986cf3c8592
fc3464281c4275d39ba6b34077dae10e
fc34657bd7f22f325d7322086f20d6a5
fc3466175e1f0ad791827b66b690ca60
fc34671f6e619c5b8d4c7821b925dded
fc34676e78c6634ebf32f17091e6f6f1
fc3467e37b4220cc4e6d037d3697714a
fc3467f740dae2a7188692cc9950df63
fc346a5de6b574ae9abba12b9cb177d3
fc346ab5e0dd2262069d1ed18de5deda
fc346b2fb8cbb56f48fcd8a1cfae370c
fc346b6e3bfa021c434d65c48a7a8468
fc346c7701521851fe68e624285fb542
fc346d1bb66e4e4b0619f1d29b58959d
fc346d3ba7c33ae6f27b255ec98d5eda
fc346dd2b87561baa21bae55f7c38dd2
fc346e85e0c55253aa395a27f92ab4f9
fc346f5aecfd72a327ce07098f15dee4
fc34718867a5d90febacc4ae0054015e
fc34727d7cc1059f8b9ec3b9dbf60bfc
fc347371f858a4835d9193d20ef8662c
fc3473d2252d98e8a1b2b361ef2fd257
fc347481479907cf852dae88489e78b4
fc3474baed23495268c61ea8ae0f12ab
fc34768b35598ede5e933eea8155728e
fc347781a6ad723ab4d3a00912eda909
fc34778dee552f04d3910b4b9b14d38d
fc34789d4641bc11b0b80e8942162512
fc3479dd552f1241bcd8e71ed037bfe1
fc347a08d179e91d575df412cee519d4
fc347a728ad8e39baf9eeef8f49f7712
fc347ae87c0dcbdc24e13d218644ca1c
fc347b24c0f5a7b65ebba3eae7290af1
fc347b89bd400013b8e6d2b9001e6021
fc347bedcb82b477e7bad30b77665e60
fc347cf2458b8f40de142256dc9e25b4
fc347d3b4fafde0aa6988287b3a40fe0
fc347ed67ca9727190e30481302712c6
fc347ed6f11bf012a1c3e368a7fc22d0
fc347ef5fedcbd9060f875522fbb1600
fc347f547ae1bf186ea34a79f811ac1f
fc348027753f8379acfe109fdd92c6f8
fc34806d390a02b0e4eb0286f17fb20b
fc3483e7c66484910cb988f4cf7bcbc7
fc348439e04d92526180b81d52db2fe0
fc34850f421597052ae0fedba7a0ac8c
fc348557470b60ae5cd5abc21b6f6184
fc348584d3a0744ee6314432dab58912
fc3486738285418d83519067d03830e8
fc34868d64f994919766f98bd1579181
fc34874ef5a424d6fb5142d4840904d0
fc348851d02750853b4af0feee7c2045
fc34898db478125ee6b0b8b1d186f799
fc348992139d02b98ce47c5be55d1a9c
fc3489bf3696c1c054c7cefcc4c54155
fc348aa761ce8b8ac80a1998edda39e4
fc348aacdb43ca851ad00cc66494009f
fc348ae895d71313c233cad4722b97f5
fc348b70441845eba5db88a5c012975c
fc348c12eca029bb5c010f13c5799f88
fc348d7e296b42ebcf23044abbc734f9
fc348df9e84c8efe1e21f2a59c2acfc0
fc348e9d7d46e19fbfa1a8a4b21117a7
fc348eba756a50cc254df458aa3f626a
fc348faa8c3e283a3bd3100b2dfce2a6
fc348fd75ee52327e45cdca4c2532bd8
fc349030c9629eae73606bfeaf6a7b16
fc34905d32fb78dbb0cc1634098036f0
fc34909304a74f20aaac238e1885d8b3
fc349107719995b32b463157ae3325cb
fc34913b93e63da7c4492659e193eede
fc34920365a45467653ce1be98a4de22
fc3492145ad67e63248a66c28a85ee1b
fc34925b88bca505beaaca1c94252c2e
fc34927b50c3c6749fbeddd1c2da7479
fc34928c1b843d83bd0f73d57cb2d1bc
fc3492c9c59ddb25218493119c6d94b9
fc34936cc924fdc7dd73a292eb095e0c
fc3493a1f035a813d2c247457eb64170
fc3493de8d9421a75246dca4875fa70f
fc3494739dbf7f5a2ba50a6595e9726a
fc3495f864fd4ba368837b9da12e39dc
fc349865526555d55d5d7161595bf6d3
fc34989e97282443fb8bce17b8fcb5f4
fc3498c3b1b211338ad3d260a3c81520
fc3498d35c910a6aec8a8f3a1f045eab
fc3498eca609c21a0e90ec2a8adf4078
fc349936a493bca16e374b7d62179191
fc349963dc1c816ec08a1d86ce00ffdc
fc349aa7bcbed777c818cd5144af14c9
fc349c28a13cdc1cb1193c94ca6f0ae2
fc349c94121312b988039b22bbac3853
fc349c9b478e34e0a6eff63f9d2f5eef
fc349ca5d46ef42a12b872094c5ff334
fc349d934d31f7c66c5d90e2a0f4792e
fc349f386de948bc4a16125f76df8bc3
fc34a04c8be9a1eff24fa12de9c31af6
fc34a06a8da84ca65dce0fe97ab7c335
fc34a18cdfc243a67b2f285edc74ba35
fc34a2d62c3fcbb13a4a6f3d6433745d
fc34a30b5061259f23b3dfc2b09157e2
fc34a403cd2f7854403ad777e4a2385e
fc34a4e84af8074811a72ff8e3c247e6
fc34a74ed4b5a17ce6f4e4665e5a2eb0
fc34a7a776b620f8cc53d16b93d61afe
fc34a91f39d8e02b719f2319484a7eb4
fc34a97495b58d432b7b6521ef2ecae4
fc34aa97947c9abffa5d10e89969e573
fc34aaf120fca0c2244be658b8a6027c
fc34ab279bcc0f211a61b86a31bcbb8b
fc34abaadedd96c2520d44e43c7b6790
fc34ac36cd44910d5007cf101eefabc6
fc34adb858eb61030cae1e769b695155
fc34ae0595f8366a16a519b5742404bc
fc34ae80aa71992b4fde25d2563cbd1d
fc34aea8f6e52b9187d678d933cf19eb
fc34b040e4cf1f05d3e879a583e2c1ac
fc34b05cf836c8f0e17553558322096a
fc34b07d2a76ee7405a26bd4c991bd1a
fc34b083dc3870c4c4d49f801efeba29
fc34b1ffecb8373ed5e77e85b40d5bb3
fc34b28e443844c4073a3f8702c4aefd
fc34b2de55e140517ebddf5da99a0663
fc34b4965b755c90898b96cd89e01a6d
fc34b6601164faa78b23c6624f32dd56
fc34b68193cf155b87f43afe280bf94a
fc34b690e3da3b92cac9d3689398f534
fc34b6e9d41e7434a31b27935b81a601
fc34b7f863eb50c33c6dd31dcc596092
fc34b87f329b28502e9e8ab7e4bacae0
fc34b913d90d6990c017648be804ff77
fc34b9328d820ca02a1a1610821474ef
fc34b9b7a32084882f0305aab2f6c7d0
fc34b9bad8be418a33d8408d4be8f3e8
fc34bba86ae1220fecb7d91c812697a7
fc34bc650594d698706f022cb59bd863
fc34bc74a8c015fa59cd07b049caf74f
fc34bcc6eef954ff74a0b728b1e27466
fc34bce6f1a24bf519d2d1381c988393
fc34bee28052e79f6172e821b2673181
fc34bf3eee62f1fcf594a13b87c45f3e
fc34bf70a0770d3971d70a331e7fc934
fc34c15fc23ebe31287856aa3a7091b4
fc34c1a5660beb52e4f880f2c2d6a023
fc34c266b98e9bf581313f592df5bfb0
fc34c3087bce183d344487f4855a2bde
fc34c3c7a7013dcf5211581607e3fca2
fc34c47ba2057afacef5136f803b5a42
fc34c4965ec3ecc1eef7ed3462f8461c
fc34c4a063734700f763b631e0611883
fc34c6228ed4183891a3e72727eb4cc0
fc34c7077cdddbf5d843a12b616b5d6f
fc34c70ea15defbaef90eea39f7faa06
fc34c7f62f67218177400c1d3296d04e
fc34c80b8ccfbaa77c22e095091675d0
fc34c8e0f8631819d631b2174998eb12
fc34c92200f83da45023c9c8a1adaac5
fc34cad614aa0b79700fdea0569ae782
fc34cbd8d948773758c0071f0713abae
fc34cc4879163450aaea3709909588ae
fc34ccb4ef5f5c8fb7dc0b22e2c256bb
fc34cdb2a485d57cf245ecc24e51489a
fc34ce215584a4aba9fea6382ec267f9
fc34ce2c62f0b31877e4f559af36c1f7
fc34ce3fd29c59fb9683ecb3cc71039f
fc34ce541ded1581c27a4e7bef6c5840
fc34cec8bbaa5bd559c7e8c7867d9879
fc34cf016c847f424fd7e5b9c36141e0
fc34cf185fb7ef32eeab3e7980f7e950
fc34cf19986904ff1a3fb903a1adf3a6
fc34d072438dac548a0ed99aa82dc7bc
fc34d15f7cbbf76c7f92d58728401535
fc34d199b4f6288286899b51d56fa0a9
fc34d1a12d91c113e424084fdca3e271
fc34d223fdf8110360f8501fc217b36a
fc34d2bf65198acc551ea414b42c3f7e
fc34d2c7995d44814dbcec2985dafbec
fc34d2fb7ed4390a87fb9133207941cb
fc34d3394e61305f5f756953c3da790e
fc34d343f2a05d512e6620740132adce
fc34d3a555ff70951d6e351cbcbeedee
fc34d3b8bb9c516c3e6b6ca73a3072c6
fc34d50584b9d64a82f56b9abc104aed
fc34d5c4dd4ddd38db154590140d0498
fc34d61aeda722729e4e728f0f42d109
fc34d6b7229e9061c9933c1e5d6a5043
fc34d8a19e83a608ec919ac0d9b8e4ec
fc34d9f76e97f245878fdd68d3b5512b
fc34da1380d5c1ddf23b3c2b6d426283
fc34dae9ee74df471bf8523605fd5f0f
fc34daea908ffcabb58723ed0e1d8d59
fc34daeb53d714e50c3ae460a066fd44
fc34db82901a1ada3486132d05109931
fc34db9347c7fa9bed53e5dccf2fcaa5
fc34dba59c4ed51a4446d800b0139896
fc34dceebc59d40d4909fe0ffc6f7baf
fc34dcf74ff305f3caa89a27941cbf94
fc34dd408ac1d186ba759b3adf020b14
fc34dd5914a6eed2261d88f9daac1455
fc34dd8089d0f8dab6ba3cb3b6c6cfa2
fc34dd844bbe948e6754caceb7492632
fc34deb5eee46d958a97c48d951c8a04
fc34def261279c552028c5ef89bc0f46
fc34df04ddb6e76bae1ebf22e4b2d2e1
fc34df12b58720f0597a4e5957673191
fc34df40f7252534b3cf4d79406e42f9
fc34e025a7fc4534442fff6df9fbbe33
fc34e12705c062bdc9c546b1aa1e94f7
fc34e14265b8b969d99a75ce2e9ed2d0
fc34e1b5a3504d1d0f7c19fcfb9a8036
fc34e1cb48a0e72fc1e99628bf951a65
fc34e1fc5cde140b9135b43d94a98b21
fc34e275dc99f945500c6beb7fc948b0
fc34e287a313792ce90ddddd43fb89be
fc34e2d624ab7a8718f96cc502302ac6
fc34e3711bc1da06a1cbff3e75b3ff46
fc34e4164cf4b91bc383e5d477d7b738
fc34e4aaa6d44a75d58a6eff0e9db392
fc34e536ee4252177cff8cf3ea95b9b2
fc34e5c53317bb7d0a577dc9108a0824
fc34e61a6981ac1ab81d0e8f32e0ebcf
fc34e727ea3ff0d0f0336f2ed01e8d7c
fc34e793801f076f20c91487e2500b51
fc34e7d5d839b981aa96cdc8b617d192
fc34e7ebc768923f615be99c8ebeec8a
fc34e953af43857b78da6b0bc27dee48
fc34ea0c46e5c52e450b2a7aa12990c4
fc34ebac7190f5583737955719d22e19
fc34ec8d3677e61cf4f8d3d63ab3a0d9
fc34ed5ccdedf8f4535b9f5ddd8c9c8d
fc34ed9c37463d13db243f156767311e
fc34edd00d9c4962e56eaf0db883c6d8
fc34eded0cb025a3fb09d70f18e5f76e
fc34ee51e3e8ac1f48e9c0416c18cd3e
fc34ee8a33deafcdafbfc6d661cc8c10
fc34eea1e098e901d81c080a746d932a
fc34f01c0e3ba2ac8cba062c767a1e12
fc34f261c18a9af442a9ff533d6831e5
fc34f2d3fdad81e73af43f9170fd7781
fc34f30aed61044aed0e58af3acddb6f
fc34f40b735d92248e39ac0993a92598
fc34f4a68daf0a9fa904dfce652a1c85
fc34f4c5ddeab61c9b09c6fc27091194
fc34f4f5eff124589942d1923f81ce66
fc34f696b188b03874fbf9c12c3f8070
fc34f71c3fc5d81c950aa25afa35d4a7
fc34f889200373b28838452b990db7cc
fc34f8ddb6603c2d076284ade732172f
fc34f91ff52ca84fb579dde22408c502
fc34f93846b47bb22b1085c62735722f
fc34fa412e6c8a877ef96dcb327a4477
fc34faa2327495772587aa5ce9a547c5
fc34fafbc8eedba774c0f23ff9ccb396
fc34fb831fdefd5cb49adcc87ad9b5d8
fc34fca3c40158cd068bfe29f9e27aba
fc34fdf9a1ac9f088b5fbe0f6c860c6d
fc34ff89c07ed368f2bfa4b03bdd87d8
fc34ffb0fd71e8a37b728a3ceadd9ac9
fc34ffb59e90d317ce531635d29a344f
fc34fff93b2b1ad9a5d31479c0062213
fc35013c3576eea33f1267e6315b1e8a
fc3501adc10ab226d1a1d8cbe9d58f10
fc3501f757c66ce1553031e15e7806f8
fc3502090b8f195ddab92d2c0f6123dc
fc35021f6b0997ee38b5a8566e351318
fc3502b5b8aba89b76b607d6e3335612
fc3502e82043335b259911ab3ffee506
fc35037963f20916a39d061cff4db9cd
fc3503909c7245146d6ff0bf659df9bb
fc35048a9bf28b0c53ed161bf30cf0b6
fc35075f9f8cac7bb418bb7471c523ac
fc3507f121d63781393792d00802e1ee
fc35080e1ab1e142a76f96564bcb2e14
fc3508bafd3e98666f28d04c329f8154
fc3508da851a98e52720693466a21d82
fc3509364b1ed178113bf69e60ae049c
fc3509663ae446d53eb1989ca7d15aa0
fc3509c06549d4937e8debbb74df6630
fc3509f64d723f656bce26f155d0dce3
fc3509fe675adfbdf808caf4d947a43f
fc350a63332f73a186fc004ec5cae033
fc350b669bda6bff66b3fa7685339fa6
fc350bf7ec9e19f112fc3621a053bead
fc350c1fd6f3afd8d2bb97141216650f
fc350c24c995451da481e765c1b23084
fc350c78418e3653c97759b1c66a634c
fc350d05cbaf1210f3852ee5f3b717e8
fc350d10e577e69823d5c640994dfaec
fc350dced8a11f5510117aabe951e282
fc350e1a39ef06a059ad4a82d1f339a3
fc350e8d8fd8ba6120526700f1efa4ae
fc350f49f90b8faa9315e5a47e82d691
fc3513177727f379099491c4526f834b
fc3513772234c819f0df89c91e39b152
fc3513c3522608b4f0c1c42b3c9c682e
fc35145e38349b13296f943553d53d4d
fc351540382810e3b18f355e7a7d96db
fc3515631d72176aa0169aee1dc9fc98
fc3515b85559f95d543ba3a1643b7465
fc351672c1d192517be5f05e4be1e81f
fc3516a6e75101247b2a0a95c9821122
fc3516ff50319282d718a333021eebd0
fc35177263214dd03eb82e0b83f25309
fc3518831fd4b14f58230bdbc855043c
fc3518d8d07464473b0124b5b878f954
fc35198a1d78f0629677fa7919862ec5
fc351b45eb6214aa0221fb687afc4b63
fc351b695076674817cb5b0453ce2ab0
fc351c793a1ccb04414c62116cdfe085
fc351cd9272b5df4a70531be66786369
fc351d13f16847458fde92e02a2a0b2e
fc351d7279b9bbd42c6ae360bce88d5e
fc351d91bed516a07f41fe6435da4d94
fc351df0f4257fb26921f9a13cd55817
fc351e119050018bdd0e0314d8b77a59
fc351f0561824af564e8ca4c2d2546fe
fc352021f59ea44993c2fb36b4fb58f7
fc35205eec223a1048dfe5f50c7ab355
fc3520bbc51919588001375ecfe67c21
fc3521a2ce857985d7533756edf05a54
fc3521e5b0c10fda03b5958dbe0f794c
fc3521ef9f2c57e75057b3d66aee9eaa
fc35223ac736d3fc2b8461fee5c5c0f1
fc3522d6adcab9a0fa250f0a016e2d71
fc35235a2d6a270fab1eefd9bca15b71
fc3523c020a887c75e1b3e916268b0dd
fc3523d32b5c04bae862410de8bfac9f
fc3524e105f045a02c78bd2aac6e44dd
fc3525612252204d5215f99bbb6b9887
fc35256c0b6f5cac349c37ac22a574d4
fc3525e5fa9cef4001a8ee56810da4af
fc352605f47b6e8271342ccae6dde17b
fc35269b7fb980eaf794ae6d5ac4acb9
fc3527b0a6eb966ddd69c84b83165b59
fc35281c6125922a4dd9c15ca6b2cc8d
fc352a240d61e5974c942005ce5bfc64
fc352c9f64c79bd7dd8c519d7d75ac1e
fc352dc8230d24209fd36dcca417417d
fc352e3f6340ab331d0772e711b08921
fc352fa9391c38b1ebe4aa918dc9e251
fc352fded8a1075e013b22d666b74859
fc3530fa27306ff770e056fc24ea8fbc
fc35320fb774ecb765f1e4e1c9d022db
fc3532712bdc314dbf668db7e1f5559b
fc35330d74e0d61c084436f61be2d6c7
fc35330dedfda8aefb447224b7af43e7
fc3533320ffe28578ae47bbabbc49dea
fc35343eff9ca7cb4774786067d34eb9
fc3534645ceaa436ca49a99252706c77
fc353468716352f834c00456c0d4b422
fc35349fb334be51aac993d4a7e6809f
fc3534acd6605021707624b1b1c133f8
fc35351970d2001cb472a0c0e813efdb
fc3536f24d8c9fc9894f8523e4ded3a1
fc3538034e2eae116bb661d4f6bae504
fc3539040ee96f62ebf0ff8d46db49a0
fc353935b29da21d132a78a3b889b56c
fc353950cbbac7ac9a096b117eb50f52
fc353985ba08e4bf8aa29586369cf869
fc353a28fd02d4c96af8705973da8541
fc353a2e42b51d31a44dcaa393480210
fc353b26ce47e5cea1122fd33ab16e0e
fc353ba586c04bed4e18982860cf52f9
fc353bc825054457580ead13c5d818d2
fc353c3987f036c53a6bfb7014dd396d
fc353cb1365e7aafbe3188ae18ebcaaa
fc353e248a96e8758857d3e214820150
fc3541caa88d5c2399088d1d478be692
fc35427546f531c69cb339e933d6ef82
fc3542b09d9a0f8544d3441d006e8f43
fc3543496dfe15252d3e611ebe4a2c4c
fc3543675cf16f2aa56e841bded3b5d1
fc3545c2389f49ee0e034846767ce27c
fc3545eb4ff1a5988bdfcf5978f9cc8e
fc354613541b391a01f01ad7d98927a0
fc35462a164a0a2bd74b496fdb9d3976
fc35469359f382c7ba4b6fa249e721b2
fc3546bebb31996ca0e5cddde2be5777
fc3546e5f4d136c3df6093a35186bba9
fc35470dcca40590f68f0ce7896cb09f
fc3548243be532a3ee8c48cddffb85f2
fc3548d34c2f644f6703488c0be6a29d
fc3548e640029572ba5a3fed0f01364a
fc354979df7dee92136ccc3c1a217913
fc35497cca46ff61a6c1eb2b0bf4339d
fc354a4bd9130a36bc76bb4ccfeb9d13
fc354aa4d2ad299956733e249f8bb2c7
fc354ab1995d09503c9fc0830ead28f3
fc354bde5a3feab9bac8973a5b00dbda
fc354c2f0f6e8734119dea283871f1bb
fc354e5f88858813c7c26fee9b7cdfed
fc354fe03a6fc03d88d128e809d3a861
fc355069abee1e61c594a3048187fe9a
fc35509e78ca40f1f1ad5932556fdea2
fc3550d6ccdfdd5f37b984634850a51b
fc3551ace31ba0b0322fb37a396fab10
fc3553108b1cce89f085cd726a136135
fc35535d494ec005814708113b72463f
fc355360a648f7eb5256290de4bbdf28
fc3553da69bfcd4f5f22b761cd4135cc
fc3554f3123dbe4a6b5aca20a1b9841d
fc3556b02ff781d57572789b2c58358b
fc355803aa50b0667d8ac50a2374fbfa
fc355812bf55ebc1946309df8488e140
fc35588749dae4d5253741c27671ffbc
fc35595120b7ab53846c8982f80d9fe4
fc355956ca9bf777a3ef7a3a7734d393
fc355976095f60773c35b9b37b774b7b
fc35599d83ff5f16a1c0d3aa62f63de6
fc3559f8d8f534fd7f317a14e43bf213
fc355a30f1ad2d33e55942f39c750228
fc355b94f90e318ea7ab1c7c84638d20
fc355bc5bccbb48758792ff067082466
fc355c8fb6d138697f3bff9ae8ec2a77
fc355ca39ef6560b9e8f9d1038b85242
fc355cb6825eff2c1b006cd6db29c807
fc355ce2c1020d7fc862cc64bf256dd0
fc355d328d777e52ca7e6731388acfe1
fc355d4b02ed50c1a7435f601a29690f
fc355d7505ad8a9a68c88d23abb27888
fc355df289adf7427acc64f27fd2bcb0
fc355eb0c0f94c672a68bfe4df37eb6a
fc355ef6dd3143c4d25c34f3e03559d9
fc355f70dc47eae1e5bf776a992c5adf
fc355fb6c6e2caf1d9f55f29b44d71a0
fc3560a8cabad100b5087f3f7b355f79
fc35610af734bd30fbf09c168d09be37
fc35615f50a7d38040bae14a4dad8f12
fc3561e42a55e18887be0107c9932d15
fc35642fbc1b4b109801808613440732
fc35659a2cdb3c996083b378d5dbff67
fc35662425b31f1c4f4575da1f31ac2d
fc35680f56bd65ee4ab8f5b7dc93ace9
fc356852d9c55ff5395371a1a3b0049f
fc3569cc553e487c39d88a3675cdaf14
fc356a02ab72bd6eb47d01ca0acbeb1e
fc356c643d13ac068edb011a97bc2ce8
fc356d8574aa9cfe46f8b665f5f94fad
fc356e507739448550f0ac7329890a21
fc356ec1cdd3833a744fb81f49779c36
fc356ec4017aae045d3125404723d0c9
fc356f432503725a8531a594936ee2e0
fc356f792f2cecd4ef85a4869cf09c48
fc35702430d50bd3fe2408fdae256f5a
fc3570330a6d233c81df8ce6e22552ed
fc3570f58d0f6119ffc4d99ce8391d80
fc3571bcdda6cbedf2eec12a54baf707
fc35720a57020fb97df196abdcc31f90
fc357211cf723a7c0d9da9798be2e88b
fc3572f54841b88ffeed10c7666373ee
fc35730c54720def196985b8745a1fa8
fc35734b27c11ee5d54a19dcac3126af
fc3574f6f4c6136a0092476c815c394c
fc35759f5d5af0695bf498c99dcb9d41
fc3575d81a4ae9b0a1e5f0352bbe6773
fc357679b9f02abaff0df754b2b89f65
fc3576fe50701df70f9fa7d2b57a2491
fc35777226ccc015a62d3ffc03244837
fc357772e76ec362603391defc2d06a0
fc35777e704fe088da602b62d0d77532
fc3578872f5c41ca7228aa27c87a4db5
fc3579054f4a8b17d4db2f6eeb7fe62c
fc35798316816ec28253d724f8efb3ee
fc357a982b1afb7616054d0084902e10
fc357aa9365a53cb86bce7f28c97e7ac
fc357ca83c0acf538cf41312057e378f
fc357d525eec34c20f5e2772d1b89e60
fc357d8cfd96761d59183caf0c336549
fc357df7bb75c372961b949f3ee30228
fc357e13e5d67ee45523bff2476abaae
fc357e73103a12ebd4bba34ac1568e40
fc357fb8876c9c2903097ead6b6ac489
fc357feb47a60dc83e18c9e7d09bc2c8
fc3580247e1909401ee6ab75016f39f4
fc3580549ea6808f7753fbb334a2737f
fc3580629a328187828381a9af832855
fc3580a0a934584f00b47c25cf3bb07f
fc3581dba5cd12fa0c47a988169db93f
fc35820b6ae0af2e52b9c396e8786597
fc358221e872a5dc0f1382e7b1062386
fc358227fde86aec0965d5b0e16614e2
fc3582bc3a871bafab3e868407e8cb78
fc35831527095fbf2a448ac688442162
fc35831807b0b19d2a2833be3bc3f911
fc358381ca46502c00bb5ceb87b7ed90
fc3583fbc41051af5886c55ad9ae01cd
fc35843da96516c8eaf7b9d8b9def0bf
fc35844721b2509bcb825127011a2ff8
fc358608c83e60a897c6905a33866965
fc358638e6a59ff90a26eea38954c3b5
fc3586610f0e6a9eaea95e1024282eb0
fc3587aef7e990dc122d6340c4df8e73
fc3588e6061de59ababd940ef5054685
fc35897c5c5704068d4078bc5a857b2e
fc3589a8630420242551701007266ca0
fc358ac916eb4404e5d157497fc41840
fc358b30895f2c703a68bd30bdfe229e
fc358b6e94554e3cc1db5f256fe081c6
fc358ba79dd77de30b25b68768462c88
fc358bc31bd200c40a942db20ee454bf
fc358d7b352581479cca25d6fdaa0892
fc358e1e672d98071e8daaf1adbe1a61
fc358eb38f0461c008cb3442dddde168
fc358ef2c0f95bb6b8bb3f6c089408a8
fc358fb093accffe98ed8e3e22fc6a02
fc35905b8ee2ea8bd0c172299d93cb01
fc35921ddc586190b3cb87764d097e49
fc35922d7afb274612f7e13cfba2e8c0
fc359245e7f2cf6fc02fd932fb0390b6
fc359265628f7cb5091ece813b230d40
fc359299470f981f8d619af3b7f3fec2
fc3593231772fe4d9a55bfd99e113a65
fc3593ddd018ca1c2bdbf36c07c512da
fc3593fc9960c94a6b3d6a881a725c21
fc35949bd89a611d8f94ef0a244de439
fc3595befe5bbeed513487cebe18686f
fc35968f22f660971a2573fcf6377f72
fc3596e838f9cd2f4e6960d105aa5d99
fc35973f4754c4c05771681708f3a5fd
fc359785bdd817bb3dd04adb254b527f
fc3598b04cf916bf2308231ba18b1444
fc359959707d45792012e680f0a2ac50
fc359976c8fbc3af15612d2621f7d2de
fc3599a18124c9b10085f0f28fed9d83
fc3599a96366a89cfef0c18687747016
fc359a82dfe2a111a3acf164af2284a6
fc359b59b64aaf9c2684e10a3af3a5d2
fc359b7a15a60fffec3c81ef825617c6
fc359cb8df7014c3788e66c28f2d04b2
fc359cf717bb5ffe9cc4b3986ab81bc1
fc359d00ea9cd5b57e81dd7b2bad2afe
fc359d99e1c5d27f6d55be7a5217afb4
fc359db131c367725f07b92272fe83ef
fc359e2ee779a105a6319bfcb0221f27
fc359f2701ee3088bb5a545ca7c6309a
fc359f2c103de59b13cd3413804110da
fc35a0a054eaa615ffbc89d1519daa95
fc35a1e91ab5bfec0ccd6a1990945d96
fc35a1f79ef39fadf454ad876f67e0cb
fc35a320e64c49984fed1d9f4193be6e
fc35a3580e72eb3e3117fe1980504bbe
fc35a489d5d86c9e7f1fd37c247766c0
fc35a48e50ebc8780dbcc909c51d0fd3
fc35a52c6dbe5f1491d8e6898c9e4ee9
fc35a7165457fd7d434625296f35fbcc
fc35a723cb64e9580013449c77b86625
fc35a7ec6c43003f2e4aae2aebe033eb
fc35a8467cb38b702bfd880a8ff01621
fc35a9bfcf171f25e1d63de7acc81977
fc35aacaded89b0a8951cc1b04e07847
fc35ab80c42724f25089cf8d3aa8dc90
fc35abddfddb94c63b471c97c55ee98c
fc35ad6a91ae9c3e635d49ca8f864840
fc35ada4e9b84027ddac4277ec33eee0
fc35adb8b6a8c2e762103fb2f9395cc9
fc35adf7b6f57dbe408ed48c07c07efd
fc35af31ada0df3e50dc18dffefab107
fc35b062be83473ba09c94142d7ad3d1
fc35b0dcdecd89e34a4ae5363a4e909b
fc35b1476dc1ff4ef016b3852e57576b
fc35b1975b3599c10ab0bfe81faa3516
fc35b24c8aa42c0d57cb8a0ade831565
fc35b333de55e367626a977694441e51
fc35b352511f92f091bfa07d4aef5040
fc35b39523055c4e4875f981211aa4a4
fc35b3ceaf5c4e737f2f10a9242711c1
fc35b3ef04d350f27626cf379edde90a
fc35b409a2bb8b2d4c75d76f9ad417a2
fc35b40ade4f13eb8f90a69df1aa2eda
fc35b4692a02458e9cc44a01d162cec5
fc35b4e82c36ffaef406833cbd508500
fc35b558f32375552fe5fb553c4eb324
fc35b5e65f77e46d92f4da3d651cbd70
fc35b6fcd19fae1cb404ea27e22f103b
fc35b73a050c94dc5c385598114e22f1
fc35b7efdfe10447e66e902a3a20e57e
fc35b918e7a8209df5a9d350cd63b0f2
fc35bb1180c0a4e4de4d82943e57eabb
fc35bb1a59eb8ae1c4f3d74f91e6c00f
fc35bb5bf66d88d7f5aa419606764971
fc35bb5d52341faabca9585bd7a3b58a
fc35bb5f178de9f058c84f8b5a512257
fc35bdff833057ff4478ee3c18fa5701
fc35bea26650fd036bdf4e98d4340e66
fc35bfa64ce2d4d8bc0dadaba3c7c684
fc35c0024c7018eb38ab270e5f1dde3b
fc35c04ce09ced179628231e95e65234
fc35c08af27b8a28e5a10cb0b1140e33
fc35c08fad74dc58f2821dc715eefa60
fc35c135d9e212f9c88fb13ebdb9444e
fc35c14b63b1e2e7a63b0fb86d9faf56
fc35c477e5a0172adef299bfdb283561
fc35c588b26347094da9e109b61e142b
fc35c59cde01048e9ccf0b68f37d30c0
fc35c6292b2a4fe798c3680a1c05b863
fc35c6d6e59a177032ef584d83eb03b2
fc35c7947238ef1c27ea1116f8485882
fc35c8651d8ef0d73e3bf5b7704ee79d
fc35c8ac9aa7fcc61deb3eb7fc5b8d1d
fc35c989594829d7389179ee693593dd
fc35c9b74eefe9fdd35d94d3197ce078
fc35c9b88e066682a1786e3695c02ec0
fc35cbafbe4c923a6cf536836bd4dfc1
fc35cbb8ea18042e0500eadb11514e24
fc35cbcc1a23051b9d7f7ff48eae884d
fc35cc1387d88ce7c0c668b60c883b14
fc35cc759f001d234b26229e279ba58c
fc35ccbf3c5e84f71e701e80d5178316
fc35cce9c79fa7ef77c4892de2982cc3
fc35ce1df51a0a53911cc19a96c5e1d3
fc35ce4d39c4e2eb1ae8c5e5e986d2d0
fc35cefbf6d272df87ab279caa5f62a0
fc35cf24dc1ed698e630ebec092d9a78
fc35cf4e2b898533c5d2e63e17396d42
fc35cf6c3700f1ba24142a2145f9e9aa
fc35cfea7d5315b365ebfc324df77263
fc35cff1cd06b0336ceab96a812becae
fc35d050441b8daad5574ee9f676b1e0
fc35d093368e55c289af12d6189f5a9f
fc35d12045241d24d951d0da6a94edb2
fc35d1cfeae97802d53d115504ca54a0
fc35d2691226a294d65ec2ec53a68482
fc35d2758ce4da593d913d42e62c9d9e
fc35d3d5b9bee15b3f5de1c1ca963f84
fc35d4e8a9e0e44fb2d53af65104fe26
fc35d50f07979f2476f5e6308d71eafa
fc35d5bd64cef0e3ccd1fbb9dde62fcb
fc35d5cc66bb47b098471ef9245b40fe
fc35d617340dbbb2728a01a7c8591199
fc35d6864a7ee128a08a1b68bfa0d887
fc35d7410342054ebd57792f25ab82b2
fc35d742602469c2670ebef3a9f0415d
fc35d7aad3102247e97c8b4ae41ac0b4
fc35d86c7d6533966ea9f8b5db351190
fc35d9355d33029525b76be5961c2556
fc35d9699e7ef0a24ec6f8d1445a9540
fc35d9dd3c1c03fdfc552b1c1e296e55
fc35da4c98287c36468ac03001ce9e95
fc35db1539c7b7d738f2646284abffc8
fc35db43f6d45c0ca146d26fca7355a7
fc35db4590e0e796a8ae2191466e7e77
fc35dba7aaf602f748108b2cf7038350
fc35ddfc2dd95f5191ce60177070eaa8
fc35de9b629d829b563d118ee92512a0
fc35df1a100f6e2d43afa3b14752e0d3
fc35e031ae5996ea13e494665bf61576
fc35e0e66ad3ea1e347e6347a1f68269
fc35e247e6a64a16f6176b5fc922dcb3
fc35e28513efe736f09db711e5e0f33b
fc35e3c2001caa62e0d1ed93b7221562
fc35e3e7e7f6c44dedf400353114bc56
fc35e4061a0656b731633f5cc62f6e5d
fc35e4818cd141bd9366d8cd0c35ea4c
fc35e4bfa27255417326ad8928fd84e7
fc35e539c06462a869588500957ab132
fc35e59099f094da421bd8f89205ed00
fc35e79f1e619169fe5a731feb63daa3
fc35e7a5205655a3750c8688cd51bd75
fc35e8afbd8bffb364e8cd1e0e38faab
fc35ea2f37271e6e7ba51d51edc04b96
fc35eacbff5f19da7af61f6f4fd08cd0
fc35eba4fb9859a8529bb4de3c0183c0
fc35ebc89b20f7db628e05cc7c89eef0
fc35ecd0abc3228b3b5761cc0628460b
fc35ed23f496aecd207168b5c241efe2
fc35ed7dfd808a0f068dcbde1981a7e5
fc35ee32b4d88bbaa498076c1c9a1d08
fc35ef869237207e5f5a52015970d128
fc35f0eb4149230308788cbc07e5a92d
fc35f1240320621bbb393788f5131fa0
fc35f27c9950768668085d5d430423e6
fc35f2cf2ec3cb582020e890479d3e4d
fc35f383eccae41d184d0001d0118c50
fc35f3a9dcdf4014f6f749d000e5a891
fc35f41de5f7b4666e53a66dc35cc80c
fc35f54563579196406ea2cbf8eef48c
fc35f5d25601e48d3c629513061733f3
fc35f5eaee8985cc5422ee41447cf0a5
fc35f68d28d5282bdcd0eefe49130248
fc35f6d18c1fe0bf02e0b0863c2ac018
fc35f6f3c8ced81f615c3fd44b518fb0
fc35f70aba89d4218c0e9b938d6f8947
fc35f946e384b97370c65af8bd72fca8
fc35fae38e8e28d96e4eb263bf63437a
fc35fb6a5dccf0c84b389c3c8d4135b7
fc35fba09f7f1ff4848ece10c4dff580
fc35fbaaed336ca967759147441d3a6f
fc35fc2cc76159ea52109be7a114f09e
fc35fca2597afdc77ff232c580c7bdfe
fc35fcd64f9638e47b5a85fabbe93423
fc35fd5528fc8cd7c1c6a5d3e70a7796
fc35fe92f000710418ed7832c0f95c58
fc35ff341d105c4672f53e12529226a3
fc35ff35c75b70db98d3ea2bae99ef99
fc35ff506190d0a95d95bf7ac51ec16f
fc35ffc7d02655754924e402f74618ea
fc360009baf566189d84915b51b918d0
fc3600abb6ac6a7b5a732c227ae1a5ef
fc3600b4532a14cbdc06bb2acaef2d53
fc3602d2ebfa797d2018c792f0d64df0
fc360307a51e9c87e56e284637b958f0
fc3604c00fc0740a2de8af625c2d9573
fc360502453614a9eea7f31e8b5a0393
fc36053aa71419ca77839d2142baf531
fc36055ada4020d2d5e9254b79df54b0
fc3605efb679bdca6e0c62c040cdcc48
fc3606b9fe2b06fef7092f35a748d26f
fc3608b667dfac7b39626e019d8d08fd
fc3608fddcdb9d7391346037e12fe5ca
fc36098c57d4ed1e535a9d1eb7346a86
fc360a313ec5764e6c75b2f7751404a9
fc360a6258e2c12044dd05f5c42128a0
fc360b66c1d897e113917518430744d1
fc360b6a93fbb0bf004bb23807f8e31d
fc360bb8142f119f543d5bfb4850dd75
fc360bdc07f7faeddfdd1b5553902518
fc360cd72aad63fcf8958f2393e64f19
fc360ce4f2fa8181f7cce744608a2ff2
fc360d7f50c2804d28e5a32c309b08ea
fc360e236f221128755cb9590473ca48
fc360e335a10c4d8ec952103864e55f5
fc360e361a4e3d90d09d8220f7a50949
fc360e398f60e7fac0f6041dd698f27c
fc360f06249b077b1dae9ad640a66cca
fc360f7537b6f47ba8014bf8536fcc9c
fc360fed83111c878b4a139a3aa7fb1b
fc361050b6e229fcb76fa8290d0b41b0
fc361078caf1d07e2574bb7dd9f2b628
fc361207c7e6bc6bfe01872b943e22b8
fc3613383ec95372d634c779f9da599c
fc36138d0c165603c5441c68814fbfcd
fc3613cc07b9664353a60ec591e34f00
fc36142ca21015a9793e3c28c6bdd39e
fc361533b7f20c5495a41f8535c6616d
fc3615afb8e0cf62f9888a43e9a9ed72
fc3617fcb25d3ab8f328d902974f8047
fc36182aab81b6ad46cad98a9b284776
fc36185feb9116e08f07aa35da9a94a4
fc361a19adcd8bf00a74cc019706fbe2
fc361a39c9b0eab0373c044e4ef04d6e
fc361a6fb717c600704b49317b0cb0f3
fc361aa0981d5a6298f483f5b7fa89cd
fc361ae6bec008bac01a75b679ee8cd8
fc361aef23e078847a840ff1d189e570
fc361bd0f6673dc6199548e918cedb4e
fc361be645e34bca610bd88f9cd13aec
fc361c38c7db55c2e41c103c421e49e8
fc361c6edffd3c11c3df458b7851287a
fc361c81f17db347fa83a28e3a134a7c
fc361e359ceb88fae38001d2e3685ced
fc361edbe4ab60dd210bddf016e89e8f
fc361f5587f754afbd9e7290a89e99bd
fc361ff8b8d29f0cf6e86628bcd50ae0
fc3620f307574f228339620975703ff5
fc36219b0dacbcc4d5a0a5753dda8fee
fc3622139458f11c079ff8d4f721071e
fc362219038aac403af6e0363b3bc64c
fc3622863e22cb1bef4e92895e63ace2
fc362338179ecfa553c4de873ab02899
fc36243c7b20bcb720abc880eee34e7c
fc36247349316253bcd1a036bfffde4a
fc3624c9d2be73799377edefdf47a783
fc36258d5a534e3e12bc0cddaac062cf
fc36262edcc51159b1b5280038201853
fc36263e08e07e22a1765a85a3d1a1ea
fc3627399074d073c3b293a52d1aeab2
fc362860f1061063287429749dedc99b
fc36293a21e56bda6a66948da47765d0
fc3629c2e04033db595d190d8ff712a0
fc362a2e610256aeac1c3b1db68f6656
fc362a6203dce177b71fde53f88bb2ed
fc362b4cbbf9f2d207d9d157f31b5ad0
fc362c85aaaddfadb9a746414fb0e605
fc362cfdb901efab62d371aae4fed190
fc362d346dbc25fb86017e76519a00d0
fc362d41f1c3d7aa64afa79821f792ba
fc362dd1c8097a4fd522fbb602114506
fc362de11e4b9315e7bc808e921d9f86
fc362dedda111cb19e6b7a84f188b0b4
fc362e178db7e85b10fa531b448f1770
fc362e26ae6a570f55033958d6e4ce9a
fc362f6b9956dec554006cca29676aab
fc362f927e9d00ca9bc353b765968fa1
fc362fad474c8772fdbd87e9049c4e56
fc3630c3c99edf5eb67a5ec8a4014a60
fc36313b0dd8d55fcb77b0df981206f3
fc3631deca76514ab0582876134a5ef4
fc363205875f77b46432c6e5c964daa4
fc3632118779ad1fb248cae49c354870
fc3632c2e1623632b228f711f2a41861
fc3632fcffca6d0208e5dc2cb50cdea3
fc3632fda44bee97e34573a214e79442
fc363333ed10074d663952c77be59376
fc36349fc85aec4e9dcf99658fd28f22
fc3634ce0f224ce4fb50479b195026a1
fc3634f0902cfd0a34c1a8c512614abd
fc36358b44f35ce885b22e8edd59cd79
fc3635bea226b94495a47040b8b8171a
fc3635fc63610bad3d371e13ab66c282
fc363672964f870ce6ea68c4d3fcf6bd
fc36367717853e771d13ce7db43ccc05
fc36370a9891f603026b111c054f06fe
fc363824e17e20442f88a941e949c224
fc3638f03615c228477977528931f00a
fc363a068e6e1b9493f25c6aca198a63
fc363a8b71aa8ae75906ac7d53ae87b7
fc363b193683ed0a03ccf9495406c530
fc363b6f5ec428ad82fbcb4390321a70
fc363bdaa2494a7f05153bf7ee9f9e0e
fc363beb81a62efcabb4ef2fc0f5f46f
fc363c2262e20ffd4c3ab005953ed802
fc363c395bbc74c590b124f2f3792620
fc363c8fd1d345fb82ff18f703cff860
fc363dffcb7337e1474676ef836036a2
fc363e4c8baec317059e6539aa54d2d6
fc363f695ddff532c5c78a49a19b000e
fc363f705cc61b0cc417c7d82d1dc687
fc364034304eac60c313f69abb6130db
fc3640ca4c5b2f34844a4c2d1acfe610
fc36414dea59073d667ac54a4578c41d
fc3641f60ae1f45ee6bc23be15f30f51
fc36421ed51d5a659798e60ea02c1e89
fc3642aefe0642017a5d147fedd015ac
fc36436e4d062207ddb90173e6e659dc
fc36446850952df5aba9b81ae0a4ff52
fc364561e6562fd01991af6d7001ae52
fc36468b729904161be7c35eba157e82
fc364a8acf30aac298da1069379050a2
fc364bd41f0699cac7104816d78a3285
fc364c9e82f6e9cd23174ac06b4a3cf0
fc364db6cbb290d4fdd6f6827c931747
fc364dc6cc0e1e87f741529e909e0ebe
fc364e2b36cdfb6788f939cd23ac5e14
fc364f24052ee32628bc3591303a4765
fc364feaa4cb9f9c94cecd04ac05cb3c
fc36502edade73ed9968efdff1952d3c
fc3650abda1eee04ad8848cb8cb469ce
fc36513482aa07867d7285730bcff443
fc3652ca5e08ac06402e1754e7b1032b
fc36542e1cb4f3c0cbd362e91c442a5c
fc3654abfb5dcd2fa8330253734036a8
fc3655b59c96a832767d6f8407ecad3c
fc3656d00fcc956d2732d48aea35daa4
fc3657c04458ef96c9802a74f0d0e8bd
fc365896203c4a9dba6ffa23ebd0439b
fc3658c1e7200f5424f9e6af433eb4f0
fc36590619f34912aef8c66227c4ea4f
fc365a586d32c68339b2eb61e6f643b3
fc365b4c625e7f3a15672d931e4e30bb
fc365bdcb0bb3a0953b2c86deceafbc6
fc365bfa79637f6961215ab74cb4537b
fc365c3cae5a0ac7d2446ffa8f083ab4
fc365cddfca8a60d05c45d0a5f1f3d65
fc365d013c96e4fd0e0bc836b589b404
fc365d0dddfb5d3a4caa2fb59aa29abb
fc365d2129fd4b9321c526d9eb229a22
fc365de3f38b0584716cd7dd7cce0110
fc365e8e21b76a23712cfad73cd05fd3
fc365f68b32cc16175ed75c9f366c2c4
fc36609a54c8f09988e46d3f14cdbe8e
fc3660ce034d5e8b8b343dd8dad73d89
fc3660e935b290126b88b435f934e668
fc3661535f442d044d30bd0340ff6605
fc366256a3815bd19616e12573167bba
fc3662b05767fc221d3160be7de576a9
fc36639424f46b79173d9dc3ee330564
fc366410b543044ea8a82906e8a45770
fc36641e9200a2c9c8af77a24b73cbc1
fc3664741e0d6ac643da7b3809184820
fc3664cf993f2588fd89b66a0c6d4003
fc3665d88440be4ec9d7daa262b4cd0a
fc366611a36cfbb7355756d71ed733bc
fc36664f43b501d4766a115d9a371be3
fc36666e3bb8355a21aed9a4a99cefa1
fc3666922d315319cc70a574241b793b
fc3666bfc411523847804cfa48a0c390
fc3666d86098e36593599c8192534ba9
fc366769af5dd24c25c1840724c559f4
fc36689d9c59e27cdd20155ca06c60f8
fc366a241822542bd365c877347d68a6
fc366a8e99f7a20fad052763caafdde8
fc366b3595fada00b44832c8965ffdd4
fc366c30ae6fcd1ac3a30a1b160df00b
fc366c3fccbf02c3521498c6d135331e
fc366db943635a2d4ca7577d68c45dab
fc366e55c89c8a8813d496eeb0b710df
fc366f8e3f18c01cabc7a3855f6e6e77
fc366ffb64daeb99b13c5f0f44aa826d
fc36715917966cd70a5965d2dc7235df
fc3672b033bf6d5ff899f49f0f24784e
fc3672df1dc1968b532af26e92f893d1
fc36734b90503f576e8136f956792cbc
fc3673880f0a6cb39110583a4717b5fe
fc36738f76844da580e209bf94b144d9
fc367570a34a34d58b6aa3c71a69daa2
fc3675775582ea5cadbd3f5070acc249
fc3675bc32486df107550204841d68e0
fc3675c23237e1272d0ef9721ee67a34
fc3676be57e309bca046ced2bcdcdea5
fc3676e00973c6fb09043b2c73ae82f0
fc3677170a7042b99b6fd93b15f8be28
fc36772733406bc9a76f3c7bf7674784
fc3678d2483c9710b694af36dee4e21f
fc3679615a40e9cf43e43eb1863a7772
fc36799d093a882c5be2739c1d81d573
fc3679d16ed254d1002cfb8b00341723
fc3679e2e983bf90c09d368ae7461a7f
fc367b4b36aed6c00dbb212dc5a5c4b6
fc367bd5051d83fc14a3dd4e29af327b
fc367bf7e89bd182c0549869f88d3b07
fc367bf86d8feffc8dbbfc60c9520d19
fc367c2973010f042a21c9858c5432e0
fc367cea8f220c86e52a7aa4f9ef3d71
fc367d2ca47b81edf6a454f609c07cc7
fc367d4c5c40087715f382b3112b39fc
fc367dd70d5be3334176d1b3eeabdb61
fc367f4b604e2cd6bd3eee286e2f74f5
fc367fe0c3109cd9f7dbc0ffb86b0e9b
fc36802fd4f115f885791f4f71047824
fc36809bdfdd537eb0c053acdb291a7c
fc368102e06881db5b5782282453005c
fc36814d7bc5268789cfc8b8c6749c7b
fc3681a16a4ab3bcc81c87c382e8925e
fc36834907c614e81ffaf3df0926c2c1
fc3683f008baccc237b3998e1466fd48
fc368444d814fa813d68e220d475f861
fc3684763d16398b72789cdd34c8cb4e
fc36849f48f1b852da066c25324a2c11
fc3684f79d198c2b89b974ace45ed5dd
fc36853a31c0fcf8e645d53ee03792fc
fc3685a6612997a65ba38ff4197b6cc0
fc36861e146992dc19ab359c7c1739da
fc3686421582ea673adf2e4c011d4c23
fc3686969881a1bb95235cb7126d900a
fc36869fda0db943e2d87c57c7278810
fc36882193ececd78a6c985a981751bd
fc368893864d89d056954a45c901310a
fc368a4a9f32d8ac3a51107d19caa7a0
fc368a7a03a5f793fce611a59d75d680
fc368ac4fc30f6243adf42f155721044
fc368ad8cc70e63f9f2729500284550f
fc368b08bc4903b5714ca134bf5e28d2
fc368b72899de4ea9845c90065938360
fc368b8fec909c8a941409c08f418a58
fc368b9fed037e555bc151cc7b20bb5a
fc368bdc194af59802691ba140b4b220
fc368c1884fb17c39c5bcd1942720fdf
fc368c2d1f60ac091483c72b3c7ba9f6
fc368c680d6abf91057928d2380569b3
fc368e7a4d598217661aafcd8ca01121
fc368e99d098b305748241c28d673948
fc368f8734ddcd64905db5c826f23b30
fc369001f5dde9533394918ccfead069
fc3690496af9aaafb3f160c6fdf071d0
fc3690fe40f81a7ff6043f0f4a4db445
fc36917c043bf12a817d9a8525f60a54
fc3691bc5095a19c46f6958a16ad3c8a
fc3691f3adedf5cf04f657c0f9391297
fc369262c4541bacd4facf0c39ef09b0
fc369328165a533b51d938a670432110
fc36933d0cee93dd572efa8aeaefc26f
fc3693aac253b7d1f14c3fdd09b90290
fc36941fc70b187bfea937ed2e6fb23a
fc36949e9acdbe3bc540fcfb22e82747
fc369561c1528ac130c0bcabfa391982
fc36956fed7fab9d81dc9543ab21e362
fc36967338e9f454f4002fb5bd1e1366
fc36970c5a6d5e5c6b4120f13b5c51c5
fc36979bbdc5539e9b882582eafb4685
fc369bb98bd4def09499508bdf30eaae
fc369bc169d7898d3ce227648a880ca3
fc369cf1ec109d9ea78d58352a4bbbfb
fc369d159c46514c96c8a241a51bf5af
fc369d48b9377b983f2c34ee1795bc94
fc369d5e20adca0e26579c61d3c29cf0
fc369e8ede9aca2e6c587639426a37b4
fc369e984bb26c73fa13051573e25b14
fc369ec7df7c491aaada4a58789358fb
fc369ee00ba79edd94b331660501a2be
fc369f54fd27de58b2a79f68acf51c77
fc369f59f6a5849a663d9c04f1c151e1
fc369ff9869dad24fcad7ea349c560b6
fc36a1b8dcc469d17d245816b0059062
fc36a23002ee0bdad8afd9f2d67c3c79
fc36a3b47e97cadc88962d2992b80162
fc36a4b0f9f2f5b0a288a19aa0410876
fc36a514c24658fd892a150ec380c618
fc36a52f93dec4f89e7b5eb74f985ac4
fc36a7151a0102758a604ce6f16898a8
fc36a83de21ba9f43bfae8a42501c67c
fc36a9082e8b64fe0fde1673d4945c5e
fc36a9e87e24bd5748ca3d81b9e5bd33
fc36aacf8dec9423ef6661175b04c0a0
fc36ab48331657b71a33951edfaaf5d8
fc36abdd5acd219064a3da68a03319c5
fc36aef777c0607d7019860fc3518fbb
fc36af846ab48bcef717193d71dbdfef
fc36afa7d4f6cb5e394cfe363a3867e0
fc36b1945806e7851649c1101e52a138
fc36b27958173b54c929701a7cb3c169
fc36b307c04c889f77ac620f589a6fc0
fc36b3092b553a356108b65d73be372f
fc36b3598733f4e9217b77beac5bdac4
fc36b4369b051fe20a1f5c3a4fa5c777
fc36b486d1cebe228febe459ad8aa84c
fc36b6159d289c71c0e55c7a8bce8e4b
fc36b64eb79d4a1040ce68155501644e
fc36b66948ad80e17a13e93a5f4194f9
fc36b72ba731c6dd5e75c3a1d4023851
fc36b76a48f3028b94361bd13c3de1d7
fc36b7a6aa01b31dfdaeb044373727a9
fc36b7d1509ea2064807187a216c5150
fc36b815e9355a0602236368ddd66e30
fc36b8d92e2a25df4e8aa41b3585d4ad
fc36b94e8cd109a7c667464206d9f8ba
fc36b9b2098999b3621aa75867af9e21
fc36b9c4cc25d72279a86ce3b84e06ce
fc36b9f86c85f1c47930a1c328a62e61
fc36ba8c65087d155c3d4e83d22c7be7
fc36ba929a4385303769cc3dd76657f9
fc36bc5a0f7a2bb6bc54d1703fbde9fa
fc36bc611a6a0083a89a486f3b682bd7
fc36bcce3d3824bfe7a305225d920c36
fc36bdd5550f8f510b1baf2583d1fbfb
fc36be2877f107ee96fe5090c310783f
fc36bea0b3090680bae1fb8396bc7a0d
fc36bfafc505c290f7210fa2790f28aa
fc36c04e0c04668289fbe005475417f4
fc36c11e35cdacbe59552e84568898d0
fc36c1529b311001110b2db0f9fcb9b3
fc36c23af0eb548a5a283d7012188425
fc36c27fa8cf33067d75d5400b0abade
fc36c3230844e65b9ea39e5d90577da7
fc36c325b0ec28af73858c24553b2406
fc36c3d4b4299387ac7804c93d87b1e3
fc36c42158fe4088bbb9f6efab7e3c83
fc36c4b6072fb17b5b8d235587f01568
fc36c50a871ee38d94bf0962f3f75a57
fc36c50cd2366363781fac53f8a5e7f0
fc36c58a1aeab28b0408229bcd6271b1
fc36c78e36a603b5c4d970909df0ab0e
fc36c7abaefda5c1e240d74194e0c720
fc36c7cedd67b27cb12bce6cf1274af8
fc36c80b714352a570525f5c96b94ca7
fc36c82008b22fc1dad1ad6df1f75909
fc36c89785f071e827c80cc1367da8c8
fc36c8ab77b9c885bf6512f1a3f8ba7f
fc36c8ce0b2e95b28abe8c18496e4e40
fc36c92c1d356aa28ab0b1a03419d5be
fc36ca9ecbb82a553e07d84f4da03d73
