fc40011dd963516386b79c0ecd608703
fc4001a98f1cb1d74eb0fd8f82d69434
fc4001c89f33f760a500081ad23446e2
fc400382998d814c903d8bd86a0b8280
fc4004d0e1fe1f9442f240bf4407b617
fc4004d92556ac98c4ebab0ad3d26295
fc400500191425454be80f1ac8eb24e0
fc40052cfae9e3f44b7064c92efbcc33
fc4005d8111a100f30700a33407dcc10
fc4005f6294dae54dc4f39421afdc380
fc40062a488c7b126cded72bad50f21e
fc4006dc6bec6dd153b404f7fa0c7f55
fc4007102e11e74f61b144ac9fe8cbea
fc40089622a7efec58051676f3b42176
fc4008aa1c087dca386cbcef3cd567a1
fc4008d01f55fb58a0d2f748e8d75c94
fc4009560aae640033230d8c67d9c827
fc4009859ade626bf31408d8917289d8
fc400c3e5e879951ee79acbdd5784d90
fc400c4e856c49ae5778c394da8eab32
fc400cb327e0779bd497399c7d7b18d5
fc400d06da65a443baca9aff7977ee1b
fc400d2353b557e1eec9d2355fe0472d
fc400da3e08b7c73e717dafb4545ec9c
fc400db8fbac96622768cbb05d58d94a
fc400dead8ac34da942e21694377cf9d
fc400e4462844d000850fbcd4e969729
fc400eee33c07fa2bfbd00517c6e6a34
fc400f31f24c549bdb26c3f7bbd4b6fb
fc400f961b7b157e3b15a74ddcdece67
fc400fb2ac22b43f364ec2620204529b
fc40103146f44b098755103c10c11d04
fc40105a0d23ca10fe46ab0b0e545505
fc4011472eee6c99b07ed62b4639f248
fc401184a913916df424586422ac6cce
fc401247c029ee5c53c576fa8e0f5aca
fc4012aaaca43006b1efe43a2235b7e0
fc40134eff77dc13149c8b129fc0e63c
fc40136a53654a2dcd8a8aa2ecbaafc0
fc401391cc0a8896c729c2ddb301f5b7
fc40142b6d6b9ad9f17369d0bce75826
fc40160057cb9366e1db474cb062976b
fc401633d7f84c1309a7386374c5afca
fc4018081f489a2a211879b2f73877f4
fc401a97bf475c38c04409f84afafaa6
fc401ae14aa9f7e506f64285a8e58379
fc401b2eaa46ec531e866c3af7df7dde
fc401ba59107f538cb20968973c48e05
fc401c0cd0bac59873c9f7dd2b706e30
fc401c43901480a8b960aabf7b65dd19
fc401dc8e686af54b7fdd2acdcecb0d7
fc401fc6022a3d3931d2d92bbb9820ec
fc402078e5d2fd63bf6c49589bd163a0
fc4020d9074bdda1abfc1693f1882b5c
fc4020ebc1d526bbdee6fdea2a720282
fc40214b48bda0722bbb4f1800cfbffc
fc40219cf97e8d16d1e462c8263de62b
fc402213491d1c55bc673b917a3a460b
fc40222cad0984153918ee4a9210f1c3
fc4022439f36eb316aaa6a927c22fab7
fc4022acc4efdf86d62cb1864b278069
fc4022d4440d39378efa78db63782471
fc40240ee8ebea9e53970016ddcd55c0
fc40242981ab84b061cb18867c3c9031
fc40256fa4c39ae71f41a0f41dbdb8d2
fc402595a9e1fd619baef020a1c4999e
fc4026107b7be147f703e9543871f001
fc4026c6525eb9ac0105be6049aa276c
fc4028cd23a554ee85c5d7be1cc52578
fc4029f1a1703ecabc3afae3ece7bb8d
fc402a64eab2f617dad1e1dbbf3a0420
fc402b9e6402551464c4026ba3dbca4c
fc402d8923d0749f73d7c16da3796730
fc402de4615b017cca7568abbe191e3e
fc402e144850b194e61fa5ca1de3df7e
fc402eaa213e2166271a79761a46ac8a
fc4030ddc36ae8d97f678360d57bd3fb
fc4031a5ad0c17b6cb4220921db013af
fc4031d36bc5c67d9c0f48aabef67880
fc40323df0b0aaef197e22fb24f1d777
fc403294e7c8680395004a9354e0d14c
fc40332e16c25ea3b337d29cc857ecb6
fc4033376968bcd1ee9219c1a958bdd8
fc403393618cdab6cbd32187db219c48
fc403451c2345b39e2c3ab95969f1b10
fc4034cbec3e99f682c572ea6bd726b2
fc403588106590f371850eb56b7c5f81
fc4035c90c6a9c5bb1bff82622204eca
fc4035eb17a9bf9d6326b90ad64c2c5a
fc40363bbd80fdffc387d7a5ca9acc94
fc4036ad3227297e408b2ba560e12d47
fc4037268fb960ed902eef45aba2c229
fc40385ecbd7ea41ada05f43ab3294db
fc40389d5971cf2588dcc031414bafcb
fc4038e0fa7540296a30b69446684f69
fc40397e2023be7c88dd0f7b317162a3
fc403b74ddb390b6432ca374c4d4da8e
fc403bcab6c68a1779b3b65b1b30b6a7
fc403bd1db25633375bd1eb1de55ee9c
fc403cf017de77f8eec724258683eb96
fc403d9294e2482d95a160218d2b16f8
fc403e11cab06ed7960b0bc5573341fe
fc403e33e2a257612f1fc4ee8e0888e0
fc403e6218217efefebb7efe9385c300
fc403f654a361b1062fffb7da533a855
fc403fd596f1c41bcca8a8d079a5f038
fc403feca4121c2b03a306ab23bb8788
fc4040105ef4ac5c2ebba68a10a3ac92
fc40407bd4800993aef9cca1b5c1c857
fc40411ce2f3cc623670b94655b0d34f
fc4041475235b8eec4176c1993450721
fc40419c66cc9fa0dbf79dda7ca7c239
fc40430a180c606a4b71f25eed6c36be
fc40431aba8e51c976901dd08bea417f
fc404485f700ebe3a612651dc7a3bb25
fc404534253d817021d30235349c0f67
fc4045dc91abfe630cf6972090d97679
fc40466e75f0677ccaf2573afb00f83b
fc40470b81294bca394a0a19cec98507
fc4047885d8863564139dad26a3723d2
fc4048df75a387712ce2ac67ecf8facd
fc4048f6cf7dfb3aa7f47d3d2cad3043
fc40490ad6a1c4cf431c7128d5bc88c1
fc4049c1b921f8b9b6ceefda8ce46f00
fc404b54cd02084a3bbfd87acb5ede94
fc404d123f430aef18cd7ac245195911
fc404ef1914d75eac37d6dc364e978f0
fc404f5cc27198472c249dcd58cd9c8d
fc40502329fc352a8126304c892941e4
fc405024ae2cf030e7d0fd01c6ed18be
fc4052125448e3eeaa6b1f1c608ba671
fc40522972358689d8575a1911efe348
fc4052c37e40986284ca7356e8d2526e
fc40539d68ecf87074e7640a8558c3be
fc405414edb8a27be1a0293d52f96dec
fc4054bfef7b7b0deb4abbd1ea0d326b
fc4055a6f60c504c6f4a1b55a7d590cf
fc405692b53c0557eb937b944c45bff8
fc40577ef6243871f8e87f7a0e28f24a
fc40582b5dea16d65388bee2bf9992c4
fc4058edbab74bead48315474bae15a8
fc405908e457b4e0af6edd35b0a87c21
fc405927ee647587c31cad2576143852
fc405944f86397d2b396f568eb51665e
fc40599105f4b8ae0fa6366bdc9c453d
fc405a9c0355f3e407d588cfbc4ae449
fc405c0b2835a55fb3c01a41e6da5689
fc405e24c93ae7512f24d28ecee522a2
fc405ecacd9e3da69d3cb6c5bcad3f85
fc4062fdc15190ed1d2bbd9ecddcc2e0
fc40648f4f8ac8bf1a68b5276ee55439
fc4064c4b1f12f528a38b536e61ede70
fc406553536e0b643492cfed175cc501
fc4065abbd3bdba116ac2c2fb19f0a40
fc406643e828a7eab67d2f65e9b3539e
fc406647029e28602b510de99ed8bf7b
fc40665af55fef315c1dfb741db9797e
fc406907806bf27473fadf9225d11853
fc406ad62d615ad35dfab31751f7db64
fc406ae2a356dec943c651def3238464
fc406ae2a6c89cc879a9dae496ae2c7a
fc406b4f3cf613a469aa3b889bd3f3c9
fc406ba81d6a51b0b9a4214160d65950
fc406bb6031974e3aa28f759266d3c0c
fc406bd81c46247d9751a75440aa97fd
fc406d3f28cc19e8a432229d3e528c14
fc406d5801c22621729ff619feb0b620
fc406ed7f02ba3425acca33f8fc0511e
fc406ee71a0ea3560691143e23803e10
fc406f152b68f4516b013d0d98be054f
fc406f8d723a4f588aa21d31507d253c
fc406fd9c66211bfa0b9422b09a2bbf5
fc40703954c9fef9c69a34acb2aeae95
fc4070b000d9f4334963826cfda294aa
fc407227fc22bcaaa841fe838437abd4
fc4072780fe58ae78c3cd575266040c6
fc4074651a873d292cd836d46af2ba06
fc407553c6a85502f212267ad1c85582
fc4076d9e1ebd2207dab9cdd853b680a
fc407706c726aa6b7588ea06a2c89080
fc407765bd1365fd793c57c583267797
fc407acbaebdeb1ae0ec2c881e55113b
fc407aefefb44a9f576d75349183d1cd
fc407c6b9a63fba873590c9a504cf995
fc407d5471caf20121c60eee80b6cd58
fc407e2c8b015c8e1c5d9147316884b0
fc407e5b5989e5e9d441ec304f8a9c1a
fc407f0ace9b219998db702460aba502
fc407f4670ed81313fec267bf641a214
fc407f91671e12967b63306b0835e9c1
fc4080105c97eac35a12bdb344f7ecc7
fc408071f7a91a74c292c23d49002ad6
fc408162116e018ba020ff49ebe1bb3e
fc4081acd1631890e6308a99579ceed0
fc4081d92350bb208b55ab685bba9164
fc408222cd461458cd8d7c534ace5cfb
fc4082661014be07192a87d274dc0a9a
fc4083384bcc90177c526b888b176025
fc4083a32ceec3244a246f54ad694837
fc4083ade4dd3086afb10fbd184e9ebb
fc4084b5b38c1f22d782a2775761f875
fc4084fb1838b9b433ce79d1ecac077e
fc408576642b8ef31f68a0072c65cbdb
fc408594c58ab153e9b16f1cd13c7705
fc4086d3042cc583d7d3ac31719dc4f4
fc4086f4d790a0746e1018c43e18c538
fc408736b1006e0a0783b621bf648b7a
fc408772bc767fc0380f0cb5c862329c
fc4087c9dee2925b3e398971ae95b44c
fc4089292b879585856d85562502d5a3
fc40897a60b993eb04f896b709aefa23
fc408b37901092d908fb1df8532330ea
fc408b463cc52b031f728fa9b1bee728
fc408b700a844a0c82af67680f818721
fc408bb30fee538018736856dbae348d
fc408be8e669ffd1d1499af6f4ed5444
fc408cd01a37632dfd42c140ba593298
fc408d19ce6412b42a0e9f00769fbd50
fc408e54167a5b7f110c6dbff549d98b
fc408e8183dab0932051b43538429b02
fc408ef016d741142818819761e06797
fc408f6303e5dd4f615c7b8808160281
fc408f823c7202daa545e7be9931654a
fc4090e3836e26140acedafdcfddad2b
fc40911e674992d3f5c44f24e80f0eaf
fc40915f964fcd3d680dd0c2d5896f1a
fc409461bf6f569a39c8b0e5b117bb16
fc40946831cd8e6c0745586864d76ae5
fc40952dce023a45f09d1fb82c4dc110
fc409594baa36c05fa6b34332ac1162c
fc40959a218d4af49891831329b3a046
fc4096cb5c4e53bbcc5ec2101cd83626
fc4098c9cd60b643571ed6176bf184b8
fc4098e6462055291edeeda1e93f773f
fc4098e894e39e2d69eae0afe6f5f946
fc40997c8a96466a8cd2fd318548c30b
fc409aa954dc85e0f7eef2255e560e2f
fc409b1d71242900708b7539bc98faff
fc409b653e3b06aad80b1380d0b50b52
fc409e06548fc2a7115fd47fc2886265
fc409f43fab4e90464546e2d03cba78f
fc409fd131bc41476934956ccb2144ee
fc40a0586c3e914ac28313dd41619fc8
fc40a09fedc2bcfb39c8951c21dcf2ae
fc40a1de28a39dea5a073745a1d57204
fc40a22a4b84c7965696fef5ad42d490
fc40a30197dafef989b42d2c3a698bba
fc40a3674c4977d9b667d888a84a6a70
fc40a4e4df2f178956f1ec1ca37faf7a
fc40a53ba2eb75b1b612dd9e82278f1e
fc40a59e3b80e263d165e107f52d130e
fc40a5a1b0f5aaba4cf6e86e0e518840
fc40a6976c70aa364f2a8e339e251065
fc40a6989c5c8cdb10e0f281cfa809ec
fc40a7515e284d6e822ced5d892bbd63
fc40a77f031e9be65a6cf318ad70b45d
fc40a8681066be229aba0b866731669e
fc40a872886de1bc9924802b96aa90e0
fc40a88c6e2dc296b6c8fbe2b1e41955
fc40a9c0522237f9d8c07dcf5b0ab5c7
fc40ab68821a927f55c78a3de76fcb00
fc40ab8c471c2f57e3f5fcad4b70c158
fc40acee3ee5f6c26ddb147d9a0640f9
fc40acf30c123dab3f7c964bcf7a480c
fc40ad70c25cea7bc39db6e668268370
fc40ad70d54c41bb34c3eee053b8d9b3
fc40aded27259b902af79222c0aa49e5
fc40adf8f5cbec681419b8e913909809
fc40aef29945d1bd1e60a32ad91f8df8
fc40af52766c6965d18542770a0122b0
fc40afca80ee0e55f1d73d4a5b643d41
fc40b0797ce953408f98289fb62200f5
fc40b0f785b0a869afa1b9d2e0ba2686
fc40b16bded41a08527712133f610837
fc40b1a881d8082568934446e73aa875
fc40b1fc3a55ee74dfad55404397b24a
fc40b230fee79e8a008402680bf5ccca
fc40b2554de0b2cac83b9f0a8d70dda7
fc40b3edf71cf46f2bae347db60b8b40
fc40b463fb88512b1e68e3b948cf0eee
fc40b52185243b416182375aa7be0df5
fc40b58050143bcc59172b2ab7f64735
fc40b5bb7ce5b76d7f343edffeee2d83
fc40b5be8da98acdbafccb5401be632f
fc40b64e5a0d0dfe7a4b415e724ab9a0
fc40b6d0f5ecc6489ce999eaeaeeb0fc
fc40b6f35655aa7b7fbf2c265b3ebd53
fc40b7d301efcad39da81f4c01f6f220
fc40baf77f6c6fcc403a55dd9087284f
fc40bb05fe190e22366f9bea7ecee1f7
fc40bb07fc2da2db787f632598de3300
fc40bbe79f7d6ea4af9012a231bbba9f
fc40bc049c2391b122093eefbc51ee06
fc40bc11fbb9026e30495c51893fa802
fc40bc62f058f6a5a388da98263b655b
fc40bcf5af005841cb51334b2627d71a
fc40be301cf6cc03eb8256a719e811f7
fc40be6b210f71a51fdad8f9b405814d
fc40be6b3ff50a99975116276aa5ca91
fc40be89654a9ff841441b2f81e14e3e
fc40c0c8385a4bf03541e8b092b9404f
fc40c10774fb2bad9c83fbf7a04854ff
fc40c296d2dee30dbcbc2bc0ff504a1f
fc40c35bbc7c9f6935fbe850831ee6a4
fc40c3d6c43a38996bdfeae75aec2d04
fc40c467c23ec9fae4f737b1f999e4b3
fc40c655b35effe082277bed466c5d0c
fc40c74c48dfad16bde26ad876fc93a6
fc40c880d7b9e9c78044596dc16ce6e5
fc40ca05bdfb63aefaa267cfda7afa20
fc40ca13815b7a00c22d68b88a1a76a7
fc40ca7d746ab62937b3ee8031caf1dd
fc40cb17c694f1291389045598bee3a8
fc40cbcc919bbd194ba731c57e954f8e
fc40cc34507b558571c043da0a3cefa0
fc40cc96f4d5cac079876132db947c7a
fc40cca529acc02ad8384bacb062bfd7
fc40cd9c51d5c3f2c8d4e96b97e79650
fc40ce13ccc16c93bfed1918f0e0f973
fc40ced3f42dc4a1a885ccf3b18c9eea
fc40ceda4e2ef4e1739547cc112ac08f
fc40cf0722bd51d996adcd1bf6908252
fc40d04a8d7b18ad5639925811836022
fc40d10c523e7a9799e07a3a9ff4d224
fc40d1268fdca096ff93cc8014609f1c
fc40d158597837339c70b3c36b10065a
fc40d2f82ffca99ce654819e677d182d
fc40d47d75dcd38e95f5903ff0922f47
fc40d4b4fe42c39e0b49efd39aba44d5
fc40d4d85b120a131b93c17a0d513125
fc40d50786981426d3f449bd250a637f
fc40d59c60e0658d3b9feefe82908331
fc40d6212a750fd2a8368ef255974fa0
fc40d6d73802c4c2aa07c0101754b85e
fc40d7e6ee7c83f4762f3bd3bdeba638
fc40d7fd581e3eef1562d06025020c60
fc40d81b98edc898c7fb33f1a86bcb88
fc40d8924f3e3fc28e27bb9b8456cb32
fc40d9c37d84ad710fe2053d32d8b51a
fc40d9f2079241c5d390ffd0a5f727c3
fc40da6b32bdcb5d7226a3be1986856a
fc40dade9f6df9682dbf5a53480156fe
fc40dbad76e8300942e145a4454de1ab
fc40dbf14424a2ef0290262bc4900cda
fc40dc63527dacd71ff2c43950a96338
fc40dded63cf2668985bb262a010e330
fc40ddfe6b947d774f49d2643c3f7122
fc40def470356f30a868d9054a5e8c80
fc40df57d0eda641b3f52944a55dc6a2
fc40dffa809db5deddbbbea05316b869
fc40e06a397ae1eb89570ccad8b907d2
fc40e0ce102f6cbf85f4eb7f440eb34d
fc40e1906c25c99b7c6f30e2dc15cbb8
fc40e28e1dc08645e1a94311863b239e
fc40e32ee92a989e182a3f63586e137f
fc40e4c4889f2be0a7eada44965c9bb4
fc40e4e5a989e88aed64d9f56c3fd348
fc40e5c8ff442ecfa4bd66ed6fcc1336
fc40e6304c137ff7804327f40cc28a90
fc40e64e5dadba5cc0ea114826a4247c
fc40e660951d455ab80d091191d3fc91
fc40e79d208a4a70beab56b9a540a1b5
fc40e7f5c8ffc128b343299428099800
fc40e82e8191d88ee3fe25734b108f19
fc40e83d3bc4724110e157fc9a224d0a
fc40e8bc6a867603d8ddea5caae0478c
fc40e9142c0bd77b07fb584290e9d1f2
fc40ea466f5b0b7bf4b9e9be718434c7
fc40ebe86e68a5cf40f16666380429b3
fc40ec76f18c7f46896d16841aa0ee64
fc40ece94888a48fd7383740ec4bfe00
fc40edde7abd20910329fd297d52fae6
fc40ee38aa19fbea2fce784febd5d0e3
fc40f029e1e7ac5df304d3c1b301145e
fc40f1ac251d8d4c23ad187aba78dbb0
fc40f1e1df00f5d59f6b28427b06443a
fc40f2545c4722ab0b1ab4b3fb72fe2f
fc40f479ea47e6d59d18327a4c308e6b
fc40f53d6495f63c2a81feb12a4b1c12
fc40f55c96dffd3a33790f245b0dd69c
fc40f5e5746b295dde82f2c7e96efafd
fc40f5ee8ec8624a5581a81c176b139a
fc40f63a43d0195e98c042b0ab5d3ce3
fc40f6ca6bcf76c3855ad83b34d7bd3f
fc40f747a9d44862a5eaf476211db4f0
fc40f79a525bff362d6e7277ac992c63
fc40f7e83db6e926213475e9c469155e
fc40f9000f544981200aa76806821497
fc40f9fcd6b624c433a9c4f5fcea8edb
fc40fa01643429de0fe7df067e919a63
fc40fb612ba55492fe590fe44d3a894b
fc40fb8f8cb27fb9da0c0b6aa8c382f1
fc40fc35958a68419b10ed1d8a1dce62
fc40fc99682685760c80f810650a326e
fc40fcae445b25d48b80fd8cde8e6ca1
fc40fd696303c33395f1d8c7a660d147
fc40fda969618a72e1d627b08db4b425
fc40fdbc2e4ae6f874d7ccda40ce5c5a
fc40fdf5f123a6c3c0da72cfdf57168b
fc40fe93c8cad46def802d969c07211f
fc40fef205bb960fa81b30f727fbdbb9
fc40fef7adcffd3a344b7b0b60313b90
fc40ff02efd95c8f86eeacc777b4a831
fc40ff3b977024dba4a3aba033245a03
fc410039a670c6b4ac3f1c71afefbe57
fc41004510c6799497c45791a3b0ce03
fc4100aa83e526e36bc3c4459d4a2ed0
fc410121dd8fb23870716613ad312c9c
fc4101235982b27815515370250bb2e2
fc4101ba3b6eb81b14401b143baa22af
fc4102f8fce4d9d62dca397a9bf43fc8
fc4103144d96a16f1ef784a85f2a2eb0
fc4103d6d63dc1c51bd7c1b3ffc4216e
fc410550225817604ae50395c8752b06
fc41057017fba53d71ee156e3b930030
fc4106062b2405788ce2d344fe6cb054
fc4106c3a626cb700779ffc97d0e8ea9
fc410739f05a3360d7a171d09bfbeb8c
fc4107b38977eb606004dfc1224968c4
fc4109178eb557a6226f79aac0e0ad62
fc410ab1b5adc0778563e2fa000990a2
fc410bf2a699adc6247da83c9d8a84ce
fc410c17cf113765ee7f6bdc876b5c00
fc410c2f46a0c84b2e30d02dbfba48e2
fc410c68e5e77cdc0b41d8fb8b9f1a6d
fc410d718f5a12d9ff66223e94993a42
fc410eb1eea4e91cec5a38f636ebb02c
fc410f362e5daae3c50d04d1e0dca281
fc410f981820a05684f908cf7cb9f410
fc410fa066ea2564a78f0dee06f4a5aa
fc4110774c5252d82b4ebeada64985c3
fc4110b030580d6162dbb91d3046d625
fc4111fd8f0aac9b7134396fd8abc306
fc411297aa24386cfc8d1b037b4f3052
fc41129d16bd3684d3b91e9fb1c47133
fc41130295cf1f3d16e62267f4d02758
fc4114c8a6ffee8e6dcad91064e51c6c
fc4115332f5e044504d9a5a9e45b341d
fc411551d00466624092416015d1a20a
fc411579b11f02edc27e5e1a2238a0c5
fc4115ec52048ca01b5596926e506071
fc41167a35903848d51fac369491fd0c
fc4116eb49e5d11ee3b4d0c3a83c7180
fc41170848085329af4ea525d4e48d2c
fc4117b49fe1578894faca0ccc95e53b
fc4117c050000557269ad1ec55e588d0
fc41184c279cc4be4a7b30cfa778537b
fc411934d85218b6500d4890f6e79b8c
fc411994634f32b033826ea6e19fac60
fc411a5e3aa10aa0ec98cf6889d5d936
fc411af46bcbe57070344f7d69d4f5ab
fc411b9936850d454aec075e9565f9fe
fc411bb7bff7121e5eeb1e5d948b73f5
fc411c7ea85de97309b5fc2c3a55dbe5
fc411d7611dabc2233f5db09a727d1e0
fc411d92d54314689caf8e1d67958702
fc411f351f8740ba6a5ec19268e3126c
fc411ff11b6b2f526d6bb859592d8235
fc4121b7b0bdf8ce43adb2c7feba1094
fc4122ba4afe5620d2204d15afd80d55
fc4122d32ff550a50f6ecf54f6a6166f
fc412314257f4248f561704ab8af8c75
fc4123206763df9ea65d1037060a0500
fc412338346d30679798dee398be6018
fc41248789ebd2658595f9bacdee6045
fc4124f91f2ed44fe148ad8a86ab0b79
fc41251c5cd1e9bf6a171f48a6b36de2
fc41252c9bcdb373b8ff567592eab887
fc4125a578311e605d5af61f15a5a878
fc4125b6c59ef64d7018eb4c65c1d17a
fc4125ea39db5a3ec6dcc095dc2cbc97
fc41260ce06f248817669310886f9cf3
fc4126f0500fe7d52610bae4ce75b894
fc41271b679f87a25bcfb869a2b57425
fc41284ba84faac2d81b2a943f22d87d
fc4129534cef5f13c1a5e12a5d835e3b
fc412a5f3081dad11e5af144fa54694e
fc412a79130601c89db63f62befb6dde
fc412c44fbb4faca1fe448b5458be5d0
fc412c62204cf9cd35214b89f57058bb
fc412d3f74c43e1a600bd355938e9cb0
fc412d70ea6b9e293ff82df86dfcf3e7
fc412dcc43805fc23915aea6b666a8c0
fc412f64b857cb1d7e916a189dc7cde0
fc4130390fbbca75923f31a8c9d66648
fc41306b5d898a9947cc9a36ba9cb27d
fc4130cb009e742ea118777351de86b1
fc41312fbf03dce46d4d1535685d4ca7
fc41318a14cc899bada32ecc0b0635bc
fc4132803bd353b0adc82ad5b43d3ef5
fc4132ee470814749f8793249750fb5d
fc413345c3194e251d2687e42257dd9b
fc4133581a644fccf2e67f200a4e4bf2
fc41349297ead6570993ac1ee8c0612c
fc4134a0fe09d99e77d6bf6fd7cf4eec
fc4134efdbe0fedb6197174a67dcdc19
fc4135178fb96ecf90760470355193d3
fc4135debd93d1be75cf354c9fc4c6f0
fc4136ec257ceb7d263b91857e22cf32
fc4137b3e0357e2a1eaccb3a6359b6e2
fc4138bf10680689481d93dc63bb8940
fc4138d2e47f07b99d8285f4f6900908
fc41390e1e4b8d8bbe4fae0f6ad7bd66
fc41394af1a1c2290a232b81698a3600
fc413a893c46e65c3eda653d8e2b1d5c
fc413b131d8f8fd626ae5e060a562052
fc413bc8ce70c07190a18e88b5fdc2b4
fc413c4a5827118ff8695152ba17c794
fc413cef24b8ae79ab9a28351647a26f
fc413d1ce28424a798260170088f0aee
fc413d565301675f26348cb43ddd0362
fc413d5ad084e3a3a11192fae4682a09
fc413d86c891e93749008d6b958bf869
fc413ee3a24c035cd4fbd9d69225917a
fc413f35d70ce2b401c0a7080338a2d0
fc4140133532eff42bc0136ab018b09d
fc41407ac0e50ee6986b216612f4e603
fc4140a15cd8ccabc44c2a3316083f56
fc414123a62c5b3008f35ad83c4f6dd6
fc414168a5b4ca074ea6e03f770659ef
fc4141c508bf5b7d0a7ce5bdba571504
fc41426577d92225f39f231aaef094a1
fc4142853a6bce98439d6eec3fce6feb
fc4142fa52c49edd91143a22035c1383
fc414372db601b8d44ef76ff18a902aa
fc4143829f64fb27d6f3e934cc8f8930
fc41439dcf08c25d733c036c2b5b8334
fc4144607d33902d3c6a5419590faa69
fc41449d98a08ae87ecf1f1fb5fca249
fc4144add4f3efe7486610e6a4cc2040
fc414645f2c514f6d2c6a97e842fd5a0
fc41470557543757474a14f90a9a45b2
fc414722ab265e2d190bb0f0a166c4bc
fc41475bad4a70155be00126fddd1b3f
fc414775d16055c24464ae15a5d1e4d9
fc41477e15b42ace307b31732d96f4a9
fc4147839aab1447ede94f761789961a
fc414811e9c2635606265246ce4ae594
fc4148dcd4ea3649093be1f78d05df5f
fc414a0758eb7d0d232b0916224f45c8
fc414a0da24dd292a21cf7cf5262ac0f
fc414a49002d6f9dc95324a20227b61f
fc414b3c60165f905b68cf435be02560
fc414d532de70ea41d829ae559c27f8b
fc414da04ddd13a8c0f055599126181c
fc414de7f7a259bc131a6315ff623d4c
fc414e3e8cde44c958f066239f0841f8
fc414e6287b648cd630ae642252d3a65
fc414eeb7395220eafe25bf5c334c357
fc41503921ad220768afe9a766ffc269
fc41519327fe3700de31090f33eea852
fc4151ca6000ea504741e402e452d2d8
fc4153334ac58eab2ba039533b5bf6cb
fc415344ba54a42bf767bb886907cd19
fc4154559917b6f37f1489ccdb1b1350
fc4154676d41735409c5eb52a5db5f60
fc4154961f00676d8ecc30be9f115b34
fc4156b281587a5e97a4450c1cabe360
fc4156ed7d2504cc61097efba3fb4e62
fc41579eb84139c6f5f6f0c437c5b461
fc41579ebb191851d632ea6e4aed089d
fc415805388f7e31b817a192f1fd63d1
fc415828b18e6ab942ec3f5e7610e2bf
fc4158c0885f7cb846860adf1a1910b5
fc415994ab4617fd5a0954f5a23f92b6
fc415a0da696e08f0b29de0afa162762
fc415afe8134197d9e53815a52d58781
fc415b81347a2994478629cfd5704f3f
fc415c79c1e89768f53b74a4b35d1b96
fc415d1e253d6f3fff469b297f65aa00
fc415d3f75cae582461d99ac7cf0fc6b
fc415dcb54182876a3032cf6ca7cdaed
fc415eb18636be7d56a5e5ced8eb8b9b
fc415f1c5a583cd7ca15eaf0aec83309
fc415f3e3a2166b7f31b56ca2ad5c260
fc415f9dec1dc480a77866f396b7a68d
fc415fb37da5c1944168f4400d954ca8
fc415fc26aec3e7fd065e90250beae60
fc4160067e2c3dbd894b06d99095bc7a
fc4160b4cf67dbd036c5a7eaaee707ae
fc4161b3c25a7eb31da721b7ebd2b868
fc4161e16a66f41954babaca36170e95
fc4162116434d8fe418323d8b577398f
fc4162d9fbda08f5d24aeefa5c33e5ea
fc4163e9f55a051e2ff679292552432a
fc41642bc0a0866155d0cd8e82deb66d
fc41649ffd7723b1b4acd1450521e7b1
fc4164fc2647cbb7decb62e785ba4bed
fc4165193585b30453dbf6cae6999f3d
fc41651bef5da99f7eae499af9f06813
fc4165615b8a5db40483ef0153987083
fc416582f22dc7db3010485e4e49f6f7
fc4165d34ff4116d14615edf05c9d292
fc4167928b74ac4146d8e47607518aac
fc4167db60f00c714768d90bd89c869c
fc4167e9b35abb366b9f76e83e7b4150
fc4168fc1646124b4e7fc9d7fb46a6f4
fc41695345a72d785354c1167cc8637e
fc41697cfd66bc612dfbe424bd66c481
fc416b48c8f4cf0e7a5e51bc41e7c560
fc416b4f62fac176537c1beee25a9c69
fc416bf4127d8d89b349faec21cbdc3d
fc416c3d59260409bc4474e762df3b3a
fc416dfe1092c54ab954d2c546088d48
fc416ebbcf8f2abd25722595a7650c40
fc416edd90b6568d5127bb71f302cbaf
fc416ee17ec7bf47967cd82ba1c62fa6
fc416eeef16bc895398dc0bc7fe33b59
fc416f1420f322a688c9e03f8a27919d
fc416f8a52c3aa629aa707748dc9a6fa
fc41707f0d81c904bab09b918e2c85d3
fc41710c93956c670014b71b6318d5a4
fc4171cad717ec2349a00968b4d4c1c0
fc41720e34390185c8ec3d45c759e12f
fc4172aab80bf7b0d01144cd33dddac0
fc41732016f64423cd30cbb7186c5905
fc4173c47456bbdb24b2daeedfff81f9
fc41740640718788428ec12981945342
fc417421297e8ebd5e928bff6a052c3e
fc41746963ba3ae2d59725166d4109eb
fc4174e3ed7416f23c6687e3c6ee34c7
fc41771c0bb61987b089c3a16bca54fd
fc41771d915462a3c99b8a615df96ccf
fc417744d0b77d104c71b3a608ea37a9
fc417801155107741759beff3a900abc
fc41785cc91a5987460422fcf17d60f1
fc4178a510cbc0ab0e56b66ddbe25d1f
fc4179e637b5cf53d06bd57eb259a43e
fc417a5bae9983e8e02c98a49bd31d56
fc417ac6c3197f7cd70664088e8535e2
fc417b9ca0f472b04a0b78503b736124
fc417ba069f351a7c8554ef0888f7c73
fc417c175dc00ed663665f01d9cd0ac8
fc417d28e7adec3e583fbfb6f5b0f2e5
fc417d352999af4ff8e756f412a074d1
fc417d4db05c0fa5f026e906cf63f1c7
fc417d81eb918df5ea7aa06df0f928d4
fc417d900a9935fa59085c5497ab1138
fc417df279107f4a4995113353ba1059
fc417e1b95e1f2056068b91721403ac1
fc417ebf425493d739f29c0f8c3a948a
fc417ecede2ed5a8e02c4562bb820c42
fc417f3773e443de6815f068362c980c
fc417f3c64c664dc1585bf744efe90bf
fc417f8e77a78bbf3cf0128e337b3dc5
fc417fdbe22314a25ce892a000ab9ed0
fc41804c2df897b151a5a1fba2984c19
fc4180af5c58e18e751de595b0046edd
fc4183042eef92e8745a217aaa02ee46
fc418305115d97776850be2fa9f145a0
fc4183e40570ed975a8fb76855946e64
fc41841856dee197a3174910971c1cf2
fc41843a30737c0e2438dd4af21d1cb0
fc4184990b87216f266bd6425f497ac5
fc4185833a09ee0f5b27eb3eef965119
fc418594c8279cb708b1282231a968ce
fc41870f1e5f62610e745d2585c157dd
fc41880ee4a6916b3e3b8566c8cbfe0a
fc41889bce43645edd640bb11a70a317
fc4188b29b655eb907aab8258e5d89cd
fc4188bc4ef2c0a8b5ca3ade3b16114e
fc41894a331260bad31a784c78d3ab48
fc41898fd2feaf6112794e2b6f42cded
fc4189ad15328177a40a4bdc9bd7745b
fc418a4f29434279f10888f16fdbc620
fc418b6c23c693c360b97fe9440e39bd
fc418b8a1178af56a2b52a42f5aba981
fc418c0485c3ce84f3b67cba4f1d3564
fc418c12f7c3de6eeae782fe45ff734d
fc418c5593b796613ed23421ac9ad478
fc418d6a407c6a91014e7413d8e1c2b6
fc418ea3c6ae15ff07a9ce1fc5943978
fc418f53ab4591278dd7639f5911440c
fc418f869a4f878738da07c302406c4d
fc418fba27eab323e1a0bd7e731fbb26
fc41901005c725a284a9d4ac81a28080
fc4190316d257c4cc0ab151378505062
fc41912b37ac53815760c703ea312a14
fc4191869ace1d94cbc493fcf4ecb0e8
fc4191958f012720c5f65eaf72ceedba
fc4191ced2854ed2997707ccf8a06e31
fc41920699ca006f115091e7301c3df4
fc419222c01710c568812ea57ed38720
fc419239b8bd7a0f66450c85fafb0965
fc419377d7f64dd64d37150f10b1f2a6
fc4194048130bc509ff07d8c1880c782
fc41947aa85be0e11bd71372e099ed9c
fc4194836876b1fe88712b30ecab3796
fc41958db47f6d7845a980b414f62695
fc4195902287833e3daf6997aa597d72
fc4195b4af8f9ecaa6261261ee94bbb6
fc41963cb60958ce0bba1854a7751160
fc41964f4bb0075d80bc13196902fcc3
fc4196640f9bef50c37c0ab618fe025b
fc4197024691ac64b0fbc7a381ce120b
fc41972b87f629001add674de2e2614e
fc419950aad93f6c008c61624e293110
fc4199d759bce2bca892e5fcaf033501
fc4199e2be930f028967247a31c70148
fc419a607a8bbef7e34a4ce7c0d5b055
fc419a787c1383a8ee6bc7825e03eed0
fc419ae53f18ead76d8512aa19aa4755
fc419bb0ecce0f4b7dd3bd8c95974bf7
fc419bb1745746a42959288b2c021d2a
fc419c368f46500a0cb8c735f258508b
fc419c82fe0aeed43af895a9c3e3d90c
fc419cfe5ba831b85336dce1ade351a5
fc419d226678ed1907f8446cb646bb26
fc419eb794e59bde23451337466f505b
fc419f8f29bcc6d2568302898eefb4de
fc41a0191e2ad3f1de30cfc39dbafcc8
fc41a0c53f0189ec132dcbf81c3fa686
fc41a0dbabec2552706053b36a29cbbe
fc41a14064507974b6710fd5eb4cf2ac
fc41a14eadf9243fe8cd379302247c5d
fc41a24bc1d5bedc490b476becc4ced7
fc41a376680a3a8b448c9e6dc003e1ab
fc41a3c864a3ddb4bb3063a03fd37e2e
fc41a4471c40ed0c2eb273e6a4d1ced2
fc41a461a6aa204df5665a26201dac44
fc41a57c309c2d6fb3a7d9246ef17188
fc41a658fc88b985e53aaef79e0ea39a
fc41a7ae28e78d6edd5eba22fe66f3bb
fc41a82f2e43dce843b47a1854510f00
fc41a8a45f14a447ee2ac5e9840b614e
fc41a8b40472919469b862e3fbbb82b3
fc41ab061ad46648d3759a05a56286a6
fc41ab3b31691e8a06aaab8f61b2f031
fc41ab68a9a6dfac06ff8a5346c4a0ca
fc41aba745687401abc3a0fefa22af65
fc41abbd58d4f8013b3f6322e1a1a83f
fc41abf5701153469c037e5188b1c5f3
fc41ac4442a33838c8969a3e2452c561
fc41ac46ed688ed534032c33319247a5
fc41adc1ba942631c9f97c0e106de6eb
fc41ae92f6f35a08dad9153e8511e926
fc41afd52fbd406d600b2a6015fcceb9
fc41b1dec1fd26dc3bcaf4389663368e
fc41b20703bb1b8bf5888b4774bd1cd8
fc41b49363e69fe0eec397f8eee7e4b0
fc41b4aa6ea765af2c02b6b80da6145f
fc41b4b42948b684563da212a8eb1fd5
fc41b51e7c949de3a3902ba40d0a458f
fc41b576dc24b34e735a2652646ce28e
fc41b6353d5659fe1b527607e89e8b69
fc41b768dc069fed9cc084400ecc15b4
fc41b787962ccefa0a4b6e9eae06ea10
fc41b93da3ff9f35191170c2c26d2d1d
fc41b97784e196bc727ff3d149740a60
fc41b9c8ec0fc412bc9d771bf03fa829
fc41b9fb57100989f1d3c17397d58be9
fc41ba40ea905b58986bedc975b9cd85
fc41ba4e1f4b782aaf6a0defa4998f88
fc41baa524dc328f095729ac4eb2f752
fc41bc4ad3f7dc010847570ac0858820
fc41bc569af95216ecfd08df87a2c069
fc41bcb333aaef458954359287e84b00
fc41bcd5458bb9158398a9ff1f7752c8
fc41bd886e654346e606c59821631ffe
fc41be03a704984e48a25dcc90443a17
fc41bebae59004b25d092048d0abc753
fc41bfc53040947cf2967753b6f0c809
fc41c01960988455713be05dcd1f1451
fc41c09a7eb2d347ce3bcf64c9f21cb3
fc41c0d7ae5cc55287153ae5889c7d3c
fc41c1809fe907d08a7c20a23f4316a0
fc41c20dd47142c8603afe793f197b59
fc41c27566fe445fa3cac501fe1de4e8
fc41c29f236dee69c1d5b83614e74e58
fc41c2e201a3f76b48ff712edaab8085
fc41c30e33e2cafaf129e91d836c4caf
fc41c336aa44ff28f1e2a51489295eef
fc41c43d311888d0d9cc4bdba00b138f
fc41c53999fb7ee29246f83c1294947b
fc41c6c6eef856958eba5f762ed0993d
fc41c6d83df0930c622ea22a2df26d61
fc41c705b2a7bb5972532783829ddec3
fc41c70db8854371b8ec59b2d06e6127
fc41c71b561c2299d490a98a900e48d8
fc41c79593dfd7ecafef53ff4fd71390
fc41c7fb46fefc851fcc7d5eac421d55
fc41c839b56e75031915fb79fda8964f
fc41c872d07d7dbf11d2ad52229dd6b5
fc41c9014e84cc92be94a667b8ffd260
fc41c927466cea48c01ceacff38b2612
fc41c9b3b600bab4cdc2dcdb985add85
fc41ca097ad230b5481446fe61ecaa79
fc41cade418e507fd981bc0144bf13ff
fc41caf85c666e34d0522b6acaa8f360
fc41cbf4a559fb8cba31293eb0023e26
fc41cc1711269ed1e11d970e3b22575d
fc41cc4d408e30f9f5d04425c3def8a5
fc41cc73d9005eec8ae6e4a4e8aed870
fc41cd17b5d7c15465c8f62b16022ff5
fc41cdc7602cd81a9706a529e4ed25d5
fc41ce2b9abc64c4ad3d497cbce682e3
fc41ceade0a748554888887c66a08f96
fc41cef9e1ee22eee06c5f3ef2eed67b
fc41cf5b07d97160cfaeb724db1bfb83
fc41cfa58a272bf1bfb37b9b832626e6
fc41cfd6d124fe7d55361dde7d18713e
fc41d011c30531e342763c0bac67d416
fc41d074effb32f0bbeaefd66dea11dd
fc41d0931329c5c49630d9644b7a605b
fc41d0f0a174f901deea4c053e9974b2
fc41d1e9b067353f7fe6d6ea0052aac8
fc41d1f3a417088bbbaafe7eb871ca0a
fc41d36a991b65e7cebd580fec24b39d
fc41d41aecd86f186ef5ddad97bd6297
fc41d4486c2d5af6f511d2e2dee120c3
fc41d5e0ee887549dd93866abf36f5f0
fc41d709771cc7c4e3b6343646713470
fc41dabcce9d642fc4eb0e339e1055e7
fc41dbab69d77b83ee7eff1dcfcd89d4
fc41dc757f3868a684930e949ddc6559
fc41dce6271f5d481f70b53ea83cf2e2
fc41dd62fbed074ed998a5510377d4af
fc41de317ca1246e2af5cde7754c66e9
fc41de3adff2a769ed178e547b8946d3
fc41dfe7bbd86c532ee8dd2b396221af
fc41e0aa0dbb0fe58350e0f59e46fa4f
fc41e18aafcf4071f1b675e923ae671f
fc41e1a3905d87e4d3c624d97697a014
fc41e2558ed1c7db4bbb2585c0c6d833
fc41e701d2ea3035da9d470aee0987fe
fc41e7c3222e1ddcab3d6c25c8bc4983
fc41e938be6440b1416f6cef4e58eca1
fc41e978d0a38468ceaa89c882e62e0b
fc41e9c8f5e66f6c1f160cccb4904c97
fc41eae43f1bd6918e4658c6731484bc
fc41eb021c53fa85f72e1bb646826460
fc41ec648e51d7181fafcf9d7d53703c
fc41ecac000400aa980dbfb5b017fd32
fc41ed09eed395f675c7d0bc3a1aefe4
fc41ed5bde157cf9e502801d7f0f3270
fc41ed8ef17bf87c6a62d15cecdcc240
fc41eded2d90c7bb98eaf3b7533f2c34
fc41edffee0a1463a5d161a9a048ae58
fc41ef3813ff5e10d4898095d4173aa6
fc41ef6a5030573bfa5076963005bdb1
fc41efd8176309f8ffa10cdc3f034523
fc41f031ec60cbdea5d466bd86b096f3
fc41f05444d7319d2afb511e60533dc6
fc41f0a5e7cdb41292f9e75f88a0b228
fc41f0c3e90cbf8a0a1b24a8243261c2
fc41f11a24bfeb9bb81b665ce1e7f480
fc41f12da76d9b1108ce4a278c3f88bf
fc41f1cc8062ec2c9ea4be34fcbe161f
fc41f3677ab637c09b170d84ec022ba8
fc41f50a3c171dcc3883eed0c2ed35c7
fc41f583ed9d5829b4e39fce5261dde5
fc41f5f0264c413792631d469c11790d
fc41f64896c19faa1ccaf6c18c1fe2cb
fc41f763a792c1b9e415361bdae1fc92
fc41f88e9e82b4594030ebe482dc75c9
fc41f9e3514d761dfd8ae9d20637348f
fc41fa4d1e9c340834fee08519f86c2f
fc41fa53d929a710c69082af94cc2547
fc41faf4f4299c49f7cbb4f282ad0313
fc41fb801e1a62b4adabbd64f83d7e97
fc41fc27d229f9535b351d5461873a30
fc41fd0d29bea51f9a775d678fef36cd
fc41fda58e92d48f96d4d4748d5faf53
fc41fecaf82b14db75621b2e81ade477
fc41ff289e1ddcb567fe879fd5e50483
fc41ff2e14a83a536ce27a44938656e4
fc41ff4ba51525473eeab290ae5cfa1c
fc41ff9a75a44e4520e09c67d16f361e
fc42006b4194fa78e4904e8e0b52d841
fc4200e5b4d240a0b1940c7e6bac184a
fc420154a891936f869b64ffb7ea1126
fc4201e5232b85ff41b9a40e1b1d727b
fc4203bd85dc252601b6765685a23a73
fc4203cc592438afcd38bc6423c885ba
fc4203df56d9f1b9c6ce6125b21737be
fc4204461841d92cc36639ab48e5432c
fc42047588ae35cf676a87e1e1a972dd
fc4204ef8f17e5937533771c15e420de
fc420680df100178cf0d0ff47f921c8b
fc420748a1f401f4b177f19b89b3f86d
fc4207bf4d8ce78e4183db46492e3e49
fc42080d41f8c54dd2be1837fde59c11
fc42088d2932cae8f56e9996f1ae0a6f
fc4209a223c15dbf997a95f547e48cd3
fc420ac7aa9088cb87eab47f90d5c228
fc420ad69f8377c30582d37f01fe6804
fc420b39a42a9fb256b3ebf7d80c3abd
fc420b6eaa2c3fc6a663464794d56b27
fc420ba1304a824fe5a72d137ab83ea5
fc420c01641d1e8299fc9da3394cdd0b
fc420c22bec8fba427f1fb3fa272187f
fc420c57c12cb1eb1895684a548ff9c5
fc420d45ad8acb74a8755a45c1a1a266
fc420f25f2efecb13afa7751ba01739d
fc420fde5c8016e56f68dd2d3194d51c
fc421012cd878e782448a2e27346ce71
fc421067dc386553c2b4b6f8d74361f7
fc4210ae7591a141feb752441653b317
fc4211059bb599c639fdfd7541585cd9
fc4211c016981e2d0838bc7a370cb3d8
fc4211e38d34001cfe10cb5928c9a2b0
fc4212663b97897f9727fc9bd7f57b1d
fc4213ab77371774b1bd75203c82d223
fc421406abaa21a4e1b43f60b89313c4
fc421438ed3f837c5bb865784c9e7bae
fc42147d9736950aa8362b37b124007c
fc42149bb9c0f3bc9e2cefdd884c226f
fc4214c3266c5bfd47ef3ac0d89b2231
fc4215dd9b658b7298801facb048169e
fc4215e2675c4f1532ad6e8a455d6480
fc42170117ba79c87a06686d865df913
fc4218094ec71df546c7cc818a8ffd00
fc42187c7166b5c31e7a2a8f06625502
fc421928f3386503e7c58bd198c46feb
fc4219fc914f7a86c1da44c98f0dd43a
fc421a38cdd91018bdaa7cd163e2bab0
fc421af429c48d8a80b1f79369e7c973
fc421b0b41e2d272682b4b89c8fb17d9
fc421b29e5138e95586566e68c7f56cb
fc421bc2f62e0f84143c6aaa329a531c
fc421d7fe6bfcee6b515cddef8550fc6
fc421d99e8245b7f23463b02c116ebc8
fc421df7a3b6957eb9da870235d32a5b
fc421f22fc4055b232b4126bcc93386c
fc421f2812c31adcf120fd7fdaaeff4b
fc4220a499e87790c8d91885a758b2fa
fc4220bae449cc3dae346844a66dcfd0
fc42215824d20d5eb5b2d464bcadd9b0
fc42221387d7f12812d2b29c4168e326
fc42222ef6794e7e89652ac46e0bcc7e
fc422530ca86db2a0cb0b500876bd359
fc42253caa627dde544655a63b76f3a3
fc42262c4bc8e7808b37c23639c106e1
fc422660005855bab609def313f28b9b
fc422695fcd79449679c7e5bdd86a9bd
fc4226c967deb0a18400d5ae542d8d5b
fc4228a28d986b5c2d94f6ffdfcf2baf
fc4228c07e037da1e1eeea9fda7ddf14
fc4228e19d8391143c42568b913534a0
fc42296f73bdb5f38e85768adeecf02a
fc4229954b68e1f091bb9ec0773ee3c7
fc422a4adf9d1e62e66c990cfa4d50f1
fc422b6834481d8ca3be0a59d50734fa
fc422c2e921a20c47539568e7fe11e9c
fc422ca40342a458deedf2619069325f
fc422d72f176152c95137d38fc301249
fc422d981f7a8f78295708cc6ffade80
fc422dd9861994ecf46f5e997d1ef7b0
fc422ebba8c3ba0948b0b9171bb70d00
fc422fcc79ffd1b2946d826e4947acd5
fc42315a980798af81c192e2794049f7
fc42321fc6a795ee3c628b52d2eaa6ba
fc423341ee9a9ece22fdc82f1a9a7777
fc423509a8fefb78a9f5c89841f96c31
fc4235401b679aaff68c3f9b27cdd40d
fc4235a78ae39aef72a787c23369fbe2
fc4235c10f69635b633e84c7bd68f2b6
fc4236c325ef14833c6d6dbf9a78ccc0
fc42372abc3c0eabe224d444f6b09952
fc4238ba282a015b20de8686e9c2941e
fc423979b5f7f4b10741a82a86362202
fc4239a43421a6a0b4cef656306feb25
fc4239da7a4795da2a88130bdd50d391
fc423a151911440a3ef66d421a5ce047
fc423a1ee7f9f4332e9a75e77d139ba3
fc423ae3dae4774ee7536efdb53b4e37
fc423cbdea78b96de112b672ee63036a
fc423e1ee26baa1327451d6a2a890868
fc4240924cdf349068b52b82b3890dcc
fc4240e6d327b9f0e83cc8a2be7a24c2
fc424144b37af154a672873c7ff8836a
fc42417b5e30b4daab9c304292e09a33
fc424284e31b57d67c188400b4f648b9
fc4242e7adeca1ecf9d7a7c23b14642c
fc4243704bbe5a89a8ed37a27d31a042
fc4243d2f108ee226ed68b15cc266a68
fc42440a6c48772da0e94c436881d627
fc4244170914ebf0b4c8f370298f5433
fc42455bbe5b0c12627d092faae98b42
fc4245668af966403da60b93290a70b2
fc4245852013dd9753e0a79eda4a8d3a
fc4245b2fa9a4b2eafaf200b34df337b
fc42464ebcce3a5176e0fb9329f0f5b0
fc4246c7860d986124c6c072189ef6ef
fc4248dd105cd06c811d183819e98973
fc424ac5b8ee78b331ec294b6199c9b0
fc424b9476949ae76a6d3a1f25a5359a
fc424bcda8fd195edfabac020790ccac
fc424bd60a1f29a5718247889236e517
fc424bf0fd645baeecd8bb6a0062178e
fc424c41dbd828289fca494e2ed5bd25
fc424cb95004094ccc30cd1daeeaada3
fc424d893baea4a7a668a6ff60cb5e65
fc424f736efe9855d51571aaf49486fe
fc424f839a19b9e274a854eec9b65651
fc4250059cee8682487b12a1be90e92e
fc425081f3df2b65aebcd89bf5fdf674
fc425083b5579220f00f4200d264afee
fc4250877949761d2611a6965b8bf114
fc42511f830b168c798389282e9769b0
fc42515366439ae8bb1895c740c72c03
fc425172d9593d3a983de7242a0fd13e
fc42520e9829651dee0403f2da8f9afd
fc4252ecdcaef6e34cbb77e5aa1cf2b3
fc4252f3efe0d130d3e9d8768b2b2ace
fc42545ae989cf9c5c8c78c02be09018
fc42576c71f3dabec6067044b5b59617
fc4257b251fc676fbf9b27c4d190124f
fc4259f251eac24b53f4063846d2c4e2
fc425a94e0567596c68399322c62b118
fc425b230353b95e5f9f1dcff6342edc
fc425b850cec974f0c6701ce034b8878
fc425c19f16ade32624fce4ad85d4429
fc425cd5a79eb1a8d134545945df936b
fc425ee1bcf695a4e9d003c00b3ac71d
fc425f62d3f79c667f661a44012c5350
fc425fc9d53ce900933eb61cbdb20ed4
fc4260adef12715401f454929902a9eb
fc4261032ebe704dbc95041a22aee7b7
fc4261d05f9ec355649042928a502cbc
fc4261d0d360d1b75b242950afe843a8
fc4261f72beddfc22d84366a11e3bc24
fc4262122b37ee3392f62c503ef1e12e
fc4262db9f2979bedfdbb05a887c8059
fc4263f504fd14cec552aee77f73d7b1
fc4263fb8e5d8f77cc2d1c88edb5c416
fc426436c2f0ece94f141f4efef414db
fc4264d3cb46ea5d2d40e81c78e522da
fc42664f0631526a55f30bc5cdb05162
fc4267c660cd2fa48581fe9cce90d2fb
fc42697268bbfea12cb696787d6ebae6
fc426ba32f332f2e407212586a532fca
fc426c29a25f417fdd5d8ebbffd92482
fc426cadbf092f31b2c74197edb0ee2b
fc426de88f8b998748589cfdac46d0ea
fc426e72707c005c3e1d126c4f9a52f9
fc426e750fba6ab751e9bda43f3c2a39
fc426e9bff6a26835cf526c74d41e03d
fc426f937c96d975d4a25b85ce2a3329
fc426f9acfccb67f54ebba3b5580df5f
fc426fd196c99b4caf2d86608a3a8dcf
fc4270c7df5c7dd4c24cb9c26b16448e
fc4270fe7f9f6cfdf4d79d31d9e0c799
fc42733a27f2a2f206cc57c41f897420
fc427369e530476aae2d31576a25e3e3
fc42737f9e7c60f7ca8339357086825a
fc4273b8b97ef534fa027fb322b2a4f4
fc427463ba792c87023f719eb71dbf9e
fc4274a7ce223488922a062a882907c9
fc42754c3547b3c728481fd19e1b3c13
fc4275f8c4ce463a4215d8df9c4b4219
fc42772eea64f7421647d1fbba12fbdf
fc4277fecff09341b8528fe8f718d508
fc427967b779cecd5ef3a0d7e887fca1
fc427986bf605e5122a9fa0bdbbbe838
fc4279f69e1ce198460a1b8457aa47bd
fc427a725b98d85a47149d69b6159017
fc427a9200ca235816139326c5cf6a5c
fc427aac4cadd3c9caac9ff7c4399490
fc427ad6daedbab652210b22f8816af9
fc427b470983c62f78dbb7b37baf7bcd
fc427b8a81e2fb3311d574b45029a060
fc427bb261837f4357cf7e1442daac88
fc427cdb56558b691d3ab6a616ead2b9
fc427eb053fef60cb0ab17de33395351
fc427fe37b53f65684f7268c443342e4
fc428010f6a81c2cab62e7e78c048ffa
fc428028964412375ab227531b3b2a35
fc428031a1532e4736b51454fc8f0442
fc42806ab3f541a6d294e9afd3681d4d
fc428211bc4fba0f21972711874bee6c
fc42823cb9a08bb85501cbb86dbfcc5f
fc4282a3f420b364dded4540a6154886
fc4282e423697e0678a7d57573bdb863
fc4284b30299c9356be5c7b901ae75a1
fc4284e264de5d61237272e56174cea0
fc4285e8d1602b078f3a83f479a38a4b
fc428629ba824763811dbfe8855cf21d
fc4286ace941bee7ff35ca4553f45ac5
fc42881ca8c47a8d00ae3f4d954fd30a
fc4288294f0f23ebd4759f9a47296b57
fc42893cc1900ee7ffdae86c1ff9e82d
fc42894987fd0b9c46a7af841c784e7c
fc42897f17b31cecb42a6bff2669d540
fc42898a73e9424a5b2416b9f8d9aaec
fc428aa2fe4d942923f39a42f2b06c32
fc428b482aff063181d4fb9eafd40c81
fc428b4d0aa30f6c70366422c400edba
fc428c056c21f70a903e55699d3f27b9
fc428cb2f3dd7c900655e97b61d3efff
fc428cebcb11c1891da2897994bff264
fc428e1c0290a2f0f7e87d6f42fcfa5e
fc428e27adc6697cfa7815fa80abe2b2
fc428f0921c5b28cd522a8bc19284cac
fc428f9f9ada135502af6d1c83a02744
fc429026c0f9786043a857cc8bb6b173
fc429137096d2ea844f32171d8da720e
fc42916fb8272f0ba6f2ecb267417a3e
fc42919bdd05cfb11058b2666cb4a410
fc42926ae711638bef92a956dbaeb2cf
fc42929f8742a2e0a348914d2407e6ed
fc4293f2ba018c3c2eda75869864d46f
fc4294c9efaea4bb71d99b1924972896
fc42954f60d80aa07705a431a351ed74
fc42956d33220e310aae63f458db377c
fc429641b98150c665a21b8a4e76cf05
fc4296d1b161653d804910e4f133178d
fc4296e46da2947c9b382fe27ca62855
fc4297b953948a4ee8d7bed0c278446e
fc4297d6d89451dd97b7103a1cf1447c
fc4297f553466a1533345d728b9eb7cd
fc42981fdd7a8985e5176b33d110d6d6
fc42991d276d8877e65f61ddf75f32a8
fc42992c9df5d4873299ac4727f36440
fc4299bf1c124f157d2f3bdbe5b65d76
fc4299f5db1b6ed74eb705b0df565b21
fc429affdaa3caf666fa52c4d362b3c8
fc429b01d4689a0b3b863bd507befc7d
fc429b6a60db15bff6e255261bc63cc6
fc429ba377182b9d87eabb76dd178565
fc429be1bf50d0780d1b21a69be32b91
fc429cad9121a34edae2faac32215692
fc429d9064a0650855a7dbc96ad2dd7e
fc429da67ebe5052ef3a679971a6291b
fc429de15b83aa75ccbc6a1eb7c154cf
fc429e05351310b709e14a7eeb0a5ca8
fc429ef813365c4e2e9971289e1bb790
fc429f7bd6f06daaebde8bf44b9feb61
fc42a17a8b651d5f30b02d66c85783bf
fc42a1f6e06bc6ea414cb0541e2a8953
fc42a273b5f9fa588c293e71884b003f
fc42a2f0c379fe83eaf722b2ba197ab5
fc42a3cb3021353c2e375f3aca80d151
fc42a3d5ad8eca4cffaf5843d839b1f4
fc42a42fa89fbb0d8cc3beaf118e5fc8
fc42a4bda01bc7f828d7c17c3af3d9d1
fc42a53cea2081fc4a7105ca185ae43a
fc42a5c57f5572ebad6fedae01a0c030
fc42a61843393b09b2191fccbe06b291
fc42a63e1e6f6fff45dff39529965c80
fc42a66943b13c50c9cc4803a718cf55
fc42a6ab54ed6dd5ce3cc449da877ec2
fc42a6d0d6156cc6f720f231d604a12a
fc42a710f08d1e115c3fa4489947f7a0
fc42a74e4089ebcbb366e2ffe64e666c
fc42a8922f9377bdbedfbd73ade5a015
fc42a8ae397183f56e554292e64ce4d5
fc42a93fdd3cc118ae8189ca3615628b
fc42a96841743897f91efd026cb45cf3
fc42aa0c39d373e287e04e559abd774c
fc42aab27413a6941efef34fe53a5c35
fc42aac62b9d9157ef1b787b6d595567
fc42ac9b372eb8547cb6aa5f4dd70db3
fc42adc02cfcd0ad38860922081b3991
fc42ae602886bce2b955c70e034ecb2a
fc42ae78cddbb349f7a3e5520a7f1847
fc42af7f74094ba6b8e02e522ffd5037
fc42b024992f990c387003ebeb3bf762
fc42b06a3217b14886bcc5e8106b489c
fc42b0f01a35666dc3f93cefb6b4a3e4
fc42b1cc72f8ba53a5481cb5c3d4d0a9
fc42b1e3bfb778f0f41192e2cb6aaa44
fc42b25c58dc1bbf3c610ecda11589dd
fc42b274935e2794bd7206a635f44cf4
fc42b29d22ef475644e313403d6f9ec7
fc42b2c85f52f1da4886b1eb3a4aa92a
fc42b3cbeb55be762eac43f1254c8134
fc42b3ebbf79e3ea11f748720cc3e5ee
fc42b58a56e157052c74f9717a9c8f35
fc42b5ba0cf18e6af36276cfc5bd092c
fc42b655a53ff38e800a212da9593723
fc42b794bcfdc413d6eddd6de18dc68b
fc42b7cadb095aa0788a423bc72cf0e0
fc42b86899698a557927594bfda84c9c
fc42b8b52e37a013de5994c48a23e57e
fc42b8f3d6ebb9dc48c27aca1289bc76
fc42b940efd87fc78322dd5c3d759e1d
fc42b9617e3524b6de89da4d3ef40939
fc42b9f49f99b9bc34fc53dee85e5547
fc42ba0a83199db17a39082122cd6584
fc42bb42d376fcc0ab013a3b3a8ddc93
fc42bc002fccca430b1d1ae15d8acf85
fc42bcbb3fd2e72f41f493bf987ec2bf
fc42bd0547e3482d4231bf4273c2689f
fc42bd1b4a17f7ae95dd9685f29dd672
fc42bd57e008bee2d8be9db1ddfce4bc
fc42bd80e2a43f1a6af6d9c9f3bf32c4
fc42be7a37c1324db0a1c21b37c7ccef
fc42bebce2056bcd7b27e4b249f50e0c
fc42bec761599da6fa39dce8526f1265
fc42bf88d85587d8019bc49a9e81b63b
fc42c0632e76e0786c8c224518734967
fc42c12644f236d200d3ed51a00ae79e
fc42c32e48d2d77b7b0975991ff032f8
fc42c46e50761d95177a7894a8e54d00
fc42c4b9fc6e6758786f045a996a4c28
fc42c584d29334f012a75691aab732d1
fc42c60c64440ad536295b47c4d41899
fc42c74ecd2bed8522f20a8afdf29b93
fc42c7da464e48098f513273763f9c05
fc42c7f649117c530600101db1d28c42
fc42c8bbd32e8c57f1bc1d5c7ec1c613
fc42c8c190171a63a275461ec677beea
fc42c987708f9528d37fe4884bc63cb3
fc42c993823b0d5385fbeeecf71cfa93
fc42cbd22d5e1d03973cb8a8134d6e78
fc42cc729976b4a4e6042c7fbab7ea32
fc42ce772941f3d416598fb44dbadcff
fc42ce9898735a26b09f09aa2bc7c28c
fc42cf0da524d68809159ad122239fc0
fc42cf29838fb14d6883b6b00bb86821
fc42cff4f3fb917f03f5cfb1d550ab82
fc42d033b0a6cb766fb89c3f909d9b25
fc42d073ca5bb3b7cfac327413daf3ee
fc42d0db274566f80bd63a73c9d5a941
fc42d0f88070b426089663766ceb8557
fc42d1cc9bad1ba3c2fdb87d331d46bf
fc42d28a1ed20cbf1a4ffd8c9341b8b6
fc42d367f4fe616a19b75eab17e59fc0
fc42d44ac23f804cea0b40b17a5186e2
fc42d485628196a220c7e5b79f7c025b
fc42d4fc258623786fd162edb1bf5441
fc42d571af2a17b6b06db718ccc1432e
fc42d57fff0a33ba2340bb6db14a0ab8
fc42d5da2a36fafe9cb9d0f2f97ccb10
fc42d79fa022922ad1ba9d9bd3ebd1c0
fc42d7a4d011729e002af3f118ce478d
fc42d7b26003faab8eff17aa2a67b5de
fc42d91a697379cf42784ac589ed24ab
fc42d9608588638b0857af969397c500
fc42d96b0947d5df34838a6e01978f90
fc42dae17b85dfd30bc71eeb87d104ae
fc42dafcf5d6c6204667344e6c6925c7
fc42dbb781f8831625a7eac85c457d58
fc42dc53537354e6148c53b4d2d58f60
fc42dc6f3e12a619663dfdd1c56db7ed
fc42dc92b06696a728289b594d8138a7
fc42dcdd2a99d3b4a8952f979f8b9ae1
fc42ddbac136080eaaaaa062ba24e599
fc42df6f96bcc53564c032e8ccd7d6b8
fc42e0503594ab2aa75a80b532925260
fc42e0690b9b440f76b9b7c3ea519957
fc42e0dbb944fec6470bf1715902bfdc
fc42e18824eb23214f39434f4f0931f7
fc42e3127b879e8469d62c3079c87b18
fc42e3d00e2015e560cabc513dd3d462
fc42e4afced5211e054b66ccb555b414
fc42e5843f99475d30313b3207351527
fc42e588abd11514033a993915ec2a81
fc42e599d46df17e93ffaf3d313f6809
fc42e5ee123d9e37bb036dcac5fe7537
fc42e64b88a2501637e55269df466e26
fc42e6c4ed10bd08dc601db9edfc0254
fc42e6e71a0c6af842255705b50491f3
fc42e789592c3b792f91305a5c8b41da
fc42e78ab4fb9b52eb00be40788f4c4d
fc42e7f8f196739182d6aeff857e8c09
fc42e8c9ad8fa0a61dc91d144be57a94
fc42e8f3384d162ebdc0f9ee388bf88a
fc42e8f4df01e091d4122b6ef981412f
fc42e9197879476cb2d57d072a7edf86
fc42e94f73a71eaa6bf336d36b0cbef1
fc42ea323bcf1bbf1f80145b285dafd4
fc42eaef8ddd4d9fc29f6a2b336c0aa4
fc42ec0672083fe72ea1f7d4ecb1a6f4
fc42ec3ae686c2913f301b030a7ec32f
fc42ecc09ba0b35c773555e84d272e5f
fc42ed534f783211f83073f8da6491c7
fc42ee37dbf087350d04384e6b948a2b
fc42eeef71bb3d7e5664ddbc31eaf728
fc42ef11309b030ccf4087a5e66d166e
fc42efea478df2a3afa41674dcd269fe
fc42f085bf1804269336ba8d32f83e98
fc42f0ea43916cb3bbf804b9b739b984
fc42f136687f72ef601d9a00a95956e1
fc42f1465c6a5895bfa65c05f9dbe660
fc42f149ccd3b4f9461a98a9a1c17150
fc42f187962c7495ac381e824a396b06
fc42f1e0ab1da805decf20251a391c10
fc42f2010bcfee112ba531555b9f3e46
fc42f2977c1459e8fce38079ad027b0b
fc42f2f51f32c38c68cf218498ebfc32
fc42f3a4e151d10d4c88694cd0a8edf5
fc42f42b555019ec9580e78ad11fc219
fc42f4868806eacb415887de35c9a6a6
fc42f510456993bec24e513dc4950d9c
fc42f515ac058e7b05c95600b92b3062
fc42f56354665d954e132f864dd3d6d5
fc42f568687634791d5ad09a51e36ff3
fc42f58a23877d7866512e3eca0cacd1
fc42f5e26cef0d3379548f4796a43291
fc42f67691938cabd183587e7bdc6258
fc42f6efdcc8be80ac2a8ba172637bbd
fc42f6fb1d8b5ad30f61f94799100a34
fc42f73b35c1a0aecaa291065fd3b6c5
fc42f76dc55a6472991cb15a4ca8e19b
fc42f7998a4f77807b7fc5292b6c168b
fc42f9238bf91bec2c8fd7a96b33c322
fc42f9379357c3777fdc0d21821300ef
fc42f9bca5723ee8fd784e545c450248
fc42f9ed5bb08857857bcf6b07bfab67
fc42faa7706582814e28460cd68722a5
fc42fbda31ed8f0ad443f330461eaef2
fc42fc8bd526302e142f36183e8723ba
fc42fda720a798ecd9c49f875109c61e
fc42fdc8365d7e15fde8f3968e39cbcb
fc42fde754de5141ea9f50877da4d464
fc42fe53fe3d0a2bdc084ac5364dcb8d
fc42feb3a76cc0a22d52f91d6fa38d81
fc430098bc07776c11f6e0d10269fdde
fc4301ade1f9b4d0fb6cb73b91b7cf38
fc4301d0f8e95f6b3d572e6de81da2b0
fc430301039beeb521e24dc2196c4911
fc43035deb689a8e31b9d7e392cb8899
fc4303b070651407d7b0e74c013ea830
fc4306bda1b06cf0c598f57130b3639b
fc43073288e287d502960b65ad951e80
fc4307ac62ac3bb652552583e4c76a04
fc4308ace6d19d1ecd138a51aa07b2ab
fc43090ef8784f38b0a8bcd2e7a3ac70
fc430a8351f683781d605abf5f5d2b0c
fc430c0fa25aff34c59576b4f3f5ea61
fc430c77de7a7f206da569025f4bbab5
fc430e9557751c1c7daea70653d52830
fc430e99c317f9d1303738495cf33490
fc430f064c38a3662de143283c1ed558
fc430f83d8e9287c12bf5baf950608d1
fc430fb7ac8db8fea0c70a9e0ab96cbd
fc430fdf07a9c04a42d944a88a9a3d8b
fc4310bebbfdc79db5e11c36c4da3ac1
fc43112a344bca3e1b8a897611fa74eb
fc4311e068357e735c744a9afe9ad6c7
fc4312dfe26e7cf1339dbde224a2ab31
fc431389d08422435dbe6115c23c6fe3
fc4313bca67dbfe29aa9f9f7b24d5ae8
fc4313c183557c7c0d9c13bffda67ba6
fc4313eccdac96a33765997b70e58d49
fc4314369f004896cb1b0a3967a6a46d
fc43146e4d0bf35ae1466d5a70c9d953
fc431512cabf81f374c80077a234825d
fc43159881cdd6552e50c4b6907ceeb6
fc4315fd757f6861c82a58616fbfaf44
fc43162fdefe53c035a94bb934163514
fc4316cd9ec71c73022a28a43b7bf86f
fc43172cb658e7d71983ea66b46a00c6
fc4317ab399335bff97880ea132e5f8c
fc431808ccb27e73c685a0bd17a721be
fc43182a7d2621b0298755f6fb700106
fc431880c96a1b08bfc4d25627d643fa
fc431b462ee9197b356b52b91a3dd0c2
fc431b46d2ce4f1bd3fb587d581aa9a8
fc431b9af1398c6a870dc7c28b924082
fc431bd986b74d3bc6fabe1525382350
fc431c2672a1273fd4c072a93ee3ec75
fc431c2d50a4050d1789dd4a06bfc91e
fc431e41a7126cc82d73e9da102dad71
fc431e7284dd8b29fa45b9bd1f8e2618
fc431f69760c598098f34eec337c8415
fc431fd0032e8afe7cc609dd3ca1b611
fc431fd4bf1020f388a35e1606e37719
fc4320393c9fb693d2e5b746b168e96d
fc43209a74a7ca16ae93d8cb36659986
fc43215677cb247bca49575d99ea82b5
fc4321bf4ab5663cc45aa196a84eb256
fc4321bfb16ee6a8eb210542bfe43b24
fc43222a4ddaff4461b1174189ae0aa6
fc4323a71ef98b4db1bfcfcbdeaaa416
fc432523d3ed476ebf9be1cf9721f78f
fc43257bb3201bd018cc01f0891bc6bc
fc4325b1bff877b1aad25176de418624
fc4326709ad63e77839709afd49563f8
fc4327d8cff26aecf2e7561baec33090
fc43286beaef14fa58a10d8d7aaf9610
fc4328bc6c372d1d3dadd5dfd5ab2735
fc432a07dbd50cba4e9752798086787c
fc432a264c2522e72775d4c316bbf8b8
fc432b46bbf7e0e1ace6d5884c0c1dde
fc432b9b365d884c0068bf87feff8cb0
fc432b9d0eb55d00c288cdd2c0f664cd
fc432c4b27f5a14398dd0963cbe83a59
fc432c7e0afe64a4337e939104c84ca9
fc432e0a6ecaa7392814234715476cdf
fc4330bdcda62fcc41edbe12a8c542bc
fc4330e750eb469f3b57919b9c4d4419
fc4331919f7c1a8814cdefe47461ac9a
fc43319e6b74f6a40b666c50f50f23c8
fc4331a9d8198ed8d8396e7055a033f9
fc433318fa8dd6959ecd0a43b6066357
fc43341ddfb5107046a98e0bf69f1e91
fc433423d19a0776c1bf132c01d6f1d7
fc433424b4edea879fff6b9218d4ea7b
fc43342ea60c483a6dfdeeb5f9e9acbf
fc43349a362716d3dc2877c77fba027c
fc4334a83738477d1984b6b738df3f6a
fc4334dc98359cf5bf51a1347331635f
fc43351475cd3d4ef1573434edf4c666
fc43360f4417e65e1d922cca0e914f51
fc433773ae1bececa0b4807ee91b7278
fc4339870ef6c7132059635aa5e69723
fc4339be2fc0212d3945fb86dbe6730c
fc433b8b4a8f555ca86c64cf790d15ad
fc433ba1492c44f2674cb7bb229e0c67
fc433c79eff7be0ef8ccaea107c26e9c
fc433ca2a8461bb5cb020ba1f33f6168
fc433ca3690c462f4945c41ddef9897f
fc433d8c0543ca3dec0535394ec7e146
fc433df57da5af41c63870293841b4ce
fc433e8c4b00f19e0995eac12b3152e6
fc433edb92af7d263acb4c6e54a5c9f6
fc433ef80b38b232b18129cf19662824
fc433f0aa2569a0a88e289304c7396e4
fc433f8a9f259fe2de569bd2e1574498
fc434087a79ae88538beda97deabe37f
fc43411148964b469989a9442a81cc77
fc4341336d8cd28971eb11b6f872b588
fc4342b8b7347236c8877ddb74819de1
fc43430719996f7076bc17b93d7eade0
fc4343b1b19ae3eaf64eb18390bfee1f
fc4344235fed952997055d5b03553154
fc4344f8be35c5a4d5817855aa151fe0
fc4345c6f31b52aa5abef7f81b8339c4
fc4346928c4b70a1abb3bf1a68363779
fc4346b1c46894151f390d2caf04306a
fc434898cdbb96d47c6ba4f826842752
fc43491510524977945e0019aa25ee87
fc434a318f712b735b970bdb3bba7360
fc434af34774a37d6cf0a53108d48f07
fc434da54c4bca203f3fd9aba4f9ccae
fc434e4b7882c4c1afd2ed296d3c48ff
fc434e636ba25f4f720829bff148953d
fc434e65428925ec7c4715231c65fe8f
fc434fc2337f68b209e4a9e6cf0ca597
fc43507ff85c198709b97267442e02dd
fc43510dd038eaea6f90a30de6ba54c4
fc4351c6f308870ff22098404dc57c8f
fc4351f59d04127e00dcce1ac73ea612
fc4352ac164d5b1dd5b2409b200c3df5
fc4352b775774f81f95c2040e824d576
fc435332fa0e5b7cf15f8988b54cbcab
fc4353455095c72df1240fea099131c1
fc4354fd27c1befab313934367c285cd
fc435531262ee4c7a4dac779952edded
fc435558b698c0ed96e716aadc4d02eb
fc4356071fe8aa142c51b165aa15b955
fc4356c23168ee0cddaf3a27d9bca869
fc43574f8d2c5c47405d1a937d6ae3bd
fc435983357ccac38fe3e085cb306421
fc435985a66aa180b29f370f5e9e5e4b
fc435a285576b5a3783eb41e8240cd20
fc435b5fc05f7926d3d41764e5ffe268
fc435ce0d05e58d627913694f159ec93
fc435e08b897908bb8757d21d245c561
fc435e37fe653fa75294c1ae903bc5cc
fc435fd3f95209fd55ed8c216ee31a20
fc4360a128a7a239998d418709e078b9
fc4360e369c438ac48aefecb412ac11c
fc4360f6dfdf9592ff992c6c20f3623a
fc43615f4f36feaa859780d43ecc95ad
fc436161f5cb5621b607629975196c56
fc436167ddc47226e49aebc9b9e88b5b
fc4361c5d0e4a7abecbb936dde109d77
fc4361e1dd8cf9059de4a06aa4a4c138
fc4362463f1cd2b3e89ee5a749fa3c8f
fc436278868993d63f16be990094821f
fc4362fb6402e9dfeb3e51084207fa03
fc4363bcdb41f4b17d36dd587cbe906c
fc4363ccef71bbf434e2b3e0fa21a6e5
fc43645609bddebc43b304bcba26f2b1
fc4365a0bdd24ced842098cabff2f627
fc4366f1d48f069ea0e9471e760198a9
fc4366fd31685a6d3cfe372053ed49c0
fc436777575b5e8a2d8c878072ef8e90
fc4368ccf5c062b82de9e196927e1dfd
fc436966cf37111072358b587c1e3634
fc436a4ab1a10cfd45eb2170882ca4c1
fc436d1f305d250f88f5139f9df12241
fc436d5ed32eb16a82eb7c20e55ca9b9
fc436de11030d2919302a8545beb0ed8
fc436dfa1117996492f0ad9b228a25fb
fc436e2de0d35c3429d9d10833729fa3
fc436edc7dfd26b68d49fff0f7c4403c
fc436fb77cee61516e1d13f71ce34b95
fc436fca08ad4cc7012292fb235fe927
fc4370986daad25bbedba72a59a3e3b8
fc4370df677e5bdcc6ad06eaa397fe7a
fc4371619f30c749c219dab9c9044208
fc4371b3df3229244e2aeb581f07753e
fc43724a8d44449b08ca44f88e1c180f
fc437328737862488cfd2184eb287691
fc4373a41c0c203aa1d9d2d789a111c0
fc4373ac915decc8ad6665d531623cd8
fc4373b0d954c4062017c40228d810d5
fc437480fec8ebaf8f78af45140b20f8
fc4375f0334313b077c2cab1dabd9252
fc4376348bc42f0788d790eb2e0a09c3
fc43782fef75e91eadefb5bfefb47c47
fc4378754f8922b176470008ef49b52f
fc4379575bcc9d02e3089bc5ba789b30
fc4379581a3b588ba8d55b70b9145778
fc437a0bdf5368fc17e1c1397120445a
fc437a6920caaf2d922f7c2780ff17a4
fc437af14bf6e99d3bc4b5585acd05a8
fc437b1dd23be8c812e5720231534871
fc437bc42aa6869f4ceb2ec0f659c13a
fc437c5ab7b14e32d13ad7d6b237cce1
fc437c98d1bc6aa3eb6a3db0db0d08d0
fc437cd7b8d79f31bb087ea0ddaaced1
fc437dd759f4c889994e584aba25821f
fc437ed47b0a511e35a15796e7edc894
fc437ed4cb4837e905c126d212065c37
fc437fdac62b1768d6e551d2657081b8
fc43817f854cfc4d527e8cf088bee5a1
fc4382034f714db4d7fb27fac35e00f2
fc43827596e0365686d9d9f96541dd6a
fc4382d8a886cb79da4b3f947e7712ff
fc43830a8f4032d452b138992a0996a6
fc438323acbbaf3dd4e59a9f453a6750
fc438368b35bf2ef04fa376a7d92667f
fc4383eb45c4af26336e7456775c49e6
fc4384893a618f09da15f6b4352f8926
fc4385015d4059adffa8384157eec480
fc43856999f05c08e5dcf3fbd668ca2c
fc43869330d19138fd127ee6ab659855
fc4386940c20b551aabe06ab3dc2b842
fc43884b4665345516a2665028cbefad
fc43890516e1adf1896a84cfcad8d399
fc438a29119cf35ca1d4a6a84aeb953b
fc438a7b1e85ba4f61ff2d0d6aa923b2
fc438a9b77513c08949025d620d4bebd
fc438ac0fd07c27f8492fe340f2ae2d8
fc438ad0707cf6e42638b4cee3a19f90
fc438b6791f299300193ac894cc9da81
fc438b87d01e4eb6296afcb020a43305
fc438bc3645a31d895ab62c8a9ad2e6a
fc438c815d722f4901f16cd5fcfd4140
fc438cae8e671fe29a924bd3c4a75542
fc438de1e5e64f79eb99368a14cf717e
fc438ea6334e94308821bc29e23915d8
fc438f55a5d2a67b86b0c4639731ea9d
fc4390141ac05bf1cf224804ddb25d15
fc439169c6ce665ff4cec6ead3324e49
fc43926ebad3107230522d3d850ac2c5
fc439283d072d137e292d1d8ec37dadb
fc4392eaa2c3477ef6c3c416087c7f9b
fc439423d5dca019ba55a5227bb70bfb
fc4395bce4eb669530876867c2ad43d3
fc4395c997afc4c9131b889786a772b4
fc439615ecb612e6ac8c722b2828342b
fc439710c77ffe739c29c504d7c6526e
fc4397a5d5bab172fd9d51ffcb097ea2
fc4397a73cfc4e78d3a383a99abec895
fc4397d95a569af7b6a4cf2e74b9b553
fc43983a09cb3545733512fbca8be4f1
fc4398963523f5e17a153ece611076bf
fc4398e7ad08f3b344fc52fd289cfbeb
fc439997bdc06304fc4514bee4db1c37
fc439a19dde0272fe0c1d30a7dd84df9
fc439ba096bffb53c572fe5963404180
fc439d3882a07d5780a6ab0183065d5a
fc439dd05fb2db3bf239f36b70c2eef2
fc439e400fc06e9fdf1bfe20be2e543d
fc439ebdd8089b7eeb762d947e93052c
fc439f036b1e406722b3e9aaae3713ef
fc439fd7f2eb6c5eccde55c8ce253636
fc43a0f5cd5f923e1e0ca4dbe247f1fc
fc43a19ebefa49c4cd29cc30946d2731
fc43a210d9064765ee1996c73ce10a5d
fc43a26872195aef204aeef380a0492b
fc43a27cd1cde9ba8545825f6f9f4540
fc43a33676fbf0bfdabe6d33d40f92bc
fc43a391d82ea00fa9351877ce70d2d8
fc43a624fd4f540ca7cb1fa399cc52ab
fc43a6627d7a34fa0eaa0db4be7a4b3f
fc43a76cd27a5fc8bd210afa13363762
fc43a77360d058fdb2ca5a0a9e4f4c48
fc43a9b182215dd714e430f09d3b1835
fc43a9b6173bf7608c939219891f13ac
fc43a9bd7c5a060bd60e93f55abe3b0b
fc43a9ee4376e2bb8a1a7152556b6d5b
fc43aa2f3d6f35976feb4fa8d785a3ef
fc43aa98d4f536ef6d2a1bb3da55a533
fc43ab18cdeb67b7a9de69ed938cc02e
fc43ab35372cf65bf6ea0d9ccf724715
fc43ab3831ff750b0d9d56d31f7094a1
fc43ab9d276c94bd6b4b897e52c2126c
fc43abdeb849cfbdf4c12a67035aee4c
fc43ac02b7f06089bc5b15e0952dfb80
fc43ac3bd7cf77975173d26e888fe992
fc43ac481ab9889a3fe89154f5bb7f78
fc43ada4684708c82d2b5e1200b8be61
fc43ae3375983615100cf45420c1b263
fc43afa783e1444a3b023411b1e86fe3
fc43b06045de59cc93733998685ecbb7
fc43b08d31f4ea8a1108ed47a25bddd4
fc43b0eac2a7ffdbb2e3671c4aa0fffc
fc43b1862122638dcaaab2a51ae30f6a
fc43b23efcb0a52c36789690b40e8e55
fc43b2e4083a5bd7a28e328389e80aee
fc43b3ab3deb33c865bd8c6d9ec64a4f
fc43b406e4f2641bc50083dc30ba3437
fc43b507f37cd7dafdae68d2a03f90cc
fc43b64117f3d2aa1f9dac962eaac82b
fc43b703881a403e5d6733edfca1ac20
fc43b708c423b6a6d2fdcc4ff097a8c6
fc43b77553d5ad84be116d5123327eb3
fc43b78048fe1a81c26db0797c214eb0
fc43b787107224dd1c502e84ee5ad8aa
fc43b7b9cfe9a26303ebde41b9f566da
fc43b7fb8b41705263dbaa9628869593
fc43b8658326d1ea8c5b31eb57bf5df4
fc43b88f498b48c85b4c8e95a9fdc78c
fc43b94b26c2ca547a1709839b223cc0
fc43b964d5637a814f30aa7330fb5ce8
fc43ba8ffc22025f744dab7d5f63363f
fc43ba9b26e2fd8e2d8a99857296d2ca
fc43bc397def70b7b46afaaeca0592e5
fc43bcadbb5fb90fe467f42ed045f660
fc43bccdcdd923bfcc86b96297631377
fc43bcd6030137603eafdd6a6eaa71e0
fc43bd174a0bc9363ba5b87029d58bda
fc43bd6ff01618ac8d4e0dea65fa20d9
fc43bf29d6ac57481ce0d407990e15cd
fc43bf8fe645aecd71675b11898723bf
fc43c1bced9f6ba4d22cdf18ce3b0751
fc43c1f690a662007dd9640a8f3134e0
fc43c2a36743264a926f0b0b5579bbe2
fc43c2ea2e0d3cf75a71c931265a659e
fc43c31c3014d00dd6e9a77b6387b0e4
fc43c33bec3379455e91711f46cc023b
fc43c632b7a4423feaeead9d939465be
fc43c65e82acc7785614e114a593267c
fc43c7ada8fe17d8d035d4c1aa9ab9ef
fc43c872a055b0b7ceeab9aa8df88ef6
fc43c8808c95cfe38586793fdde27b80
fc43c91c9315133f9570ca766ba774ca
fc43c983062610718c757f85ccb6cb29
fc43ca129d4fdf3460675e8c9cdc7b56
fc43caf4cfbf37ebd3a2b8816839f7f4
fc43cb3c34f537c650219412193f761e
fc43cb538c3077d069ecb0137a39c5d4
fc43cb56bac8d88b36aab85f0b6fd568
fc43cd5b6271f2c87ec1abe9546f6753
fc43cd9b7b528f73abcb43515d5576fb
fc43cd9b82c02cc127eac0dbdd14cd07
fc43cdeca39901230113f823b134bd62
fc43cf6dc3b99d303532b8719a05f600
fc43cfb052245660ddb407ed29b4f636
fc43cfd3b9f27bad0445bdc72fd97742
fc43d0268c9b201f3ecc01342dd0fd2c
fc43d15de1019b44f40596a7305cbb90
fc43d297be7d2ccf689fd95443654419
fc43d29f2b5cba7baac16b546ecfd5da
fc43d2c68831b47a6b79772af0ace0e3
fc43d345f2426e60705cda9419bbb3ed
fc43d354ad7460ef690830236ef5e1bc
fc43d3c0a4f419004f9d63cdce20dac2
fc43d4375da5fda2facaabd94b406a58
fc43d49210aa2c6f7ee34499bb40cfba
fc43d4d69e5065fcf8109441ae08b2a9
fc43d4e75ad9232a1b2c2ff79c4d7d34
fc43d50ddc72982e14b3e61a89eec5c9
fc43d7075710da4e113168eac0d0cc76
fc43d733ea7fccac2671abd074bc28b7
fc43d80dbc3333e9351cec42de767fac
fc43dac2829ce62ee4d94c4c728cab15
fc43db3d9a2137bd808c0554a18ade19
fc43db45fa6a26d79441b5911f795f1f
fc43ddd1cfef949659ea8901a6619abe
fc43e1244a3af2263a536f54227636be
fc43e274602649b5170ff0a934e33509
fc43e3e394e00324896f0b1786ff4ada
fc43e4cb7cb2bdfc751abea17e83ed82
fc43e57a48505541c22a1efe5f8a7380
fc43e62600de278966f70fcf003d2a00
fc43e62e2926221c1fdbead3587f76f0
fc43e6f7e6f9c3bfb8edc36d26066645
fc43e7341ae74c7c78e9de67dcc7515c
fc43e73a28425792db8b2c82cb1902c7
fc43e75223cf30dfbb830ba0329ebcd8
fc43e77432d92410ef7f3f8fb6099d8c
fc43e867ed0bead63ce03c4b2bc18cf2
fc43e8b02b7882336d3c5d65bae01a34
fc43e96cca4c4cbaf1ddd0c19e234670
fc43e9b964e7852bbfe487e2bcf2a4c6
fc43ea55a68187813357826e48a741fe
fc43eb410af4e83576719a504f9f64f9
fc43eb53e0e12096903c08552c9d1143
fc43eb7594587ee4efc5b6aa68fd8650
fc43ebe2abd321ae0ee09ea824b08958
fc43ec0c584c1e51039918c51a64022c
fc43ec7909542c8fe99a65f1129ee0dd
fc43ecdc759e3a3bb171f3512aa8b35b
fc43ed4245a39c84d2be452e86eadd8f
fc43edf4cbf61563daf1ff9225cdb936
fc43ee2e60ea252ab490634ef556ed2c
fc43ef1190a3013218a249f7e95d72c8
fc43f11d6025b174b3c532262beae9ab
fc43f289e752f0c87f4f1629095a0891
fc43f2c75e4813c26ed6983b860b16cc
fc43f425ada301520860fd41138878ae
fc43f43765355bbb02774f60fe9d3583
fc43f4ad3525390a09ec71c13576d587
fc43f5359a6872ca54f8e608eb3463c2
fc43f547b6f53f9d5e0f5cf904e89fa4
fc43f596d0f89908f684820e83a0b8a0
fc43f6b92d58a7c598e3d11e89537ec8
fc43f7d95f75b683c7956a1e3efbc860
fc43f7f3ec9d5e5e5c74e376c9944fee
fc43f8d2675400ddc3fa1ffd0432fb13
fc43f8dc8cf642abd71d936e8c25f022
fc43f91c477ff86c60cae2cec15b9ca0
fc43f96dc585217b6f6f3b0c7dfd1752
fc43f9d347d6d8e9777b406c85446966
fc43f9e5c9d9496d55ec385b32e6c84b
fc43fac2d582909eeff3753cd2a2ce55
fc43fbd8cf3e1f4e1b73ea4f60ff1d3a
fc43fbf7014f3707fbe7fd0910ee8596
fc43fc84798d3c6fe4de8ed493fec33d
fc43fce3e7dd7840cef8458a74528f4e
fc43fdddc47ff3cad09f7e8d406aa2f2
fc43feed44c829f46455f9926c371ccd
fc43ff62c03fc1fa8d91be89e30e61b1
fc43fffcf2966e01bef26a3160f3e101
fc44018b684736e7c2a3d0e1436c5295
fc440204ba705e7fc777a88d91c7d872
fc4402351f72c20bd11d19c59a988d39
fc4403776f886f05c79364eaac8afe00
fc440453faccd4d86cee239075ffbbba
fc4404b71027bd1a701440c63dd2ea7c
fc4405ca81eb2a39d647b80db0aa7530
fc44065180ddeeee9c6ea33ab94fcc09
fc4406f23361d0e6d49d26776991f580
fc440869a5af692ee266a7832bc02646
fc44088493275a3fc01cfed14a2c8a0f
fc440a005fc3c38893e46ae96dc9e755
fc440ac71ece36dcf723b752d9e64de0
fc440bb477b9ca1d94b0fab18758d238
fc440bea46053e62bf03855d6782d745
fc440c928ebec56be120d91c6f2cf00f
fc440d84e1a184f88cc1503ef4b6d51d
fc440dea9d7fba5eeef32e12916ac108
fc440e2ff6da1b0a58f421a2f424281f
fc440e5b15940afba524ebd143f6ff1e
fc440e7ab4aab9b69eb0bf8d416c81e8
fc440f7f3686eb30c84af7a0f4138d94
fc440fbc3388b9d25433984357b75760
fc440fdc094451b40973cdb69bfd7050
fc440fe792eaca3fddeb9f031c5e2d0d
fc4410125d74a44b63d027cfdad76eb0
fc44103ad6bd39068cac442a04cf3470
fc441049bf64d927411b88cf909046c0
fc4410810e35cbcb4398c18d0e3fda5e
fc4411e21da382afbdbbd9c9055f704d
fc44128302bd6c738aff86d682b343d5
fc4413a334eebcad5e8e739dcc7e3854
fc4413b14582e12e4a1f12237d673072
fc4414394a7e0b255725c0c0fecc18f3
fc4416f96aa57ef8e8c3a0f1d1c24c52
fc4417cdbfb0f7e2426989337dd26132
fc4417f95f5d3874413f7c807b7fa71e
fc441881cb918e47084c4df291e4c3cc
fc4418f7c95696de7e874a9f8c518853
fc441916153d29c86d36b496efd379b3
fc4419504e2c2f7425b22560679ef7ec
fc441950754ef1d042cecc813a331a91
fc44199426c63bef0affd9830c062043
fc441aa0052e5ac8bb585a814f3a1d65
fc441acd354ea4c24a395895da6ee2d1
fc441b182344c11f573aa37dd75b8a47
fc441b95cb54c1a93eb2a0f684055fd6
fc441bbf2721eb7e21a015a10b2ab6be
fc441c015e0e1325bff26e1ca1567e55
fc441c056f798bf940267d5f2f6f9b76
fc441cc1cf2f092a355906d941de8a38
fc441d3d65747ed07c0ac95489f88107
fc441dbab857361e8ca57ea6c64ed54e
fc44215b0a24e8221e6e9d2bc25694c0
fc4422261db19781da4ced155b092e69
fc44225a7b6e4c279517c5c2536dbd78
fc4422769ca0b49f47edc7d3779d91b9
fc44229f92fcf2efd808f3f3a0f84fac
fc44240054a4cd7202e93162ddde4b77
fc4424305201c21e21f3383e1d41d049
fc44252f293248dd88ab2fb9f1062f11
fc442540049bd18e01a72786df3a3921
fc4425eea04b7b5973aea33d1663c529
fc4425f6c60b41cf4dc78d9543a3fd09
fc44265ab46c707fd551c56ca099934f
fc442692e0e030c4c8e9df2dc64da80f
fc4426d7f5d70c0ef8d786ad47c07d4a
fc44270d28ad1e61c8790c4afa127ef6
fc44278d9a9163ea830c3a01fa97e52d
fc4427cc6dc5ea98c5f0c9d289aff190
fc44282dfaa8e194fdb4348781d31d22
fc442849e4a58a76381a0062448325fe
fc44296406e8145895c94999d42d1b00
fc44296abe759e6839da6c78810ca82b
fc44298c5a812e9bef533ca81001c7d0
fc442a7608d47ee656290b48a49a7042
fc442ae3cb956e10d6f05d7e1f6d32c6
fc442b935c069136f8e5feed3ab467ad
fc442be7e7dfdcb0067da5aeab1d5bd4
fc442c5396cba9bd1ee525f4fd320570
fc442c88d887267592803f8ef159cd32
fc442cdad884d31ebcf9de5925b3ab5f
fc442cf0f395eb0f132f8fca1e812bec
fc442e72110be3ba8026942cc0b528b5
fc442f654b7dda613802f397104d643e
fc443071aaacfdfd04d44ecd40da7ebd
fc4430970b3e2d10aa51f3f662847330
fc4430a735e5d5897f6e0dc6dcfe0d9e
fc4431ce6ab958e728bc38a3a860e28c
fc44331da852e79184d53aad4bf2f4d6
fc44334f05e8713e4b4f407e9782e23c
fc4433f4eeae3a7833af80d9115a5a46
fc4434027c288c42219b2d4bb54af653
fc44344590954f8f56d0756d179a1ffe
fc44350a86cfa978dd3e4f3f6b72316b
fc44368d41e37efc3ae810f35009de38
fc4436b4dcc908cc8d38cffb125a15d4
fc4437f0a6d9f6092dac891cc34459ae
fc443925fa0176cec8d92ec998593f64
fc4439fcea854b181a48b4a98b080038
fc443a4c1cccd2899f9c3dab8383ab30
fc443b08c346b0866f52bd1e23ef6c84
fc443c56801f2c504b4de090103b1342
fc443c630d5451e952145ebaf6343b07
fc443cc56cc9cce2a6bf81473dda3d60
fc443e586bbb9de0d76803261d516c4a
fc443e94449e59a2c6fd3e16d7b7d6c8
fc443fb3dbb0576d21cdf01d4e252ac5
fc443fc51ea7bbaa913af6e28b44ea3f
fc44402bb33fc55cfd81dfb5d7598d25
fc4440d516e675cfee051129a17fe8f6
fc4440df62a81b70584d2b420b48253a
fc44417d61ef7fc90079076a9e569536
fc4441918a90bc534ce8c4d9fa6dbbff
fc4442404dd78af3ca4fcce3f9175f7e
fc44424790a913941ab0631039bb8ad8
fc44427a0355c5cc38bd22464dd56435
fc4442d66d44b775f8b866a6b65e2cce
fc4442f7c03d944c704bad3b07e56fc3
fc44438e03a45e45d6ddba23862ab5b5
fc4444cbf7fdd9105e39fee604136361
fc4444fa80196029480b3f932d42c751
fc44462be740fe32b84113f897c2ff2e
fc44462fcd394a620f8f3c8ac26c460b
fc4446334abe1c8fb598d61c8dbfa93f
fc444673dfbbf11e5d49ab84ee2bf1a6
fc444679889830ba4be96b22c5594df4
fc4447b94e61af27ee491052e92b1bb8
fc44480f016aefe0225b259124f07876
fc4448a1013f9d2b8357f010a69d3cef
fc444a5ac4ec520aeeb22349a2e64dfc
fc444b07c27bc887ecb3ae84f6deea07
fc444b546066fc461defa1a98e6e6966
fc444c19b39b4568d5bb65d6510de3a7
fc444c1d4a2d53138572ca6dc4ddd3bc
fc444fa104aa4d77dfd5dfb0cbe22fff
fc4450809fe1988b5501bfbf8d7ef58b
fc445091816ef8bc804e883a98ce2227
fc4450a069b1398b76f59f79b073fc76
fc4450da59592a0850673abb23d2fc38
fc445144895941430e9e1d543c57c9a2
fc44517aa3d69002e77fe6439dc50a38
fc445218eccd405393cb7b869e345613
fc44522f10cee72b177317e6e958f2b5
fc4452b122d6132b6f57cd980d3056ce
fc4453aef80ecb6b7ee817a79d4155f0
fc44543d9c3509b9ab50061aaba7c230
fc44545c784a7c3174803f087d2322e6
fc4455a5086deb01b86dc7b7300c83bd
fc44564cd679ce38e3967a30f595d24e
fc4456b59221805fe7b58e42e7af3b0a
fc4456cc4e62dc1372a7b1c6b02c9170
fc4456db2df75926f5d83edd5c245570
fc445768c6ff9cd7ed7f7fb807250b9a
fc44578306c2b96944bf4af165eaa19e
fc44580e756208334eac9b1f51474ac7
fc44587f2245d4e164565ec4c61d4621
fc4458a444a6201c13f75950ceabcd47
fc4459b40315b9078d8f587adc406b60
fc445a51fd9060fd37b67af0d63503d4
fc445a970ae0c12d62e0f76b0ba44d98
fc445b43ce7ffed4926db6b3e26c1915
fc445c3bcf54abed5d032a1944e974f1
fc445d6fb8791d5370a6d7789af101fd
fc44605a5983ac327a3ec0adb6369a3f
fc446139f8c94ea52139f92e90fc3ff2
fc44620ae0b40c38da77efa0276af87e
fc44635fe3d515d953e99178b2f7136a
fc446363bd0a486caaa751f321e72b06
fc4463dc1e17eac93f5a20147aaa6317
fc44642dbe41b3589cb4356102328cfc
fc44647db9c9ffc0c80c541005b26f52
fc446485845d59c08f0abba5d6f71daa
fc446493ecc9a0f148386ed095c4ef32
fc446568090155254379544fd0f4e3aa
fc44662995e0ecec80050e5da2ae2d98
fc44665e0ea4c5a73cec23f3f084228f
fc4466a8e47127acf029baae8548d74f
fc44670d18d8461fc4d901ea651ed182
fc4467ad88f73c267db4ee3638b8d22b
fc4467adc917fef8f8e1d48f03ef9c9b
fc44695c7c4279ee301158bb1e87a612
fc4469739397013a7bf109c22fdee2c8
fc446a3d80a9e17e819d2a100bcce4f0
fc446c42563b2bd93ca5b49d67f93eb8
fc446cb7789bfb6d211ecbc578f28053
fc446cf362d060be8871829286c9c434
fc446cfb4a61afad84948c376a4c8355
fc446d88a8f4849074f6a54d06e31d1c
fc446de213ddc3baba393f76470d9baf
fc446e2f8844555a8d0504a147d9dd90
fc446e7ea407d467a19a4270d53b8423
fc446efedbb71f40f50023da43a7c8dd
fc44701e3b4b12068c8001bb183da080
fc44705e292241bf048b83964b1760a6
fc447156144b79c19caebe3748c14ff6
fc44717afcbbfa6f8c89563bb54da0fd
fc447269b8227f27417f2a2f647f9392
fc4473550158ba9f08ae7a9bcbcc6f28
fc4475100c13c8f2f0ba8eefda2f72e3
fc4475398929630658ab7f302ebcd6a5
fc44755b20c05a8adbcb9fd8a0fd2775
fc44755fa0f9467347e2273f4d77e1ec
fc44765682cac70edb390d2ab0a91f2f
fc4477128e88f1c978384bb72918d6d8
fc44776a20fccafe744067d25df0d68c
fc4478ee097e9ed548eacf74189b30e7
fc44795915eb0d66818ae51e724309c0
fc447966b47076ec13ab14725c8c9f89
fc4479c6b290efc37d76e0c9d6e23576
fc447b32da9cd5be2b2326b0eec7a690
fc447ba6be3a329de6a3ec7b7ec43d41
fc447bf0153b00fac0cec639c18425fb
fc447c5e7daf0345d329dd63d7405801
fc447c6657c73f45ae904f5becede0eb
fc447c93ac901d99c53911ad2b57e440
fc447ca5e9b4485e4cb817f68f54471d
fc447da14b5723865e9717260a11082b
fc447e135bac2c202f86973b4235c011
fc447e232b9493114c8af92de717afef
fc447f516d85f035c60c151b7b47599e
fc44805316f352703943cfb4fa267513
fc44811be959f9fea1d532b888992078
fc44811c9ba31380267b53c1e07675cc
fc448144683b0dcd31504b31658411c4
fc4481d3a51fc568e8259475ab24dbaf
fc448313f38a4e3bb2c3f7c4d0415cf5
fc448710118a6e4295cd846bfc074348
fc4487b7eae3c18f3cbbfff85a7820c9
fc448819268f2edd29f3008442cd90bf
fc448875665a866d1c07e5b16138c7e5
fc4488f28d31d2a3ba09523003c66605
fc4489c160196959b2f1c153ba678ea6
fc448a19c2f16799cedd96f18818bee2
fc448b11d26fd2962db4f546d4518ed5
fc448b1df35107d2d48a46a0357cf55a
fc448be8831c81a7b6b9f6af365be99b
fc448c869d0ae7220e64dd477789ea94
fc448c9f28fe1bb2ea3a58c8915e4040
fc448dd251854cb28c3421ac6afb26d2
fc448ebffd91dbdb8f77e54d2b5c089e
fc448f2f9ee64a7f5067c02110757aef
fc44901b9b279030a7d7f97bbed9045c
fc4490ea82d45d07aa714c56340730d6
fc44916294a46a8266036a33244a08ac
fc4492b3ee322b3a1011e0de03d6f590
fc4494b9e1fda7477a936140237ba40d
fc4494e95214b46c3d92a6a1b4770c67
fc449511df82e80af4a01b927b2c0800
fc4495e3e15323d1836de7577191bccd
fc4495ffb803cd202efb476dbe547620
fc44985096bb36a9f2eddcbe326c757e
fc449966da10d9276b3495ff2744b8c0
fc4499e1a68db1dd23e91ce728fbdeca
fc4499e87692a0f7790633891525e76a
fc4499f076de3b44799026aa621f63b0
fc449b10e86129d8d45e8e2e1db8721c
fc449b42d852839281af27d95cb92340
fc449b6040dab41fb1489907680f7201
fc449bea660e81b6c441b9633ffada41
fc449c03bafb3ac46ad261174a1236c4
fc449c82d7215e06444c7bebcd95dc0e
fc449e1cb8658c60110d1f011d09d766
fc449e23537b84a82b5090bea2fd3863
fc449ec2a226bdf4fae44893432ed147
fc449fc84cac7c5dcb38ebd39ef83586
fc44a0072e37950ab9bc47da14e53ccb
fc44a0227db3541b723349b89339b9d2
fc44a05121196311ec74a19859f2c74f
fc44a0f981863b316b8590aefd96433f
fc44a12925443c346de1bb699666fbcf
fc44a1490b9473e91ef4453c3ea9d849
fc44a2a408e6c58989d8545a0f937afb
fc44a354d48a1a8e882969de64b6d3bb
fc44a36d484109c53f9f81a46da55cd2
fc44a3a987f7fc959a6ac5cf1d12ae3b
fc44a40c87dcc0422229a549dac4da54
fc44a4127bffe64a3ef404648ecdd7f9
fc44a413441f1f848d9666cb30795a5b
fc44a474ea82e89844eb3d621627337b
fc44a4abbd82843b69f8b119dcde843f
fc44a4f117cbe0b14f5d11b2f7531664
fc44a5fac1f8e6eedb7de4d41c281d40
fc44a5faf0f5d67b833edd24aa4d8ff7
fc44a6dab1c3f4306691501b327ead13
fc44a716329d5f0e496f576b1e98810c
fc44a74f2e1be83d9b3b0964fe859dc4
fc44a7ce45631466e10f84c5ab6c7075
fc44a8ca9b02c39972ccc705064b8a40
fc44aabcef2b91987df73e199ad68204
fc44aae7d9c34502ef65d26f83a443a0
fc44abc5f15ccf23ae142082c50c53a7
fc44abfc58db90325683b6f0d6c73c71
fc44ac33385e2263c293ebfeb46c28bd
fc44ac8edd5f5866333b6be17beaf187
fc44ad352bf88629dec4c462ecc1d80f
fc44ad474d5635a0f58d2ecc0d8c33b5
fc44adb0be507e414789aa2fbb01fb71
fc44adb4f0a64e7c2bf4229d1b0ad30b
fc44adc975dc0416dba28dc4af8de581
fc44af06449b90f32e4d608f9f22ccdf
fc44af92c2426cd8f394ca5f1c0ee777
fc44b0277f0ee5e9acbd69ec1485571a
fc44b0a288e630c557caf59073357129
fc44b0f83e55642fb09cd22fd11083db
fc44b1dd11d343200df40fcde39ffdb9
fc44b211c67baa4ff0bd4e45aa801d9f
fc44b2664a92e733bace8bdbecee622c
fc44b29be98ee04efa523930376d2589
fc44b2a941055ad5b32bdd6eac3962f4
fc44b2bd4a559ef466e61e8858045348
fc44b30417ea6cbe2baf83f7607011b8
fc44b34ebc6ec6b5151aa1f9c08d0a2f
fc44b39717313c9255899f798f1b7791
fc44b3d23a07d9dd6bf64b5e57810894
fc44b4a82bf720ae277723af72aa0bb6
fc44b4d082e58c4581c5a55a065998f4
fc44b5d6649369be4c10e513f27a1b4d
fc44b6d5eace65f9cadc7afb025b51a6
fc44b6e765fbf701fbfcc2459094f1d7
fc44b733349dff19a19d1e1014fd4017
fc44b783f942571a3594f70d9ee1072e
fc44b85099dcff29f9ca5ad08bd05344
fc44b865aefe4bddadfb7e62c2ad755b
fc44b877382f13f49afd5389239959e2
fc44b8891ca37e270c70b07210b28710
fc44b8cd3225f98333ac45a300764dc3
fc44b9236c85bb8589f1d1e874852a52
fc44ba17fed1b924adffc35b9479af64
fc44bb9c678b45c6d7a87aa59b5a0831
fc44bbaa5f3270ea16f56f6afa31077c
fc44bbc922a9ee772129a36de2c03afb
fc44bbea12151fb08a8f472f9aa56258
fc44bc4d62a189d24f345ada12e78121
fc44be497f1fa4797f6eeb9a474df2d0
fc44be8e883e67d786424e5df37f4743
fc44bea4d62193e005ef42ce3296b229
fc44c0add4a6118478e34220d535327c
fc44c0c2d6904310adea86f2db151802
fc44c0d77e06671cb9d1a83d08d66a7a
fc44c0fba2d665fba83f76541e2765b1
fc44c1caf0c8de456a73dc071c6471c5
fc44c21b026792f6d5ad50b28e83d9a0
fc44c24364e6dbc6643f2cb6a487318c
fc44c335f787c28d4bf847dc3f74ff64
fc44c3de07d03059d03a3a17f5a91f37
fc44c3fa6435a263abc806e9040293d6
fc44c499f0f478e275683f3953e3eb8d
fc44c4caeee405df08ec0f49e44c8437
fc44c4d186e6c4114ffba20aca5cea5e
fc44c5fc9223c6804e8d743c648c4dfe
fc44c6543e7209df037cb4536ec2cf18
fc44c6d277840e1867a6d8bda8ff5c76
fc44c71d1610eee8146d03cee79f0261
fc44c7b19cb159371612363a7baf9afa
fc44c8bce411560c6b313b48843ed086
fc44c93aceab24a62ac9be11980f8b5d
fc44c9b01f0a431343e87e2c4e579988
fc44c9f002807c3178e23b5325373a8a
fc44c9f0bb9405d3fa16292cf91fce48
fc44ca631c93430a4fe1ed8d10c98388
fc44cac61abcc956ff6eaf2762037b9a
fc44cb0413b3af75337a42b8f71da921
fc44cc17d69b4f345ceb18ab37ba81d9
fc44cc87071987e3696c8fad09a01b20
fc44ccac2263d39af1de8d5a5f52e994
fc44cccd79e0fb305ca7333e5314c0ff
fc44cdb1eb87d245ee3cda3d4d7bedb4
fc44cdf6609793eaad24aac682979cc5
fc44cdfda8c41f9974518f862c3a6e8c
fc44cec28867bad67af57cad97efdb35
fc44cff589d82118c3b45e9b93cbe7cf
fc44d02a8b517376108fb9da8dbe1037
fc44d0c5059d86303c3658a3285d1946
fc44d0d0d97f01490134ce57e5f82a91
fc44d1246c5adb44565bc839cef7be2c
fc44d16a32be328a07307d8b759db3cd
fc44d1734985b8d3b7b209a5cbae8c87
fc44d1d16a6e4e22acaf948f83f89298
fc44d2efca3183b998e8c54d621b7391
fc44d33a7438131ef8f8c60b97846b9f
fc44d361e91b7ec7e7874666b3a5b240
fc44d4022a14ed3fd0308f768242775c
fc44d42321e1af91c3da56acc61c3102
fc44d522d7c9beabae96415f76f17405
fc44d55f3842a6dbfe3a429924e88400
fc44d61e6d66202e513c8dc56d0ca62b
fc44d6ead517f3c15c7ff1fc46387f2f
fc44d6ec3386c0e140b03ccd86042359
fc44d76072a905cd82afd28380025513
fc44d7e6695262e643bd18e03a240ef3
fc44d7eb3a5ddce6e8689863ee792784
fc44d7ec44e96b932159679cf9c62583
fc44d8cdbedb1f4ba5a398d01d2b4376
fc44d8ea589c9f6dff35bc6321982d07
fc44da62a1139044c1a5d96b1a123d06
fc44da7ae0f534cc90bf80e543408d1b
fc44dc056ec34a272094142fae51b057
fc44dcc10d1d895100da1391053d32e1
fc44dd0be767e8114c4a18bf09fe4280
fc44ded8401f1d3e98bb9c0d326251e4
fc44deddd3bb68f36230c038d7998cee
fc44e1762acc44cbc7541b36ad860128
fc44e35a5e5f215059152eece8b92477
fc44e43fd3392eff8481e6a8707b2f1e
fc44e560c78aeecf84ccbb7828c44e5c
fc44e56365d414b5432d9eb666d945f5
fc44e8bf145e69f9c614bb58e69eb123
fc44e8f0d44750e38e28e112d5894a80
fc44e91adaeee020cfde671be7eca8a6
fc44e957377a02a2a5fcb59e6bc0a3bc
fc44e9f5499b9936d3606fb2f9bed705
fc44eaa51387973175582f195fd09d97
fc44eaec3a1bbd29a974635af8d6bafa
fc44ebfc52af12e4c84c3e759aefdb6f
fc44ec68a30b964eaa0ae00af4bfff2e
fc44ec8474ff18eeebcdcdcb28e8d61e
fc44ed75d3ccda283934bdd4727de85f
fc44edc4a122f919e2d895b29e3485d7
fc44ee3549fd73356fa39ca24d520d88
fc44ee57764bb8f56b1e2acf721abeab
fc44f022bcf8c951b9fd1337474a6bac
fc44f0900e7644bbab43d73264ccf949
fc44f0d0c0a27a3befc125d053ba82dc
fc44f0df60e736448c7da750306b02ce
fc44f105c27241ab79f5cf016cdfa687
fc44f1bc99dac812dfd295e816664055
fc44f1f0560bd9300d24ce65f060e292
fc44f2d0b327e6d85f1cfcbd4d00858b
fc44f2d861f89ebc94a3aedc5edb3960
fc44f4c310697112aef09cc966e7fba5
fc44f4e1c30ea96547ca7022f0e0c0a0
fc44f682eca36ea52fdaa2d7f8ca6798
fc44f72a6dab6dd91e334249d83176f0
fc44f7543b79c6d1d76df0a9277df506
fc44fa6ef51c5c28183227039db22837
fc44fa7df84eba317197ebc9a7bae0d0
fc44fa93cecc9b579045d0c0201121d5
fc44fbb8642c81239136f9fdbc03f2f0
fc44fbd091f6761a6cb2512a5f1c2d91
fc44fbe82f76580663ff935a5990742d
fc44fcc9d08c364b4f0c8800319869ee
fc44fce1db19849a574697df5376be1c
fc44fe0c41c5bdc810e73644cbb0861e
fc44feb268ca6286839e1623d55560d0
fc44fee68fbf76f801375dd05eb80a85
fc44ff0eb6a1144da0c73450c0db479a
fc44ffc5308056dee3458ae2e9d4944c
fc45002dce7dc24f77cb46933dfc3806
fc4501218219658f986cc24104bdb574
fc4501388f6a99c8606c0e8b01457cbf
fc45028433c1dde7086d30617786b214
fc4503039929b9a574317b9e67ee2ced
fc45048ff355aec3928aface7a15d51b
fc45053878e864047fbb35c365188807
fc4505be889a2754110991a9d94e1612
fc4507207d1da29ba576d4d2e60b6200
fc45074114b495935c2de388fc2230a9
fc45079d77e91a442c2d220eee760fdc
fc45089409991e38deb2faa54ed19b00
fc4508d1bbf285822290a13ab7dc8bba
fc450a0f15f03781489997ba0c066ab8
fc450a28622cecb32f2e2cee1b9f59bd
fc450a8eecade3e72c73ba540a9fb4d1
fc450aad4e9fb38054c0247302f4f8c6
fc450aad7cabbcfb929ad178087b26fa
fc450abbeebb6770696521af7ac2e210
fc450aedbc88694935a1767970f46c6c
fc450b85af28144ce845dd455a358972
fc450b8cdc151278bff5ea5f6f9c8193
fc450ca46d943b919ffa8ef09206adc7
fc450d08b0c93940d2e65ddb21b9bf68
fc450d9567d705c2d1e4cb3d999e52d4
fc450ec8b6e9d0193b94681e05329807
fc450f3274d6763db8c5ebf6317b83dd
fc451009aa78129e5f921234c5c5c8ec
fc45104d0cfc9b6728ad8f859a53f6ef
fc451070c33f70b16f5db36075ddec54
fc4510a44978d6888849f57f823239b7
fc4510f7bf11f51011eef69575e7d690
fc451199a14b9763459d5c7eac2675c2
fc4511c92aa119b92b2450d14bff0ef0
fc4511e8fb74bed507b8a05170765ea0
fc4512be132b07ed69f0247b0b19358e
fc451329ef5a90636432caa7d4006c79
fc451389f6764976f2d6427efc39b54b
fc4515068ae1c60b7e1b49f7b4d566b8
fc4515472d2a09bff6e83bac87121c37
fc4515c7f596687f27e3829f8e1ede93
fc451604ed1834a507476a427b95fa75
fc451611e735b7c9b3caf872f554466d
fc4516ea3067b893885ae9660ad3b362
fc45176899cb27fca569ac0ab2f7eb5c
fc4517e28ccc0f4ef593898e7d9ca3f2
fc4518c75dc8864ccffc6676c3aa9c1e
fc451aa314dd1ce8ac7fd5aa18e4e0a0
fc451be9f108f08cecd00360caf78bcb
fc451c0b8b894a045faf8011c7d9252e
fc451c319b62ee6031dda22be069ae66
fc451e7d2077743ba4279b8ff8eb678c
fc451f05f7f9599cdb7fb40fdb75ff05
fc451f6f3768c0db13fd293d3395d587
fc4521db1a939d7b4ba6d89a6b8dd454
fc4521ed9c56c3a11ac0141b16e20fbc
fc4522303159fda3dd9656d756b75962
fc452253f70cd60fcdb6f168cca9ff70
fc4522f389fb0c848914429e2ea4f665
fc452366b9dd74328aace15a6e245ffc
fc4523cea9c1a7854e96f49b6b9f8f3f
fc4523eee5185471ea445edee54fa983
fc4524463bafee49fd0bc53eb9df7234
fc4525919419294cedc38ca73a3b64df
fc45275b37f2635a3db68f0169212cb6
fc45279b0fcf4921732d6929e0729c07
fc4527ae3d1e3d38c4cc9315d39130d2
fc4528180c158784dd18a984866b35e4
fc45283f8ad75c9a2d810655f33e693b
fc45285edbaf68c89cc788b2cc17956d
fc4528a23b68e1b5a904522286daceeb
fc4528d423987518d76086c35ae0e5d7
fc452983f46d3694ef5405ada0438401
fc452b1c9565a07d8bc1c9afbb7b22ad
fc452b3f7b607823c563f3e1fe5d451b
fc452bd60ce7aa897b58305fb479b230
fc452c8d0edf44475e9be931757bf610
fc452ca6f8661736b882743ac33ea91a
fc452d2aced4b77bd4cb3686f7ed639e
fc452ddc3d51a1e10a358f64bcce0482
fc452deacc02ff3ab22865586416ed9e
fc452e92bec4d032fbd0cf7d78dfe473
fc452eb5ee136b30ed32bef33b09c599
fc452ef995f7a80c59fd6cee1c80abab
fc452f28ca7cc0c321e3eec784b67863
fc452f3065c41b38910fd11143a04f68
fc452f689d3fdfcd65034cbfc4aaf946
fc452fc59f80e4fb0420dd3627a669fd
fc453042f4108f3f6669cd27a481a310
fc453370585d742c3802f3a6b48edb5e
fc4534186bfc37cbc3e848c96e4ba0a1
fc453593ded2a328f90481a9543ff4f7
fc45359c51fb9cd7d03c57442e2865c5
fc45376cf3e188cbf976cea669e715e6
fc453775d2722f8d9b0f2483cca5f6a1
fc45382fcd99b8fd0387cac98fb575c0
fc4538727bd7fa2514a565ea8d6d6220
fc453935cb2b78c361302fa5253e9c07
fc453942e29bca0ac04d483782b6eb20
fc453a0cb52ee32d9052ef5c4eaaebe8
fc453b261e6bbe6d4b02ff2d95f106be
fc453b3464e64a008cec1eafb1542c76
fc453c3ecc7924b3c980d8e650bf3d40
fc453c56fe15a0c963c0f58cc93d7b85
fc453d5066a48193b0f155c8d99ca428
fc453d90dda498067c557ba8ecbbf268
fc453d949350d160333aaa06c0d83588
fc453dc37be32b22843e7661a1d08dcf
fc453fc318ed611e8b86a3d4f990a868
fc453fc67b815a157c646c373fc8b300
fc453ffd4fd72467ad3f24811762906f
fc454015d73ab1bb94a77928d24e001f
fc45403d18735b79e87c9407c68cdec2
fc4540b6ffeb4925aff2f5a224a042ad
fc4540d9806fb0083f5582772024444c
fc4541a8cac06f7bbf6c1d1238ebdf6f
fc4541cc90c627d10335ea8072c913c9
fc4543548989fb7004b05f362c157ee3
fc4543871ca53653ba52ed8c5118fc53
fc45441c84892bceda3f8064ff6c0c39
fc4544246f8f62012f63a51d3a4421b0
fc4544330191ee04d0d6832c0b1ebfb3
fc45460757da755fc4d3cc51f01807d8
fc454612fa6e9b34655927c81f0edbfb
fc45479ac3c9d5f12029c57ad3f74a57
fc454801773d12407a4761e170e8e8cb
fc4548968a0b719698d2245b982176a2
fc4548a99076d039d939daa68665cb1d
fc45494a2bb40cf45512cd1d96367618
fc4549b8073d198f9139ba57d04be213
fc4549b9e8a80c0af0fa76d3da51cabd
fc454a238317d18b75cb2772065a22a3
fc454a2c2ebf92f7c2f7832ebd40a5d4
fc454a436462cee69e28ed3331e486a5
fc454ad3a691a178a48a0bfe874e6774
fc454b060ae791689b531e931514da73
fc454b385a5c357bc97e2cce3d842b80
fc454c52b788903d3097335269ff46ea
fc454c99768a4be43db2ef994fe19a1b
fc454d4141e338b01cbe4c9b00ac9931
fc454d5a8d519398cf532f0f8b36468d
fc454d7bbc1b0737f55b64f430531f0b
fc454dec19b449dbdb707eab0b567ecc
fc454f22f1eb1bdb8c0e67f4730e2f8e
fc454f77ef4279adb79c57c8f52f1519
fc455097c557b6a19147b8ac8f84c8f8
fc4550ac17bddef9e6fb4d147240a91b
fc4550ef2a62ec1eaa8959e1924eb059
fc4551ac9038eadf7161d216bb6d9fcc
fc4551f993bcb85bf417bddf4d1cabb6
fc45524b3bd64ea765a7a37c61a3d06e
fc4552cc5b23ce6f589afee198e945db
fc45542bdacc07d18d2b46b884911d32
fc4554efa2495fa0a99590388bfda697
fc4555115a43556dec2ae61597d0b72a
fc45572d88ca7a31a6d1fa8dbe2873f6
fc4558d5ba5eee9ecd9466e2280c62fe
fc4559173fbf3aeffddcf7b90b95646d
fc455982dfd501c29faa97158e21cb09
fc4559b7a2498343bc6f29e530f7ee5e
fc455a378ce1243fa789dffe6f567bf4
fc455ac861e84ae9a496bd7f5acaafa7
fc455b2800f80294aa0d0c288b25b59c
fc455c61370ac08cdcaa261a79271732
fc455cdd537100baa2653bb4bba3bd38
fc455d19b773b5077f34d2bb8e7de720
fc455dce31867efae6d5518f2ba91f7e
fc455de8411c22642e4267ff4a1448c8
fc455f40205958a1edeeec22c13d92b0
fc455f43a2ed1667a273688c715d411f
fc455f46106f5aff27fe0354f23736c2
fc456014a0d6689dca71c24bc6560862
fc45615093e0935b94fd3f5183fa5fc7
fc4561da19ce07f5a6f59f8d46882f04
fc4564257a23c5502ab6cf05cf196189
fc4564ae8a3cdfa42c2a72d9bd0fdacd
fc4564b7c454920afabed12eb8ba9f06
fc4565267473e6ea5f05846d5f90c3b5
fc4565b600a864d5aa35b3b5dbc73eb8
fc456615af31cb5ccea32746806e1d2f
fc45664e295027fdea3ff6508964eb53
fc4566e558dbd2e92fd3fd2a0b0f42a8
fc45671e8ed53af41a9334603f03d1ff
fc45672eeb9f59a9d05720e542c252fa
fc45690f213bc31b166b6dd5b0b7608c
fc45691d510be755792eb76e44fb74f2
fc4569427485a9d1b738934437fb8ecd
fc45698d3207c932ad9837e9cdec774f
fc456a94124e6dabb7fab629e814cbb4
fc456b34e3937861ae52eaf6f4d10f0c
fc456b37a5be05cd98175f6482602f20
fc456c44bc48b4a5a55e3f114885db08
fc456cfe50bbaa06b8a36cb0a17a574d
fc456efea9ef42b3d4d9ef5d8dfa49e7
fc456f57e6d0964a806d40fa02ff228b
fc4570e7886af447530a94cce7122c5f
fc45716624c8319139985a88b1a3177f
fc4571ba3b252afef32ee78e2a4af8b9
fc4573738c246a835f85a95fe95e96ec
fc45738b289fbfd128ec975d2b171119
fc457496a00f9111676c1a1eb32cee42
fc457532c4e1297682271bc676659c5e
fc457a3de20625b38b4b592c35cf4cc8
fc457b4efbdffc630611d3109084fbbe
fc457b9889681102b4057048c09e1381
fc457ba57b74b1cd88423ea16f00c061
fc457c19c06dbe4e443b01f53544e8c0
fc457c26ab06627dbe75e83feae9994b
fc457c93de18da3616ec3f24aa03c654
fc457cbdbe513aad4c7dcf560a5c36af
fc457cce637653ec726a36213a49d301
fc457cf79ed175cdf226c2ea4c0657df
fc457e095b37a2b4b8e73e9f63b4952f
fc457e9ccf637fcfa1e45025f8717cec
fc457eb2297ae143178dfafbd2b1c940
fc457ec8dffda47c77dc33cd21da560d
fc457ff83b931077415512317815fe46
fc4580b721a093adf37e97115a1b9b0b
fc4581c194a6958564c8cf6672beb278
fc4581d7f2870717e64b595599018519
fc4582bcaaaec0660cea74cefc2fe960
fc45833f44d748bf29a88f8871585235
fc45835367ce2b244f4af052314ee7b6
fc4583cb93d4b71bc42d54616017a3a6
fc458449fb1b50d74a5131a7513ec8d9
fc4585127be7305117759bf5012f1fbc
fc4585b2a193eb65d0d4cc897e0d5e56
fc4585e61050b7a36a812ecf12c12c7a
fc4586b1d9d46b9cccde1511c6f83167
fc45873e3eae935cff82e3a9cd621b8f
fc45887008459dc52c783b7592600521
fc45887edf438f3b73152b9fd0da18c4
fc45889ad23895d36332f8bc29c261f0
fc4588c216ec61d082f6aecc97d8bd27
fc45892e033e4fe8ecefe96890198b5b
fc458a6a78404f4c5744cefc0c04bb2b
fc458a8ea2a2d561d8082786cd363b70
fc458a9a5cc6a5c21abff81665c3c6e7
fc458b5665a7dd3b29c74e0a874bb809
fc458b6011514777b83899f809a3662a
fc458b850e2f833128321973f3104691
fc458c05bb4710ef9c272a06f17a158b
fc458eb435da306aeaacc82b0191f23b
fc458ed6c7e074b7bb5221f8c489afa0
fc458edf3dacc49b5d7f51acfbe9be91
fc4590b9fcb257b56239e3f39ef28c32
fc4591843aa8bad36a033569af03d1bc
fc45926233d2037fcb2b75a521e36593
fc459299ee23e29b645e37cc2802f770
fc4593a4848c312e40fdcc34692e558b
fc45947907e8840e45889c7a9172add0
fc4596c90b4b63a11157e75a927d179c
fc4596d5ea9fe27a58b0ebe63636e7b2
fc4596f8ac00291fd34ba7496c8dd82e
fc45979eb4d96bbb23c797da47c957d1
fc4597be893760540340053ef5cf903b
fc4597c7dc3fba735df328827a79ca32
fc4597cf455f204657a27aa3e4309480
fc45981b60430ea116e1e534d11e70f9
fc459a059d961e6c884fa69a41d198b0
fc459c6cbff63f88a2fd1f3b37e1bbf0
fc459ce72503617f48e904a69f9eced9
fc459dfdcf862908389c150034fdddbe
fc459e2e7beb5f73fcdd7eb9f25a5f30
fc459ed4aa485d03398bde0c381a97e7
fc459efc50e4e91736bd64bf1b1dfacb
fc459f0bccc760433820e6d48b1653b1
fc459f9cf277af7477d3dd4d413bcdc2
fc45a131680dfdcb9850a600872cbaa5
fc45a1e52f9f8a15018c7500217f4b10
fc45a1fc677b7578e39f61a093ce521a
fc45a3c163291a3071a8a175bc7a1e64
fc45a45f78e912c6f949ccecbb97d8a0
fc45a51cfd7e082987ac2825fe8d1be8
fc45a52df8b0bf51f1500bd5d2213d79
fc45a62d2a9d10b66a997075478939f1
fc45a722851fa3fb9a448ac1cc0bde22
fc45a7818495dc50e1ba117225100376
fc45a8c51ef6a84943f89701d66a2e2c
fc45a994d7c2999e3516281fd943eb3b
fc45a9ac53ddbf7ee91bc88b3fdbd8bd
fc45aa360fc4e9667110ebf6bae0c974
fc45aa4fef667b9ad19396cacbd270b8
fc45ab1417f477ba38565d17a9f73cc8
fc45abf846d7d10b78d561e92df945b6
fc45ac7b06d1ad6af96d2a5e4c041b61
fc45acef92a113d51146d730b089db38
fc45ad1707e659e82bb0413d19539b60
fc45ad47b4ae7e7fa8d130efde14265a
fc45add736b6fed27fa19f333aea81c0
fc45ae05ec8ee5b693c57efa45a38e81
fc45ae1844ffa765b64007e2a9a31961
fc45ae2eb671e27e9ce8619d84046a60
fc45ae36811a5cc13109a28133572019
fc45ae96d881389b6a2b99123334dfe6
fc45b0235c7f7c6bcf3e2ff88dff8ab0
fc45b1c9c686fc9bd825f2df13537e6b
fc45b1cd26b4554e7911c00447970759
fc45b2b361c4a3925fc8f9a66c5d2b80
fc45b2c5a6efc2e0b19c562d204c9128
fc45b2dd6de2e13ae4eb47fa79fc434e
fc45b36f46cee29039df7e4e787d01e0
fc45b3804625e3894e4b71ca605da292
fc45b4cb357061503b55e049901bd4fa
fc45b57622aeb0c0840e387385cebae0
fc45b5cd691925bf6d239ceb511acf2b
fc45b68792c86b5e4289b6471cb22f49
fc45b72ffba3eee1a87eb0b1280bd7d7
fc45b78594143fa80ff1679ec2be554f
fc45b7ee016f4bdd60451e0375e0db7f
fc45b8063135d7087795ff169c959fb4
fc45b9831ddffb0c8ece76187d1c1ed5
fc45bac8aebe59b84a68b0390195893c
fc45bbdda73184c2687458e300451527
fc45bd64e26787757ea75b1c566930a0
fc45bf2610fd1cf8f2a0be3b3b7323bd
fc45bf9511720b853fadbc8f2f202313
fc45c08d56177de77e9289063f9b2d6f
fc45c0bd07ef2361716c491b704cfb00
fc45c20b0585fbcf7d758fee214a4886
fc45c27c9c85495d8e47c73bf495a604
fc45c2a52f144ffaf6746a0df22aadfa
fc45c2f92c145b393b2f77ba20bdac1b
fc45c3601c25b97893b46d258d5f4d95
fc45c4c27fca5c7ab51568acbaf5de44
fc45c5b3d8acc4b3c0944153d3c91cd4
fc45c7d232500d42aa23e53d4b66641c
fc45c87f8de36f51f6b9f34135a2c99d
fc45c89e3c6248e27bc8694f97dab989
fc45c90eee5a02bd6fcc47d12b738285
fc45c92978b889a22f6a36b36faa1d3e
fc45c95480426be411f7c80d6eab6260
fc45c9be2d750938068dd69762564018
fc45ca0949c7afe448a2e0501ae83c20
fc45cab9e6f86accf9de6c5e07d28129
fc45cbd5ceb174140666a9165a7672ba
fc45cbee86c1e77f5f87b7a6284b1c8d
fc45cc4656ed00e8f6e9d8ffbea10897
fc45cc9dd32c8fa5617d9558fc612b06
fc45cd5beb94017257612c56f5ef7760
fc45ce37065c348b9d87ae8ba091ed6e
fc45ce7a43958534d81d50294637aed0
fc45cebffeba1c70e200486f5ce271af
fc45cec4933a16f5ee10f17f8ed874dd
fc45ced94d7e98352dba73835285e11b
fc45cf0c4f4fd69d51cfbaa4b2a3a4b1
fc45cfdcd730b2833fb3a8859b34709c
fc45cff985f04d863f0cc84b7ee70547
fc45d025c11f82bc37291f8503a1596d
fc45d13954fc1942832a513744740fdc
fc45d179a5d785b7f58d6ff180a1dc55
fc45d1c07049b714e443ec86480ec825
fc45d20dbe329f24cb3f7dc5656eaef8
fc45d30fc370776f21c804225ed4c7c3
fc45d31623c42dd4b3a1b66f800b1c20
fc45d41faeef325a57ce6ee1f9f20d6e
fc45d439babac916bd2ab023365051b3
fc45d4903da4374753650cf6f9864a90
fc45d4af02b1b848fa31243d276b3fff
fc45d5ce162588d0827f4cfb451ffd15
fc45d6f8e8bd7cef7f921bf164c0a755
fc45d801e8aec8bc091f801a9cfa7bbd
fc45d813eab37563a5021006bc1cc857
fc45d86699348004475c601a7e28c929
fc45d86bdb247314bebcc4d31f19a22a
fc45d8c138925cc56e0026902c6b87dd
fc45d95983c0bb51ed4d3ad25665ed93
fc45da9f621af8449af4f4646e5edf25
fc45db5d7ea5dc0e36464ea336fc8317
fc45dbccfea1a1a55ad1f9aa60307ad0
fc45dbd632c440a48ba2bab711ad9754
fc45dd6f257c3a057e38312ba900c094
fc45dddd64b45be1d49257fb4419f522
fc45df37c69c8c1c24f6be4b5d0bfb1c
fc45e0af5c414513052ec7a41c5dfb68
fc45e1d5dd38d99dcb5ebdeb4f23896b
fc45e24225f95d42b7d0470e241834c8
fc45e476821c13bb5a79b880ba0a447f
fc45e48500e137cdccec20741e74e614
fc45e5373c32518d1c727ab3d30ea6bb
fc45e622c1f6e15b752536c1b7f9a79c
fc45e6c1e7f7b0e59583aea187ed82a2
fc45e6fc1d887caeb83ba8b03f04a291
fc45e979fed898f5812ef318fcd81500
fc45e990669385b54a8d113a77a8865b
fc45ea3baffb991948d4857ec33c6edd
fc45ea97862d8c27e05f80ecd174a048
fc45eb7494c422ae1011181868ffc3da
fc45eb8b388b8160b18ec33c629f1597
fc45ec96849bf9b274e730f461b84ae7
fc45ecbc6f4cdfc4ec7503ad20e3e8b9
fc45edc96c0ad8e0f980556c0b06a896
fc45ee4a95e0a901a1cd88b8ad8d8938
fc45efb46a9b0d72a1c0060b8326ba83
fc45efc5b29cf7209eb98ebf0e45f7bf
fc45f04daee72dd115279c379a97d928
fc45f08769e842587841a14e73b2ea67
fc45f0a113c8b27d702f72b68433db4b
fc45f0ca079250ccc08ad46359c3840e
fc45f0d2dcd13d31ff16c23637df8189
fc45f1391ec19797b87061b7f60f996d
fc45f301787580aff9111bf8fdca7f1f
fc45f3ef9060ecfcd09991ebc785df8b
fc45f4a2589bb5ec463c8a41ee2a662d
fc45f4b658a1e7f6dddcc9fccf4fb4d3
fc45f4f469dd6889fa17d4a76e04bf7b
fc45f54d2c053a9de797601e7efe43b2
fc45f57c653d77d24da52548fa9f1235
fc45f6a074412f08a307b63891247003
fc45f6a3e044565f0014ac9d4ce752a5
fc45f6d07ead5f2b315f64d2b08d402c
fc45f710acce98f3af65233d01a10b97
fc45f76e290ce97b728b5743944ccdf5
fc45f798db8b557b72bc4dbe7c013fb4
fc45f9248558cd9562b7889f51e60eb8
fc45f968e6babc97319ab81f32d1b3df
fc45f9a4c2e2c7a11bd4f9191f2da659
fc45fa410186eff0caec14244b4090fc
fc45fa53e829f51ddf3e3faaa60d2755
fc45fac019e8a56b2d95c2faf1355dad
fc45fb0e55fb8200a7b518d284d60e8c
fc45fcd059a5332bfb9d6eab44b36837
fc45fea3776258e6e09796c7ea129708
fc46014aa7527b140c670eba13d7e4c1
fc46017843c24f25306caa994c7db624
fc46019286b9e7a57a383973844686d6
fc46032fa9d702b3c10d618a25e19cb8
fc4603309b31b3c6af065a46ac95d031
fc460351d1f4775e18227995cec19afb
fc4603c2a4e3ba00ccf13bc8e2583a51
fc4604203b4444cbc35ae563e6bf6181
fc460423099bd46d2fc4ee93319bdad6
fc4605316b4d7f86a76268b0ed0cad6e
fc460619a2b1d3f6d0d687c806cea726
fc4606af28a58fa3e9382472f21e154b
fc4606ec3bd2d0b611f9290227bf3eb6
fc460728562fd5e25747a4a914ce12b8
fc4607eeba394d6361ae475f922ca8d7
fc460816dfbaca1bbd45ef9a960a5750
fc46082a8e8152c5bd99da2e4ba40fa1
fc460865feb6423c3d48826d2236ffbf
fc46099efeca2c6eb680f106568b50e9
fc4609bdfbf1e6756477cd48b5e5487b
fc460a00d215f904f22433f856ce72cf
fc460d018487d3226cba0258c25274f1
fc460dc8557860c98654d161cd940a53
fc460e9b4701f39e4bb6fadfe174c813
fc460ebaebcf7595f9ac3ca67eb3d5ad
fc460f92a64d39153db863a88e56686a
fc461007f0a03423e6c1259407c68675
fc461015a5ad4726aea85ba5d09983ce
fc46103133aaf2ee7705930b4f0e0bf6
fc461047e600ba0864d7adc0c1949ef6
fc4610bfa4b7079cf288d1280686bba4
fc46113ed686ee4bd1c21cf9123aa7ff
fc461249ffe90aa30d96c11fbd441d04
fc461282450ddcbd9ec488934fb4c126
fc4612a6526f088c066670fb8056f31c
fc46141677137830bb14d2b102d1d865
fc46143385cf56a56bda7cc5b8fe6ac8
fc46143ae3590f54c218b5f4b701262d
fc4614a1df4cac1cee3ed422bd687692
fc4614c2a09ef681d7832f480b948960
fc4615a5da59ea098fed0a428f428c67
fc4615d2358452a21dcd0d6d9de273d9
fc4616d2df67cb34e58c27871e47ea36
fc461901de46ecf24c77df8d090a8042
fc461a66d52ce810f1f23f84beb7c746
fc461ad84712fe7efa903805f0f32ad0
fc461af57d55ac83534a7a40f7920c47
fc461b0d4c8545c1f9643216780d1e0f
fc461c14e922f7f598b51d0f09e324d3
fc461cfee1f96b8e5ad251bc537c065e
fc461d6ed67ca41d13f23a425aee98c0
fc461e6df502a61ce5cf8b5cbe4679e6
fc461fb30a36bc0e815cc9bd97ac53c0
fc462042ec94f9995760f3128ce78823
fc462063b968fe5c902d1adc197dc633
fc46212b1daa59de20cfce5a983c336e
fc46218953a129bd3f847b950fca2bab
fc4621970449503807ca7c6cc792f75d
fc4622001f3f9fa827f9e1e780400a0d
fc46226985bc235d6241ef219ff6aee3
fc4622a43449d6769c9236ccec32cd9e
fc4622a7c8f4cbef96c8299598b8cdad
fc462352c288c9c4a1084735cc4624f1
fc4623ec35a1ba5afebc782713c299a0
fc462448b9df733a6627a01815d61a54
fc46245314a67eb45ff7dacd30df7db6
fc46247fcd63f7cc49449312ecc7d42d
fc462569fa97be4a4cc758cd6889c368
fc4626b7032da82faabdf668bf857616
fc4626da6df505ccae4b89f61fbd0561
fc46271bd505fb707b290d52d92eac93
fc462781ed4fd114deb97f5077c883a9
fc462792317cc78cc69b63d6448c984f
fc4629184ce217e64da98e76c767b3c0
fc46297d310d3113544451ac39aa3eb0
fc46299ab8a0e92396dc9e2461faf6ff
fc462a27e77dac8a8f9edef991e9f213
fc462b3e6f7fa54f13d39087524ffe62
fc462c67b211a8dc7f0fc108b27ddac4
fc462cb1db703da7e47a2ff34b65877b
fc462cd378f145a7aec6c17fb802852d
fc462dc60ae53b695cfae2882a9cda82
fc462dd067f84b2a143403910d0d2cec
fc462eb0b159b4ed746b182d0889277f
fc462fa0630379edbe10006b1d19d9b1
fc462facbfa3fa45b6dac791dc08b54a
fc462fd2f26b3e9e7cf65787848de68e
fc463062a3a3bd03ea1a5d58a5f2f4d7
fc463187e566876e9521556e15b48bb0
fc46318d17261dbef6f3d7e97b11beb0
fc463190db0cc9f5631ec8bece4d6077
fc4631e59cf1cf3a726e74f062e25c2e
fc4632b82eaa5ad256ceb824d3549e01
fc4632bda6e972ca7c96daa88f28c951
fc4632e32831f131d28ddfe842481cc5
fc4633167f35f6142557af30950bf0dc
fc463316df221fc9f284573da1e0f3ef
fc4633252cd9ab662bf998aef504c140
fc4633a47c6e1d2fc34c6784452b7056
fc4634a4b6a54d2549ef218a54388483
fc46351f861351557aa44b8b477f14f1
fc463613287b3af73280d3048b0ba5b2
fc46363870483b55b60b04e11be04cce
fc4636881aa4adf14e3d4e2bb99e5e0c
fc4637704a0ce6458b1cc8354eec291a
fc463784150f30525c38e1d95e97e1ef
fc4637d693011a54acaff070d9ee234d
fc4638955727ea9c6d1487b9f2edd2a7
fc4638caf85438890e6998352e526680
fc4639084912ada5e9b33f9b79261674
fc4639607512d13bd2ebced2b24e1eb2
fc4639c3cd782a360110daaa554508d3
fc4639ebbc6f0bdd3505e3c39c2fdc91
fc463a93aea7717c7d9344a39034792f
fc463c3db3ad8189fcfe10929dc9458c
fc463e897803db615d834cd887a1a678
fc463f17c93ebd0a0aae06f8622affe6
fc46418860ac5d1c74558e16b1200b25
fc4641a7819780b79bb7254f5245cfff
fc4641e4a7dd4be31f7cc4383c577560
fc4641ee783a713c0eab7321e491d509
fc46423c1c867c62b71e910b9a79417f
fc464413d70c1bbda73216c58bf6bed6
fc4645dbb8157dd8e98112aec77ed538
fc4646ee13b9ad82178bfe60ed46d79e
fc46483d4b5d2923c88302053763180c
fc4648a9bacd1416ae778af70163678a
fc464abc21dcb63ff78e085919c38bdb
fc464b4b581dcb332c2f6883b3b297c0
fc464c3eca7e3f377109de3c56b52c00
fc464cd7f5a9caca2ee1114ec9d23247
fc464d6ef6b88213806957218b7052fe
fc464e68c357e60aafc768d734fc6959
fc464e95ca08c94c74f20524eeeda022
fc464f6383a26fc297ac2e908af0300d
fc464f6d4a1bad34547eebf67797ba17
fc464fa6d24295ec6660a4c12fa82527
fc464faf1fad9caedb09d146188c8616
fc464fc8d23984d2306e219ef00a41d1
fc464fcac3a689e339f4881a6dcd9b9a
fc465002be06e07af934d9ddd328cd0c
fc46519c911e67d84b8f2d2d41a69833
fc4653557237c49cc2573f00481204e4
fc46547bfe96c426db78fddba0bc43c1
fc46554153e80f2fe69f4e3997228fe1
fc465774b470dd37aac5bec74b9ca559
fc46579af29dce260db520d41b105eab
fc4657e2a4bbad1796f25ef9444ff41b
fc4658d5d20588d8b334ac9a43ccbc58
fc46595e28e947d11f69840cfc2dbf54
fc465a223c4cede2a9b258dcaa7fa4c8
fc465a73a78c1659e26da815b941447d
fc465add934b9003e4095553edfe484b
fc465d85d0e28327f4fee796094db124
fc465ec9c1296901e5e5f360b900aed0
fc46611a9daa41a9d2125457530a96bc
fc4661bd6ea1e4066b72f99955281fd1
fc4663078a8bf32b3aa47d358deb2596
fc466354504eb8bd2710e969eb75d2c1
fc4663e4a04cef1295d11be449e089bd
fc4665c8764411985c6a87aea46fe831
fc4667905af4973cec4111275615d41a
fc4667b7a027ccd6bd9413d5e6291819
fc4667fcc02e03eb983239724ff424a7
fc4668f69a7f4e68efef25a133df2f93
fc46690ba3ae9643d8f5006f8208c0fb
fc4669b997c19ff0af921ac877890688
fc466a54e3ef6a3bd16cd3eccb5dee3c
fc466a7c1b4fd734a2a51aaf7c736526
fc466ad8071296701ae3557238719bfd
fc466afd9a1428ace1619036d37aa04b
fc466b68771bfdd0db2c2c014062b78e
fc466b99d309c74642dae2ec2fbb422c
fc466c62f3816b2b76d941979bd0bbc2
fc466d78739dd7400010f7a87874b27e
fc466dce0b493905bcae203732b6d4a0
fc466e0877e5002643a1745336a69043
fc466e82218bbcf1b60d4d9e9a83c343
fc466eb2d8351ee5587e3f8c7a4dd058
fc466ed934651284a6ab65bd04455971
fc466f65343872d15a0423092ad2e90a
fc466fb681e1cfeb1eabd6cccd3055d3
fc46704ab36b6663a012f758f0887a7a
fc4670b2d5c14f4feaa20a7902c05fab
fc4670de02fd736ff79f76974f6de002
fc4670f18c21386ab81123adf5a6b55e
fc467197a80d365fcb8053bd6c1b8270
fc4671cf0867d9a6a25f597aabe63359
fc467350a21abe285b71fae1a3d6fc30
fc4673d21783aff6904a81f44e594a6d
fc467403fb675cfd2693341979f97f8a
fc4674d23ff6f24a0890de326972e286
fc4675209e88947ef64fc43f40ffe51f
fc4675c2f9d51af52264c84c293a2ab1
fc46763e2ba27e48b6f575004553bb68
fc4676ac808fe7e25fb503c6287abfd0
fc4676eb500b32205acbdc91e2c389d2
fc46772e396f61ed06df6a89f9b206ec
fc46781977be79adf8f8fa35fe386aea
fc46785b44eb6c7ade33e4602799612e
fc46785ca72bf938789f954906f5bd50
fc467867da20916d5943a5b90cf62582
fc46798be95e5ec42776fa34187f98ee
fc467a294656ce61ae45ba93bce39d6b
fc467bf578c4b7ccf50f9a05a25cbf07
fc467f103f04e53af702016e116c784a
fc467f49437a269f8e687cdf46cb4e4e
fc467fb7aa0fca594539400356a232f8
fc467fc1a554d564d3503226f7e3f901
fc467fe12b42825036d166966f71e54e
fc46806eb211f658c8e338d573bdb4a2
fc4680e192d162bcfd09f7aa715eba34
fc4680e75a544a76a1e4f8632d2b14b6
fc46813aa8edea98e87027b4064e102e
fc46816ce96996fa1199f4bd39913503
fc4682845ec402f3d1ebba01b5d5ee4b
fc46839ee1ad41cc66e937a52c5ccc34
fc4683fe20b673371271dcca76440b54
fc468507c3e9fc56dc92620b976b0276
fc4685473fd3562ded3c5e7025b17c6d
fc46885bb77f0c3eed4eebaf8220fc6f
fc4688e51bba62d21c433343a016e771
fc46891d9e0b7cd19cf3f94e01cdf476
fc468cb24193732e0747197ea509842e
fc468d22782f882d20938e82016977d3
fc468d3079949c7e0299ad8e813dfe33
fc468d512eaf4a0da08eae5f4f04375c
fc468db2ad1ec3c043db3f9028b9fa17
fc468e6392bd192985414744fe28b150
fc468eaa1c550faae76a9bb2c130214e
fc468f5a1f01592c95a4bb7ea7f25a33
fc468fc3f032faea819878a90ee18baa
fc46906783781d95434c50a85c00f4a0
fc46909e6d0ab45b97ec8591dc0f2801
fc4690ddc78937af2764d843f44b8746
fc4691735c64f9e0c2e3fdd717ee4629
fc4691a68848c73dacb9825993d8bc2f
fc4692aeb38580804a5310e417b3c207
fc4693037f7db618c84d48506c2c7ae0
fc469394e3153823b76bf36227ee2fed
fc4693b4236021ab341b900961d9fca1
fc469416ecf8a19d6385e0e93b3fc030
fc469512b987d1e18c82b3ad6af686ed
fc4696110f091782f64ae5c8383b4947
fc46963f733db19795c43fed7b3c5c1b
fc4698c09f0ccb69e2d59a22bdfdba6a
fc4699efd8ba50ff74f775ec3f5a3918
fc469a4c0dc2bdc40494a7aaa5781c6b
fc469a5075fda4960cfb4a698414bb50
fc469a8d3605fc9b5e5dc00f6f7b63ec
fc469b47137ff67928c409324265501b
fc469b5eccdda8727b8ab60a3ca9b815
fc469bac0103356172ce12d943330bac
fc469cef36f15c09e25900a96a9d7346
fc469e36a0a6a2d7e7cd90c54805a367
fc469e8b1434bb8f139c6d50142e7005
fc469f533d8c20d363bb479277aadc01
fc469f6b2b1daa4d1796bb2a863c7110
fc469f7ebd8740e155013e83d4446a2d
fc46a0fee344bfeccf01ccedb8d97a80
fc46a21d5890276d1e781c7c1c915ed0
fc46a2cca6526dbefecbd69cefd90360
fc46a364bb8ed112a5225fc1ea56d2eb
fc46a42eaafdf9a16187f99a85ff9b6c
fc46a5e358c6752cd4fa818ad7360b0c
fc46a765742312f3420ce2c9357e1f18
fc46a79aafc6f71bb1843f8b87400757
fc46a9427a4a89631b6dd3142803c010
fc46aa4ed29a47d5f840793e73d88f36
fc46aa9a694703ca0c2d99e40c4ca5e0
fc46ab962c35148cd8ceb2abf0e715b5
fc46ac0362e3bf11e93e1ac838e27cdf
fc46ac1bd057f38f4a69ea0aacb94b14
fc46ac71758b5c764963cf927a92356f
fc46ac95b2734b16be1419e6d9070ff4
fc46ad333d8b230f6e9d9f4060d7b2da
fc46ad3ad4303fb37f392591d94b144c
fc46ad8adca4fd433407e38fc4a19525
fc46ae8f6da2ae6583bc3be5660c8356
fc46af906eaf4de831ca0b94a38b8424
fc46aff76ad5accab77ab2205bd18de3
fc46b0410c017d163a510d0b22124976
fc46b05572adb74e838fb657e7660bbe
fc46b0625578d95ac67b2584d1221076
fc46b20c4d3791a004b4dd6b288f2a87
fc46b2157f92ff7498b4cb0c14d339cd
fc46b23eb1f2b1cf261ec2c2f5117593
fc46b360d8ee168661f44ff7660448e9
fc46b3f92bbf3030c6a9873f641bec86
fc46b46b9f694cd2d86468c476324ec3
fc46b48e14e63fe3cf2a0d08f2400d9d
fc46b4f5fbfe00a57d58248c2e733123
fc46b62adf10bf476893b1887e1fde6b
fc46b64f1ddc1d88205173922b9a6c51
fc46b654d04f27202e642b097f2a6c64
fc46b674e151ab9068ce90b5f2da5f78
fc46b68def67214a447472a68f5588b4
fc46b757432049544ecafc94c79bbcc1
fc46b948762e713089f34745800be924
fc46ba2d42d96822ac353d90eea686b3
fc46ba687e4262651f58099ad7c7aa98
fc46bbe43a98ce8bd429892e4f48cf5c
fc46be127152dfa240ad6e6152e0ed0e
fc46be3efade2e9e7647636cad535864
fc46be906a1c29bc556e8208f54b14f6
fc46becfadbe673b71a96992c94c0b67
fc46bf2a8af11eb59dbbc1e4bfe838b4
fc46c05d7a61cf0d23176871d8d183c7
fc46c0cbec76fd81aa6e2aa7e154af1a
fc46c0e314f18e82368ea3dd9b8b7eb2
fc46c11f9e9cc43cd58ee60edf06db59
fc46c1a4ef33785dfa13f353af5c34d5
fc46c41095648bd63c2293e25f8b2c4f
fc46c492bcbed01fd9c38d9888314c27
fc46c4b958c5197840078c555fd49dfd
fc46c4f2aab124ba67145040101e6fed
fc46c50a62ec052f6b61c576a2db19f8
fc46c51b2a8864d8a6da42b31c65c4a9
fc46c55f43b33659658e2475c367a320
fc46c6367e768708a8846ab672d1cddd
fc46c75a95221654516ee21e1ad9f236
fc46c78243d14562ac6078c88d48edb2
fc46c7b08d30ffd7529556d4579f76f6
fc46c82b4f061b46209e98e241e3969c
fc46c8780ac72acbfaeac1dcafbbf831
fc46c89c396b609b350da7954a073d0b
fc46c8bd5a5ba576a18f6d613a81ae96
fc46c9a4ff08c73208b12427ee3a42ce
fc46ca12ff79c76e3117d929d2d1edd9
fc46ca42560c82e245d5feac75bd3a00
fc46cb23c2b4b12497220b2769de4fe3
fc46cc398beeb0acac5c0220dfc3d99d
fc46cc939d51699a8da86af153125ffd
fc46cd5f6f95847a620b920105e6d012
fc46cdb04e651ae121248daed4f5c9cb
fc46cdf731a98787b9bc3527241bba32
fc46cebbd70f3f854d333c33ce6193e5
fc46ced0727b29e91df994f1f25e6098
fc46cf982a33682d2d2c3b53ac451706
fc46d0b8e669f5ccd13c8fb3de891c44
fc46d1ce9133636659f4a68bc9e6c9e9
fc46d2d6eba02a22aa35c0c3c882fdb4
fc46d608a80c43d1dec565c966d6e565
fc46d676d9799f20dd8488323bc4f9d2
fc46d840e8876eb8f1aec1c23eef7c02
fc46d88a522c5888973f439aca63d7a0
fc46d917eccf066be3d1aec79d116927
fc46d9a44b966c6965f4c0bdc563aa00
fc46dae9e23c30c619d3619c58b60e26
fc46dc674a3ea3d3b360365e67241e2a
fc46dc83074c7357cb2bc2393902881f
fc46dd88e0b3708dba98f00691f79f52
fc46dec26c156d2d1b030a3637dd7c7a
fc46defb58333c3d288f88d91d3e389f
fc46dfe0ee2cab5a9baa9041bef9c523
fc46dff832277fa5416ceb76826cd6d1
fc46e038544102b302b18ce594c2ff5a
fc46e06b6a1b255e2e9623fd292f5368
fc46e10b8dada6f7ad2171b446e8dcd4
fc46e19a197cdc7309814f871d2a1350
fc46e26d9f57d507811e8593813a73c4
fc46e30cce3d343901c1a493c8aca732
fc46e30d209a11965ec2eb7bd8c874b0
fc46e367bb8165823a5c65d53c2563bd
fc46e45e4a176d0694b6d8aaf309eadf
fc46e47a7511402787abe95f0818f609
fc46e5b83e45f817211bba13b7e0da90
fc46e75216cd2c1a809cb0a7e2313603
fc46e8a682da7d92f9117ff7a4418c68
fc46e8e9edf52e68c3bf777dad4e1c06
fc46e921dcd35ad3c9b4c294a17d36d6
fc46e9d7fddaf0571d6d429096814a23
fc46ea0d3134802fb7daf6a9231abd05
fc46ea361f88cea3e0c8af46f56371cb
fc46ea78aa7c0d2a36a471719907f76f
fc46eb6c6016504233eb1a89157d568b
fc46ebe05017d4943ff2f957d6d529cf
fc46eca69b94a9708f051bc590b0c45f
fc46ed1f6b7644ce0bfb3b4417b924f9
fc46ed4f1f64d5b49c7a0a36ee09a8b0
fc46ed8ca002c7f4899feec2e0535079
fc46ede8cd3e1e95d525d6d7503d6849
fc46ee0b1fd0f840fe495e1f10b84140
fc46ee1fe8d2d388bbb202deda371039
fc46ef955e07693157f7fb579c3d4379
fc46efeb55395b36271be63abd01f8cf
fc46f01754b5863cb2e1dc88b7a1dc63
fc46f04c8b25564735fdb26442a1caf4
fc46f12afd5c0581e3a0211617fd895f
fc46f1485579feb16d98d79995ba06f7
fc46f19f5a763b6b4794cbc08fab8290
fc46f240d08bf9f82932746bcb565565
fc46f271a4c50e72ddd194ed5a4f122a
fc46f27be5d1c311a6cd49481db87687
fc46f2858498cd6e62e129b4f8c4f4e2
fc46f32a87fd32ec20c74bfb2473967a
fc46f526e9339404938314eab2175aaa
fc46f5bd90a6c6267a4b4d4e1d9287c4
fc46f6040f216e307be6a3f2f53953ce
fc46f6a908cc19420ba6852fadf38edd
fc46f73e466a633fe15a0e8758b6c890
fc46f75288abf4e5c3a5c38b75fa11fb
fc46f77666157e74f6cc14bab9a4cd25
fc46f7e4d85a6abb36a92d4c2af6decc
fc46f81eadbe485a0331f9f5086a7f9d
fc46f8254fa63cde639c299e9d8564d0
fc46f8c0851a9c48cd62a83077f3e9b2
fc46f8dce553503c048c310c1c2e7748
fc46f8ec06fccd6cc44510695ca0b387
fc46f9487e9990e6c684c13ca389447f
fc46fa5abeeb1bd56b8d3be132fe54f3
fc46faee0ace1142b51592bd01ab2f0e
fc46fb0e92ffd6a629a6152fe69c469f
fc46fba2f3db831275e7b236030bf7ec
fc46fba6981f0fda239699b8cc77db4c
fc46fc373c08c4504f80da0d3fd56a1b
fc46fc73a1b33a3353c94cb2f76a116f
fc46fcaa66eb98d6b6462ba9e2b04d15
fc46fcc3f46df101a5895bc4a8ddba1e
fc46fcc8f994c49cd5dfde43225d2e5c
fc46fd98aeb5aba6d1680212b0700cc1
fc46fe9672084fddd3bf63f1a92fcd67
fc46ff087637ccc7610bb1701298ca90
fc46ff25b626ea41c00bdd5e9d029856
fc46ff6835b1a1cd44bdfb5c584f1760
fc46ffccf14d71d7eb556d5449d49da7
fc46ffed2966f6fce2d253586f355ad0
fc47006bdb773667210d2c7a3f68f958
fc47013ef2cc8bb89a89c1ad2335d0ae
fc4701bb0ff513f02a87f866394bdbf0
fc4701bc6e1f365a05dc41e3b8d36a8d
fc4701d91bbd247b60a3a52e8ae735bb
fc47022024146b49f8fce26566324b60
fc47023fbf7e5d0c6dcbc1ac05ba9a9f
fc47027b5a409ed91246c48f22ecac11
fc470294d2498fb5f12356a6b2d1adc1
