fc50001de4a6061778c764426dae4839
fc50012d03aa00bef995e5a7a2356283
fc5001957b1d404a9fde634a7df6e820
fc5001dc5935cb0f68caa188f59c7534
fc5001fe9f67e6bfcd58ce110f133770
fc50025d20c80f52f2ca8c7b5bdfa39c
fc50026182d3c8cc06220f9c3e792c97
fc5002c574c4043cf2656e62e7d625ce
fc5002cba6eb2e62eee2f9b016654d01
fc50033da42b21119d987b611b278ece
fc50047e9baa03166883d81fb0db3edf
fc50054a534265f64f21a640f850ded3
fc5005b40ac7f21e31b88d5969b39c1a
fc5005b8bbe93aa66efd529d8341bee0
fc5005ced1dafc72fb05df3d9243326c
fc50062a208fca337020808adc5cc106
fc5006a1c41ca41ba80ee20895a97c63
fc50075fdaff69907b49333457e81577
fc50078c8700089a2dccbc546a433a7c
fc500822f6d9a8f7d3badf5afa9abf8f
fc500842cdaa1ef21d19d09e85f2362b
fc50089f2d382e4c231ca9fa9c0d2760
fc5008ded06d70f66b90fc11c6d77d4a
fc500966feba78a9e80a9728a41af384
fc500a4aa0525ec9b23951e85e30773e
fc500a81b1aa7e0ace8e44dc355f1f88
fc500ad9734eac1bea64c45493276366
fc500b3d702d6430ed775d6458d0a953
fc500b4d95cf3c1083b38c1ce23a2b1b
fc500b9bf86890fe63531151a906fb8a
fc500bb3259e9c54c977a4f4a6a163d0
fc500c8376558ad6ff1f2db7a3c78e23
fc500c9e0125c9e770e398203a195042
fc500ca7794f473a0810c10b2095f569
fc500cba354da6f19a81ceabbdc6fcca
fc500e232679ddfe0db5d7914c4ce7c8
fc500f64f3728b32cc891fb04a81568f
fc501093659a50d34e220405aa7da3ba
fc5010a0c7b5d1bdc21945a3e8e4e5f5
fc5011280a61d7a8889a9bbe571e9c49
fc50115b73d530c101a9282858448caa
fc50119313da9eb57f49a24e839db230
fc5011e32c4bf82046f200e08f505fba
fc5012839949d0f3a60581cb6df6817a
fc5012a653df6516b2b86b689de2dbd2
fc5012ccd9433277dc32be5fd9acb476
fc5012d26a7eec7c59ff20a4524aa538
fc5013969cad88553831fa9d6307dc33
fc5013b9c461a1975b3344e8c0932e10
fc5014b76b7bd3f2e558f95004279ea9
fc5015d277a1c05033ad8ed41a91c8b8
fc5016385b7fc051d3b8584d4acb4c27
fc5016735a87164c6517ad98db35d9c8
fc5017b874e716580069609ad45e4c5f
fc50180b1de1d6ff4ac86a534764fb70
fc5019064e6d57ae4f33be3197acb798
fc501a68e23b7d996ae5b337743185bb
fc501a997594af3d55e84fdad7e88759
fc501b25938034d3756ab41357ea0b8e
fc501bcb1bac6930dd5fddfd4096e127
fc501c7175ed8b9c03f83af039076409
fc501d7430e8a787f92aebeb2c4b79bd
fc501d7ce4e906323f155a589264411c
fc501da61f52a9ead939a07a6aabbf20
fc501df1b030904223e72405f6324577
fc501e6792f4ba708786d3b75460f50f
fc501ef99ed2ca22472545d918f6852a
fc501f3d38e292da4c597ebe3e503721
fc501f9f0e7cffb3a6aabfb6283e6d90
fc502113c088bfc3bbaafac449b1a980
fc50214e42a91e1a460ccc351b60059e
fc5021f6fba9772c4efe16116d1b727e
fc50221639e259a5abe9018340883c57
fc5022acb528f5a798c49843da1896a2
fc5022c3324963b61925bb5c73ab07c6
fc5022d33d7518dcf41ab37710ac75d7
fc502361ba8167c70a6b23a797fcd5a0
fc50242c839def5ebda2e38a048742ab
fc502493c59a015a319057a10d86cc79
fc50250dd934a9ec4a4e333cee3aca2f
fc50256de1920c66754ad935c53b54be
fc50266fade464d7ad97121ead38a61b
fc50270c82ed73c62ed8b38e049be570
fc50272183307b105365634ae4abe1f9
fc5028779f60d6f0a8bdaf9a158fd7a7
fc502a6d9b1cc89cf8fee92af08abb3b
fc502b9defc08ba3b33c75fd0023c8b9
fc502c99702dd4e1f2cc4e76b8b32988
fc502cddf1b9f42109cd5b781eb634b7
fc502d1b92ad412645267e36c6ec9535
fc502e5246b895e010a5db1bf6f78131
fc502e770d77e728fc059db563318bc3
fc502f0c28d40bdf340a16504f7b55e5
fc502fe1b28d5e190b12b6686fe840dd
fc5030332fcb86a55244509893d27003
fc50312d2eefa3fe9e991dc824d75b77
fc5031c50f42e113bc9064075c33b919
fc5032fb8c5ff127dc33ff22820cc9d0
fc50333db5fbeb190def6f1f20b517df
fc5034e4769eadf98c4d8f129a2f3fd1
fc5035e33fd7cde917fb466267b1775f
fc5036eb7611dd3543013b25daf09116
fc50370c54353d0344b7dd85a0013870
fc503a79c20547f54d0ad07a871dca59
fc503aba92119563bf763cb317734a16
fc503b1b0295d158ba1f23a7ac5a9014
fc503c75fdb0e80c3afc15a06ad046af
fc503ce512cc1fdda55ae62a13e24ae2
fc503d0a12588beb0a609c842aa64d2b
fc503d1a036de393fb707c9675ad961d
fc503dbac8e0586b24d0ff962118b289
fc503e29e9c89e472565930803868d2f
fc503e76b6cc76894da6d8722fa84410
fc503e8362aab0a57d5362601f73cba0
fc503f2f748ce5e625e5f4be06eb2c8d
fc5040ae1da189d259341e4c688482f3
fc5040f31ce51f7942b8363eb2f65d09
fc5040ffaf2de71207a9915efe424c3d
fc504260c6c20900127a960fe6018ab3
fc50428e2376806c20bbdd9d25cc633f
fc50429885a899aa332ee23f0cc7770e
fc504446d6c78d87fe3f4f44c90f8e61
fc5044fa2e472b86ca83de1e98cfd88b
fc50460dbed76e24453101064d81db80
fc504740042950998750d07311052a02
fc50484abde7e730bf63dc190a5051f0
fc5048a8aaa7d5117e89ff89b69c8538
fc5049b7bd6f89100832ec6a00f5af45
fc5049f4f58ead3a09c49b09e0adbaca
fc504a6b499550db631880366b0a62c8
fc504ad36b0eec354c4dea2627307576
fc504b1fdebff7446703faa9cc29bc39
fc504bb512925963b74aaf095c929fde
fc504be720cb5d4d79b689337b6c3dba
fc504c19fe9d8b770a99ad7d1075fab2
fc504c2fa7e3147d642ba70f6069e340
fc504caa534e15e09f1ecfd6dc14b3c0
fc504daeb2f0810b1cac9145fd934104
fc504e588d598116a38e830a6592019e
fc504e74a8e926a8e42723527bc93189
fc504e7e9d2b347f173c08ced381840c
fc50500a9be30b3d86724621bde780e8
fc505024318d407f5fe5ad8961331844
fc50508fc3c6dd1c0a2bb8d7f8c5a594
fc5050cb1299915b296d55e3482f6f00
fc505182add6eba1f9a9ef1e986ca065
fc5052435da24a5fd74dbe99544c380e
fc50535198fa95a32cca65e99ba7b5a5
fc505362ed73510c2fd727dc0b30f187
fc50552894aec12324b066d909f46a23
fc50559285f4419bb33052b6898611d4
fc505695f07adcde645245ab87057784
fc5056a90a80c15fb6f3eb5fb79278a5
fc5058fffaaf9ee0336d08ae8a4fb360
fc5059a421a48007da7c11d6bfdf3db3
fc505a4bc1481b9aa5fbc6404f654fbc
fc505a51be6e79d8e3c3988d02fb4e56
fc505c2bcf74e52fdbb823672f0616ff
fc505c8b925a5ed0c4dd7dab9e250005
fc505cd652b17d49522dbb1f50464b2d
fc505d4adcc33378ee6ef3550e3bed54
fc505da161f631588abcb139c22b24dc
fc505dc70dbcd0a2549bf16445923011
fc505e3035491c7f9bd6be12885c54ae
fc505e696b68fe460f5bf6c74cf2b03e
fc505fc8dc7bc4bf030192ff2574b36c
fc5060043568aebc6a0ff0fa66adf148
fc506065bb27b19aecafc6a0bd7f142b
fc5060b771f6afacc7c642d4f3b41da1
fc5060df5bede771898f4ce4aa3e5ae7
fc5060f9f8bdb3a122da2b5d8e438d0f
fc506128be5af9c37d0315e50c249176
fc5062f478747594f4147743398d0315
fc5063a397f37b074a4545180aa7d645
fc5063b374e32ef1f9729884f5462cd2
fc506512abca1958f62e962db644f9ea
fc50681d5ce24ffcf26c995829e17bf6
fc506897746f1fe369015477fbf9af5a
fc5069051b33b043f5d86472015c790f
fc50690a2d6e3d056070a3748b107083
fc50698f31698c63405962754992a5b5
fc5069c39a790e515e9c96f3fb9f5082
fc5069c77dc87635f3e7d97432acaa5f
fc506a4bc0e620406df82bea85d0bdd9
fc506b5ff83861b391728de4c7a32391
fc506b6fa04f2ae19b7bd9f6816c24e6
fc506b7c6153969f8499b8529a7f6076
fc506bf5de915419d9b535ea22c928cc
fc506c3036b5b8b572e2e309c2929033
fc506c6b05f8181193aaeb89e9d9f340
fc506ce16478488268e9e3095523e215
fc506cfcea90116b021b414f5e59629b
fc506d182a2251c6eb2a9165cf8d3168
fc506d776bbf7895ea4e0eef0058fc7d
fc506dd1879723adbd99bd8efde22508
fc506e14826799ffad173db9b67f023b
fc5070903e04e52620d15f4041149f5f
fc50720c0ccc08a5d4ad22914db8c79b
fc50725762823cbc08936563c803209c
fc5073d406e4714f2bac32a8e43c7603
fc5073e7f427cd7f5c0adb8cb95e0295
fc507451b1a50c9141642237fc8f106f
fc5074b6ebdc552dd3345e4e958c28aa
fc5075532f08c4725afe770675a65973
fc507564aba2fce24b9409aa82212c82
fc507685752086784ffa408d4c36837f
fc5076b4128e516e9baaf22c2e91b225
fc5076bdfe7fc085aa162a790908b345
fc5076d3663cb3c0b68d26e4fdf7e7a5
fc50770a4c41c2234f966795490be8f2
fc507722f1239bf69976ad28a6f0aa87
fc50787828a18f253b5304d4026b5815
fc5078988227b33aa3c9142501dd14d6
fc5079c85a9002131ab961044e7dd19c
fc507a6b51cc99004c63d6bd31eb2f7b
fc507a7514446c149efd4cd4fa0abc05
fc507a9fad00fc652dab4fe1f2e8adee
fc507aeed03e26a08a04b17808fd12e8
fc507b4927ef30a6a940e9089e7ba47f
fc507ba63662040a3818aa0b54e835ad
fc507de6e63d30aadd99c02189fee64b
fc507e3a3d5a1ce7e5123738e186aa98
fc507f27bdf56f434abd9d0265ae9983
fc507f80583484db54510fbff11f3e64
fc50807c3fe6b4aadb7089bbc032e011
fc5081567e034a662ef0b15703590d10
fc5081bfa7dac14c97a0d9adaf427a35
fc50823d4c3e197f8b4463734bc11255
fc50826c1266690ad9d33729acf7d354
fc5082916823987b9be252408dee5ab3
fc5084cb2241003d11ff2227e531c6eb
fc5084eab241e734d3f2e7d296e6b1b8
fc50850a0d5454398507a120d26c6280
fc50850ee8a4619d6bf89f7d3c4dabef
fc5086c0c479af764001b14cec580065
fc508792900d56bb306c6f15a04ad3ac
fc50884b88fe24e5f593db7065b1f1b4
fc5088785fbe45f7c8b19d328780e6f5
fc50894bb3de2e721976acc77ad6c1ba
fc508998a24470b8fa66ba4dbf392faf
fc50899ccde06aebcb1cfbf4afc97123
fc508a374cbeb5398052deef203f57c7
fc508a731c942f638654986207ad5663
fc508aae0472ae2d95a22ddbcf900a43
fc508ae4ac10b1181ec9a565b98d2cb2
fc508c755d287a530bb704fc113d6b56
fc508cb297147a2e1ca7da726b02360e
fc508cc559a11964a550bec2042cf802
fc508ce67525e13847d41fbc2ee95e04
fc508cf4de816d91b65f09b09db3df58
fc508d5a8d131a96d9ecd0e8e615e180
fc508d88ab2a92e2c66966e7c46751d5
fc508dc5f5e9eb04c22fcd2d3d4156f6
fc508e8e95772e524ce1a39bf2a86930
fc508e90ba63214171ca5602b9c11419
fc508ee99ada0a1725a4df54e66c56d6
fc50901e9c66030c1cd5e39ab0060855
fc5090832c8fac99fabb2e35b4b8b94b
fc5091083e341f1b1911dc7d499a581c
fc509111e03b16e370d5d8b78bba6ea9
fc50918a4c96e2af39d849c8a004a293
fc5091dee1aa3b57d8b8d8c7ef49acf1
fc5091e0c145e8bc671bbc0b194c0e77
fc50933cfe66431ce52bbd5a242a90e8
fc50940f585ff33e297663cceb7e4fba
fc509410e420d2299877d5b995149770
fc509556e6b0b1fb216ee5caae684147
fc5095936eaffe657e86557a0f088783
fc50974e320ca0836dc968bfa58f1d53
fc509840dda83d8f2f3ca8974a496cb3
fc50989e7bfe5ed49c643c30d187783b
fc5099846375d2e4b25ad18805653a8b
fc509b964d70590c2f2d29d6c32c331d
fc509ba6018046a3d5a1e6e04f2eb3e5
fc509bd26642f2a294c66298583d4b1f
fc509c433d51ce785440184aa45466a8
fc509c7e5f5ad10d1247d62e14bbb3f3
fc509c8f252ec9c95a4859e9eb9510b9
fc509cecded075b9caf5aa21a219aeca
fc509d184acf95c884415517039b0870
fc509d7d7eb4a32b4442198fbc94ab73
fc509de9678093441048e0bf1d7efb96
fc509e195ff77fd39a19106dcde78c62
fc509f2c7aadbd3c961c041a77d39d4b
fc509f2d04b43f03de5ad1b7f7c0a5d3
fc509feefe31896e544f55979949b97c
fc509fefabd46a156ca0e7e4c6bc0440
fc509ff53a653486cf62c490ba821dac
fc50a082c9fdf9d92b4bdadc0b27ceb3
fc50a1be8ac629aca3a8a4bb6c7e38f4
fc50a32374e0bee5513ca9d93038dbfa
fc50a324a570fcf0ccd7c6b96e53afa9
fc50a3bb0746806e88755f49afd73f88
fc50a491625cb6153427730a6e39b223
fc50a4e1db53f93fcc51edc576997390
fc50a50285a3d83e511c43b6f3f998ac
fc50a58ac449d1870bba87b1d2b536a1
fc50a5cdd2ffd913d4df4acfd2525893
fc50a6319c7ac4f7f04f604e5580fc9f
fc50a6595e9aaf8708407373de4c01f8
fc50a6c0afdacb69f016c5945f4eac19
fc50a752815fd12903fc86803b82e2e6
fc50a8477334b73f7bdbae7758c26598
fc50a90d7a85622f7bbc06d386b6f05f
fc50aa17ddd00eb49dac8110fc29dfd0
fc50aaa41abbe1d3cd9781ea9fc8ae07
fc50ab61dd5b65b1d5fb22b9fdac020a
fc50abcfbc07b24b793259537d7c6c3c
fc50ac0b151ff2a5b5e3ff1a500b596b
fc50ad0c8f88e58365bbba8ac8897f36
fc50ae117fee145f22223a4b02925e45
fc50aee0fd40dd74acc2ea3c9184b5fa
fc50afbba15d2e61de0cab47e8e222cc
fc50b033b24af209d8e9efe06d6160c2
fc50b0857301cf91b7a7b0e77013fec0
fc50b12504b874497ef05dfdb7a4ae32
fc50b159a80698234f73f4794cca0960
fc50b219a1f0b74a23a5dc09527a29b5
fc50b4a6c1ff785e5bb55407efe84534
fc50b51db466d297b92380bae9ed6260
fc50b547c403f3a10e35807599b2f17c
fc50b63950923ab46efb547ec3c6275b
fc50b68b0b8eb153a59c0d278847c22b
fc50b69472550911839b0267476a9eef
fc50b6accf78ea45f7189074b787baaa
fc50b6b1091eb5c15fcbd88d96549c84
fc50b82c41356e36ee93a228052b9f89
fc50b841e4bf340acd696bf5169be59b
fc50b873d60e05fa1c9d956b353e797f
fc50b92aa4c080de7223893e39dbb2c8
fc50b9e29d34151eaac51fae0e8708ca
fc50ba00dc4cd879cffa5179d4ba38b8
fc50baec5470ff8ae6081b1bc5bc2611
fc50bbdedef2d679dfffc31b48cf6bf0
fc50bd8c28d54d1c9b3ecb2a4db80378
fc50bda993671a9ed358aee7329d4d57
fc50bdd239fab7a696c9757bfd62127b
fc50bdee167ba41c4c13b34887ebfef4
fc50be16c53f54006f22fa971b058b8a
fc50be55e01dd28cace8cc92b75c3d66
fc50c0f226bd8d018fd6ced9d8712fe7
fc50c18b2e140b7dac7e168f1da4827c
fc50c3242602c1b1d93aff640ede9273
fc50c3562347775a995474fdee89f924
fc50c3bc4bc0744c10dcf72446103304
fc50c4d3412dda361e11922738db1053
fc50c5655d5e60af8a350b9123c26097
fc50c572d4270a4ce78b1c89b97cc1ee
fc50c851d94a172c17bf8449f7c22d9d
fc50c8582528d6e0ad5fb8e2565e4d83
fc50c9b4771119f88ea1283bbcc0754b
fc50cae43bdf147b0e7fb4549972c8f7
fc50cb15061b5fe31afef12ecfdb1f69
fc50cb1d058da9c22042a2725020e11e
fc50cbd60944df67626af3237469f7aa
fc50cc52058f9a9fa2657f1b0a144556
fc50cc6c0a5a9e6bb6f5a9f0f6184f78
fc50cdb15e0c3d1efd44f6b4a5c097de
fc50cddc6747c276caaa5cd8d791df8e
fc50ce62474b60676192fce4fd7a1a65
fc50cf93c370641e3f2a34d6a91ea4e4
fc50cfad7f81be87dae6ac9e9882ce7d
fc50cfbdbf62b9295f7902adcb5aa4c4
fc50d0145f58fef95033b5d4537d5a75
fc50d1c9dfc70438d04873d4ac146e68
fc50d302ece8f1ba9d41cf5ecda5b25e
fc50d3082d900938f12c6fb91b3eaf37
fc50d39f132f63c867fc9a336d5b65a0
fc50d40c2c9317e024e43d6c9fd7ac5f
fc50d43b5f5113210f15674b5555adda
fc50d504fcf299145753fdf0b411b1e2
fc50d5bcd06186c6bf6dd69997ca1aad
fc50d6e016814a5363802fe9889364d2
fc50d7a829101dbc153f366a23d21a5b
fc50d7e8bfa3eebab31321ca5243d2ac
fc50d7eed2a1fcc3caa4d17cd173e632
fc50d87eb840eb5159a3e2d57a01ab95
fc50d9fcc1f550776261e55ee111aab3
fc50d9ffeb14c64acde01964c55cd454
fc50da8eaf2fa65a439b64ac9123bb10
fc50dacd2c2bf4e52882665770a1a4c8
fc50db1b2f671038cd61f7195645d5f9
fc50db4dd51df48e95c180d8dc2a139d
fc50dbc0249a756288acc20177ad783b
fc50dd31df567e1d12df88ecced78a3f
fc50dd4628c3cc92722d537c9240812d
fc50dd584fceb8d075d967e060b7118a
fc50dedd6f2773d836c12a0f30e3bfb1
fc50e338dcfa12881d214a9b57ae364c
fc50e349407b0709a03af3745e03bfe0
fc50e349c006ba09b4b4b322851fad20
fc50e365d5097f604a49283218e665b4
fc50e3806755015a23702b8dfef96974
fc50e3d41c3982aad84248c7c239dad4
fc50e44bd955d2ec92a07ddd0c44e67d
fc50e49cbf70d8c1d658c92b19e42886
fc50e4d01e28fb52b081eeb67381de03
fc50e554da78df550d6052c21053b25a
fc50e820a4fae84bfebbe4135029c76b
fc50ea6517f2231d7988a46b29e0e2e4
fc50eb075458e87da052557121e294c6
fc50eb63d4a384c58a30d2cd2ed1ff59
fc50eba2999fb09702269f993863ffca
fc50ec1199de7a5542dfcee7cce07f2e
fc50ec8d643cd9231eba7778effd00e7
fc50eca08fed87c06f0c9582df5e5b5d
fc50ed1903a39f327c7cf8ece942f0ea
fc50ed5a6133671a9e3e45df27e49437
fc50edc0cb123df5d10384e3f2e9677b
fc50edc72948b5254f2e471784a91df4
fc50edcc12c9644afb7b39f0b0a473e9
fc50ee41bc155f0c49d1cdcf418be41c
fc50ee858f2a9391d7b41883d11ad585
fc50ef405dc6d9454c136e0ea02f5e7d
fc50efaec45abcdc7adbb577d1ac35fb
fc50efc01f0600291c3b15d26a11e948
fc50f039d0edcca979014a5d5a770360
fc50f09b6c60f0692dcafff066c84bd8
fc50f2c82858119da304015598964ca3
fc50f2ef8a1758d347e62390292cd3bf
fc50f38643834d60240e4534665de643
fc50f42fb679dbfea3115ed6090cdbfa
fc50f48a20f1b88e6607a3e8f2c3091b
fc50f4f3e02f5228fc8af8800b29ba86
fc50f53fc5f5c66a676c0a4887de563b
fc50f5434720a87d74a8e49fa4c5e7fc
fc50f57dd3117147f03ee2de672bf4ef
fc50f6834a617156533eba0feb7d1058
fc50f6d47583fdce5d9c3a073823846e
fc50f791e674ba3c77ca8f5c94386612
fc50f7af31336e60f31c330bef5dfe65
fc50f84566a28bb2c043498d8303682f
fc50f8b7766cebf609dc6053033947f5
fc50fa637d209cc472316f01cce65abd
fc50fadb2dd54816c0c46c83e54951be
fc50fb968461632ea628d7f9eb55bf1d
fc50fc8973c6dcbfabd9d29692e80616
fc50fd8e3b7f6df55e61b948170b5906
fc50fe307de70872c4c6942c7c784cc9
fc50fe8c6b29a68a2b28087ea14c1e24
fc50ff6090d7187b70108a41caae67e9
fc51023010419a9864474b3dfac633c9
fc5102a7b72d56a570e339e2dd831b0a
fc51030c0f43fb963b933029fdde3ae7
fc510351ec61063e99c49e4c0541fb34
fc51036908c97c49d37eaf5199f84d27
fc51036d02dd84a6b514ceb40776b277
fc5103d5cfdb812c8e45b720de47e0fb
fc51051834672b154744a22b4aa91537
fc510538222c977bcd7771bf7b159ea4
fc5105be7665ab9cbe58ab946756998c
fc5106df80ad84cbcf7cb20fdf426aba
fc51079705ea89a573914af64fe865d1
fc5107c78b9970bca1bb9f2e102c49e0
fc5107d5971008e34f06c7bdce182991
fc51080315bb0629d850d1c0a33236f6
fc51080aa5dff4e78aab5563cb833df8
fc5108df7c23a8ee5b2244d348636477
fc5109e199d5b8cc2b88e2228142eb8d
fc510a4e3ce070129ccd3d89598b9b98
fc510a5fc326f737eee5f93c48730570
fc510a6635f07886c7fc6850119b8f60
fc510ae745b542369eed151f234bb8b4
fc510b6f1fdfb731a2423c19e62d7839
fc510ba5ae2b4b62e9ead845e8701444
fc510bf56003cdde8751ea2b0535d247
fc510c999f301ccf55f87757be288c8f
fc510e0df64ac61cc591fea565fcfced
fc510fa72c020da164f57c6a70cc5b2f
fc51100a973329463a826dd7de82da10
fc511055aa68737a2fe37b38b85a7cc4
fc5110c416ab624afd414010068446f3
fc51116863dd6f0b498a035e3a5db282
fc51116cf710897d5348b7d20bb45aa4
fc5112b2b95ba07ad07b422ccaa5d890
fc5112d4598863cb7afb5c8c811418fd
fc51139ec7f663463e60a6fb6a1a9ac0
fc5113f09b7a41abd0103cbbb77e4127
fc51157785adf916a8b9cd4d3188f57e
fc5115ccbf33b66edc8e55e5b1294ac4
fc5115f3b89042825392bcd8d10c9d2f
fc511677accdc977ddee017cc5785d48
fc5117b02af5c2471da0b91516edffda
fc511809609a3021855a0ef420bd7677
fc511837d4fb2f419807fec3a2e44f3d
fc5118bd6e3d8a3386e900cee97847db
fc5118e62be109a00f0f1cfd766e8f40
fc51193fcc341d0498a66bd5f296e99d
fc511a51acd1a2d965b83a5189e2bbf9
fc511af7f565c9bf33bcbe18ced8eb1d
fc511affa6d3cfae413b2db4fcd9ef7f
fc511b703849b78c17cf34fc0f739cb9
fc511b754f8c8e2b38e486d20def0d0d
fc511c2126c82744666b750f623bc3bc
fc511c6531169ee5bb30164b25a204a5
fc511d0a5f014db89b6072d913c97600
fc511d96a863df7edd410bce7044168e
fc511e4ab1dbfe530f9464b0fd209ed8
fc511ef621d672ca18e1a5a3fbb08a15
fc511f7be18fff99459f28ea8de51ced
fc511f8433de87b2efe403e88344239a
fc511ff0f644dfb143ef9c21cf9da080
fc51208d36a75ab174523e8b9b659195
fc5120daa90b69d69d9f213949c2e2fe
fc5122eaaf1b7c6b6c2160757787a034
fc5122f33105100e5ced231e3cb2b897
fc5122fc53b60d3a1f7dd001e07ab508
fc51241113be326cddc38d814714cd2f
fc5124722f603a735b734fe845e2af08
fc5125e726950ce70e8491cbc0ccd193
fc5125f70de910a922f4694750afc7f6
fc5128306f861020de9f1a95baa4ca39
fc512a484c5b7f2e6f4c6e8fa2c5f287
fc512aba886ce3d93744934d33ec83a0
fc512be56553c5c6058c85b1250781f8
fc512ce5d4f0e2169642f29726a172f9
fc512dafa2c046767a2f5922559fd936
fc512ef03669737584ece4e1e5d98d9b
fc512fe7d0ad049001c36cbc800cd5af
fc5130da6392b0824e0a0faafb7cb271
fc5131648cc8e78a997a3cd12204fcf1
fc513351f91bf6bafd279e16b0ebdf7f
fc51335ea7d3e1fd8154ee1e93b9f005
fc5134ba4711406149556e32d47773aa
fc51350d26b71378253a2db94c3d7689
fc51355a0eff1c1c8f825f82dc89c575
fc513612c1f5d78c2949a123740ad749
fc5136e6bb0b6738174c2dfbbfa4751d
fc51370579733defb32787f8a9546709
fc51374ab61227a335a53d25a9aeb437
fc513790d6ac99ba3c8173d37a1d900c
fc513799bb5abc29eb0adeb5c109dd4a
fc5138740ba53e5fa4491d2f89e261e4
fc51395919917ec6684d94af86599647
fc5139936042cf4b2b87048902f993f0
fc513a206554fff3523af76078cf1a64
fc513deb5e5573a8801ac1452cee49c0
fc513e4d7af9aaf88ea36c87e0e3d72a
fc513ed94951a67beb27f9591cfdb37d
fc513f2044e310a667a637c01e13d904
fc513f7485b538582db6d48c0125b349
fc513fc9b248e9740b4f7397d0c13516
fc5141329560e5802506c0a3a248ce91
fc5142c1a8fa19957c2bee04e49bd076
fc5144417698f01078a2aaaa4e31b594
fc51444abaac23ade70eefb9e9335a5b
fc51460290718e7f10f4077a371f3b20
fc51466fdc18102bddb5ed754d67fb00
fc5147c07160bf84ad12357750bbfcd4
fc5147fb261653233a7b2efe41ad0e98
fc51483e56d5f91d3ce96dd5bf22776f
fc514951fed1e889fbe05f14193bf4cd
fc514a2610f11a46150f5a0938f2cc43
fc514a36778a7aab8d618a68238f7331
fc514a661fd9d8fe9963dc2265ab6f05
fc514ab0d2dff034b9959843cc27aa26
fc514ab74ee42ae402b7dad70cdbf08c
fc514b32fa6c5319fa22e5b9b597dbfc
fc514b34fcd14086d02630efbfe6b5f8
fc514bbae8c3549ade97e54caaaf881c
fc514d65586f8b6a03063ffed3c1d4e5
fc514d81bfd568319bdbf0c7ca6f92de
fc514e29a00c926dbdf1078c33913b1d
fc514e9c0a6e29e4c7f6f9f63eb2cb51
fc514ea3dba48221b2d79be97127f94b
fc514f15cc3f286a579f66782fda7b46
fc514f2bf905a8ce769111ab562e0d0e
fc514f3c1d80f99be30fb3b42bf91ad0
fc51505ab37a1f69686af983dca0ab3b
fc5150d12e53d58a9bb55b199b8ca701
fc515142f85d5a0830e8a04d3b299acf
fc5152dc45b038c04f4740f4514876bb
fc5154742b4d4e2f3fa15a7d77bee916
fc515483df8881c0c15110fb6dd31760
fc51569882efeedbde3c3cc3b602ed26
fc5156d8735a2ff0ab1eb95929bf6118
fc5159572a20f92605675713832b22ee
fc515971f348583cd0d1b51b3b256daa
fc51597b00d00371e5f007f1268569a6
fc51598c923b2c4325b932e77bcc27fe
fc5159a6a4f627ca4b95601955acdbb2
fc515a0605c0ad9a8a0f49c9f5767fbf
fc515a5f892af1aed3115621391e86d0
fc515bd6c819f93e85329cc603fa1bfe
fc515d4631f2d8b0bfebaf9f80f487b7
fc515dc6ccf802e80fa4f78506b4fb0d
fc515dca9579ddb72b8a812f832c59a8
fc515dda4b375e0f07c489843a33b039
fc515eff3818b24df399ec8761959a52
fc515fbafcbc1066ac07cde48ec8ce64
fc51602ffa005c65120c050a1c169922
fc5161713af10e4aeb98b77d6517ca51
fc516357249cb977eae4b46c3e3e6c9b
fc51637239040638b4efbd8019650d0f
fc516466c66ad6151b8d674df92cdb60
fc51656210ae3bb8befe9803b1501c05
fc5165e0ece38aef2f8b251627187060
fc5165ed608c96ee56afb48987e3e424
fc5165f583285d057b2c85b892ab8eb1
fc516621303308b513fa1dd49db23753
fc5166aada24109ba46bfdace732e0a7
fc516763a8475097233b8590fc5e8c43
fc5167b8a5dd1874c2abfffec317f15d
fc51689ad5082b3546318f832a08da2c
fc5168be42021a5bdfac2a84fd52e7b7
fc5168e92468f2581034c307dfb56bcd
fc51691a7e891993bcf98793b32367c1
fc51694af5463f2604da7e8ed2800dfd
fc516995b3ce1dd2b20a1ae08b2a4e22
fc5169e97ca9b3e0c7ca62f0b796e20c
fc516baa7c13a2c6edf8dc65d0f9767e
fc516bbef6b9494416e9d9f193d479a0
fc516c70f7aa4bab30858760a3650b24
fc516cf4a09b4808f02a4e7a33bc9a15
fc516e907546a7afa546692557cad255
fc516f5a26965772631db244e2fe8503
fc517012fb92565b55345f232cb36620
fc517140275664e9e057dd188beca8a7
fc5171cec32b4113154e43ee29e59cce
fc5171e34768c1f231915418bb8e282a
fc517234189b8c762f1dfae2a4191c3a
fc517394c86b3b8934a68cc51c2bf39d
fc517412f64646444583dddc9a232f71
fc51742855a52368535d826aac5bdcda
fc517655139cd76c85015d526df25c2a
fc51772c1d40c2d27c8dc4e59d31a6fd
fc51772cf631b2faff557f9d6ed1e99b
fc5177652644797ce69605ad488863ad
fc5177b40b8fd4df7b1f7883295c1971
fc5177e3e63f76c9f3c9a397d07f151f
fc517a3e02d5ed71f8d545b868d46eb0
fc517a5c5f8672ae6f903694cdbd9f7f
fc517ac39835044f379cbdb0d808eeb0
fc517afa5ecdd9923baea3cbd12c2549
fc517bb1a3de6808546347e8d6e5c303
fc517bf52724fd45c6be4f762db4865f
fc517c7735a398a8a491c3a3d64a71d4
fc517d4e3d46f9ddcee37f99b86e3960
fc517d886d3282f6c1e833eb879b3cf2
fc517e63c8af8928c76397c6dac61349
fc517ec37f47f8a8f02f46333f89c6b8
fc517ee5e650f37d1c7d90b4839c35ae
fc517ef17414a4e53020f2b49adce108
fc517f3ee0564292fe16545a3540d6b3
fc517f56346ac1cbfc9dbc99ffbd1d93
fc517f9d586f2103370d106185b4ce17
fc517fb145c1d6b9cd76317d819ed906
fc517fd3babec74865dfcca96fffa076
fc51806c805078ed6d819109fe479da6
fc51822c2b307107ee6c7e04e8638973
fc51830d7fb6bc639649944f4a3eba26
fc51833fc93c29f06e295efbb1a0ef26
fc51840859e722b9da28d07c862180a7
fc518528518d1840410adb980b2ceaf3
fc5185530f67e5d2eb276fe28a8cbad4
fc518559510c5de5dbfbd33d338ec8b6
fc5185d3b60793be896842643b9b91b2
fc518647cc79acc7b21c672a85213c15
fc5186a14bc6ff6633abf22383d15e9e
fc5186b26e904994dcbe4d130053bacd
fc5186d93ff98de6f2748c12e8af6426
fc5187d4568b691b6e65936d1f5cfbf1
fc5189af2a5d00299dff13d05368ff70
fc518a2a69a897b7f0d479a4c103e663
fc518d06ea45193d64fb362610dbc149
fc518d92e8c6da7ef6a1538f6876464b
fc518d9f54cf6b2953e073aa522d78d0
fc518e4821dd296054e7ddf130e876ed
fc518f1a9fecaa7bdab5c7b1bb043987
fc518f63db1eb7a4b57fa658db8e7419
fc518f94c42544c8cb599b077b48c487
fc5190573fa54b25f56b20fd895890e8
fc519061a0fb66f887db92f4653e0711
fc5191071c60a549e36ea4ffc76fa38e
fc519157fb411b0c38612c47bae79f51
fc519165d8eaa8b3dba850a5723dc0c3
fc5191c57fbaa41caaef6f39d0397710
fc51921cfff2c7ba3d682ca42f0bcda5
fc519238af7526804b3eb9d0bad19e7b
fc519271390ac1650ed519da35cbe520
fc51935165c7524b42bd196922a99921
fc5193dd5d20f80c5ad3ba8a1508fa90
fc519612bfcadf45a819e2610a43f7f7
fc5196ff7d14bda18cd9f89d81f913db
fc5197f6c32b6743d0a4ef38fe92be6d
fc51980b90947b724bcf59277e2927f5
fc51986fb23082047460556fec5324a6
fc51991224b4c9bae8ac1230a66dc941
fc519a22d6b5d573df21b7f0de3bee11
fc519a35b14da2e5644ba4e29c67df50
fc519ba87827a0670d045cffc79dd96f
fc519c41bd894b59c53a9304ac17a4ef
fc519e539ba0cedc3660757f6eebdf9a
fc519e76591e0141c5414e6b8133ce2b
fc519e89976d43a98cee4c64d1599439
fc519e9a757d54dc4b5c4d0503cf7db8
fc519f281f2d92e1814e8f93261a869a
fc519f7842a7e63ba08c7a7834ce6fdf
fc519fa30a39804da1e6b5a552bfc299
fc519fbf95d3ca735756aa97e5f3d895
fc51a0791ebef9aab97b55e2cda7ae6c
fc51a07e89d6e2df1c302257750ec6e0
fc51a0f5df4445590b09e96b3b6410a1
fc51a10635527c72ed38c581aae10f56
fc51a151c1cf78a5404a54d8bdb0ad55
fc51a156708db29787738a214e86d82e
fc51a158dbbdbf6108d26bbf0fd86adf
fc51a18e4cfe7f697a6c59b1339262c9
fc51a20e4257b72383c3adce59ffe23c
fc51a316e8f8097ea9fbac47a0b283f7
fc51a3218781394cda28d19e85fd7895
fc51a3eb06a7040527c8c55c88ad55e7
fc51a402b4a126fe7fc9410a15b4867a
fc51a48eac23e4e3ba655afc3d62f450
fc51a4e00ad073a1110409b31d8805a9
fc51a5086ce4d90bbc2b6fd07b2db5f8
fc51a53fe5c024b56bc1488721620b40
fc51a5c570b0e0de25b7d6c156161d84
fc51a5fb2afa8f3c58b6679dc542c40c
fc51a68271064fe9e053658d787fd643
fc51a682a8d6ee1f10961e057aa659f4
fc51a6a51f0eb6993ce78c89bb0eedcf
fc51a7159f9ac1aad1e52983fc0f394a
fc51a8425a60d2f77869493d3c9bbb6f
fc51aabdf2f3577e9447746337748878
fc51aabe85af510fbb06c2b8d7fccc4b
fc51aba58ec8b20c3dd77f1450d4451b
fc51ac06eb6655661ec9321928dbeafa
fc51ac77050e6acd0fdad4a8f88aacbc
fc51adea952f28e8ddf118cd445efc53
fc51ae020aca38312506dab3da2a16ca
fc51af31749bac745c6942bd214e1fe1
fc51b062d77a41812a882d8c90163558
fc51b07cd7bb229dd0f51b012fa1f665
fc51b1490da8f79d4df1db2162588628
fc51b2b55ff9e6935a6d3adf3a103ee8
fc51b3920d3f95db4c9b355c323c4ef0
fc51b3ce4cab1971e42b7bb29114dbec
fc51b3fbba854f742c180d5c9f54fd17
fc51b4a10301187a4b55b9239c9635ed
fc51b4b212df08852aee778eab9ff8b4
fc51b4f87e7190acfeb0cba216e7f9c2
fc51b5d2e20d388c8e6eb811adcea7fe
fc51b610ebdf2c3467bababe18c2cad8
fc51b641a0b95de3e96d5a636977a1e4
fc51b641b91b2b57afd7532c3e9a23d5
fc51b6d32f1cbd4ac5063fc0b310962b
fc51b6e0e9ddf33687ca849efdc74621
fc51b6f894356e452074cfa2daeabd7d
fc51b7d3baf8f21df0b53aab09f4f72b
fc51b7ef71061885b8498cfe84b794d1
fc51b9fb0cd698b1c37d490dbc1fd43f
fc51bb4e115f9e74a1b6d56c87aef93e
fc51bb4e5dbb79c3642cb16d0aa9033a
fc51bd306c03d48a51f98c2c6807209d
fc51bdecadc0712c4d8a6da5b9a68452
fc51beda6b9d40999f436fedb8d3a062
fc51bf2baf38571dee32070f5d64a108
fc51c00553ef4ad5f5e72d43105a1f37
fc51c07e864ddfd30b726786bfde5124
fc51c0c475a67fd9cde2962397203234
fc51c1d336bf83d13151a51989bf3218
fc51c2174d8132878db6fb02b7c1f046
fc51c26888c99ad78c89d7613fc5919a
fc51c28194617913f99363949e0aff2c
fc51c2e1516c60e4dfbdf05dd08ddf60
fc51c2e1c7239a32e4909a7d38e3d837
fc51c2e3294c9324a17979abbf57fabd
fc51c4c50d1752eb265a7a6a4c32e40f
fc51c4c6f2c22da90df328ebba1f8b1e
fc51c686b54fb679b323f30b74a1fc05
fc51c9b39b555fcdb319112e07d8149a
fc51cc6e999ccbe493a88f699edb0c37
fc51cc9f6ae186f1076b113f715a6fdd
fc51cdda36715fcedfa7ed5992b1cf50
fc51cebe4454ea07887b445cf8815665
fc51d0ba9d13cef166bd4fd24d68d9ee
fc51d142b8142c1515112b49c96f7224
fc51d17a249aa0169c0b529b9bf6ecc5
fc51d1899dabe3f9251beecbbac6bc2e
fc51d1d42973fb778abf5e76c2cbf877
fc51d4592a25eb75c52a6318d5027255
fc51d57f803176b804988625c5542b8f
fc51d5c142885bdb4233b27db2aef152
fc51d5d2d6c46ae7c541f94aa93bf5f3
fc51d62bf252b0662504cf80c21c4cf5
fc51d70ad8cdc2dd240d01402e99e3e0
fc51d821896dab086807dcfab3b06d33
fc51d88f889a2fb646f4791acb982920
fc51d894a5b268bb334b6942e27e030e
fc51d8fe5fd73fa0c27e04c096af2e6d
fc51d985d1a2f4368bb23da25f8ebb1b
fc51d9a9f4a46cf891e01f6f5a933570
fc51d9b101a079bc2a859eff828f4a63
fc51db1a7bb9387b63efc7219c615fe5
fc51dc8416ecbe4ad4e52bc164b1bc2a
fc51dc8595551d531cf4bf48d5734e0e
fc51dccbfe8be66929e046594cdd0f11
fc51dd119f5289f66acaf1bc0e878742
fc51dd7ea91619b6b005e97a5230546b
fc51de9b777d160ac491b66b12a9d37c
fc51dead458b87df153a8bed9fea6ed2
fc51dfca07368e92930fbe7d4b24c932
fc51e0116da5dcd00c82401e17928215
fc51e0c9149b35d5f7d4c1a6f0c09665
fc51e0e90f835d3f3667d1ab7c7c762f
fc51e0f4019b0a51b32979244d4c4f62
fc51e199ab6e55e497ec33d8cd7ef1e7
fc51e2351f2b2b8fc2571f4166f7d436
fc51e2bbd19b1c3fdd8336a7295fe695
fc51e2e2e507e6d4a8c84cb660957f4a
fc51e6176cc5e30c57b3e4973740fec6
fc51e62367858512447d88db1c11cc09
fc51e666c77878532191e7832a32b5a6
fc51e694a84848ce8f113046052faf4d
fc51e72c3bd62c11e6578ffb0939d9f0
fc51e7307da58cf35e136b45413c120c
fc51e7f30d73a1f0893c2d32ba5a8776
fc51e90104eaea070af4228bc6f1180f
fc51e964163b7f8383dcaefe988119b0
fc51e99a49a7ac88c841d05660b20bc9
fc51e9d56592f4acf42b4a60a1950bf8
fc51eac5243a3bfe6baa98a4c6b75118
fc51eaf4b463c39b000bcf318da7cbef
fc51eb322a70cfc282bc6d27affa2080
fc51ebfe5be6e6547ca394fb6f3656f2
fc51ec5d75bb5607d44a4b78e5ea6380
fc51ed6ee844367061849d44087e8104
fc51edb8a8869848bece9baee1a5e126
fc51ee0cbc0cc3b7c8440c1079c12fdd
fc51ef9631a58539569eae9f7e85bccb
fc51f083c53eda2493ac163a08d9a83a
fc51f0de7622374da56a20947cc9bddc
fc51f0f944f0fde1ff22a0134019e522
fc51f14010d792625b6922278c0567ed
fc51f1a4a3227d641e89b692a2f8bec0
fc51f1cdf68ad485dc45e28d44855ab2
fc51f2892c7329e52429135445e1c0e1
fc51f2f146509cd2efe9aa7fccefb3e3
fc51f475ec0bfdece87c935623d2d3f9
fc51f51d208ed5c1ca11d94a53562b00
fc51f5a0bf505659a3773ee23369e052
fc51f5d1f5f8462537053078e83f20f4
fc51f6255b0c1fbed8207c05c811e232
fc51f646062c380a4b975bc3e58be6f0
fc51f7841bdbee3ea14c76cda7be1648
fc51f7d1041ca24ee19a130ae9a6a37e
fc51f87df90c35b3ac38e3f790401a5e
fc51f94aa85f0c7bc2ce19e533a5743e
fc51f9978022861f5638406024c6f110
fc51fa886532e813ebc0d946820523ab
fc51fd0e53bc098f659c830165809bff
fc51fdb549c5f9627ecf6219886a2de3
fc51fdcdaf1c8ccea7180d3dabae5fa4
fc51fe4682a55006b6a76d659bc3b6c9
fc51ffdcb01bf038c312293765ef02f9
fc5200ee1ff95b650e0e5e1b2c84d6fc
fc5202e1c45ce3cef1863596b18b2fbe
fc5203fba3e5fce51ad8480765090f6f
fc5204583b85a03961ad607a7b0def50
fc520458c44b62c48c27f59ba11d8ff4
fc52048bb8b554a8f73bfb39a4a22c79
fc5204e1e61365dee767065c58fc1eca
fc5204e27f73b164a75dc7ad16e99a56
fc52056c5afd071fd1977393cb6364c7
fc5205a0169aeb333397e4c5c9889e9b
fc5205b95931c9e561b4e532cf3c1ff1
fc520615c3c4131a98689d74b3d131d2
fc52061c66a2135816fd48b736df8bf4
fc5206622104e7f787082478bba17f85
fc52067622fc17455d208d54a88a0425
fc5206828396fddf711e7ecdad822530
fc5206b18b0e5fb089e1d0ac934aa70e
fc5207226248494e759d63f6fca93b60
fc52083b0176f184aa4220be932882aa
fc52086f2e5e66b4b04cfeb2edc9611b
fc5208761f8e1e90d039a13e5ca5f838
fc52088e1904830ba3fee862d9db46d0
fc5208fbbebb960d935f51c7a2966e30
fc52099f5859d1920b306f683c2a1af8
fc5209e572adff7a67217c55a777f196
fc520ac94928b3d95916442d0f72fbe3
fc520b049f0ad18a8535ef15fcb72d03
fc520bffb90c9a2246287632b8088e0d
fc520c820403ab635ecfd83675932997
fc520c90d2471891ba9a7760fba86c8d
fc520cd2bc2836217f2ae041723b4990
fc520d66ad5d1973234a9f752db864bf
fc520da71c96c0217af00c0705f78b47
fc520dfd8ee8043c95469258677e1dd9
fc520e90e41da5e89b9d93ccf3201a83
fc520e94272e11ddb4fbb8de90f55a2d
fc520f21be96cb56d05d58b4ce3282d7
fc521008b44bcdb0e3a87c8f12e65c23
fc5210c073b37f0f0c12cb7fddda9d0f
fc521107d835245f8c1592a232fef67a
fc521150a6b7a3c67186f0324be57a27
fc52115ec206ea4016bab462e640bf71
fc5211661eac031de9e7fe9ebb51e3ad
fc5211c1406c51050e64a5d9a31572d8
fc5212f0555b163f1ca5c30142196bdd
fc5212f0a933ae4120592d60297894db
fc5212ffee77e8199c2a9820e4e19936
fc5213aa5057f919a94ff3bac18f6c35
fc5213fdf05b2e453cf1e94f502533dd
fc5214faa3c1003ccd9ae0efba7ee1b0
fc521531d8c21208e0341817a4d2b5a6
fc52155eb30d03bb2a94e35467c9fb1e
fc5215b94d8e5f2d04a10b2701bcb189
fc5216e36e7f7ba63459d9daa99a402c
fc52181d75f2134c14757b84284824da
fc521833a84cd8f446f9b918ee3650cc
fc52186c074296163b2575cd8fd0868e
fc521909136fa46cba04151bd86b0137
fc5219e303dba29fc9cbd3bb11e8675b
fc521a3f705b5eed59b2d8eff7aed6c0
fc521a9c4ffc0d2860892eee59688fe3
fc521c02ef83d41c42e4ad0aea536f63
fc521c29dc7bbfbd996d68a42b72ff6a
fc521d2210f48283abf8375f5c5cc0ef
fc521e95b7c2b48754ccf4e5ec146ac2
fc521ef833d41e609496c9c7250b17ea
fc521fd7100ba2a68c777d56ee095738
fc521ffdcb8d0e4295196d9be81cfd88
fc5220105fe7a8fb8e63471b970bf618
fc5220e1578dcf0fc8482d2e26edc178
fc52217d0d13bde7a7fd43f222c07f39
fc5221807320400744f525f12b4fd3ed
fc5222df1a170d3dc4be6cae8c592086
fc5222e61de7f24c4e00883d5aea42b3
fc5222f08b5f7376d7fc22f41ba96361
fc5222ffca0d8e6e0a594052cfb80b90
fc52233cd7bd4dde31ee2ad2ada8b17c
fc5224b9066c4a754eb3b46ab3959876
fc5224f27535c2c4eea00023f1b2c600
fc5224fe5e676e9831572bc7394d9b36
fc52264faf21b9640a88fb4961686ee0
fc52277584d8da4e8abc81866f54c4d9
fc5227e851fb38acc0ac8426cc1b06a4
fc5227f5220f24572658028522664c9c
fc522806d8eb8563458fe4a05ca5e0b2
fc5228ccb2422af5be9955d70422ffd5
fc5228d4996d35372b3a6590e9ae5407
fc52297b3ce5ec95f2ca9a4f81ae4569
fc522a150166c98e9eda406f008488d2
fc522abbbbffa516a2093cb3cdad139a
fc522bb42d7106c71791399e8456654a
fc522c78f5706f1202a9b470423420d1
fc522c815c9bfef4f11c6be9aa92e614
fc522e2ec35c0160941a70f5be56b07d
fc522ef2fcf6585394bc587dcefc6160
fc522f330edeb4fbebfcf01168297275
fc5230ba46616c7ca5a2b10210bc1ef5
fc5230e2c224851d6a7285ecc0ae7107
fc52316fb3250ce4eb239448f443575e
fc523219436abff799cb550cda0efe29
fc5233adf76c5bd635917efdd02919c0
fc5234363831a8cb436a0d7145dce410
fc5234c6557af1a7d370a1ad837e40c0
fc5235182c90ccd551b959c918c33a83
fc5235367733f4b7f7c636e6180a5e8f
fc5235481aa0fbe04b09c4775003cb58
fc52356770410a103eb14aec52d18e9d
fc5235a9f50e263a2a505d7af0d24b7e
fc5235f6c91f7658d2dc51883563e21d
fc52370b361bb8357a288ddaeae60067
fc5238340f9dd937e5f8fb306ca4366b
fc5239fe34555fab9604286a60c5f431
fc523a23c29dc5f89ee68838308446af
fc523a5f388011d88d84dfc810769817
fc523c92775ad714d8b693abf4a10c04
fc523e2ffd20e10b3c1908f2bffae378
fc523e8e49feed5e18b28ce4397dae2e
fc523ec2fa1f3aef4845839ce7c8eff3
fc52405794e4060e5eaec837170d3091
fc52409b015f0c3ba4e8aad1e9cd0ee4
fc52413db7404a06979557bb30e1717f
fc524177f1d74bfea486f54ccc6a08dd
fc5241e39c48641ca90ee584040bbfe3
fc524231ff3d137976951cf661a79b5d
fc52426d72bdf8692930e8af50ee6b6a
fc52433c85fa745907c2b271b9c4b677
fc5243b9e1735ee6dabd4361a5a7aee7
fc52459a5d20b861d1795fca7e5a8c2a
fc5246c5f5c9fa9a2132a448ad599020
fc524893d15ff5a38a930f59c4b6b66c
fc5249013006724d0137c8d90be39e83
fc524921d61bb35d5943f0bc50ee4610
fc524965635e94a156aef31040a092d5
fc52498a0958919f20611be9f4fe76c7
fc5249ab9bdc117d2501643ff4f43800
fc524a02ebe38eb0ab336c0c5c6bd6dc
fc524b0b6ea64a5faccfbb87bac09d2a
fc524b3544f48850d879b85bb1b32920
fc524c48a19166a3a942b4ceb68dc859
fc524d035454b10c84ee3eeb45413a52
fc524d201d2b62326add714530fcc114
fc524e115fedacd3f49cae2372f53c1e
fc524e12b78ab4cbe4fdc3eacb946304
fc524e5e63d579b00c57c720b0cf51b2
fc524f9de55290b8728ae8802b8624d1
fc52503c5d9482741e497124a4fedcd6
fc5250c8d9c640e2834744a049d28d58
fc52514631bcb210e43c07f9ee4c83b9
fc5251ed9b9619fc7792ad0e013e6b40
fc52524cb3921503430d9081a18de645
fc5252530ee152d60cad62236a392688
fc52525e728244aad2b3c91ef12bb9b8
fc5253044a2f78958f2651504b5e15aa
fc5253d641d9fc0ff7e17390e634dcfd
fc5254472fd436665ac0da03b13181bd
fc5254e98f50e26312fd5153b5bf673a
fc5255c997b08984f38cf222832f29e6
fc5256316dc28e42dc272c07df650b0a
fc5256754af389878f2638ebbc76fae4
fc5256f3828c3da78e5c6f00c1ac3970
fc5257898701fe41e1d3676ad3d2e176
fc5259a293c1b1c7f8f6773ed1f9fe0a
fc525a27544668c80138c9ea986519fc
fc525a479e125262fda4ec5df9c09eac
fc525a61fd93e19234b931d1ec978425
fc525a7955c24e79363a039b26ac415c
fc525a9459eb329d1901628fb9c97484
fc525bd4304abef43b325daf32b0d53e
fc525cd5b9146d5d726cc15477bedcdc
fc525d0b8d70c9bab364cb33584e976e
fc525d333d276c885f64fcbb0ecb8d36
fc525d45dc69d08205599aa0c7e23c0a
fc525d7d0f662ff6e13bbf8d452d8583
fc525dbc0836dbd29ae56cb509e0c380
fc525dfb2396e380a709ceb6899f9876
fc525e953a3384025d4c9021b6f3d01f
fc525f073588a8b1ddd18afa7c17f12e
fc525f844e1498254bb175f4b1c86563
fc525fa4bf96e7ada886244bcf87de21
fc525fd3ed4be0a5f2edba37f283c627
fc5260008072759f9eecc90f23f5bd45
fc52602cb346da719dbb2111a61e2f38
fc526261ad1d6634dc5bf815086b4450
fc52628796e9ef2989d296697a4d3c11
fc526318b139df8ce5dd9a402232a432
fc52637091283907f6a1d6af6ed5767d
fc5263f1f4c9391545fb8d93e7231407
fc52642ea0484183ad5f6a54e6c64864
fc52649b9879dbb67d513de9434a7aa6
fc526796e5cfdc71de388f3510c675f1
fc526835294322a04dbce5ae63fc1737
fc526947fbf4c63fb0ccb60a83425876
fc526a4acfb22be0cbb8d85c097eacd7
fc526b4f7268c4c3dc404ce21b5d3a82
fc526b5edc96f2594e81cfdf813e4e9c
fc526cf07d6c9e0d58401fd6fd1e95e8
fc526cfc16ba1e78f4b54f30e8824d7d
fc526d241f1edcb8838d2ecfc39711b4
fc526ef06a84847069b3750d6d1a3a89
fc526f0bc3c1413eed7c50d561cfd34f
fc526f9458028e279ff8001ab270997d
fc527084ff67e86b3166abbe11af9ca2
fc52708da07d3caadc63cf47fd1b58a7
fc52714766dbbced9dc383de6173e5cc
fc5272f9602acedb68eb1da2d0b35480
fc52731c4c0ed9d0c46bcd1e08c6f456
fc527435c5682e15a2acd1c919018f75
fc527454b9377b490657b446791b2e0f
fc527461cdc203b05d6f67dfee4e4773
fc5274624cf167aa432c336b8af4c193
fc5274c4b872096f8b90984b7e0fe750
fc5275bbed073c9b1b96f917fba738af
fc5275bf065e871c54df0421636d420a
fc5276793e8cf158625cb488b04af548
fc52772b444ef4cdcf713c8c44a2d0b1
fc5277cde0ff29eb7cb459028e34ef51
fc527999e1fe045e16730256169ac14c
fc527aa2e28e4c4df009bcc01f4966dc
fc527b074b5783ff52e1b17e354b0211
fc527bf8baa0019dc839cfe1ecefb212
fc527c1690a1b3b4aaa69d54217fd16c
fc527d5bbe15f8beca78eed508d704c0
fc527e0febeb44779562b078fbeada3d
fc527e561021052e4f70386786b2e100
fc527f64a7c11ed84f0d73ee1a49ada8
fc527f861f3cd89002dea564481381c9
fc527f906fcaefa27ffc8ab705190a89
fc528148c65086627f4b6e17d7c26c56
fc52814e8eb48aca6b87fa43656cbf42
fc5282902c36bda11469171714d82fc6
fc5283702855eaf2fdf5fffa7ce38521
fc5283de919ff9146864eb7a11b82170
fc52850c3bd2141dfbdd52ce638101d9
fc5285514fd6140809b896c53507f671
fc5285de27e5ac5b8ac42b308395c303
fc52863dd73ee4c3b2b295735983d9e1
fc5286c6246fcc4cfb9d7d97730cbd62
fc5286ce1b26fef2fa4f36d703d5dfc3
fc52870bc5d734852248a60c2fb0bb30
fc5287a88d8b57b06e4096f77f384c21
fc5287df3005d4963ce6f5b475671311
fc5287fff4011a5d9c1132fffdc4a131
fc528882c5a7a90de666cbfc9baaccf4
fc5288c80b6fd83e1b3cc9f6d03cd1c4
fc5288e2e08713899b5c6242c5a1ac48
fc5288fccd63b0fffc2cd3be44962609
fc528910e0850643c9cec81722d48ec0
fc528a8fa4cbe0c51e6286c83a334729
fc528c1d59ef3b82d4fc08363abf4500
fc528c27f00d3e92525d31f25deec957
fc528e40de12b176fae4b2a3f2a472c0
fc528eecbb823e810bc460e7190524e6
fc528ff67cb454632239cbb628b40039
fc52906b1932354bb81eb0299216832d
fc5291234843f01224c0e69c7c688860
fc52912ec390ab14c1bd3e31ae929b3a
fc5291f4e78f463ae6ca367ceed20300
fc529243ea9cbb6ad45ae4607c7df3b5
fc5293394b12ab5f3b1e18fb266e46b9
fc52936167335e2513b34fd74c84c071
fc52936282186e3f0df1a8938ea913a4
fc5293aba8f22e98c4e311dc5a3dbb58
fc5293bbf45aead9ce37f6d25aaf8fbf
fc5293c48932497991de1b398359183d
fc5293cf2eb0eb453dbb8c503d1cf41c
fc5293ea2a0b9e33fbe9447da8d869c6
fc529443a497ecb94038f5acd3a9f540
fc5294bec350220cd0336d9a4a06c554
fc52953842a5763420253ada1280a172
fc52954f9b95f66e816997e4b1a03c1f
fc5295971d22fbbd616c3a0f1e63419d
fc5295be0c0b0b6c01e354c0e69a2e95
fc5297aef71567721dd35afc073305a8
fc52986e08e7e33c94e447228a95251d
fc52988017774fca10bacea1431ceab0
fc5299adf553b9516681043c977f4fe0
fc529acc70049dbdd4ad7375606bbb3c
fc529ad79737bff3744beee43b934a7e
fc529b5caf7ab8217a25b7bb18e2548b
fc529bc72367e74e11b82b6d76873fb9
fc529c131cb685f5d5314b2504574c8c
fc529c29b0275ba8d6d7fb6687a9536b
fc529c8454b2395d5f7aa431e85a9b02
fc529eec71b5bee13dbc69e50d747e76
fc52a0042a7161df2a3792e529f50ba0
fc52a08e5f0674f4c17dd2550bb4f4f2
fc52a0b3a6ecbb36fd94271f29e17873
fc52a0eeaf99626885eaad28e5451bc9
fc52a1e3f1e1c7c0b6005bcea6d45c46
fc52a2061550c6999935f5f68844fe41
fc52a2dc6462c6d7dbe395bb6aedfaef
fc52a2f6d39f2f1b96e14ee4b249e370
fc52a314c8220c14673f2417e0789fb5
fc52a36e8079145ec2f61ad0e5ba4066
fc52a408943edb461b9dfc02ced502ab
fc52a4385b4d3d5577687955f895db1b
fc52a44fd78940d5e9fae2d5778732d5
fc52a4ce1b6fd949eadbe6abdfd53e47
fc52a526771bfd61bf3feb9e498229d5
fc52a5bc03c1c4222851bb79b7e6659d
fc52a6714c2d5bf56a9dcd09379c5eac
fc52a6c9a9fb5a4759206b7e7fbe1350
fc52a6dd0e1f4bfc6d22914430b4f0a3
fc52a71334deea7061cdb46a47802261
fc52a7e447e458d995ddb08f113a7b89
fc52a82a897b606c1ef3ed8b8d6fc45d
fc52a89b303d2017eb45d1bd22afd5f9
fc52a8ebd8e8e34ba9e1f255381a67ef
fc52a912dac84b0caa3a7952d08f3140
fc52a9ef671e695ff34baaf0dc8f8c17
fc52aaf6ba34e4729a35740dc7da1222
fc52abb510dff1054c8221e3418cc4df
fc52abff57d9bc99e40f6fce484fb45b
fc52ad603514b1092f4749b62acaf03e
fc52adb4c494e4f922cc84c7b13e457f
fc52aec103abca2b7f04298c98d6110e
fc52aed77f924f4d7f0192813252b70c
fc52af0ca3cf4fdf2ce8ed38c65d2b80
fc52af20b3303187f7c5d2a1544cac83
fc52b1488962609ad4625c7c7994eaeb
fc52b14ad682661b4c75dcc33b37c167
fc52b1cb4d56f21ee6d5ef15a96b680c
fc52b2057d5131139c256c1881c01603
fc52b2c17df2c3798e01703365eb9afc
fc52b309875fbeaeb94e08cddeb6e374
fc52b318ccaea41055bfef79e6b82be2
fc52b355e7647671a6277519e89b2bed
fc52b448e3c7e3430a8a1ecf8624214a
fc52b44a609bf0eed5105a8b95b2cb9b
fc52b563e24651fa3978ac03d6f49629
fc52b5ed10f9df911b6be13f72ccb60f
fc52b66fcf9e07153c14f62912055868
fc52b69f07d207f33a24fe7e57732c50
fc52b6df54fd769f1b44e0e1fbf17aad
fc52b70eeabebd023b4d8097734397f8
fc52b7dcf9bd82b87d09a69af9522b43
fc52b8dafb5bf7cb56aa21b17065dfe8
fc52b8e18b917fab6ec36600946ed65b
fc52b9049f39013933097c85f4b97bb5
fc52b94246a388b65036d18c50cc49fd
fc52b988731c9083ff63bce2fe05cb90
fc52ba6f5df21c3b8733f47553958d87
fc52baa94d343c0ce0ba52a661b2bd0f
fc52bc7f7b7087acca4d8b9a97cb3552
fc52bd72f6f624650be55ba4af4e7652
fc52bdcab7aa43add8d9334b63e095f0
fc52be8333b4fcecfb71a6e4f181b28a
fc52beed23d081f142bb71b793f2213b
fc52bff82d1057f8b1238d52dd43fd4d
fc52bffc90425b8bc0c98c085b89675a
fc52c144ba860021a929c97d260fda7e
fc52c14684813b50108179061b31e2b3
fc52c18f03da6211f7f440e5f43f3e0c
fc52c23525b323e347d7036a5e619a1b
fc52c46c503244d6f267cebee36d92ce
fc52c5057a83f0cdcbd1f45b2686d51f
fc52c710a327592ac48a949d925349f5
fc52c7251a7fefab4e10d540ff6004a9
fc52c83c4029ecae83e1113fe54733ba
fc52c871adf2b9caaeb32ac0482ef160
fc52c8a95be4c50e8a45fcae4938fba0
fc52c9098bd43fda52d01e71992df8c0
fc52ca21416d7e9c5c654a0d5c4a80c8
fc52caf1fd66abb4fc0c8bb26b21d12b
fc52cba8e9c1797e64a5656ddc361f62
fc52cc34407513254cee271cd6181910
fc52cc4b125af98ce689f5d9666b96f3
fc52cc7f70e61ffc4524fd33c5fd93a2
fc52cd54ce6a7fc8902277c29bbea569
fc52cd80734a2741e95f881c572287f3
fc52ce145fbc752612af1be8eeb07c42
fc52ce6e0209ee085f5a580ca714ff3a
fc52cec15be8f416f2a3c9524434b4bf
fc52cf1eaec6e7eddebd7557f17a0f40
fc52cf298b24f23a12a4df76c09927b6
fc52cf4a8e1d02290c6243e699c6e87b
fc52cf50118491055f9533e63dbad481
fc52cff8247430b5ff11b78e92846cc8
fc52d04d1a51efe84a9b1853262e9157
fc52d34607b6bd0f4718b4fa2eef1ece
fc52d4dfa46f4d8d70e32fdd3783a120
fc52d9ec2d0dae373be6a9431aa1bb63
fc52da07d21ddaa98796a233e301e695
fc52db150d0b8718de5f41d9ddbcf04f
fc52dbaefafe83ac041b79a914a3f938
fc52dc2d96e430bf42434546de5dd58f
fc52dc694213c4384c2d33b7c493f1ed
fc52dcaeb790a5292f2d4e96c17c8b8c
fc52de0c734a767391a6696efaea6644
fc52deba67f5c53dcd9025ec65a7b725
fc52df04bb2a75efc3e2bb297428d168
fc52df4c990833fbb3f5958c3da6cc42
fc52e02c324aedf4f822d8a344b64939
fc52e09b6fa62606afa434ebac8507d8
fc52e10bf54a75e6e14ff6fc72a87424
fc52e1c3642b2737a15b43cdd23f77c5
fc52e3136c48285703a25426019d5bc0
fc52e345c51cdc2a6b9d29088b5e216f
fc52e4b046ccf2827f6528cf26447141
fc52e54a6012652c3a1e4a41f723902d
fc52e59707bbcdb928b4ed0968f88f48
fc52e704b5651076c35e768ec59cd3ec
fc52e71bfcc6fcb0618985045f703b99
fc52e895acc44501001120db4bb90c35
fc52e8de999f5f5d6ca253341a92426c
fc52e8dfeff21c8166df597af904e7b0
fc52e93980a10767d0776108d48d3b25
fc52e9744928e7bd0e14525d51c38be1
fc52e98daf2a8bd13fc5d189b85f5e48
fc52e9df4eaf2bc23ef17f35363e0aee
fc52eaa465656f2a4d7c8e16a81cae55
fc52eab12fd70e09f9c9c3c72e15c2e2
fc52eb5848d4468ad9b4f4b4d5a1be07
fc52eb704aa207a9375911a9c793b8ea
fc52ebfe64a19fc1f63e2a23906a1f9e
fc52ec408de1e1e4ef84c0eeafec15d8
fc52ed984251c6d4aadd01048b6bd040
fc52edd5759029e674f47b0e3b41efac
fc52ee8174fab37a9671143a15f6bb62
fc52eedc079a8b7bf597e0f3ced2e903
fc52eef83cb34c9520f5a8f3f3da0606
fc52ef8b0d390d969ffe1c1035a1cc17
fc52efc34f0083cf934f299708b18b1b
fc52f066f5598c18244e866cac657ad0
fc52f11360cb673902ef18f7b9f9549a
fc52f1afcbbfb65651e2f6e0063fb5cf
fc52f25ddee60601bc61dfa9a379d3be
fc52f31bf09b12ebbf6d9cb75f5f5efc
fc52f32f28234f5ba84c7c92e3affb00
fc52f37b2af613b2641ede455ddbc3de
fc52f52ee05b891e08a629e572f5d020
fc52f532f2f495d65228fabe1d5d1415
fc52f70b953f9237795524bceb4cef67
fc52f77c872550706cc85626e4f6e16e
fc52f784d0b093082440019724f8daeb
fc52f806b904b8971c1910b37d4ab5b3
fc52f8ad9efea59c3b7a748b662c700d
fc52f9872ca0ed0cca7058230afa5360
fc52fa3cf5250d739372b6658ecd5f74
fc52fae56995132c9f5bb8e5ba1883f1
fc52fb23b34ee20d2edb98186f927cac
fc52fb403abbf0eb7ba2d789007ac866
fc52fc985a91a653ea1a451efb04444b
fc52fd66afe2566548efa7f4c663e090
fc52fd7e9b62c7dd193e77870f28d626
fc52fec23cabdd13103ce41848a48cc4
fc52ff7c81f4bb3ad06bd52127c75d9a
fc5302463bb68c3d1c91b4feeddd5cc3
fc5303d8a93276988f600ce21f991cf5
fc530401b0dd44825bb612ea40da8123
fc53042b5449838356aafc79f61b7dd0
fc5304a858f6cabe4ddda11ce5e6344a
fc5304baf901a8e078f2264b48cf5601
fc53056f81e72091259203aaba7f4771
fc5305abf2a4c4a7f5afe69688084270
fc530605c3c46ca94ea89e44868476e8
fc5306963a9384e46fb91d4a0fc77837
fc5306c66433cd32b3073c317c8ad73d
fc5306e51ca33b94cefa1ceb6219fe11
fc530709c205ada534dee69d7a852d8d
fc53078c7b0df683b7234631891963fd
fc5307ddec6e012ed30f14b22125dc61
fc5307e80efd6f9e6fc3689f07df5692
fc53097ff47dd4e03b3e572fcfa0b3bf
fc530987a4e22e5691c9f8c055099644
fc530ad561873a9ae2907290a73cc729
fc530b063289c6688849062630ad8ee6
fc530b658f84781eed95e1a41d26bf96
fc530ba5c056696f0725025de71db909
fc530cfd0eea788119cee95381987c3e
fc530d13ad1b412f38bf32e1510d5ddb
fc530d6266a9c61c54c8d1ceed5a99d0
fc530f22dd96910787952cfaefb8d732
fc530fde569f23e78d4ca4b00b265e02
fc53110ebd5eab6bb427410d62773c50
fc53114039290d7256b8c1c127d56c59
fc53119ae30a6ccbd5ed60535820220f
fc5311a42a8f04cba81e3bc29a630c40
fc5311c0f6a036318baee44be07da0b4
fc5311d03f07d8bf7c3635b43774df6b
fc5311edc609eb69bbff334b99331fd6
fc5312539ddf9403d6e71ad0c2df9e5a
fc5312aed7ab9cb2cd33f026634fff1a
fc5313339b8556d74841ffc6b4f11726
fc5313483f2a789f7cdf7dcb1c08cd71
fc53134c4915a8fe737cd22f3cc32480
fc531373632f7c0ad35e916408872aa1
fc531393ca0a54c8069b7aed15943c7a
fc5314a95834d52d7c21512158a7ed5c
fc5314c8a618d4d367ffba7db34edff1
fc53158d8ce8e23f1940e225410fcaca
fc5315cec283fa9b177ffeb79cfe3230
fc53169d62524b27ade85410f62a8ca6
fc531874e4a68a1d88e8e6bf483b1c42
fc5319388cd7f7d2a1e02dde97bef461
fc53197a8d955bad52e16ed0ff6efb40
fc531984d4066c317a306635e9178f49
fc531b487a9ed193adb07c57465ac102
fc531bf90bcf0fb895d519493244d6d3
fc531d49e0197192423f5bb6dd5d05bd
fc531de833b712b71f71656d378612b5
fc531e25e34bcc1af93c77a6de88d489
fc531e505981cac57af088258abf3758
fc531e531adb98e096b7623e25052e5e
fc531e5c89015b85f665bbf4a5d3bd1e
fc531e5f84a651800f5c3d24fdeaa9a5
fc531ea6a8cb89830d573a066645a90b
fc531f859621bf841da91e04d13d4394
fc531fe9fbbd8944710afde723f3d916
fc532038532ff01ce81b7870d9664e00
fc5320c151da139553f0253d5af23589
fc5321661cff366840f2309baf81054c
fc532245c5482bfd6ddbe6b137e4e4e4
fc5322b439980ffdf4f0b162468ec00c
fc5322b6c0af227ddf00954c391e4837
fc5323345a2a86f81c0b7486ac86fa41
fc532334f38f6675e965d2bb478b2347
fc5323b5975c5bd30a5a4a8133407455
fc532536791b2c9ef6837c6a82bfad3f
fc5325bb12ce968d6d8e30f60a521b39
fc532709bf5e8dff902d6055d3f1879c
fc53275771e11342a9f2bb11b512fc23
fc53279e0acf0ad37346bf7b61fbc93a
fc5327eb56a269c4aef0f1105a25df2e
fc5327fb747d36f4de2747ab9b4c64cb
fc53280478615794fb46df90260e3ad7
fc532843ebe9b0088a5a7ddabd381ff7
fc532896303f151f433e437792c1e641
fc5328da92e80ae8cb46565091ad45ff
fc532983f5e4c9eeb43ab3b8d2782070
fc5329c55b4bf1690ce1e6c47dd0c6fe
fc5329cc963825a14f4e57013146f290
fc532a820c9ee049569548416b48128d
fc532ba303b5a0bf3645345be6ff36ca
fc532c017680fade8c201d8f7c5bc524
fc532c2f32ad0146291411cfc06245ad
fc532f0295e4e3eac852a1941ada864f
fc532f184642ca73d62d692c5687509b
fc53307865b0623b532bae8a99522be5
fc5330cec81335685b631d1fde580793
fc5331c317245b14dc4cbb41004aa0e7
fc5331cacdd9d775c0f3fb08b7b0bde4
fc5331f36e2bab57e716e54912183791
fc533318c9cba472fe885b97adb61fbb
fc53332149e5ec00a40b0d81fb6be1d0
fc533467affde3857f16a28cac8a7fc8
fc5334a45c32433b61f87f069f5eaefa
fc5334cd60ce0e9bc6c848f71ef56dd0
fc53354cb4805ff6fb0d12051ab1b115
fc53356b3ce293e06150e3c8b1d514a1
fc53356be748d54c6c01b449ddc11008
fc533591554b35949b778561b9452e4e
fc5335e019e6da080c2b745d9f12803e
fc5336f2934484a41f1a7b0c136569f3
fc5338d5864ac6327905ecaae55d1420
fc533a4b94ba92ac6526a3e03b0eecb0
fc533a70bbbbfc191229af88c1cd5db3
fc533ac776db3e7cffaada70bd68ca33
fc533c41d560947cfad25929b3ee79ee
fc533c73f8be5272139fded677e993cd
fc533d351dbb4d58e49844b84292a352
fc533d9631654e97b626ba7d7b128d9c
fc533daa2da46ba1c8ca78c8b7d6aa6b
fc533e9fa5fd0e95bca189ae6039b19d
fc533ec53a76a9f7586521f8a4083c62
fc533f68076f4a85896f9bfbd1732ace
fc533f83e04817662f01ddfc68237b5a
fc5340d31eac356772f639fbb533bcad
fc53416bbdab8e380838a2f7fbb83430
fc53419dd4b271d22a4a2e00ef189dd1
fc5341f3587fdac40ea985a674e45f80
fc5342332b90a0d30dfa5d082c053c0a
fc53428191b3bb22300313232bd4ed6f
fc534285ea5402ab95108b6a83e43533
fc5342881c80d27827671921751c0f1f
fc5342dbf2b7d5be84627d6abda60f78
fc53432c5d7beb3fcfbc1859d16ddcad
fc5343370d390ea651ebda0491cbf59e
fc5344538836f265a57f4c4dcfd3f818
fc5344fde1aff201e9253792339a36b0
fc53451da29cc7518029b2ca7b083695
fc5345e2aa6bdc5c8af82dfec925fef9
fc5346148c879477780bfca1411794c5
fc534734bb893db94cb7df7b06c74083
fc53483900efd62b692306aaf0fb1310
fc53484fa625b0586331a661d0f42bce
fc53488a8474a9ea726f04608d4b4c42
fc5348f6e8119d96b6a1d0a0e9a32538
fc53495f8d493d3cf566627e3a30fa8b
fc53498423181465bf866c33fe846c13
fc5349ee84d524512e9d158ea3c12406
fc534b3ed484a71acfb317bbcf7fb51d
fc534bc2284df9ce78686702b7bb5e37
fc534c13b44dd5d913227f1d8a42fa09
fc534de80db35d61ba8b37f5f66e6d60
fc534e653790349724cb505e9e3eda89
fc534f075208bfba2379cd31cb0475e7
fc534fab456225c9640c242028da480b
fc534fc4c80bfeebd0548e431a5be3f9
fc535010266ce61eb7109ba3bb982b9f
fc535018384b7b582e819e33f879422a
fc5350b4d3f8748dd39e0fa4184b9beb
fc53511ab3c2940d42faa95e4c3d8e56
fc5351b92e1f398ef89db10646ad6173
fc53524d8d6e2b6510e1d448f077eafc
fc535250573e285daf517fe36bf59590
fc5352ef88026df580361ce8b2bc8698
fc53531e4be9a18808d7fecc7248706e
fc53535dd10b63a7967ec31308415e46
fc535431eabded7e1b3d2a07954ad2b9
fc5354321566bf680f70152f9733020e
fc53552fb831e1c27b29f564a2612860
fc535543ee4848d8cd8ed4f9b8c26aa1
fc535583411c6957e7bca775bbf19253
fc53567f938adb8b0884003039d40afc
fc5356b54e1990db1f976d6afe4e9d8e
fc53574c08e4667b7434f5e5c3569fcf
fc53580cf8d6c8681959e2ce8cce87f9
fc53585f0dab5998c8520f1606391e41
fc5359d353fd8ad32aecf9d6eca74ddf
fc535a315ac0a1ec346055b1e23cba54
fc535a68927ae270a38d3864da26142b
fc535a7b474ead3af24d2c75bf233513
fc535aeebcf4741101b7a6c59a02ec89
fc535c758cad5f94cabcb6d014307ca7
fc535ce5e237f6f1145c55866f104317
fc535d394de3c2b3435797db14d81c1d
fc535d3f4a9a3167a7e72ff0b44550ba
fc535d62321bfb99cbd97ff89962211a
fc535d7c90029e163af41a063be23224
fc535f18466fc3311b8b76f79e2e96c7
fc536042a58f7b90a93e50bbc80e7700
fc53608a4c69b59a8e5101da53120d44
fc536134668df0c6c36c7e2b3d523a0f
fc5361b0fa4a4914a57b1eb2338d2e3f
fc5361fe138930cf0d0b3e41d11b11ef
fc53623bc561e85901cf7ea11186f94c
fc5362c55322c9027d96c1d10637165d
fc536438a52886d712a7b7599c559f02
fc5364aea50760525f383f0560992888
fc53662898f5c97dc3921c1e3846ca7d
fc53664f39037ca3e7b02eb05d08a0e4
fc53665854cb01fef96bcea3307848e7
fc53678fb8dd6ffedd82cc29b0f1542d
fc5367c3f3d81ad97d54f6bb5b3b68bd
fc53681114a9d18d2780145c684faa90
fc536953ea158b4b1a136020ddad5389
fc536a59e086e161f4f619469d17ad25
fc536a6402b112c5aee67d58a7369224
fc536a7add565fb59f70bb4dbba52320
fc536bf9b07b7378c8081781a16f3a40
fc536cdccfa68e505e11be107f48f5d7
fc536f56ec59edbaa301b67de3fd0b6a
fc53701a265292abc4832ad121d12efa
fc537065a85fc4e1efcb0552427210e3
fc53707451b37eda708c9b7b11580385
fc53719595df0f3fc6732c0b4255e918
fc5371c04860fb0d0dd4a533655babe0
fc5372242fafb06aed918db4ae089441
fc5375a75e98eb75d4f63cd9eab18fd5
fc537627b4c0419ed055b98e08a7e3b4
fc5376bc0b05e7d5fa3b3e2b75dcebc1
fc537711b8f9529017e5c9d1a20ad220
fc5377b8cbfe6b0650b72cea1fd5cfa0
fc5377c33e9ec6d206dcceda1a459e17
fc5377ca77bc7fa2980045e65d97fde4
fc53788dbf52f22dee1c869ac0dc7c85
fc5378e519c193d70a869a126ddcadb2
fc53793c1da63f2976289abcc1fdbe15
fc537951c979775df0349149968b1f31
fc5379704e81041033014a7c4400fee5
fc5379966aeef9bffe66fd6b705a561f
fc5379b0d1573e4ceac984506a3afa53
fc5379d7db89dec79e45b4b7cef1d318
fc537a1fa5796dde7e040e2033db6bed
fc537d3f3d827709eb5a7000040171f7
fc537d4a6abf18116ec12f9a1a193760
fc537def9bc8f0afeb2fb650a72413c7
fc537e22074aebfc248bfecbdf92dc08
fc537e31b124641e1aa1ba17c2a2e335
fc537e70a1dc0f9932122c2d80f87913
fc537f2abb583f5767432a7e4ba570d4
fc537f9a7c321431b210a7e743ab098c
fc537fb695cd9e7fe1bc4ceb2e393d02
fc537fd1b0ba6de525b26ac3b9652b01
fc537fd4aa0a3f368988bca33ba6457c
fc537feef00c57b3c1abd4efac415078
fc538018b49ccc5b4a56db252f52321c
fc5380e4e58bba9269b578da77b096da
fc53817d512da8a49a9c093a1c1a51df
fc5381c2ef30e2f40803c9a0ae16e28f
fc5381f7a97a60ea28e270357c5e18c2
fc538378c1e57d1b846e861525d5e43f
fc538571979caa1c1e3f65d2ffe73cc1
fc5385c67393310360cb4ff01dab8715
fc538692055c5f9c70e511a9ff053492
fc5386b0a2611575677393553eb36ad3
fc5386be9b58d5cd7cb67816ae7fdc47
fc538764be8c8c66eaf76d34acdb4d7e
fc5387ff6647d1e623591f7cb8561740
fc538837af34b08f2c96759c25789374
fc5389861f9bb8e736bc438ff6ab35b7
fc5389b9b82193b5e696534141a647e6
fc538a4ad30fa070290550dfa3867d35
fc538b4f6ae273f90ad5fb001dca13a1
fc538c10e6360585325a52ee4eab61f4
fc538c7f5c30df3cc884774b2f5a2463
fc538da90df11ac543c9aeeee73b021d
fc538dd74d2e872144b4be0ffc1172c7
fc538e72df28690dfdd3ec8332d58987
fc538f3fd225750338d1d277a95983e7
fc538f410a1fd6b52579f271e529cbf1
fc538fdf41dfcdde26b49fc3451640a0
fc5390ecf3adc7527818e2327564f22d
fc53915a393ac3214de405272b38fa6b
fc53922f2e682e8da9d9b36c2a9f1e5b
fc539236d1fd4e0704f81213c624c614
fc5392a59796049e1ff12b77ad93e853
fc53938e3e8f9350b9d66ca10ec114b7
fc53942fd289a293bf8e45a8aea1c9f7
fc5394cf92adc6260116292c070499ba
fc53952ad66c14ef7bea2115847570a8
fc53953d98d844acc33ff328337d5b12
fc5395bd87e1a6481dabed8690751b63
fc5395db6b4ab39adcee67ef7f238e5c
fc5396681bf883be1021deac140f8562
fc539772c74445c710c1ae07dcbb9c01
fc5397e82ab898777d70d438239200f0
fc53986db7b41363c283ca401f3ade1b
fc5398eb277c4eabe6981dfb83f822f8
fc5399014ee25336e5ad55e358958a20
fc539984ea9fb39c60f67ef53a86ce5f
fc5399e2e77e728a2c7a610a70a9e83a
fc539a006edd9f55cd31f8c327ad41a7
fc539a188f2cfb8aabf916b8e8f45a4c
fc539b1c1edb0fe7092e0a903977be7e
fc539b2b8155d919e08fca7c7be1653c
fc539bebc963c4a249d0f38e3023fd1c
fc539ce8d802cc35e195d42164117e25
fc539d851cf6310bf214ef0016b648c0
fc539d92dcc36a2f9abbbc7ec7a3f7e1
fc539d9f243396588d80a01519221ee6
fc539dc761353e358e5157c9497eaeb9
fc539ea760415ce027b6fc05ea4b80f6
fc539f36f4b3cfa720025f712c83acab
fc539f45443b7129e348bf8423bd2957
fc53a0285f6d0370d589b5d32ac05847
fc53a05bf59b8d876d1e1ecf1635a608
fc53a0adea20e2092160a4b426a8b200
fc53a0df68e06cca6086d93f2ada9ff1
fc53a1c195d2e5b7161c682bba4380ad
fc53a34fd29e0861e4c9534241e17f6d
fc53a37a4b6a7a6823e4c340c50f098a
fc53a38400964b3664601ae6655418e0
fc53a38553c54d289e92a730b5cdc420
fc53a39292c26487116c4ebeec572239
fc53a3cf918dcff9a3663ee60425692f
fc53a428752f932f285715e84a393a9d
fc53a4dcb10f2fb67e45eb93f200d7f7
fc53a77302b45cb28c162073f19235b7
fc53a7c081500308110803e401d70a0a
fc53a93468d2d0c154993d46097d7394
fc53a9346a33f60c57e876b31acad05e
fc53a95bb4a1813657ce8fd154c1db77
fc53a97c67aa3e9451103d6a09b37a1b
fc53aac7bd7d1bb820c6e101827f519d
fc53ab143a4966a6b1b9f3bae1c8e520
fc53ab449a458e83f1fa50e3b75382d4
fc53abd97247724b468b63ec058ceaf4
fc53ac792815cbd3b37580f04977b001
fc53ad900d9dcc316b818bd13b7140ee
fc53ae3d6cdd8249538367050b232ed0
fc53af1f8425b7ebd02e3e2f4b67ec5d
fc53af2d10c85bc23a4bd1eb65b0905f
fc53af3c7ce034156b5ceedd5a524524
fc53afb38bb7232d77b6afbe358d9cea
fc53afd2e48fdccda3dea8dc96827f88
fc53afdc2fa70c78247516bc4aa486f9
fc53afdfe42e092149fb07a4642516d0
fc53b06484c41861586b90a3c257fb56
fc53b117f4b9a9f451d426e8aff56be7
fc53b1eae9a023d46391ee60df303200
fc53b28597815a5b2d29e520af9a7dfc
fc53b2a123c12e3f46be711bf9056376
fc53b2b75b4e8210e00ddd90c3c1fcd0
fc53b3286d753f8f3df21b4950d8d040
fc53b367d2ea6eaf940cc8bb3f62e488
fc53b388c733d6df258d763cb6902570
fc53b433f93b511d08efaa2612d6c315
fc53b491f95af653c4c7f86a38a5243e
fc53b5661fd0118be8a9fefcb2c9cb74
fc53b57c6fa4ae868711af1636afa886
fc53b5ab78328b600e144be89b6fee32
fc53b636d285b20307f7775a9ba164b8
fc53b684c974848ec15053cd962ec1ca
fc53b6db028902a7ab87d30dab2d8133
fc53b6fcab8f8a6715ac0a45c3fea8d5
fc53b70c974da1452f2eaf2acd8626de
fc53b75ea9d23b35bccb51ab07092ab9
fc53b7b86124c5a1c51944e7c465f758
fc53b845ba2c3a0fec8ddef1893a05e4
fc53b920ed17397e4ef8ebbabbcc53ee
fc53baa03646eb8c59638bb39724e293
fc53bb2895e771632ae4264562ecdbe4
fc53bb76b1921f3e57f4a31c909449fd
fc53bbadfdb7dc86b209c54c01bc63bc
fc53bc13fcd46a669b630cb5bafa7e08
fc53bd2aaa9708be3c43cd32a89fcca0
fc53bd7123c98e9366d35c55dbd2e740
fc53bdbe662d08df93c4b62667ce5960
fc53be038ed5fd855d6d439846898553
fc53c026f49d5157f0c350f79d28d359
fc53c05d8da748b72b2e1932783afa3e
fc53c06cc8eb03920b8e9ee760ecb000
fc53c1785befbca6d4c92387bdda5fb6
fc53c183158538611116ae5a2d387d17
fc53c2697e29b8ec60bc4b74f6a8197b
fc53c2a00358ee237425b7f052790762
fc53c3e4ff4004f200472731e53d56ef
fc53c3ec6bdce25366929d2b1e87d257
fc53c40db9bdcd338e7f01cbfd7744dd
fc53c491e7c161ecf0cbee87be16d7ca
fc53c5828ae17644757a40efdc0fee93
fc53c58bc6579dba40741a1adff1f150
fc53c5dad395d9da12d8fb696776a6c5
fc53c5fd6da6dbb2f0a69ba031d78c94
fc53c67b68f15935633cd0eab42a4053
fc53c69fcaa193b027e6331b6cfe2df0
fc53c6f85375e5760dfe57e03bf02423
fc53c7000e1307878fa9051333bcf3a6
fc53c7a84771cd31d6911aaa55a9606e
fc53caa1815098e126cb6f932d074fce
fc53cafa87aff8d54231ca7d1c467fbc
fc53cc202ae1239ce5e416fb5fe71b42
fc53ccb38686999931507906a3760cd7
fc53cd5bab2a86fe1b5c73b24957ffe0
fc53cda2fc7e00d820ecec5c316cc150
fc53ce39ecda049017c34f318ed8e61f
fc53ce98c3760c65d50c3cf278ef680d
fc53cebfed9524adeab3613c3c4e2dd4
fc53cf9c7bc40792a8700b366164c300
fc53d030fb1d6f8361b834cbb2aebc9f
fc53d0df80aa022b624ef377c22dc61d
fc53d1763dcb4859f6a4bd7320818f50
fc53d245280f110c3d7bbaf63a2835ee
fc53d3295e77ecfdf0c972d636473ab6
fc53d43fbe02539ac5b10d4bcfdcac70
fc53d5597a69222ed639443647325e3e
fc53d5e6b862a92e57667150ccfe6e77
fc53d630f0317c589129698d557b2098
fc53d6801d491f41e0830dfbe0a605c4
fc53d76a7e2de9a91c1912b8481969e9
fc53d7e92f0e372aaa3bc1f39994b65d
fc53d83444f7273c067fee930dc1a5c5
fc53d886e3a1947a7d2ad2ce09e295c9
fc53d89d4621e1a35f0441722673228c
fc53d96c2d2a7b0bc526cb50e2d29362
fc53d97261f84df5171dae0425759e68
fc53d9f7dea98ec23011f4972b76b1a7
fc53daf0b955803c22b92d7657515f05
fc53db895e433b937133daad45f6cb18
fc53db9191589ba34000edc955828a06
fc53dbb1b0b58c27338ecbe406835f3e
fc53dc34f33aa00ac994105ce0d121d9
fc53dc7e655e159f0ce8600369777240
fc53dce395085b75ce0ac85ac4427c16
fc53dd0966f4470f52875f22c95e54c7
fc53ddc0786dab52ee364a630aa600e0
fc53de12ab7e6c7acaa0baba32b5eb4f
fc53deb0bbecf42ef14537435ebacae5
fc53debf626d5a75e67cb9a62b4d3c58
fc53e06749383291f8dfea52d163b9de
fc53e1a9c5a864a9b53bb3b1cb01dc60
fc53e1b4a1136f8149bf6823b5f5c151
fc53e1f00bbbd36c933b5ebc08b130c3
fc53e268031269e257448a5ab30e6095
fc53e2d37a6b3edd237bb8c91bcf86ac
fc53e3a7553eb927daf9d529419bcc2b
fc53e59a0366bcbb274e0f5c014544bb
fc53e59ab3e676172b684a9d627326e0
fc53e6524beb7f7c2fcf61563ea5cbef
fc53e687783d541fc476e58298bb3480
fc53e68eedae8428bf61fa0308156470
fc53e6af28d1c1b240a640e0a2142133
fc53e709d037d0751e3cd1aaf6b7e40f
fc53e748b8254e43aa26a5a4509cd310
fc53e7897515ed9d7a566b87f749d7cc
fc53e78c2a23275d593ba5f1778a2563
fc53e7f65ebe7ee80f85856664d99ee3
fc53e802536f26df67e88e4571c9de15
fc53e82bae6d46bce538ee70dbf81aaa
fc53e8634196cb6fff6df12cb3796268
fc53e9bab6336fcfcc7fd747da5c2100
fc53ea406e6a488661760ecf10ec8243
fc53f009159d8d9d34725a38e0c46177
fc53f0c35dd23762e4262c1b4b7707d8
fc53f1151e4e334be94085286c4bbf30
fc53f157b1a12432026b93c6c270c8e9
fc53f1e6935f253d9a3adf839067af96
fc53f2af0c5fd477a25c1e66f6db6fe1
fc53f32117621dc3475c360940aa5a83
fc53f362d99df7d49a9ab47d86556736
fc53f4289d05630f54d4e21bdbf7e107
fc53f42f94bd9f1925ecb6a50a0a7940
fc53f6d3d1f50d648593bac8164ffbd5
fc53f7052d8115b3860f5b2263c0d790
fc53f73db6a4720aa53c6d9513c21ec0
fc53f778f3a85c1ab497f6221bcf1f8d
fc53f8211f188d406cb0fd8b41462bc3
fc53f8da1b0ed90db1cfe9dadd76196a
fc53f9a8bad16b0fba4868c1ea638117
fc53fa32babf20aa7c85da8fdcd7d94d
fc53fa4ecc9bf7933a094f832d4c2de3
fc53fc9625e67f1dfbec37b6284fed14
fc53fca880c1ac0ed0df7650427469e8
fc53fcba1b6edfd42a1b2baa5dc12f5a
fc53fda12d87f2a1505d964356a78d79
fc53fe6ca2ab4c85e1a27fdf20d77755
fc53fe78372fe536b7ee61cf07fb5bdd
fc53ff1bcebbe54e919eb0a56ca06ec0
fc53ffc6fc78998db03b276bd6cea2a4
fc5400809b39d52acf804ac86af832dd
fc5401804755ceb29a2771fcb8f2fd66
fc540332a6f268aa112406ca55d58005
fc54038ba1530e50c22e181f95995151
fc5403a3671b3518fec3b8f61252fbb4
fc5403d7c8231c108090555837d72179
fc5403d84a3153eeabfe60ab0dd62830
fc540401898a83297788bb89e33c3fca
fc54040b642658b55923940a8e713701
fc540505f1e2d2ca75a8902ae828f508
fc54052ff3c9d357c3e3b7b16a99d438
fc540543e1ecb98cdc205445b2fe583a
fc5405aa9bc0e7d684c778b27daa55b2
fc5406cbc3c645b535ef6e17f5d86f40
fc540796ab2800f1102e6a3005d7acad
fc5407af9eed4d017969999376a1e29b
fc54083467f32ff05798a688a8f39830
fc5408d7a9a0ad19325827c00c110e98
fc5409143ff0adad05e2c933f10ea483
fc54094b1940f8954fd046f7427e8dec
fc540a49684270f8677aac54665d4870
fc540aedaef142657c5e5b2d9e3c97a7
fc540b3a30fa41051932f85b2563016e
fc540b8979ca78f9c5a4b911b25818f2
fc540b9e835ae0a853a47e9ba4095548
fc540c3f3d5acae7c43109363c207b51
fc540c7369dcd4faac3dde0a4f2944f1
fc540d58d3b7d2fe8f70822638b05364
fc540d6b72b8b5e49688c3cf9512652c
fc540d996b554e2645b819b77081ac96
fc540ea809f83661553bfa6e24d7b711
fc540eae3a391b1686f54b1d4a30f5c6
fc540f24fb5d26c3df90f04a3c4e50a0
fc5410eacb8c249799ad3ce5f253f716
fc54135801b32a4771df2fbd5321e5b4
fc541385e8599bcbb777335ec853fdf9
fc54139051c12f4ac8ed6c8c9d03cf60
fc541442efd1f083ce453b83a3627604
fc5415090662d377346f9e7c99b788e3
fc5415dc9054ee0934e3ff3e587de444
fc5417500a3b52caf9ed2611858f57ef
fc5417518bcdf80745027748ea5913c0
fc541766f1ab24ba1c39aa4151338cc0
fc5417f69e2804d933fe06165a747ee4
fc5418b40b88ceeab1e91c64e2f836ba
fc5419468c8695bd86aea0874aa2c410
fc54196ce4c288e333c8b80803f697ff
fc541be031f21b9e858c6195ae4ad125
fc541c07936b2a26089614f1de088881
fc541c5258fe7e1795ad6ed000a6bcdf
fc541d162d42f0b322cb74238dc7a444
fc541d3d3eef28c1163921e542482c4b
fc541ef8afbcbe1b3cf0627fd1cf0c1a
fc541fbe5a576b3e70fa6103f5a5cbec
fc54209e64fa060d628f6afae03d3ec3
fc5420e998125390beae53de90e98cca
fc5421305ebc38de60285577e8eb8180
fc542133aacfdddd0576db99aa9f9176
fc54219dded9da4d060b25992617d221
fc5423569f43f26884e3be63b8377d4f
fc5423f34753168bef152192f4afa6ee
fc5424271cfdf648a77c8370d4f132e0
fc54247d4cfca0fe457bf4b6ef7ea71c
fc54256ef066ddd790317f984529e6f7
fc542663c139b3cb4e8deda7d881c906
fc5426998123955c89ab548813f55d83
fc5426b67e4526a4bbabfffb4bf5ca5b
fc5426c6820788c3489e21203ce3ce79
fc54277bb54b525afdf63ad2d82edb33
fc5427a6cbc555d76c7bbc946b3e20b1
fc5427d918cf46001ceb701f9c93cae7
fc54280f2c76eed8af64688cb0c1750d
fc5429e376fe4854e4be497ffa6d056a
fc542a38c569238f352ffce3041decd8
fc542a7625cc3e3f42cfe3098df411c0
fc542aa1d79e195e8f57f3329bac0b63
fc542b9fdf9adbbad2fad5de953e6b49
fc542c2fa42847f706526c6fe67a2a61
fc542ce5910c552db022fdad74c8a89e
fc542d8a3a1c9e2f36a16cfc197461e4
fc542eb16bf9b1ba40c7b0802962d5aa
fc542fa28973a4765af654ac19713a9c
fc542fd7f4c126f630922a17ba1e997d
fc543198db8cbcae4bc3916d4484aa01
fc5431a8c9fc926154668073468711ae
fc5431fe8fd542a7a036caee05ffa849
fc5432097ad7eb9da7fecc0ad6b30cc2
fc54321ceb9f0adb564b485e6fa313d6
fc543258cd4426605b52d0b70e4f4a3f
fc54337bc197670cfc1774c46123d3e3
fc5434b0c1eac329e555a5f18e33cf61
fc5436c8c0bc69914b069989e44ca282
fc54370e2962d6c03ac17dd34b2f43f2
fc543785623fb9fffdba71333d46a56f
fc5437b5fb7c1c72ae5bf2e29b699aab
fc54390705f5935a6fd0cc553b3a1a95
fc543b0ddcdef51add75aab1fc83c2a0
fc543ba74b16b61766b773a6d959bce3
fc543c2ec64c61b5b979201bccf8bcdd
fc543cffada6de5bfbbf8db89bce27a5
fc543e3ef931c926c8672bb0f60acf9c
fc543e65d889c028bb8659a2621e7d66
fc543ef9cd14971a0a173e5667ded7e7
fc543efebe045ec644e6470f8b1aac2c
fc543f431ab26521dda6743adda2736d
fc543f7248074aa74f35ffa75bbccca9
fc54407d616a21943808a57c3bfe39bb
fc54409d293a2a64cb17809b43dac5eb
fc544209e6608ffc7f729d17040cec11
fc544250b820c49c18f07a6828af4b13
fc5442d7f00f2194123b4baffa93b6f2
fc5446c8652bb2c9476f74b54ac1bb7a
fc5446cf738fc3a50259e8ad371acafe
fc5446d3b9da4d9bc8df0afbe7e9ba71
fc544736896929d6273dbee5d95e1067
fc5447a7977556101390ad483e658e3e
fc544815af7ffd602deb8854c2079858
fc544831ea8eb4ea92921e807c557087
fc5448bf8fdac4161e1f66e67ae7ca9f
fc54492fe0e1c7908e82088ab99e97f6
fc544b778d33b2c5c862d555486b91fd
fc544bc8bf06bd4e52a2a990565b2ea7
fc544c90a9507f82e4f5c174ddddafdd
fc544caed2ea3c48642fa0123b92ee01
fc544cfa2b43245819181fbe300a3fbc
fc544da929fadf6120eba5d2d911296d
fc544e20d7296973a0e6fb666bd0726c
fc544f2ee9f0d15b2795676feace4aee
fc544f8a5a6065b0fb36feab5638fa5f
fc54507d1584dbef0b4e538763a506b8
fc5450f537859411341617937b3618d3
fc545151d05358c194207fdb8fa469ee
fc545271674df9bc57c55f7e28506b10
fc54527cad8e59c85874eb2093248c67
fc54537550afdb4bec4aca4f127513bb
fc5453deb56c5aca74be57fbbad81bc2
fc545485e7321d5bccd60569335bf210
fc5454c51a36acb664131dda45d39505
fc5454c6469d4a44c64b857bf39676b1
fc5455520489605503ab3a83f118facd
fc5455df9fcccefd7e2c4b8b8a5038f1
fc5455e6d7b14c1dc595c3cca2f2a2a0
fc5456489b52631b480a37be21eed8d4
fc54572850d143a39c6f28622b929d6b
fc54584c2e84aaee811e2eeef28ef783
fc54591d73a2620ee7c2a5d79a8e1f73
fc54595ee765248f0eabcd949f9ba992
fc54596dc6d9991a638e424167af789e
fc545982df01f69289f1f3de0719a1e1
fc545b2897cf2ee73cce04d653137561
fc545bdefb840793f096d9dfedc748cf
fc545bfaa827ab64efc43874f52c28c2
fc545c30133537a0e7723f48bad98141
fc545c4984e03b38927b0bc6ad14809c
fc545d2c78a44183d2883ed3548aaf5a
fc545d78bf26b521fa0c6499aec8c26c
fc545e4fa6d7e661f8662e75413a1700
fc545e83e37248bb6993a5a38ec26848
fc545fa510487492549e45dd81a53146
fc545fb93e9ccd5a6fce3fb73419fb20
fc545fc8e3ccfdcc15aa8560a5b5abaf
fc5460492351090c84b95836460bf898
fc546061fd31a6450a54e59973405990
fc5461243d3968eb4c51d1717674e4e5
fc546298e43f7b7172474698cce9ec80
fc54640c0e594f287eb95e24f861b180
fc5464d85447a85952726b2f102902ca
fc5469698c22c71d149e0a260b5553bc
fc54699a3333f81280971790817d249e
fc5469c10124bb077b27ea3702b91e00
fc546a9fd2c2f922bd52a8ae42597538
fc546b25f198a5fe5e4fbbbf1ff66862
fc546ced511db1f02e925c233663650f
fc546d11f52b2b374f8c8597d8b55f16
fc546d25929d12829790f05ac38e5f6e
fc546d591d7ba019679d19f68ee38b60
fc54700d55a9dd0bb52fe9847f417835
fc54704f77be541ddf037929099bd40a
fc54709412e23cd58af194e5e9613a86
fc54709509686a3b010b49604cf9de49
fc5470a9ecadbb2c44146ee7eea63380
fc54711c531f1d8cdc37972a9d508fd0
fc54715476c1e28a1032eb69c0478a02
fc5471885dbf828302b9c073cb2249d6
fc5471baf8505a9b51d879c4bd361b06
fc5472455b24e82378884b0e670fe0cd
fc54724e68ae674794dc2ed056ce924b
fc5473836e05243e47caa6a0e516caa9
fc5475699af61006de5f5e97c4d36e8d
fc5476e3870d6c131cb630ac7d5e769a
fc5476efcd083bd487c0507208e21730
fc5477684e00bcfdd4a7e13553d51054
fc5477e78c2b50af2a4644e87d03c4de
fc54786b0f49291b834eaa122d446720
fc54788fbc3762a8d65dc221f4bd9238
fc5478bb46f45327b95a2dfb8010d3f1
fc547990583a17c8419fb787040c9163
fc547a2700dcd86d9f52d5dac0e5fc21
fc547aad4772440af7c60abc665e3360
fc547b586c2bbab139d2e907d8e17965
fc547b97926cfdc2a421fc73ac54f198
fc547c95bdcea65116409102326beb70
fc547e8dd496183a8bbea19fe8ae3da0
fc547ecd990e9c7dc6be92786f8ae4f8
fc54808c4b20d89bd174a23c3aec9e01
fc54810a67a9456c2090b2275c0bb99f
fc54813069c503b60ff17ce8bf2de9ba
fc548138d8f410a06115e4ddf3cdd3ab
fc54815c0a33ea25ca7bb9b940535303
fc548188e8d514963a6a79710e5d2170
fc5483e9f272a9a40a0260eb09a51520
fc54846d0aed8d9199a6a460611290bc
fc54847d12d98eb5195e2282241bdecd
fc5484ba2ac02e9560af1e8cc7e75cac
fc5484f589bfda68e57b5114eccba68d
fc548537b9e77dd341151fa2d3a9d14b
fc5485bff0af7d29f302c01f08c73c71
fc54868f6a38068022cb776cb4839378
fc5486b556815c24d3aef090c445cd34
fc54878c6f5ee242bba901af408285d4
fc54878fec3e4875b18d73c853a3157a
fc5487a21092cfd4ac42fee7ddecffed
fc54893bc41b86b69054157641978320
fc54895f35340b8e717e5e7615a51f7c
fc548967c576930c1c88f3186ea1c76f
fc548a0979b98b52772a4e9bd775a6f5
fc548aff2b2901b8e898ec37f645bff7
fc548bca6e0b8d9388bc2898c6cdca4e
fc548bf1e6a308f7a8b2b91d3b0e7bee
fc548c948923ee00e467f370228d1102
fc548cc1f884298af05045b4457061cf
fc548d589b2237fc3ac88c6c0a6ee8f3
fc548e150d945ad0c67319c7566d8a89
fc548ef445ac57ded3af0546315f3967
fc548f43cd5b8c8de77813c5db130b0f
fc549174fb33baaae0824a8676797fde
fc5491d78f399df8de4c4bc1eff41c62
fc5492045cb77f62c4eea67f3d10ff52
fc5492c60505a67ef4a8aca28b6b4e2d
fc54934cd27b96d76130a1319b335fab
fc5493da07358f00950996f66ac4e63e
fc5493dc451cdcc2c6dd7227053edb0c
fc5494527991274efd88e687317e7735
fc5494925e6fd3f6218c4fe8fc16de2c
fc54951141031a0ab295c800b9165f01
fc54963519f9066ce2f5559ace195dbf
fc5496386a868634912d0b2056ed514b
fc54965a1195c30415cc32f2b33cbf53
fc54967bb8cc903ed02763bfc3e23292
fc54976621c4c5348713d2bc424478c5
fc549799de9de687305d8ab38d160542
fc5497d6ecbe86cee79929af7478c260
fc5498c3a62d3256dff2a615de1f0cd7
fc5499a5cf18e2a8c956e709c597c2de
fc549a563e8c0895e33bf495dce5d9dd
fc549a9d9905735349723f8ee0ed0265
fc549add4be086536454ff240f312356
fc549affdbe7624e83d320a6024806b4
fc549b4e19e3846f5252986d16e4f9d3
fc549bc8b29d241f0137c462661679a7
fc549bf67bd3663e78ec2d77a49d0371
fc549c89f6c7bb595428ff37d2c9e806
fc549c911232835130735f37c6d54735
fc549d1a82b5d9621138cc12904e9d70
fc549dc083bc36bd9c251ff3da50afe9
fc549de65def59220aecad6fb2e2e220
fc549e43bf31188f578bd9923f1db531
fc549f8ac867bc1ce90c1a2c8015e198
fc54a0213f8ae419284be540fc83a296
fc54a027d4d0c77cba79c6b007941a96
fc54a0738f01ef39fc90accbfce2449a
fc54a08bc57924e6c42e3bc4030de5e0
fc54a1915e4c5b37a472cd7450194107
fc54a1aef58dd1ac0345fe05ef8cefaa
fc54a1bbdb71f36e74e09aa006623caa
fc54a1d47feab7123834899167b8de38
fc54a2f3ba2a147c31ff360f5fd34cbd
fc54a31c3855920d618cef497a2c7a31
fc54a3225b338a51efab78350ddc18df
fc54a5a488f0aeef91ecdc58db5f3e3b
fc54a5dd213df776a1a4adc81a63755d
fc54a65f5201272825e7c9c5ef079af2
fc54a699372dcf61a02bd9e66c7ca9bd
fc54a790058e309cfeb8520a9c6c6ca6
fc54a7a43d4e06ac073f5eed13fe97a6
fc54a8a1fc7d6ea9705e456d7964f778
fc54a941055409a8ffce0ac387ed1447
fc54a94610dfdd848b20516dc33bac03
fc54aa2c896771a63f1816b234454380
fc54aae06e6fcf822dee68d7b0d5120f
fc54ab19910b59fe0932cfaa7833e5a0
fc54ab2fb5014df0858f5769894f1196
fc54ac1e8c4f4dc05faf4bb91aaa87ed
fc54ac4af8bc4b34ba9035e6b54d7bb5
fc54ac66d53c82dd098d7b5c078e5334
fc54ad0be17d127961ae4a092af9342d
fc54adca71e665cca82ad0d359219e70
fc54ae35517d1e192cf81d30619e3c93
fc54ae99767510d6f3b01265ff0e93dd
fc54b0560b93b9207afe0a449a555280
fc54b0d0eca1bc3d0ec9cac210efbd17
fc54b14f60bd6a07024b39d36239ec9a
fc54b22442c297503766c53ee60b0eb7
fc54b304304e7e3715424d785b9be26a
fc54b4969761ce520d641aa438a97e94
fc54b53bf372850c4ac4f21c4d71dd1b
fc54b66e6f706890ccc320057be20802
fc54b699688c95068164fc33caa5b8c0
fc54b6bb93211eab9e418be7b6656f39
fc54b809a4993fe8696bc87eaf98dd48
fc54b996edddeea597d596ce95e6e767
fc54b9d2c324dab4e7d620b9f15aea4a
fc54b9dc74f3c98094f8807b3010d8ad
fc54b9f35fdaccbbf096bdcd87326670
fc54bbf54f409998149d0c483bb4a7d8
fc54bc1e8ce9fee052219ae43d3bd058
fc54bd1f11d45014a5f918811900ecd0
fc54bd37cd1202e5360d5b4fad4a90af
fc54be5aeaf57ce529d1e7fd437e9534
fc54bf3b00f319af4938c211762c5206
fc54bfb5e00d5e020595e5846114ff62
fc54c0077aafca11218d0267943a990d
fc54c0335ddd6d966bd865564376eef7
fc54c071dc450176d9cdc11ab06b47db
fc54c08fb2d785408539e49e52f67b50
fc54c0f4981743082196ca5e98b17d46
fc54c12331f2993c9c1fefcd9275808c
fc54c14062aed3ff84a59b5a6a1198b0
fc54c25143125f0c492e15ce3935c336
fc54c26779d42b14322d9066e0cc0f9a
fc54c2e00d7f8f44eacdd8317d47e198
fc54c2ebb229df6b9c103ab348784fcd
fc54c30b997d46ecca56f8f12ea84849
fc54c31eac0b6a0ce88bfb43ce9e1816
fc54c36ace82de297e85ac1440cba03f
fc54c37238c6ce6715919d0962806087
fc54c3cd2376363294683b09e016178a
fc54c4fef5d16df72b388d8096a39c1d
fc54c509d5b8166ad03d2ecdd6c2bd9e
fc54c5342a170a11b2f581219e7c74e9
fc54c642bbddc413e7036099db50e2f8
fc54c6859366fcb077b666e1719d09de
fc54c6925cb8c8831bc68a7215223542
fc54c6e04bb3cfecc174ba91d3be9a62
fc54c7efc4880ead412204d5c5aa7322
fc54c8417d228db540ac17eb396a1184
fc54c9322e899ca5370299bd1ebbad27
fc54caa204a7d47e0bf056592615e1be
fc54cae87f5c6473c3acc655860c49ff
fc54cb29aad97c402cae8d9ac1e51b9e
fc54cb6aceb25c0b037d1eb7144f3300
fc54cb83f65e7630d8f5dc797af641d9
fc54cc1af086c866bd842cf8e332b150
fc54cce8254b80d1d073bb2c32a774a8
fc54cdd4682f6b094d469d3c09316483
fc54ce13fda9e562ffcd989780eb058c
fc54ce9957c800b0dfbb55b8cc288e52
fc54ceb4bcc70bca66a79b82c3796073
fc54cee9fc35bf7f1e268ec24fe14995
fc54d2291bd88ab34f140f037d9511c4
fc54d2c6efa8c30471b0f18a127dd93e
fc54d300df99056983f5da69fbff22d0
fc54d33b33fc83cd5c4417368759bd39
fc54d35349649f07596dbd6dcdff54d4
fc54d3c97c17cacd5b21fa1d680aadcd
fc54d3cf246c4c6d4e148c8899e8f9ac
fc54d3de9405e82ceeae864852f37def
fc54d5b92c07a4af52219ea2d01ae819
fc54d6ce72a865e6c481f7a953fd3cb8
fc54d6d8b19926642dd37efa77948d49
fc54d7047e5988b2cc4b90f63feb1f93
fc54d714ab0d381691900a31ab4f900d
fc54d7a6520973e794cf8bbba40bbd51
fc54d8ac4d327b81275caf2e20566095
fc54d9efa7619618c49c9632e9b2241c
fc54da3584d0cd1dd319b30f7fba87f4
fc54db53f333051713c6db3add19787f
fc54db5b5425c23162823cbeae7f4391
fc54dc2c6b0e8c69ed3a483f2f690aab
fc54dd09d9d54156158facc238c89a4b
fc54dd35c017d17485900780cb63eb55
fc54ddd770977d4a58fa690571c743f8
fc54df2b2b64d4da766142969e3029b3
fc54dfffd583dd1900e7a6d710ad1318
fc54e0cf6fd75d47beb4ec8a616aa94d
fc54e179511e35338c8c343698431b53
fc54e1f66e5aaa03104032b68290de5c
fc54e282b3d125fd322987d837f0e7d0
fc54e33a794032d81d7f8ede719bb195
fc54e3793c080c30eab10ec591c76cd0
fc54e39157ccf81271b79842bfb19ffb
fc54e3ca9eb06a0ea62ab6c3d0fffaf6
fc54e4ad3763f06f49431632c8b50f68
fc54e57342097c53614c8f303b982a76
fc54e6efb457e7bed2d23c2cd08b803f
fc54e89b4a9aec6786803a4b9c99e4bf
fc54e95b460d3358b2b42c794bfc5dc3
fc54ea1f0097c161dd65e765e83453e8
fc54ea2fcc829887da096c2f652c7410
fc54ebb207080563c4893842f2f35b5a
fc54ebea01d2fbcb7865c8a0173b4f1b
fc54ec1bae57f4bee3ff1fb5197d075d
fc54ed89aeabaeedba40441f2600b45b
fc54ed9e10b9ed91a89068e41f71c500
fc54edd68447bdf8af2f8fccb6ccaaa4
fc54ee4dd1143393fc8ec222d9778016
fc54ee6f2c73ae3e1857cd1b3549625c
fc54eeb47cd36a592fd925001171d2a1
fc54ef411a9a8c1b16eb002702084f98
fc54ef948ed591cbfa4d1a37aed0c512
fc54efd7963df93c524f0d7cc4036d26
fc54effa8f110b63bb091a729ac73ef3
fc54f03d7f1eae7e42304012c558463e
fc54f0dc444a6a007d4a83424865086e
fc54f151ed52108307c02c9faf786e32
fc54f1a13810be8b123e09b7b8bf5265
fc54f220928ebf2dc84ac608ddd91db0
fc54f27fca9a73246c15ee06a20ad3f0
fc54f28fa74b54c232e7b8dc63120f5c
fc54f53d05af37ea343bddf397428b06
fc54f646b6f45a1bd5e37f92d805eeae
fc54f659daac89c3a925a045324f3c65
fc54f69d87852d84e84c2bb3a7664876
fc54f7136342fdf916522b905044adf0
fc54f761199f727a871b22a2ef334cf9
fc54f8f02232e27d8c62b79ab406e8b4
fc54f93ab068cc3c44d615ae19e40956
fc54fa4641866a9617efd1265a020acd
fc54fa6e063845d8593bffbf9874a05c
fc54fb33fe152f898108e10a0809f7b4
fc54fb4eec24f4aefa08c0dacf65d623
fc54fc2b7e74c1778374d8136f3aca26
fc54fcdc4ca5fbaeb68d65d55542b00e
fc54fcf601691326ad7621d9a3c4f227
fc54fd7d95ab765796bfa4d9bfe0c37d
fc54fdb21c3ff8febb15a14113300ba0
fc54fdd6f4b05bd9e9b342db5cc22396
fc54fe8f1337b36d6e57fd80ffb090d8
fc54feafb506cfc50e74a01294b3d586
fc54fecf9ee0f578c65bd76a615d8e06
fc54ff050a9b9816c6a705518b6b9665
fc54ff51a8bc848854f4f1a4603d67cb
fc54ff59aa6e3ff872084781af78800c
fc54ff5c6b37828e55f25092cb4efb04
fc54ffc63a7b82446ec08d4235d3eefe
fc55007a476a88576bd2d96426f9d874
fc5500b08b034bfe10c5799052387fc3
fc5500b8848505ceff2847c9ba3d734c
fc55011b1c15a3ff3146709246edb6a5
fc55014c55ef8b81d8322aa70da10d6a
fc55018aec476b2876cb2c9a2b7c86f1
fc55018dc6e17f5cd05c00f6630bef0a
fc5501d70ef92a8b6148c772505f782f
fc5502606e8fed5edb493f53b4960ec2
fc550294c5aff05a63b5edd3b3fcad20
fc5502fe6c5b8abd01c5663c4ef72573
fc550330e0bfa6aae2cace94a889a4d6
fc5503351ee7b7ecbfa5d2437c408846
fc5503768f6b6ebd78f3b982fec880e6
fc55037cf797a99d211d7223c9722bb0
fc5504232753ef420d598a17cfc8d1b6
fc55043f50bf7ca58cc13a7563ac66bd
fc5504aa2e8e4f424e5d8e64e4fceac6
fc55054110076e8f3e453d9cccafbc6d
fc550585c458a5837e0524860bb8d2ca
fc5507ad4cac7d55c566b4708338439c
fc55086721c0fc76a28001434a322fc0
fc550895b915eabecf5dae1de0d7cffd
fc5508c0688ecaae1bf1f9bf68b70480
fc5508f901e59287fa8783463e5772e0
fc550a1508920c73cc78e7f67c0a2865
fc550a4174d209f1fbe20f5b49294491
fc550a8784b57293eaf238cdefe8fece
fc550ab1313db18b4412fcc029ba01a8
fc550b80e254de6f73ecbfd184a5f8bb
fc550ba52627c5174c52930e03aa5bb6
fc550bc9dd9ecaebfcb084eb21f2904b
fc550bd3cf7122820d17a106b9e17961
fc550c32d9c5f622d2382bf3ac197a22
fc550cd0db2a46f3fd1a066dab7ddeb9
fc550db2781e0bffa1108b30b5438b7c
fc550de79c400a0911c071fefd795ba6
fc550df39392a84412014a0359db1d25
fc550e0cb56a12565f0f731a368d332b
fc550ea2fa85d45723f4336dbe1d68ad
fc550f030ab6359c382c5d4ef7946b87
fc55112f202d7576bac0382c555bcb05
fc5511a4082844f3c0f000fb23fc7d04
fc5512d82a0a16ee97f1339cedc688e8
fc55131a48975fd3db714b7ac6729d26
fc55140e792ae9bff641b1d074c8ae0b
fc551446e781578c05b43129f75d3614
fc5515d96477b44793366404166ac9b5
fc5515e3d55a73d7daae50701e65b031
fc5516c879c3183f834f3cdbcc9396d4
fc5517c6109e0f42d1c40d6c42a1fb90
fc5517cd07cff0dc5629d776230e73c9
fc5517d6f5ae1bc77f85e90d293b96c8
fc5519313111044eaeb8bf3c61f254e5
fc551935309a1f64d99d94cdd8529243
fc551988ddc4df84f86e6b045c6a87e8
fc5519aafe5924f4a8be23f7e8b1fecf
fc5519ae75a82b85d09ef377d4a500a3
fc5519d1d3dbf5853dc7242e81e5a0b0
fc5519d32295c70fc21ad0e1a88579a9
fc551b29edd75bebdb11f75abfa906a3
fc551b981c9e74d2e2e03189dda70594
fc551bf296e400a389e7e49deb4bd384
fc551cafd2e5fb3845cae17991540344
fc551cb8f6f78b70e36a5079c8d907d0
fc551df04b37e08f316879dce622f567
fc551eeda43bd59c3d6a599fa2ee6183
fc551efa1890bf44ae5e76f8d5f83e81
fc551f7a73f52afe762438d6d02b964d
fc55203dc1ad7070e277fc8660a7759d
fc5521e17e1feb26754500c22e6325ba
fc5523601bfdba954442ab7f0151c5bc
fc5523a06bffaa224b6423f37e516403
fc5523d5d7df2a8b47f7c65734f632b9
fc5523eb0cb13d5d876461b597d02e55
fc552448e476d47e9f5aaa3acf531860
fc5524f46906ff0240d4f8e77828d1d6
fc5524f644c65ab2dd6a8c502fa9d7e8
fc5525429f0c5b410f51ff2314c34971
fc55254bc38242830b6395293ea7e92a
fc55256bf44f0ac434185ce76d7bf661
fc55257c96f11d5541bd1c88e5f80a00
fc55257f1a915784744ac380bc9cc001
fc552596c2949ffdf13f96094bf76516
fc552600d8bd5535b582e17ee4331f60
fc5526082b81aa293f71c0d3d492ccf0
fc55261f3ae66f7bd2fd4f187c922c97
fc5526b915f17c21890a13f8c06f5929
fc5526eb238930739c2bc9c010ba97c9
fc5527487ee40323a881f40fedac9327
fc5527ebf84db75acc4c50b4f991207e
fc5528b5d274c6f813c7d57d169d3e03
fc552936ca59d7bbf52f7042c22946be
fc55294f34a49c62a39a29b3ab902749
fc552a8077eb7b76a2fe115d6d8593cd
fc552b1071b19f507e734d6679e8d4c1
fc552b23bc4a4a7889de3ed0a6d0c22d
fc552b2eccc92d204c0ebc6a230e3f65
fc552c046fe42913e47a061554f3e040
fc552c3e3c9fdcdcd66dcbb43c9299c0
fc552d032287fb25185490cca37d2fb4
fc552d910371d386301b2f27aedd4d72
fc552d938b55a964d61ba2f68f954f60
fc552dc5c3cbee61f4a016c848c5c48b
fc552e285592ffc51753258c292044f0
fc552e45772e2f5c9a9f9e8d3b6bf9ba
fc552e9e547055024d0732bb6f7a3f75
fc553040c63b9cc94533643d453b5375
fc553045ad9c6c87c2929c4c366b314c
fc5530679c67be31ecd27d3947ef626d
fc5530953f219e2fde0d821cb44d3b8b
fc5530c1304c7f1843a0fb8440084cf0
fc5531793ca5bebd917e6ef85d709272
fc5531cff7b7e39e2df621a323788538
fc55332cbebeb09eca9919db8e598095
fc5533be23064d32cc17970ca00321ff
fc55356eca6ed82a7bba0915a56673d7
fc5536dc191a171f3a5187e09abfc910
fc5537d950dd6ab7b000833a2b4a90a4
fc5538200aa4a05d97a7d0c35f6bb6cb
fc5538f9346904bc19860c0a9a9437d1
fc55390d231e85cb4a72d80bce2fd152
fc553979f02bd8943ab478ca0e989231
fc553b1f63631b79601e83f4a046f06e
fc553cfec7ca2a715ac1cf577802a8ac
fc553d01d15e8bd3bbc7aa9c377708dd
fc553d7dd1878529f7bfab04d86c2e5c
fc553e673b5e4c06e016b5c041c7d46f
fc553e8d32b8140f63c75f040201601a
fc553eda16e8dd259dfc83ce527ae5fe
fc553fe71f197a0605161f89c7854cf6
fc55409dee073042445db6d64bfd45d7
fc5540b0ec2d465c90661d68987ef2ab
fc5540e3a250e3ae749cee78f06e7bc8
fc55410141d664cfcd2d8a55c5624134
fc554175d9f5663f74673b694e3fb1af
fc5541a2633a0a0f4e60826661cfd02a
fc5542999bb15cae8b86051f9e7ed1ce
fc5543221dd5328931e68d9106690bda
fc55439e6dd24edec5e3a21875501135
fc554429dfa94551cac93c2dfb450452
fc5544b49691491c525fa482173cb422
fc55458a378176043ff9b60d13871cc0
fc554790ae36556751b5df3258eab5b8
fc5547cfe4293328d57113fbf734f390
fc55485263d7bdc6e4a3adf3b83bde6d
fc5549010c0f240bcb04dc2114e66e5c
fc55498392a7ad326d5ae5ca327fb152
fc554a67b693373cb76a422b083f130b
fc554ac92a3117ca2d35a02d3e438b24
fc554acedb005f9de733662c66864d30
fc554b78d22f5b876a33bcfd3c12dcb8
fc554b9727edcc6843d17d09e1848e10
fc554dbf23ade617ceb50641240535c7
fc554dedbe6d08ecc54545201f7dda2f
fc554ed643cc60313045d3040d389c0c
fc554ee73dfc693ace302f434d2df2c9
fc554f9a8c53ebadee2b3215377f2b2c
fc55521c401017b7db6070061a0abda4
fc55524e69a6f0bec41d133604b7b7fe
fc5552893dee051375dd74268ed2988c
fc55548b0c9204079b558022055b4698
fc555637fdb6e133e9b3fe5e575c4968
fc5556e718752ceb609679f87c8dcd25
fc5557d6d13d5c8e8a9472234352f5f3
fc5557e9cee3ab6673fb23adaf0b7659
fc55580080faea765991ea44eb779e47
fc55585602c5faeb9c9940e31829a2d6
fc5558a43e8408561ac67157fd55bbe4
fc55591d88e53550fe793e9266b5292f
fc555a4a1a26f56562c85cf88f27f902
fc555ab520156e38daff1e5995f84f8a
fc555b4a9974349630771b6f89e3b7e8
fc555bc2805751a7ce5c489e40054a17
fc555c0787eb0e627dc6730a4ca6003d
fc555c298244cb74c2768f2db6b5aefb
fc555ce1441cc0f006f9fdf8742ee39e
fc555ea6f1597b8e766cf956b1383acb
fc555ea8aa5557b3cfc7be99c8edcfe5
fc555eb20d0e559191dd29493ec89df1
fc555ec2724796e248166dd44161aaa2
fc555ed9e2e330267beef35df17a6a3a
fc555f04d5842f61e271233c16f59d8f
fc555f066dba9c7454231369947de9f8
fc555fccdb79daf439b74b3ab2c47525
fc55606c6317f4be20e88824d3da5507
fc5560d970e6e9d753286f873a84a847
fc5562207caf6c8cef3c75f614c79e29
fc556432a947a0107478a8d4b2bd24e2
fc5564a2e13aeace900b93bd4b105ec4
fc5565338a8ca7153fad49f8370c7590
fc556557e22099c732417cb0ff208637
fc5566ab098c75742a5b338466736767
fc5566e8530079306b44d5b3946a1562
fc556812e135feddf7415d1c87561345
fc55686abf42187568bbc5118e4d4e23
fc556951087933540740ff32089b1e40
fc5569837eb6ba9fa104a550911de519
fc556a0f63a5ab553bb00e8f421ab701
fc556a424a163c22cb65d0b42eaf2f5c
fc556afc6dc4bf410c71d1f730b744f0
fc556b138701f8ca01567eb2bc39b1a4
fc556b345dac26f4ba310f22d52c05a1
fc556b4af42a9e79fec451d8af7e8d44
fc556c52995fd28c670b154c76a2b1ec
fc556d4155ff34e18e3c26f34fc01ac0
fc556d5f0acba1d679f911c6d5c33884
fc556d6cc40416e5c78727dc0afb50ce
fc556df13b231dea2225b22957e7ecc7
fc556f5ab3777999d41c668206987d70
fc556fd69815f02cd3a289b8ce447188
fc556ff79573bccc3fa7b7efceb5ee17
fc5570cf6349dc358a04389dd40c1f60
fc5570dbbd1a16c59629749b4275e955
fc55712ebab1ddd97e1bbbb4e254e633
fc5571a8861d14cda04dfa566d337cae
fc5571ee6ea198f85019c1c71859cd2e
fc5572fb9d080384f54bd1e81326f191
fc5573ee1f42f94e54ddad46a38fc3f0
fc5574885bd28903e7a05dd1c932ffc0
fc55749c8ceb1076e5a7c7ca90989284
fc5575573b2069730c471743fc40f1db
fc557577be7b5b0c032c36b6d803c9f4
fc55758468a97a7bad1e05fa76bf1c01
fc55758ddaec28cfbec39484ae684a45
fc5575d6449c7573a8039f4aa545000b
fc5575fb35ca36a988b5eb78449686f8
fc55772a9599ab7a0b1cce95b95b8b89
fc5578528b08781f106debea63ffe6dd
fc5578b72474fdc51f9348767f985021
fc557913809cdb6bb4aff9d50693d620
fc55793fdf4fe9e7eeb5d6c6b508142e
fc557951e93e1a0928d1e3b616b9a0b0
fc5579b3aa983fe9a2a95481c7213b6d
fc557a2ee470e3b5b685606c075221b6
fc557b370298c16695e0220a23d2fa6d
fc557bb85ea9db695fb68e5929e97867
fc557caf9205afa5ad71650094595f69
fc557cf7d1328f4a921f0ee98cc84495
fc557ddc7488d83e36519744830c0c17
fc557e5cf6067f4c25d5552a4b65b1b3
fc557f9e66d489037fdcbb1e150a7725
fc55800f35bd7f115a71988e09e9c9c3
fc5580109ba40f267c93df2bb4603b15
fc5580401b2f408ded870fc478f39f5f
fc5580c3bb0a4eb91f95f2d0cecbc9f5
fc5580f116cd53404d07061b77a3a1a9
fc55812a1bd233938fde21f3452ae20c
fc5581bb6cfde73a34312a6d04b637c3
fc5582583e5fe5ee2d0276af5994e050
fc5582a5df9cf6d35718772723e26894
fc5582dbd1ef769856c9358e5956609b
fc55831d42fbc997365ceab2860441df
fc5584b856afc6a65eb91173ca7e0682
fc55850feba910e7befa638fb4f70bc6
fc558602c262437a230eec8c0c4d87cc
fc55861942960a679215fa8e2efc0740
fc5586b48186b53d7ef53622608c98f0
fc55877b22890742bd1b219a51e51935
fc55887940219b88705ffe2a6f8e7346
fc5589c6750749d1b5d9f42b06b3f5a8
fc558c47c5facd547feac7b95a08f3d1
fc558c6de97d569c72d2ef36ab11bd85
fc558cda5acc3693a45469583b4be900
fc558dae9aa9df11d540bde10d89d28f
fc558e62d595716d32f610d3c717ee19
fc558e988daf026f8dcb3fbf08cbcd47
fc558f2ddfd4bef332abed5ad763e473
fc559021ca8a7a63b6c258bea5800624
fc55903f4f69e0197febfef1511c5ef3
fc5590577098d5dcf5d8963eb5024b69
fc559060510704e7d4f2620281b55002
fc5590e2288ac3b210609d7ffbf3a659
fc559111f8992a833827dc1411db878c
fc55915ec9d8119e4884285fb764ee18
fc5591faa776662dbca1c1584199f9f7
fc55920d366346235408359243997edb
fc55927eeee6129de4a10d0d0f8a2f98
fc55929d68e5ffe7305bc3d5ab3c5ede
fc5592e844be7f769a6cb58632d0caac
fc55939e4064e4f0b01e3eabfbabaf19
fc559429f2500ab061ed691a7528f083
fc55948345db696734a07b5b4ff2a6dc
fc5595f06af7817783982d845724ad4b
fc559692ea061103bf3d6ffc366c3caf
fc5596f2c5ef4fdcaa0754eb023ccc2b
fc55971500b468af6dcef9aa37b77fd2
fc55977f2c0a6c43b624b98cf9a1bff8
fc5597c62781a01950db677321812529
fc559809e6765013868a36d0cfb3a4e6
fc559864d14d9181e58ebe0e0e287568
fc5598a5683d9a6359bfc27bbcc89047
fc559a8ffae3c23428dd8aa88bcc7f6f
fc559b03f58be49e3302557137a36db0
fc559b2c19ffb30d28a1d61268628886
fc559bb5a551931897df0b3e1fc136ea
fc559cecb152f1ecda2e312e9dba5c0a
fc559e3cd48bee11174bb493767d4a52
fc559fe0ce10aa73f695ea396bb0c3b1
fc559fe93ef0a2289d985c2787915ea3
fc559fed0d28bb01fb8e12caa0cfdc4a
fc55a006e38aa31ae8f6881a47aa2f22
fc55a03d83dac27a4eec559745e0c3b9
fc55a0e4f5ddb194d8bfc033968e179a
fc55a292505366a0cb77a63c345478cc
fc55a33fc39ae91a5e2a81a71d0eb2e2
fc55a34c702895ca77159f77c1e6a58d
fc55a3d8d8a20ecfcf129d10caf83540
fc55a41376bb5df0d7d3c31b5dcc3bc3
fc55a4a3e57f279bd9fbf0d39deeeb48
fc55a507307ee695ef4f7024d14dc5d8
fc55a5a197d651caa7da19617d9a6d11
fc55a68bcebd1c5cef7f70c2f8157cd9
fc55a6a790f697c58726201e7dec24b9
fc55a72de3807f76696c5cde15b5bafa
fc55a73ee866af811b24759e978d8996
fc55a79b8f811491c23f9c8a9282ac38
fc55a7c3d85ba2ef3667a4d3522bb487
fc55a7f584813a17c45533acbd123126
fc55a86863f5c4c4990cbcffedfef043
fc55a89ddefd48459da455f43259b4e9
fc55a8e2b30f6ef550876700ef8fc931
fc55a8e367358e905cba14dd32445883
fc55a8e8ec36d5a4b979d103f77d0a88
fc55a99cdd70682e39e13161e0b5ce7d
fc55aa4299b3b9acec2899759d1ffc51
fc55ac984c72ae1ed89f03375d69538f
fc55ad1238cfba6e2fa501c56e00c1f7
fc55ada27d6e419c585acbb05a3e6877
fc55ae687799d4437f916da88790e120
fc55af10719d77707098167e129c5464
fc55b23ba0857524726307835c3ed612
fc55b2afa418517a148551dc4bbf81c4
fc55b3094bc37334c7122e7da4013333
fc55b42d42438f2df3df4407478f7a83
fc55b461cb17ceb91085320e1a4fa66a
fc55b490cde8d585714c513cd43cabfa
fc55b4adaac3a64b24cbb0039758dd05
fc55b54a33ace28fa73a6fea6f445e8d
fc55b664613684944863fe7dfbe189ad
fc55b6a7e937a34abfc62f16b77408d0
fc55b727da6c124c9aa93b1a034b9701
fc55b74dab291ec22274763fcc7a168b
fc55b76ccdd4fedf9eec2d1645825137
fc55b789bf328ea13b42e6725886bed0
fc55b7b0de5a8c9d69a50f1da82edd70
fc55b80c966ad4b57b5d80ad9816fcb4
fc55b9995187a760c7153a2c1030f110
fc55b99eff798558159533d7cd67aaaf
fc55baa3136aa0cfb2b36a81e1f281d1
fc55bb5fa6997166938bdc4e67ca82af
fc55bbed868e99dbbfa36d5629cd40e9
fc55bbfc9827dbfc14ce7f1f5f6dc9cd
fc55bc12c309c1c7ef6b6c9b289961a7
fc55bc9f87d2afa429e8ed157da8690e
fc55bd9ba63c80bff968d57621a060e0
fc55c0adeb5bc59bf34750d5f7160fab
fc55c20033cd904beae74a81fe1cb74b
fc55c20206f3620764a9b27acbb8524c
fc55c2fc976eeadc999f83898e863541
fc55c3b47f12ec8d88f0d775301b7860
fc55c3bb1478adb62654e4d2a8453dc5
fc55c3e2f7220532336c6b575c87295c
fc55c413d93c1f79d7574399c4efc1ad
fc55c44c53224f398da920de2d33a914
fc55c45e9baf54b920f8c058c762d0cd
fc55c521e34bfdfa99699d37599471cc
fc55c572b78cc6e84d20bc2fa3b3d450
fc55c578ce090de81761041d9b871fad
fc55c6c460dd6bac40a6af6987890b98
fc55c6c69ca13130091bb6055972defb
fc55c7edb4908a98825e0295a6d0fa67
fc55c817c646744dcc709c99fa7ddcb4
fc55c845e15e082228e85370c47956d0
fc55c8771b8a90e3afce05541e78f2f5
fc55c9ac2f6650eb1abe5da89be0ee50
fc55c9c87e688bb3918ab532ceba1ab8
fc55ca3231a8ca3ced110b133847609b
fc55cb07023d858e4ecb0051bc2ac6a1
fc55cb1e96ef6816742796347ea6e40c
fc55cb943e15f8ac1e85dc19aeed20d4
fc55cbe49846470ce7fbfc08b2234173
fc55cbe742307d788d28ce95b81ed461
fc55cc3cf4824c152d114369392081ce
fc55cdb552aaf859fd8711355f8e2f10
fc55ce361a056c0e9e8749705b7fcd97
fc55ce8957b8f2b6fe6373800b52c8c8
fc55cf03fcc4f8a213e0e1a7088ba454
fc55cf5a8343a295855262af7a1376dd
fc55cf702382c750d4853fed9dc4603e
fc55cfc641587d45ca9bef8dfc3e9baf
fc55cfcfb0b858ef011e2f942eed6b3b
fc55d0010cfdf40984921052c69351b1
fc55d00f24aee6e208e6c92a66418ab3
fc55d01fb15293a900090ac5f158168b
fc55d114b045762370e50655d3e116b0
fc55d20ce173da284731c87c316c1243
fc55d258f897889864d5d8e0a6287d1f
fc55d3c535939d69ea210319be710713
fc55d5d134227f358443a6854e7af35c
fc55d5f12f3597082f70615e7ed7c780
fc55d63ea15b885add51f83817d45a58
fc55d67581dc2ad8297379b990dcfc0d
fc55d6b64a25271c6e288b1b9e43fa61
fc55d6caebca95968f629479569374b5
fc55d77991ce620cd1465a72a1f9b4d3
fc55d82d0de814de2b003bc7d5dd0d65
fc55d83d99f928fa92572c3b0e57e24d
fc55d92b7705f6623762c7df52d1e72a
fc55d9c7f41c8d4df02320543a9a45c7
fc55da0f2aae1ea3ff7bbe3cc48ffea8
fc55da7aff4928283e7b8c443b61a36a
fc55db2f59969427130cba5bf861c6b8
fc55dbb7c8959259f72469566e28454c
fc55dcb5644932a7100f43c39c538353
fc55dd12f7c295861747bfbe6ddd814b
fc55dd3c78bfb57ac3cd15bb6f78815a
fc55dd924554319f8e0371bd13cb5d8b
fc55dda45d375fd9d348183547c32295
fc55de9fa99a1982e0dcffb2e1dd992c
fc55ded2bbe78a5bba1b5ef81134f660
fc55df97f3e3cf1ee29f43644a1b7da0
fc55e1192b8cd127c6fd133aba30c871
fc55e2757063b932a979fb5f845a8e74
fc55e27fa1565cfc4a4e4cd4cdc62339
fc55e386c6c2451188499910e0c93f2a
fc55e39c817089ef727151ca05d22c1f
fc55e3b918148cc090986543a70caaf1
fc55e3dfe46711a4b901c91fdcc6d4fe
fc55e4c9e553619e7a813c5d2f326bd3
fc55e56b979ec3fbb0f40acc6ef6c8f0
fc55e5e8154157d0758af876e181953b
fc55e5fb8a449679e7ce2b590f107f4e
fc55e6c6d77854d1ac3469aec5379df0
fc55e74977f616f36fa3b55eaa230ed6
fc55e8369f74a97a84b96e08cfe707e9
fc55e893c611c19fe2508ba5ba1e325e
fc55ea2c04399c2f02f6b8268e5e68d8
fc55ea783863187c18645d63895a8b96
fc55ed36b8690debdba40a2a3aec8426
fc55edfbb496283f07fb759615cacb54
fc55eea0cf785517c8d15c08a1772b80
fc55ef3888f9ba93a8d8d1193228c925
fc55effdaa3ae5d428a095f8c204ae7b
fc55f0adedc394a5dcca23fa403656a7
fc55f0b831b308e16c179fcbdc4225d0
fc55f17572881a5ea5fe1f4b61b44dd0
fc55f1ab074891379381780104a08072
fc55f1bd6bcefe44902b38c6841bbda8
fc55f1eda5893063494834d48707a039
fc55f2fd2ee974316dfc1e47dee49ef1
fc55f38a9174710b6edc345383058048
fc55f390d48302d3623f1de1f2eadc49
fc55f43256bbf738f718f4fdce3b1927
fc55f4cfaecd3d9a219234e5645fd670
fc55f4cfbc1a7608385b923d06c1d170
fc55f63b3c19516ffdea153caf838360
fc55f63e10ee72eebfdb5faa8e5d62cd
fc55f64268f4838ff509cd5c2aa24fe0
fc55f6bedd8640688592c5f6d83304ec
fc55f7797993ec6b06fb5e114b4e8100
fc55f861158905a30df0fdb18ae2547a
fc55f93a816dcd39724f66390c6b62ed
fc55f9fa1114788e79548b243288b195
fc55f9fbcece28635b5ac87359c13fb3
fc55fabab4c21718419e3ea5c72119d2
fc55fb6497ae9bc21814246c17a09ea4
fc55fbad143a939e25904d76a6abad9e
fc55fc9e616f41235f13b4ba7b32486e
fc55fcd7c3c9ab698a91333604a6bc1e
fc55fcf71a60d81fa1f180296f089d8e
fc55fd5121a8d00f53624a6fbf2cda90
fc55fd741dbd60ec430c5f30b9ddc158
fc55fdce3bad620bf8b18269721dfedc
fc55fe8a38444fce0f6899ed978577f5
fc55fefbbeedcde50a508a3ff0e09ae0
fc55ff5c3d3e57e8a525789ecafec6d1
fc55ffe6c152d34ea97cba145cd58ecc
fc56000519de6859e0385247013252ad
fc5600accb16a4036882fb8a74e24c52
fc5602259fb34d3e86d6ebdc3fe9270e
fc56026d7ae1334d0d977fc58eb4619a
fc56039f082aa29b7d999bd60d6b86cb
fc5603b1236ebeeba2ffa97b23c513a5
fc5604496a69aed6f37894db50f154d5
fc5604acba0dda43f70123d0e07002d9
fc56058bfb7632fea230319be0b5cc36
fc5605bf999c9dd11705f3df953aa1a1
fc5605f916b780c889b424894b52f560
fc56071ca63b7fd956fb562a6006a6e8
fc56075638821c40eb21566ec0d842fa
fc560c2a4b31b37566773e17240e80f4
fc560c3316ddd1d9c4f65ab16ad35846
fc560c8d0c88762140c84655ad4edfe3
fc560db6aeee7c49fb18d5b5cf104173
fc560e5c6d8640f2b884269452974dcf
fc560f5314937f3c707b91579c0782f0
fc560fcb7499931ba719f19fd9032f46
fc561012b3b38be77cdf917bb33a3c8d
fc56107f6095b268bd5eba1135daebdb
fc5611fe7baccb177da3495adf6670cb
fc5612fceee8b3dd309a6ed96e17ee72
fc561378c4ececbe5f7d2411ece89768
fc561397c9f64e9ee8194b8d3d65c824
fc5613a0c39fc60da15537f8025a3600
fc5613b3fcdecf781e4e5e7c0e03335a
fc56145578b58bcb07019e7bec3f10c4
fc5615971eb11df52ce435fc4d6b11b7
fc5615bcabe25dcbd92a179add4720fc
fc5616af10c0ba1f0fd636bf2a72b6e4
fc5617151fbe01b0658fa4ba1c397fce
fc56185009024c2ed73c52eaee6dafc6
fc5618896f8a89d08b946032859e02af
fc56197dd6123c99ffd0bde001998b72
fc561a304a8703267df80b4013b3ba55
fc561a3a09f0f1eb986f9fc65eb900f0
fc561ad3b0449a93180ae6814e120627
fc561b928fcef197e05a6f73d0f1bf29
fc561c8b95095ab0fa9fec67eeb8b40c
fc561ccaadc496f80817257d1fc705ab
fc561d0346a263e47c0bdaada3e2ba58
fc561d4727cf3de4f174a9f1d7eebad9
fc561d6d86ebfdbb4a86cfbabaa27edb
fc561e4d9c5858201321645b92cc936c
fc561f84a8be84f6800f984d51a57a91
fc561f986d73b2a0b94df94f6529036a
fc561fa7c00d83824cf6fa6955b80910
fc5620ced7bdb553bf35782d6b2a95ec
fc5621250c230ff040eb550cd20433b4
fc56217725d8d562979562ece0a8a116
fc5621b4b549d560358277eea08a642e
fc5621f52ba9aa7b272414ea7effeff7
fc5622fd63cddf98b6803510464856d9
fc56238c170cfac10e1bbd7dd8073fc3
fc56253b31cfebddec23f4fca0512eed
fc5625448948b0a092626a86a388aa3e
fc56257c9e24e99568393bcd28efb728
fc5627087ed3a5ca955dfa11eff34307
fc56271829de41eb4382f24d74e343d0
fc56274924506eeb491421963b762575
fc562909916c5bd2ba33106cc7c0cde2
fc56297f6e7e9a6bebc8a1f206310bb0
fc56298fcfc361b0da6c1987e9b28108
fc562a2998ae6245f21b4e75d7acf429
fc562a5f17683baa0de659cdc206b649
fc562cd5ac2896f14f1617882da95165
fc562db393d7e574178b672eea21ab3a
fc562dc755059fabe7ad04bbcef2c7ba
fc562deeb55eef89ba06122766e7d845
fc562f33e2c81f773fbf580b25b01f4e
fc56318a95216cc92b05414b8d4b77a1
fc5631fad84c78f6c25fb7a2e42d9020
fc5632a34c55b1ee9cb3fbefd765e970
fc5632ad328c41a1169c0aeaf9ea6203
fc5632ee29a63f8332cfa709bb89aaa0
fc56330aca8d5e764366ad781fb0c0c2
fc5634072da96dcab4acfb801d27e5ff
fc563451656df9e8923f59fcf781996c
fc5634f4ee44cd6d1191f23e859bb07d
fc5635810df2df038c14f02ab7335415
fc5635a8299cf82434c44b8f2513a0cb
fc5635eef4833cf33ae8df690121bae0
fc56368446b2cd49546d2b3b21683d8e
fc56377c25f505b8c18e29a2fb0e50a4
fc56377f1663782161739f2a16aafba6
fc56377fcf520f30a77b95ef699acebd
fc563883feeedcbf06927f184f2c5666
fc563927f6dbca3352348de76f517103
fc5639a4a5e665e3081c3f8d62524b5f
fc563b74168405631f27141f276be274
fc563cd0f964205ba1a36c00d0436342
fc563cec25430297b3be7f2c0400b58d
fc563d44585cb63df9a7052a4cf12dda
fc563d791c1e680bace898e6565bfa38
fc563db9b67162f485f90f7c59c36480
fc563fb5b5e0649aad8fdec7cc2778e6
fc5640c29b841d55fb6e7f857131eed5
fc564270938a59f537842108bb9e4a81
fc56428b6e1b1021f45c43e040bbbf2f
fc564344bc4ffac13ec355522ec0a552
fc5643b6bc13152784ea1bd91f2778b3
fc5644b1df797bee893535d9ebc01013
fc5645b08df1ae51ce3b7516f87f6885
fc5645f3b74ef448b4c0e07903b5260b
fc56476e1b39c4e071a7957c24a5ad37
fc56487ad790d43db9aac62bd0b98eb3
fc5648b09e91f15a5a0c1541ebdacd85
fc5648bf27ae897332e17166d833e2c0
fc5648dcf72b3827813b446f31e08a63
fc5649538ef177b4495e4dc3db8bc265
fc564995aa7b8b4a9ec0a47733f210e8
fc564a2ff1cd380d1cdfdfe9ef33a033
fc564a4b0403c1a7b80b1f54631a98d6
fc564b00e43243221088a06119952510
fc564c982dbfa569849df14dc0f84e62
fc564d46562858a6d3ea20a8b48ce75c
fc564d9e05be21fd06c81034a5cd94e1
fc564e7562a480b4af3aaefdfcb5270c
fc564f1026dad19b1b4a7c77e74b38ce
fc564f594c284304c07da2a5157f664f
fc564f9f200a691a1f341488aa93d2d3
fc56506dd6a89d94bbd352a88edf0ef0
fc56509fbab9d16a119e62b9b8ec9480
fc56510bffa83bb7b1269e6f9cb0c242
fc56528ca1466d418f0f0918055a68b1
fc56538c2cbe3f7bce09f8e313df5363
fc5657f07ba2f57840de3422e7fc52d4
fc56595276d31cf3fef1ae86c62be93f
fc565a2e800c623083c243e971135608
fc565aecb84a1555b468f5205a541480
fc565c9777419725a604d5d3fef71a22
fc565d6d3b3d994e96ae311768420560
fc565db72f719dc3bdd88b00a4931e55
fc565e0739728bfdd62bfc8da07aae66
fc565f44ea2c48c8f034dca303185a81
fc565f881f7bb84d5c4eba6ea55a49f9
fc566135683f0cddc90264823220367f
fc5661d7227414872fa377539e5736a5
fc5662b7b628cbd172176e723a40fd67
fc5663083d4282921b8302e97885efb7
fc56632c433c43b5a33d4effdf41a6b7
fc5663cb34c2eca1d5ca85d32352d053
fc5663cd4431a1870c7784dc55af25eb
fc5664a7baa3120c45846bbe0591b8ee
fc5664f942aebcb17bea3e2034e667af
fc56656bea9c2c88a1a11b03d1d9968f
fc5665f896b9c7da896ade2bb53e636d
fc56668750bf1bf943ef4af85b473dc4
fc5666f240cff78e7b91e12d255a4108
fc56671cda67d41d9bbcb0c7d6d7aed2
fc56674e998eefa4460fc94d37adcd06
fc566856ac4dfd5ae4d4b9a02eccfea5
fc5668780721317fd9eb9b54bb3eeea1
fc5669afc5bb58667ba5e62c7ccd63b0
fc566a30d93ec69eb2843a23aa95d4c3
fc566a5cd4f855f165a2f8371486884d
fc566a971b4029c11e498d67659b5ef0
fc566beb4c949703fffc69da0173906d
fc566c7de0ae733adcae1951e72f34d4
fc566cef49fd42c75d8f9636a03bfb16
fc566d000a6375ae63e89045a58e39e6
fc566d8e25934bd49cafdae819d6c455
fc566db50dbe145dae9ce188722ae48c
fc566e92fbc42819c7d32cf3a477858c
fc566eb4ef21dc8fac518b65f68c1720
fc566f765005cb9e814d98d9bba06899
fc566f7a98359179281f7078ceadf6bc
fc566fc08abd297af67b29d756e47778
fc56704883cfcfe09b0292590940b250
fc5670a5b5b861560b83e118ed874e6a
fc56725303dea9306e64f9d59c50395d
fc567313b4e7559fb588036d52cf2950
fc56731bcfb3f558ceddf64e9643a6a7
fc5673894d3efee42d2b14d03ab58abd
fc567416caa989e32b5f183ae3df94b9
fc567453cdce09487322d75a2b46726c
fc567478328fec615f799b42dd314d93
fc56762a0686a6f181fd1e895a35b759
fc5677e0943e98be39bc767510b2a0ea
fc567944cacf9bb63e72a1a19fc8cf80
fc5679a3906f18d96fe5b4dd6306ddc9
fc5679bb22a0ddcdf0a44124b20d0c58
fc5679d1e353fdf7caeef8ef4ea6a7af
fc5679d48ec582fc14d64499a1ceeb4e
fc5679f9c2e42f13788a9c6edd1d9328
fc567a1687b1e70cf0ac7959c2c0f581
fc567a3a1a85d978559d7e27014818ee
fc567a74aea97caa394b99363e234d69
fc567a8d4b440b7a9671d8c5441e62f3
fc567b6dbaf6e2b57cf7f0bcf8c0f89a
fc567b96359e47890a16040b9abd757e
fc567d2e0057570fb08cbe5ad9d802ea
fc567dcbeaa2400eba742f8b1e332e27
fc567e5f9166dce424cbd6bc3783bc1e
fc567edd5d8071089cd9c8def9a5b696
fc567fc008e7cf722bcca6d359301da0
fc567feebea21a35f3bb82679d3f455f
fc568218a5438416ab7782a7a6c8c57c
fc56828fc3ba3edeb0a682d1ecc29179
fc568304dfd339bde62767f954f8d741
fc56839e96f2a6e1e6a46bb8bb0c97c5
fc5683a09dea09c85f6e616af6873327
fc5683da56c5dc1f80e39f244c809988
fc56843b80a071b27266d8e8b8c10a7a
fc56844f4b54765513c7711e8369665d
fc56845df180a63dc08fbc9723af801d
fc568514abf979c18712744ca589d7c5
fc56874634e69665f1a40c2ed3db67a0
fc5688122f467f582bbf242eb416ccbd
fc56884621e7fd28ec42db375658b890
fc56894b8b557f3313015c69887bb423
fc568997d53ea9c91d4505af9159c7f9
fc568a79bfae09b76180feb72a3e2a67
fc568b5644ad1bc17e2cad106610a28a
fc568c3b7c0f06e738c257f4b65aead3
fc568c6715e1b150256f7cb325b3b9f4
fc568c9d9045d9159fa18741f307a156
fc568ca186438be77518e5c218cc0a35
fc568e1afadb144c9815c39b49b81552
fc568e327a9f1ab6c0bd8e5fab4ec87c
fc568e7528ff753b07c70a6241d1a68e
fc568e979d9bd1ba316beb72d2f39318
fc568ed3815affd0f8e0062f8fee2e20
fc568fb177cb7d65624b41b9eafd6e48
fc56904eca46db6c6931d0236646e848
fc569066c998239f975f33749d7145b7
fc56906b51bc9a6150578b21082bbef0
fc5690813acad5a628e41d27e14285ac
fc56917573dea3d1b2a8681ea462c915
fc5691984042ed62d4d603b17d82bc00
fc56919a04969f1226b461b36ec0bf1c
fc5691f3c7f62b475ad181d62ade11d2
fc5691fa534afe481acce483ffa3ac8f
fc5692654b83a3ffec2cc49f8a72e85c
fc56930d800fad90ca0a044db576ca36
fc56931b640fae26f9e435f9d64b893a
fc5694a03ec9283ba2b25fc00ee1298a
fc569555d4914dda75da297e8ee8db5a
fc5695d4a1c77e043027263c3acd2b07
fc5695e1be2c9e44424aeeb6c2bec4e0
fc56966523a6f3123491651a7e58fb47
fc569683bb4b1f86399b41f7147a8d36
fc5696d899ad0bc5f2cafee7713f8d85
fc5697313c5b73ad0cbea8f4aa84c281
fc5697a3c277e020c1b8c09e977732d9
fc5697cf3b971f971b97dfac6ac3ada4
fc5697fde6198211e3661a7400de1465
fc5698c8433cd9c0fe63b13180a4ef47
fc5698fe545f8cc7d2ffcfce0798eac6
fc5699443c466ba1935111fe2b5b2bf9
fc56995acf40c6a689ecdf784619cc9b
fc569a07c9f15190b8fdb99cc5b6d98f
fc569a4f1f736f821fb76a2bce79194a
fc569ab1bafd09650de72c05236058dd
fc569ad07e13bb0e33b64b72a2ce986b
fc569ada7e2b4aaed4b86475b6a469a1
fc569c43d2025a863d1ad2bf41a3225a
fc569d6c33ba168c5471e6e35ea59abb
fc569dbedfa03b324dedb7314af9d125
fc569df08ec70c1adb3ee76c11b96f49
fc569f475c513cb7c66c816740a4a236
fc569f4ba7814f69437410f3c64b094f
fc569fecd333f30bcd0bb7639318b72c
fc56a0b1b2a2d70c5905147b1e357e96
fc56a1734f47542ec64323f60f71eb8e
fc56a2fbd0bc8d65ca7aac99c6764fff
fc56a539d06d535cf1969c3390155bb6
fc56a5d10fc3deca036e65c6a4f2a52a
fc56a602cd615f785678ed5e9b69bd54
fc56a670c07d6808c03ed3f6a644486a
fc56a671a9e74239db33afcfdd897459
fc56a6d355d6badbf51f4ae634ab8737
fc56a7a9bb75e36607f6bf6ce92da6b3
fc56a8012fc4f3f2c2b894cf79a9dcfc
fc56a884b4a9ad907f33b86960bfb0ca
fc56a8928c57096ce0ad66074603e72d
fc56a9165558d2942c411dce05997003
fc56a91fc1745a20f18d1932393ad21c
fc56a9a150c022644c029a1569ba521c
fc56aad2ff83e291a50ec990e0278c4d
fc56ab83df429a99b5fc1b3d20cc255e
fc56abaaa888f7f986f93e28f77b8ee2
fc56ac3874da700da37dafef2d2c1478
fc56ac5b38bfc3d4f4dd7634fee9ae90
fc56ac5f528cf5d30392159c8607e231
fc56ad0753ab451cacc472a842209992
fc56ad3b53a32cf843dbe53ee8abf66e
fc56ae328cdfbc0f3109fb071bf889bb
fc56ae9c55c9ed516a51009aedf6eb12
fc56af1cf27f68c5716e9685a3c92d17
fc56af24bdc6caaa3c47e75d2d593f55
fc56b03620de6adf0fa961609afd46d8
fc56b0578ae6aa6f55e909b02ec7578b
fc56b1a17a9352b446d244ce01bb1759
fc56b27a9c8b45bb552b6023584a4920
fc56b2af90c2a52481a0fdac453f6660
fc56b2ec086c6f7d8e11732fbd417dbd
fc56b34bf6447626dc2b4149bbfa3fb6
fc56b391e9029dc132dc7e8322b859ed
fc56b460b0a17f9786a012ffa0884300
fc56b47572096d629e552ae2f7381377
fc56b50b47884d0dcbf1817d9fafd6ee
fc56b52751d6d3643ca0d9b91f5274af
fc56b7618b992acd27fa1cc1c79a81ca
fc56b76675eb59c63f7ce04d58fcc53e
fc56b7bffd5024ceaabebbf8bf826150
fc56b820639ec3ada4bb706be7e09de9
fc56b9f899a4003b5e80b6a42318cc60
fc56ba068416d1bdb26a0d169ac874e0
fc56ba1a7f7389eb08f961c52ff3b712
fc56bb109250f45170639202e0af6521
fc56bb66c3962668ae7fd77e23cb8640
fc56bbb3efc668684d0d27a6c356c9fe
fc56bbb92fd3d97180cb2d549b86182a
fc56bbc921d4d1fab1679c15f307ee53
fc56bc0372724c9e6b41d04a5eb94bc0
fc56bd075e5f692c40d51a951219fb47
fc56be15781c2d8fa7c1ac890daf0d0a
fc56bf457ef8969547bd5206914686c0
fc56c2c177319a6b04bdbbbaccc64449
fc56c41ef8a53acd619914580444c9e1
fc56c4723f32afd49b7e1bc2c0b0c123
fc56c495dd3de57dec80a4cdcc269a68
fc56c4b598be4c4f84fcaf4afa96a69c
fc56c505506de968ccc3fc87afd5d184
fc56c50d2b9057f7b6bfeb2f8d105f4a
fc56c5abed33c353f48917ef20318880
fc56c6c8f3ad8cb486739b26dc26baad
