fc60000cf83b29792ee334d0dcaeccec
fc6000556e98745248800a4f2ee16144
fc6001f15c307a980a3276f10aeed39c
fc60032cf12418f37920a16adaaa400b
fc6003576d0c581b7b21e7797cf872c3
fc60049007de8fbb07be2fa423d69fac
fc60051b94fb8974d93c79c7923884d0
fc600542808349c9a0d9d9c194a8e17e
fc60061a6be02708ca94baf0b8934bd7
fc60063369718a058c663e20c8a997fe
fc6006538bb33efecd824378afc66df2
fc60068ac8265d3311adef2b3a1a7bf6
fc60069433f13df0666b50ce72be9cdc
fc6007694d8a1a73caca2c3ec25800a7
fc600783edf906735918466244393d24
fc6007db53b3eeb34554b28be8f94135
fc60082a80cca46e0cc41e7cd6c21ec0
fc6008a312e7476e9131f50250ecd538
fc6008bf1cdf601b34653220c3aabe59
fc6008d695503d0e0a8fcc41c43b3c19
fc600972589ad8b0ca879e9279ea62e6
fc6009c6756f36400a07dd4a5d60681a
fc6009d68942660d2e6102b23c5f560f
fc600a01635f990f0f8866fe8759ac4e
fc600a99fb7280fe0543e894366af2ec
fc600adbe34449ea6e00d924e318d38b
fc600b8e48cae53905a313823b3977ec
fc600bd66f7c856d70585acae6166f90
fc600bdb609e7dbb548b6f35a18c1691
fc600c1a98529dd58c7775dc65eee4a7
fc600c37933bafbda8a5060a9f3f66d8
fc600d2114553fb2eb9805ef443b1210
fc600d8f5e29b66d366d20f4c888b515
fc600e141b5088c4882653488b9b2485
fc600f729ea14ce0e1121e5f4fd6e95b
fc60100f1c7b336c2bf387792ed328c5
fc601059fc0b0db97bc086b488d4e8a8
fc6010624b25ee718cd6fa897e0ef48e
fc6010bf8f59befa4d2c679006e195fb
fc601277ea0ed2e649f2cb84f412ab0b
fc601379718d4036e01ac914292b554a
fc6013c8e76be0faf3f30d62a4df91d8
fc6013cab875ad9a84712ce3d7143fd0
fc601438558a102a6644b96c47887f4f
fc6014ba4ed1f19cbf887b5f0cb9fb6c
fc6014cd57d87c631c645f5089335b92
fc6014e071afbe3b0000a669207e1118
fc601510e244103bece4a39308248544
fc601534e45375624355cb255aea96cd
fc601549dcd8d23554f5359859876533
fc6015a72669945d577c3090c56b8b64
fc6015e657b129d6b8624bc5188c595b
fc60179af1af1b2aa270a58cb3d10455
fc60180eaaf2b927539299c4b80cfdc2
fc60187571e0e3eb2ac527f83ade39ec
fc6018b83cf77e38483adb26371d3c4c
fc601a3d1681f7ed3eae32e37b4d8207
fc601a3ff802bf4f969e56e30b0ad1d7
fc601a4c8443030021d810dc58c59366
fc601aac7ee1efdcb965d1435d3c0107
fc601afd4193ac07d7443f66a5d16e26
fc601b033eea26cde47cfc92830668e7
fc601cdb98bca1f608741141654d1dfe
fc601d58e6cb490232d105be8cf0f144
fc601da68abb4a7e694c0e4530126774
fc601e70e275f8d89aed050549e30384
fc601f3fec0a748cef3ba8204d35f928
fc601fe24d5f9c665c8f32216b3ec9b8
fc602053e145aa018fbece1ecf561304
fc6020da5a585e969e2fd5390157cd9a
fc6020ed548c1e093790522651b5f1b6
fc60229be7059b748b146349e7a13137
fc602300f6fa4a40c5011e6e6a73ba95
fc60232868050dcf1b5579cfd8eba51d
fc6023754a54e8a54d2214324af643de
fc6024194a74a46126e353adbf4d4886
fc60259a5751b97baab4a3632c6a3919
fc6026b87dae7e28921771ac3e403ef9
fc6026c9448c59cf0dc07d8ff422e99e
fc60271d7273e0c1c0c40f62d7a051ee
fc60279a69c82866919c020bbbe52e12
fc602864259225668a40adf1bd6dc72f
fc60286b005594d207306a545503c4a6
fc60287730fd589672a6581abd287aa0
fc602906b509a627a2f3a4a25a5042d0
fc6029925e7350950c257561dd5b8750
fc602a9b7215de98119597f36f44e32d
fc602b171570df4f322d0254245594af
fc602b3e2395baa63db6f210414cd751
fc602bad24e34b9c3e962ddd4dcc698f
fc602c6d3f2f8bca02cbbd578f050ffb
fc602c7ec25c17fd2f726293d528829b
fc602e6db2b12920f34f6791625c269d
fc602e9ca9d88ed7798d08136af1e6d0
fc602f1a1abca3fd668521f6dfc60807
fc6031b355c4049156c8d7117ddf67d7
fc6033576857dc96c87cfd7b25192121
fc60336fab026f427141e88883b22403
fc6034649253d452d833174dd4ef37ff
fc6034a409d9f81e5f203644f8b8d74d
fc6034bd1710a342bdecd0e03074c700
fc603550f22a4aedf0779e69df296a86
fc60358f5e77d551e3977051f7ba5933
fc6036b83d15bb78b43087ab7784e557
fc60376aaffe765fb3b7196289fed4c9
fc60381284622f524685397bfdf52024
fc6038746999cfc5cc73408867cf2aad
fc603883060cc3289074443957901e76
fc6038d48fe4110705440122acfeb2a0
fc603915fda70c7967d8aae2ebd28ac4
fc603aed9f5bf8325b712db766521c94
fc603b9d48c96c0ddbec40689f978119
fc603c875880144d6b66bbce6889272f
fc603fb328d7a0000539bd2a6801363b
fc6040d3819d0c75319b18852edfedaf
fc604189b0a53f90fa643c1af46acbd0
fc60418d5c6c89d7d989d6f3d530e601
fc6042028b7b552cb2b2b09e8a28e550
fc6042630f760d0c039d677fc0610f70
fc6043a2dbd8489a9ee7a0c44eb94bea
fc6043c9c27cda99999633b150ab4d85
fc604454a7525b51b9a05cf29acc1329
fc604551cedfe5135c0c289df9d3614d
fc6045ff3d7e9a27ca2d866810403c18
fc6046223c6cb7e47bdce4b3b373540d
fc60472260411d53cb16713df69ac456
fc60473a8cb38674a8791b21a90ce322
fc60473e86ee7c4fc6f44923013579af
fc604769509619248ef7303bf43d0856
fc60477d843dd155dae7fe5d05248a8d
fc60486f37a81bd2354f9098e28e5652
fc6048856226ca73dc4762b63c7c4e7a
fc60498c82f0f9b52148ffbdc8e51210
fc604ba2915c2485fb9c8853543488f0
fc604d440d689ec1263461b73c1081f2
fc604d56916961220167db14b5483b7d
fc604eb9cd066397b7de6e0d91bccf41
fc604efe8d9625adb8871e908fa7c3ae
fc604f47f67422a0b1861cec651308cb
fc60504278822f2e3a7aa8517c16f345
fc6051a17f33d1c1d3b1be9e0da77a60
fc6052b8e8a21441fb6c815fe1801fe6
fc6052ff5f01d46bfb6d649fa85c41b6
fc60537b94db884f24d72498be53b720
fc60542eea911f5b2a17b9614ce5f4c5
fc6054a8e442d41c6f57a6be7ff01246
fc60555b860d7cdce625fccffd02d0b8
fc60555c3212403d3caabc9c76386443
fc60560e30581d29d06fa9e4ba91d340
fc60595d6c1174e2f4e0dace319acefb
fc605978c69f7a9db982b06ff487a03b
fc6059bc94ebd2b6b1e5fd6674ef1c6b
fc605a5016089a7c9a336af8f233717b
fc605a9b3aca19a10a056e4e8069647a
fc605d05796dd69d48a8ffebaf486f64
fc605d367ce1278c342aa7007785a8cc
fc605d561a9d859c434af7ce85103ad4
fc605d8b160d52dc58d5f5531710c759
fc605db5d0ba4da0b45d149f64b702f3
fc605df36978074baac790218c590496
fc606047acd3ab6bfff2ca735e4f1faf
fc6060d0998703590427c134cd323fa8
fc606262bc7e45335870276998e97193
fc60626c3a47e1e38c2947a010b40f11
fc6062e3dc9c221f240c7e9afb4b5f6b
fc6063da8407592f6a60978e595bee53
fc60643b51a82594ebd2190a1a8f79d7
fc6064601e0169e083cf80b15810ce59
fc6067262d9de125ce6d4691f2d5ec93
fc606838c8816c23c2c305e547177128
fc6069627d19f8ca1beb27b6fecfff85
fc6069c254aa67257865f55c2aa12f83
fc6069e3f8e3e5daf6e69fa78298af2f
fc606c90564f927facba3c995f4f72c4
fc606d5cc7b125ee497567d90676a32d
fc606d75ed67ba6e227d09f5f6333157
fc606d888ede3aed3f3844956ca51b3c
fc606df51c1295f19a4371e78e23f304
fc606df94c7583bab86b51320090ee3e
fc606e139077bd8e6f59ab0b3e9878fb
fc606ed17b5f407f6019bbcc4325d9db
fc606edda8815860933fe54d63f8fd87
fc60705a4bbe9f928c7ec4e6b5046d6e
fc6071709db257e10ce901623db49725
fc60722a72cf6dd48d7a14c3b937fd69
fc607288877e7a55f194c5c8b8785022
fc60736c827341b41eaa6f65c0899bcf
fc6073a07c7579cce05ec9879b2a6a41
fc6073bf214b41942f3c9e35529931f4
fc6074d7f45f350a4d70898d86902c00
fc607501ca9d3e4dde90fc4017d2c8a2
fc60750cab8fa948e4242e9ac163bc86
fc607575f6457021523c8f75b73f2843
fc60757be1b69aa4e9c3e43381984164
fc6075ac02e5dfc4ff6c2a5adeb9fec0
fc6076817635db11720e18495abf93ea
fc60768aad0fd416eea5db738409f332
fc6079313e956b5ecadd8bffee8e1307
fc6079d5e40499805f34ffdd317d1dab
fc6079f2d7d271810a1a1a794de19620
fc607a131521d5ff7aafd435f5237016
fc607b0c19329b5146ab53a6c71852db
fc607c813bf635c32b549cf4c223845d
fc607ca277fd98530b4dd5f4b4397ee0
fc607de0690c52e361138b91df1f3d48
fc607f1614a5295fde71abd36fc0017e
fc607f1bf362f6d8c8725a637e01d7ed
fc607f4d804dcbceb95eebf5116c15e1
fc607fdea9f47d294e19f2ab061b8d8a
fc607fe25b99f31660aec0bfec2b7712
fc6080007ef78848c486907f12f83db6
fc608050b8ec6f1176f2fcb4f94bd65c
fc608058e5019e90c27a435f0b2c9740
fc608089c5e5ef40d8d5cd41fd9ca466
fc60812fa69fab8d94cd4405730c7b55
fc60818f6010d175138d45c3eedecddd
fc60820357615aee16c371e4f1112cc2
fc60821d51885e39b6993eb2ea6ea1de
fc6082accbc20fe7c73359a5e03276d0
fc6082b1b082a4bcd5f42b8d245dc5f4
fc6082ca95e461810e5428ba12b8c3f5
fc6083495aec3065a598ead276a3ff02
fc608359c87d5ca1a4701daf102ae0e1
fc6084c8d45857ba3cc1b29254c1f8b9
fc608518e7803c3e4dfccba9afe2d6cf
fc6085931b002e570e112794820dadec
fc6087cebb3b8a7f0b2a7e9a422980e6
fc6088bc85a2547eb805d9f4057659d2
fc6089d1552ef612cf20f3f8e9098d6a
fc608b986f2006e6970677f7f2fffe2d
fc608bb5476dee1bd36df476b63e10af
fc608c47c9cadebf1b06004d0c1e5444
fc608c704a0f7c3c19e8a23279b1e2c9
fc608d04e95464a157574a1839f7f412
fc608d8dbec110c39cabf255967ecc41
fc608ed53fcefd49386f70b609ab3555
fc6091f230884f4c0289af43cad21dfc
fc60923123e1cbf9490d0c9565e0bd5c
fc609238a453627624669804ca955eb8
fc60924a24c631978e4109a66a90c95f
fc60924bb383fd56391b2c25b247cdf2
fc60931e989d2c09f92c383d627ac67a
fc609320ffd8f26ed4a98cdc219603ed
fc60947a822575d8b33f6fd3d27b0c81
fc609495e5c7a285cb64fe8dc2163f5c
fc6094980b2886f5bb53d0a74f3caf56
fc6094a47b9f2a155b8a08ed48123b00
fc6094b44d4f2e21d2452c4b113a0864
fc6094f93b339a81845bf05ef677f4a4
fc6095542640c857868755b5f675b7a6
fc6095717f9f5f28474ea52dcc1f2f7e
fc6095a3f3a2fa56b51a77f7032a05a6
fc609618a6cfc31bd1533362a3e4907d
fc609689a8413043f47618f748cc40bd
fc60972dc59544f9c1d942f2b761c83c
fc60986481370c939948172a2bffa326
fc6099096ed416f786cb81fb7ff44fea
fc6099110555e7369e5658c82f287500
fc6099f62ae713094ca39e84360723d9
fc609ad0d9237c8e37d35cef8b1d9dd1
fc609b86fa779311edf28a591d1261ef
fc609ba84b0443cd03fece6e1821452d
fc609d575317296236c4e53c56044f6f
fc609d624d35968c62ad7d2ea762bd85
fc609d84476e5940a36542debb05a22c
fc609d9e29d79d1916709fab5b74a4d9
fc609daa0c47ff2e32193dcaa40c9ffe
fc609f2fc89c29e7d82540de3bdc3da4
fc609f51ff86682f17f7191d60e17870
fc609f9049d9978c5d2f39faead71576
fc609faa654cebb66519f6824b0272e0
fc609ff87f06964c061aed387d2e01e0
fc60a0d14aaf81904ef6f4f6597106f2
fc60a1c627aad687b74be44df12787bf
fc60a323839d925e85ca17f0901809f0
fc60a32c98baa9ffee5f79728b297c64
fc60a4564283cdb8d9324603677e9504
fc60a4d0c55b69aa4685d89fa45f67a7
fc60a5b10127b58ef31a1bb15b180572
fc60a740f67de8037ef06223f238a830
fc60a7bb43bda8e018d751153286e5fc
fc60a7fb37736130f5f759636532f060
fc60a80e95476e9768959efe1eb7feac
fc60a8112c92c2b10f342b70907e0cf4
fc60a823b2acf8415e967fc5344bab34
fc60a8515c9a2d4428e3382b15d6bfb8
fc60a9329292808408d322879195ad2b
fc60a98f7ec20b2996b2520588a50d14
fc60aae98d57708b2d2477152461076c
fc60ab08b48f02cd25e2db5fff758b04
fc60ad0f74bec5db806f020a59f8f629
fc60ad46b74ccc7fd7375983876519cf
fc60ae3b2a7a331531b00fa3072e15f1
fc60ae7c1d891a1ba72cc0a520c10977
fc60ae929d8b756153610962e499328e
fc60af58413324f24067f63fceac1745
fc60b0350bc1abc03f8eea7ce42bd0de
fc60b1dfd27153c1439ed72d8922febc
fc60b201ba179ccef533b400d90a7b08
fc60b2f318a03bfc75c96f332181ea7f
fc60b2f3cbe9357c645e799124aa13e9
fc60b370c328907d9413243f767cecdd
fc60b48403f0e4e40281caf511549d8e
fc60b4ea600660a3914fc84c49b23ecb
fc60b595e83def6463fe1881d7c81214
fc60b5979c1a4a99f329be0d8883deeb
fc60b5cd5313537d340348979d44319c
fc60b70564b46364e9410dccd78752f8
fc60b740cc5483091a902ba7955c4db0
fc60b9aad67c2ad8b7d16cc97967cdc8
fc60b9da4cf873b29316222cc06173d3
fc60ba3c4a43f2cce2157fcbec68627b
fc60bafb390dae19718a2c3c9187cf97
fc60bb7c1fc24df140680d3949985374
fc60be69a93d0f7d6ce3820c4d881dd7
fc60bef5fc541cf724390b5d10639788
fc60bf0badd5504c248821f692848a20
fc60bf350b367834b84ccea3f0438065
fc60bf4bfab0586695f3789b212dab8a
fc60bf9f4458154600b0b1c63e005eab
fc60c00fb63f9539a5b9323d2d1ffd2b
fc60c05b38d4de40d716bd488416b87e
fc60c12b8500fa2ad5dd001984e3b255
fc60c203d7fa891de36fccc6e2be3a92
fc60c27892b774d9fab3b1f58274485d
fc60c2bbe436b2a99b2fb10e7c8dcc50
fc60c32f87a5884c19d2be35e4652cc2
fc60c3837bbf452b90b1a763a8d0fcbe
fc60c3cf4c0bc84efeb75e094f066d4f
fc60c3ff20230ae35b3c281bb237d468
fc60c45bf269945d6b2b8c5fa37cf006
fc60c4860e1f412ab399f409c0f53b10
fc60c506cadf8311bbbac0ee44a2cc0d
fc60c540c71c4c7a575fe17e49c06d18
fc60c72ae172a14606f2ae9976d7d407
fc60c7dcbad5c08d3315149887977645
fc60c7f57b9a682fdb7749343372e5ac
fc60c9b2df39d2ad7867e59d7fb47d27
fc60ca257b7a0714db8be26fd5a6e80f
fc60ca2998fb741f5562ac5adfdb7450
fc60ca4540839742e39075f8b17231ad
fc60caf90e779a932c93349a2e616b9b
fc60cb08911439ba854c798a6a28dbc3
fc60cb2881144dbd52b0501daf519568
fc60cbf42365c19df45065206477b022
fc60cca951a03bc2f4b5448ff6a2a46f
fc60cd35046acddc94cc34bb14a29770
fc60cd93d7eff40b73698b9efef1ae37
fc60cdc32234ce52786582f66ce83038
fc60ce263190d68ff96be65f040a8674
fc60ceb342aee99757c704ef470788dd
fc60cf172107e13a0d410d7e03ca633c
fc60cf431b0ba6db47b88204e741b00b
fc60d165722726e7bf4da043508cbcf9
fc60d28b7c146d0568a79ef0cd4d2597
fc60d2d772d1fc477334bd95707c86c7
fc60d33512fb4e7cb83f34ec45417351
fc60d3407a9f40b0eb1dea02e148a02e
fc60d38437463f957ec35645dca9f575
fc60d4591ca81141992a707a20a44228
fc60d5c0f8d592b40204d9489f2d094b
fc60d5c98e1f9255098f406d99758a68
fc60d7f3f4044c2c2f8a5418bc953da2
fc60d816933fc8359e7da7bdac92beae
fc60d82e677d256d794aaa6bae3de464
fc60d83cfd25ed103cc47b19ac8fd1b7
fc60dab3e2f8ca3a4df541e1a595fb3a
fc60db48d64054956d108b83ebf7580e
fc60dbcbda93702ba7acb0eb1a86e46d
fc60dbfdd02a9f3e1748b7fe4c907690
fc60de3df0af427ba191bc95fafe7f40
fc60e01196a7b7426211943adabdbbcd
fc60e03aa39f6024c0472b8616938590
fc60e03fa6ce96578a23cf669908dfe7
fc60e09ee4839b0b5abc6e9637564299
fc60e0b695379a489b5e2ab9275b8603
fc60e0ceb67207edd48ed4acbea5de98
fc60e110b8687b66f663e57cdd16ae4d
fc60e12756e7d846592de10ed8e0b9cb
fc60e15ad308e53577138519b69b2c95
fc60e21ca25447157d481f32da3abc8d
fc60e2e2b65c5cab7c5cfc5c9c02ca23
fc60e31f70fc85ee38c867fce2f6266f
fc60e351f83f6b5cfb11db48ee9d7112
fc60e49b25e9467daab7fcf4443fe605
fc60e4d7710891563fd054bf70a3b35e
fc60e4e53f70b4dd3c99da895b29919b
fc60e523270cf124441f7e622a4bfb5d
fc60e56c5709695ab1a23d9eb20558d8
fc60e6351a187ee8e8648c7aa89f2e8c
fc60e656f37ebd96be8d09408f92c797
fc60e716b800ba7b22e069e1394fdabf
fc60e72aa092b156fdab110af810d632
fc60e7671201b56fb9c3beaec74f91fe
fc60e7da27a87f1c6f84056015929af0
fc60e83033722e147464bb525e7fb4e4
fc60e8466823fa9dba8734df824bbeba
fc60eae34c474cfd85286737133b1ed1
fc60eb4293cf01641095e21bf448c770
fc60eb71da76cdbce1191b5d79b94f79
fc60eb9ac9451f141cc8c9c9c0a83cba
fc60ec045cbba83a603a41a336ab6166
fc60ec32e6148d4c7fc520c404bfbb70
fc60ec6ca12ae5b7f04d32f9b00f50d9
fc60ed7dc2bb212e8abb083815ce09de
fc60ede7d3d6efbc7c61992dd8334dd4
fc60ee421e11fb16695323c16a90fbba
fc60ee44ca254ee58fa9c7e452544f93
fc60ef17a15e5bf46b05c96dbd5d7e4c
fc60ef32e5fd86cac91894d9b6a15d29
fc60ef3456698adb8226b0323b1b5011
fc60ef98df6c635247712cdd4e070383
fc60efc72dee7d9eaa13fde10bf2e82f
fc60f02c29138a7550cb93135a9595fc
fc60f22615d9434ef68c07a47bb255c9
fc60f283e0a025082168cf89ca2541cd
fc60f30de502f496d60262e9e774c9a3
fc60f3a1b8fece469b8ed951233a389a
fc60f3eecdccd6c02dcbab627e05257c
fc60f432fc72f6cc8b02db82744b6870
fc60f468305d9fa8d60d9bac06df9689
fc60f58167a5424bb08a73a729664939
fc60f750ca3cda4a2a8e203f76968155
fc60f82cfaae96e1380f561b0ca9996d
fc60f9883e9d5d9708de47b44f85feff
fc60f9bf1fc816633a73c85c6eb63102
fc60f9d6d186e1626e457f5b5ffaa886
fc60fba63a3f04536e7ca68fc26f0f3e
fc60fc9b56b0e7b49e8e2377293628e9
fc60fd16177099372a913fed46517bac
fc60fd843e534c40470ec804c47e3c62
fc60fe4743865b0fe28b313e5691e1b9
fc6100daed1325517f5d65825590c5af
fc6101d851e6a4897183e972de6d3edb
fc6101fd490ca19517753a206540fecf
fc610397ca9a9562937485e20d640577
fc6103b617c84f93ffada66d895000b0
fc6103c5a8ef288f3830829731bc8d9f
fc61040469eed12397d21dce9d30aade
fc61047bec5476dbab718a6fe79e2052
fc610480ad68022f56551cb0f74e8dc1
fc6104a50d5fd089e3d7f7bfc5416d65
fc6104c2611959aa2ebfbc24e538426a
fc6105262519c513f829d2be72ff9f55
fc61053831b6024a29e04797e15a413f
fc6107abefa1d1272afbf8e1596a8e8a
fc6107fd5a256b17898e7bbc69e6ff45
fc6108629e5261940b1778dbfd222b18
fc61097da8620cff33e0c8812af225bc
fc610b10f8741ab92c9624220e5a27b1
fc610c11627f2d3c16580fafbbf9f959
fc610c9d67e67f81866f84bf04a4a1f7
fc610d12b726b6ff78977fa8c1b52ea6
fc610e3b0282d5473d80a6db71b82ec4
fc61103e1e269a270929b725db297ee0
fc6110d43d9df133082375f3f78156ad
fc611105d61a52b4ff26404673e7969c
fc61110aef2c5b59a67d782d082d26a1
fc6113989fc5d04ab1d1a6985993a005
fc6114092e453012143dec7c6f7e8133
fc61143a0a7e9ba425c388b6c05662a7
fc6115649de881117731046479782828
fc6115bcb993df49fcd7ee62a2beb14f
fc6115dfad0704779229ade40b9e20b2
fc611647716bb075cde8d3665c9f4267
fc61165ca33414ff9dc4c68a61de7a3b
fc611710d741357f908396b0ae09de8b
fc6117f7d85285e8fbd3aeb980cfd680
fc61182de8c9db49571716a328dffbbe
fc61184ebd32e71ef258aead0604ca51
fc61188c78c1b3592dd07a6cbf961110
fc6118c665dad54e69d8259c84190b43
fc611a7ebc2990ed7d2d4c941a566360
fc611b05e1988772a8b7e13f75bf1f89
fc611b71c3ddec9caa2d8baf1fb84229
fc611c2527a498e578a22ffa6ce2d835
fc611c8670f002fb108885f35b8b9aca
fc611dc66a7790ae20fc428deb9e65f0
fc611eaf024be34c43e53796dff7ea20
fc611eb821a61cc272cc6add4484427c
fc611f97063cbcb6b8869161dc159894
fc611fbd82a002d04abea1aa863b8aee
fc61200548561a422fa8bbbc263faeba
fc6120604bbf3ff57dfb9ae0225fecde
fc6120b180c96c57edb05b11ab654e94
fc61210133aa81916e7b422e9517ff5a
fc61215739e96a233a648d241473ce6a
fc61218e3d1a0b3b4a45739e1d592d49
fc6121a284ced01e1b8aab65b4641579
fc6121bdc4015559a8566edc7a52c5d9
fc6121d0dd61cc43ca5aed71721add6e
fc6122aeb4bd836ba2919432d968dd3f
fc61236c1a5566f0043432ac3b8b30d4
fc612377b673dcaf692423365f6825a3
fc61238881b1b10e73c67ecab8cfefa2
fc6123b0664cd9bb8016b232b7051c24
fc6123d840b0459d64cbfcabaa22f640
fc612414ab28ce9cc3de953c11c70d98
fc612437fd93cdc99be8e54975f1bb61
fc6124583f5bc0dd66e8a06298763460
fc6125f1b4771d73e80461b7990138c4
fc6126f72bb409197f9d13eaf96a083f
fc6127214ccd1c7dfabf982f52515a8a
fc61278427a0e1c07355ebb8bc1c8476
fc612878ff63f58724036dc8af27df88
fc6128d9a4e62bc901624f54abf54667
fc61291b62451367cf9f644d24f44640
fc612a102d901cb4abe16ea30fcc142e
fc612ac4154027ff4ee4620ad46aba22
fc612acca589a885e9b409f0f920e80c
fc612c007e9f3ab0507603536aad3ca9
fc612c055d2287c232d02616baff31c0
fc612c870e60c415d784d5ea2fe6f977
fc612d3574ce88978886d4a4f0c6790f
fc612eda8917b5384f64272c3a3d9754
fc6130682d5c98461bf6c100578da1ce
fc613171cd79bc18e423f0546a13829d
fc6131f4f0352893da5dddf68e2737d5
fc6131f898df73944ca2d392d27a6eb1
fc6132ab2835506bbfbbb90ce503f1f8
fc613426916f4f1914ec99b73dd52623
fc61343acb25f4aae7f1d4083f2bf86c
fc6134666431353c9f2fcbac962a4170
fc6136d314dbebb5c4f0f6ec56ab6d83
fc613a458811c0dd808d45f97b179c6c
fc613a9008fec823e1041be996d518bb
fc613afd0b7c9ec4678c36933b8f2f7b
fc613b902f0de6b411c929bd6ed53284
fc613bba62c5a07baf9a30acc908411e
fc613c039a5891e9ede094a46c541fd0
fc613d57a65912871ee2bc7845ed794a
fc613e0352eef676a5f01a75596a0835
fc613fa02e81f99154bd7983e3172522
fc6140505aba6b43db48e7aad2d91f00
fc6140b997df8c04e0310cb5b69f7778
fc6140ef6867e63d2c8af3d632f15773
fc614202669dd1931ddfc5778dadf520
fc6142d9fdeefcadd12f4742b225ddea
fc6142f057a040fe43a1032524511e30
fc61431bdecfa08bdc391e909fad16e0
fc614348643033d8dbed139be5b91746
fc6143a03bcb844f2814b107d3408be0
fc6143b562fea1b748be14bd8120432b
fc614498983e936329fa3416b90e2cd7
fc6144d057dd769e7b95613fdc9c8b94
fc6144d74ddefe5d335e56faf1ac6960
fc614619ed68220c69a2115948a1c6a1
fc61461a9eab13494e55054ec189607f
fc61467ccef5d06865a52e14f32c9876
fc61472296335cae2e8a4b0b2a490d6d
fc6147e326af946dbebce12e5e43e100
fc614826ddfabaa7ea283b46a57154f8
fc6149d1c83e6d3be11c9c0c4a318e96
fc614a1b9a8f2300fe6ea0b850409402
fc614a26dd0b415418a96364b1627d2f
fc614a901287f057f655663daf2e12c4
fc614b1eccc515d018b8c3dc9c745100
fc614b46cfdc3e390fcde402909cfc00
fc614b7ba823f5215aa2ef633e6f3d24
fc614ca34460522ad5ea10bc6b551f74
fc614e0dc060e3fc6c962756e90dd578
fc614e2915c6c7e79daa6a2f55b9c063
fc614e3d8a0953215d40ae338c911603
fc614eabaed035cc9ca0ccc7c5f75224
fc61501800c6f127e661019e323424cf
fc6150b282e61f5b5a89e09d1ba5ac6e
fc6152715b171e1b03129510be134966
fc6153e5ae8272a501b77d1d3c7d4105
fc61544812330ce01b93e5a690f0e4da
fc61545443d30520fcffa9263a2a4805
fc6154897f4cf2c927adc37fdfe0ca08
fc61550ffdc623c40e936f61c8edb50d
fc615525774ab7c984808ab4c68bb863
fc6155570c18f73b43060853c7ba6fb7
fc61557a245e351f1214835412e9fdde
fc61559816b33986b11d11fa07575689
fc6157383aa674725b6065e87ef8244e
fc615777660331af5f174a49fbd2f14e
fc61577b7fce939be0e4522e7863d5e5
fc6157f91f9780d3d200e8ded49d0c31
fc6158e521a68286e66237d885e5d0e0
fc61591c90b1d6ce3d1562bf9a93f1d6
fc6159b6fb829fe117bcc770c02e6d04
fc615a87e0a869a434adc61f2adc1855
fc615abed1e53de1d56c79e1328b9190
fc615ac409f2fc7c99406fd9e5ab1ab6
fc615c5ded5fdebd67a74086ded3fd10
fc615ce3c5ee6afd6036b381c9d57291
fc615d466d671137db1f2f78b8f5c2b5
fc615d5bd67e125da0d234244ffe6b7b
fc615ddda29e4ff343932b49aa2e4ff7
fc615dec659c6cb1de614dc9a9aad109
fc615e9c02d45adcc6bbe511b491f5fd
fc615e9dc89cad2ef346472837d7c251
fc615f25e82d9f2195053b049956708e
fc615fe2f2a050b146191031b2e51cc0
fc6160891380d300f7c9ab62cc8b5f7d
fc61614c611fcbcbb4df0630179e251c
fc6161ba8142de2a4154b098559b1e6b
fc6161e57a2a6f81fa9748f87f2b9081
fc61621be1a8df59d278157c065ca2f0
fc6162b1d195ff863b2da2951d91648e
fc6162bc66e96815f73abc923e2464d5
fc6162d950b7cb8db32dd31086497a61
fc616315c1fecb09a714ecaafc1c294f
fc61639ac4746bb6a24ecd1889cdff8c
fc6164e6b75ca2e144f512987ac51520
fc6167f58136860b3bfa9096a219e308
fc616804ebdcf36544f3484ee245f26c
fc616812cbf8b6db9ac4c363ea4bb852
fc61682404a4c513c4aa9cd0ce2c098e
fc616840bcaabd93215cb189a5a78650
fc61685116658e73c2dc1e40409669aa
fc616899cd3de2656e051311658fe683
fc61695e25b5a34f73fcc8643b399289
fc6169c373f7f44d450801a24c803bc4
fc6169c47d4da937680bf19434ff6548
fc6169d63790736c07e97d730adea3a7
fc616a310289e60971eaf53d57b2d885
fc616ad280fa121467ae388afe2d3d56
fc616b2c467f6126c5273cfaa0cd1b72
fc616b5a2863339299a3d3f8372bb494
fc616b9be544f785a239b84d762b194b
fc616bd62bdab919b3e97029cc369ab5
fc616d0504e2fd4be7f30ab0f57c6b19
fc616d66663f5e12c487b16e038c7e51
fc616e596d0b60845c58f09d2d83365b
fc616e95dd81cfcbf3eba3e1d237a9f7
fc616f178aa3a95142d9a7e726bdac3f
fc6170130251e720c972b353bbb79e27
fc617095c1b6f5fad4bfeeea86a8351e
fc6172f4992e3a6cb65b0dd3ae617982
fc617304992e9c0a9fca2de66a677df2
fc617369292ba3b05d6297fb8c267361
fc6173aa040cf9c1fda43b8248476733
fc6173b6d35ef128f1090fc81cf04262
fc61747b7d540364d592e8cb46cecdce
fc6174db18507f5e2793dc3324dd0c07
fc61755aa44945972ee2d8e93291cfc0
fc6175a0add4e7ba43daeb6624ecad43
fc6175c7f7d2e6dd565061360ce688d4
fc6176361b150acc98dd5a73d10b93d0
fc61767146854924ef3236ebd3a68614
fc6177f63d5d3ff9bac5fec22603cfdb
fc61786d790928b34395f9ecc4aac053
fc617ab39df07b2c914ed746a58a12f4
fc617b0153a59e8b44f9046e5f275cd8
fc617b16b29f8f7f0e1e0300fe5d0436
fc617c99928ffe4cd7cede75cb063024
fc617d1a3c080944fea53af0f9b3de7e
fc617de41161015813e3fae6d3a21fe1
fc617f84d1a67fcb307b157c2116b970
fc617f9ff354612f7503f6eb8fa3f399
fc618001481efb181be55cbf5b6e630f
fc61820ccc3fd2900a4cabdfa65c57aa
fc618219ee417819fade892d4ae0c9b2
fc6182687cd671727a8a6c7a327fbcd3
fc618338fe27643f92782ed49d5184d0
fc618371c3632e850164fbd5f692619d
fc6183ea6e06f102866a547976f358e6
fc6183f93bd9b574a63c76783300c750
fc618454f683b429ac8f99a235ed4e8d
fc6184afc76d9c2e7dba6bd6e1dda5cb
fc6184e082f95371e85336f6dbbf1f9e
fc6185f93eacb49e2ea3167a110631d1
fc61864a33a14302558c96227e6c80db
fc61865589850fbd04620efd7b41e0dd
fc6186ee702bf9e7c1342dbc10e48c16
fc6188c1fefb181ae98b4b9305eb09f5
fc618a9c2605d7d39efac697aa06df82
fc618aab7d8c36e8c3aee203bf9ab510
fc618aedba4e87c171a20e523f6e4fbc
fc618bc833fcac9597f5929f434a54f0
fc618c32ad27b54edcb17e5781baddc5
fc618e132f4fcd741b0e67ee1dd68983
fc618e5a1416cb82b90ac139783adcb8
fc618e76332fef1f9a3a9af3a41ffdba
fc618e8779a7384833f9a63396e35e00
fc618f69b63a931041d407b9d125e876
fc618f98a26f8d908068fe6526d3601b
fc6190920d1f2df1bff154a105b6b33c
fc6190ddeebd470dd57397c63bab66e0
fc61910e706661a1152ca91aa85bbe6d
fc61917347562507b9e1d35b0ef4a0a7
fc6191fe9e5cd52ccc851033b49648ff
fc6192d7c5eb6b4a600bf341df342f7f
fc61933f07161c49a6fb231a7900aa4a
fc6193bd32fdc31bc8d2dc09824ace12
fc6194349c9233beb02ad888a3d555ca
fc619495e5e3c95fbece76cf75ca63f4
fc61951eb00ec5c821fd9498a148d223
fc6195e062965dd376e6613d242f4ff1
fc6195f48f37023806382cb8e53ec500
fc619632829964a5a5af979dafbb472e
fc6196a9c93b76a2452f8f36d5572df5
fc6197a81baf73eae94ec367da18d836
fc6197e733722f48251617e86a6d0edd
fc61998752d24ee3ea54436b4a3fe4ca
fc619abb942b75ef168da93ba73272fa
fc619b03c814b7a2ba1cbe00fabb338c
fc619b6ecca7396229b43f1800d87070
fc619ba87e7b9efa2dfe04517131f49e
fc619c26b779adfa404bbcb3f3579da3
fc619c5ee08cf34bbebf9dd27c4fb223
fc619d2deba20f11b8abbf0feb3db1bb
fc619d496cc2c233da179991d175bc20
fc619d78da5c88c71ac2b99d053ecc58
fc619dabf4406c89595514ef0e07b7d0
fc619deab10d4a955c95035d96c38c10
fc619e02103ad3468dd3c4d20fc619df
fc619e44fd2a9fdffd85a3390712ae1c
fc619edcc236299b8fc239c1391d2ee0
fc619f5fbda17fb9164e6582d8e990d4
fc619f78a726e660fe899eef366847dc
fc61a09c05b4f8ccb371ede406701c83
fc61a0b5cca94ea9255de6c3a923881e
fc61a1db6c6dd7fd275dea25bf81d223
fc61a395c4276b523382ad77d9da8ed6
fc61a3b33f6c4d636f10be4be98ec6dc
fc61a48227b9dd8e4bf5e8932de1aa79
fc61a4a02e2a361788cb0f4558d073df
fc61a78c4087fefa2410e99810551109
fc61a8a3ffeaca7cfc70a19815643f97
fc61a8fe6f82ee1e338ef64a2dc21787
fc61aacb20d5d81f2b16d6a8fb272883
fc61aad0782421cf7b88971aade00e90
fc61ab1e5100a81d8242ded28aafa05d
fc61acfdd90efee87f6dc29ba8218db7
fc61add7c9af0008e24cdb7da5eea345
fc61addbbd65877c17a4b818f552558f
fc61ade9e582c5fa4221f0c168d0fbf3
fc61aeafa675e869fe1490a8cb2312f5
fc61af4abe063b300801f7e5c56a5321
fc61afa854a93fa7413169312d3ddf95
fc61afccbc0398eeef8a58bac09fcae8
fc61afed173dbbc50cda5738506c2c6f
fc61b07ffa1e7c0f51d2e3833099626a
fc61b1716de6fb1e7f2b98bb002e8301
fc61b23eea67666faad8060a8d499deb
fc61b2b39b6aaded8af16df9389af920
fc61b2fbd49239398c75d77eb6e64374
fc61b3e3299edc25778a13b7085b8a87
fc61b406d35f97b5643258b833a7293b
fc61b57b892f3d51937ebb5c886efd19
fc61b59b3311d1053dac8bd90db5b57b
fc61b68c4a0d64eb7bd80bae22bd6305
fc61b71619c05a914bf106eb0fbe6e1d
fc61b72688c54370715fa76197f77c4b
fc61b757758473a80fc439847ae786dc
fc61b758aa74ecf592c0795866b007ad
fc61b7c53eb1d832c5d6ee441d81d640
fc61b8741c642c09978c472b173a5417
fc61b875f871861adf35d98dce27dd0f
fc61b9c69aece06c099f3b32bc01b5c7
fc61b9e3eb930e3f1bffd5771e16c4af
fc61bb3ab362e2247cceee78f178f285
fc61bb4fc70816122734c9eaf86b620b
fc61bc3a73b9b93aedb4c56bef898985
fc61bc43cf0f076813d7598c55190d44
fc61bc49f89edba3706a4ad9b5fd58b0
fc61bcb9ace2f170ed293fe822fed1e5
fc61bcc077bfbda38c8881f556c00d3a
fc61bd6e765066b9634b480e93124f1c
fc61bda0cf59f34046326a7cb24a440f
fc61bde181670c16e368f3636db15d8d
fc61bde1d5d9263289c2921e851d17b9
fc61be3562346adfac045569f4bec008
fc61be4399a86df589882b0b279f10b9
fc61be98aab72048605f7b90d7437457
fc61bf797912030351d8561d320c167e
fc61c10b5b9868b687dd5b1ef623617d
fc61c122fe232d5dba86af21308d2644
fc61c194d946c60df7e47f07cc2d3f81
fc61c1ac9569c16df2b3be9add2ce221
fc61c27c3bbbac20f237f37ddf4fcec9
fc61c282931a4fd1587e5c7bcc8bf5a3
fc61c4328624eeaa355238b24bcc23cc
fc61c53414954a18e4e3fa97cd930703
fc61c586c557ee656bddd233888d8725
fc61c709fc1e3be36d9397c13d2c5a53
fc61c8307d8aa9d005294ad1d23b286f
fc61c931c1db1be79e4288f70c9132d0
fc61c9ae263102e41fe6cd49cdd4b017
fc61c9b8598b30ffc406a6b694067a46
fc61cacc1dd3e9d65993b1a0e1272e0f
fc61cafb8ab494e18386c44585fa65ef
fc61cb112fcb69d920de3710d438cc97
fc61cbba66ebff8a080fee4cae010c77
fc61cbc9fc95b049205609071e9e9c12
fc61cc3abf0f386c94172db1ad3fe9a8
fc61cc7492ae69a702a193d3140bcdd9
fc61cce48e0b5e3e5fe46624f77582d4
fc61cdd1ee240c4d70c50620e8f52a31
fc61cde24d0b0766ab8902f4815060dd
fc61ceb9c7649b67dd1e9b12a96fee46
fc61cebb50f47c810a2a75fb1eaef6d0
fc61cf1f3016c088d952ef2983638a85
fc61cf4a11dadad1beb8061532b12bf0
fc61d16e789267dad074eed767349491
fc61d1acac1321f20a0a409fabb88878
fc61d276b3bc75465ab978de79799a72
fc61d46b92b226d058f1f85b531e049b
fc61d585c24018969548955e5462c02b
fc61d5c0a81773f0d30cba39dbae70dc
fc61d5fcbd2356e647286c7623d25d3a
fc61d621370a0e83b22f50260957caf1
fc61d73b65184a2b09e5b7b5b29451a3
fc61d74af56d5249c9e307171edb5904
fc61d74f585192893aa1283273701360
fc61d7aa2c373a1df2c34f91e6e9dc6f
fc61d808a49c7f90633c3b2b57dab19d
fc61d808e9a975ee52762b480ce8bf82
fc61d8a869938c5d4cfb0edc6eb09dbc
fc61d95c4bcd1bba9c3b1dce2fa3993e
fc61d95dc4d3cc18ed8a6f5da16e88fd
fc61d97a0c2907d308f53e4ad8a72102
fc61d9950f9c2a87a4aef2e44fc0c177
fc61d9f2baf7cf0ed5f7fbaffe69b4aa
fc61da4914a5721ab2ac0c5f1bfc1990
fc61dadd2e573a48701a177af30b4235
fc61db4c2407df9d985acec05f883ff4
fc61db5c5ba8157fe1d4571ed7a717bf
fc61db96bd2541cc1c2e6cf79bbc9d47
fc61dccfe7209c71147c096bf4bb7c1e
fc61dcdab0e22c071d433da95e7d509a
fc61df7b6f170e5c171de5fe046bd955
fc61dfb22c547f3868ccaed8d1458c34
fc61e042a778a5083bb29369d224c232
fc61e0abfb2ea1c864963f04f25dbe57
fc61e0bd8aa865cfb423a1d740534753
fc61e11b156093de0bfa543b65671fb0
fc61e141968107133834d395bee6a929
fc61e2a291f6759be724f1c23e698557
fc61e30b65babe59e56702a4ead9e7a5
fc61e337f4ed48a4c86ed5459824eb74
fc61e396166a4b88759c7f39518f889d
fc61e433b0989871654eb0161ceaf502
fc61e4afa1745edf713253688e7e5162
fc61e4c2307d7c478315bf379953040c
fc61e5d253f1e1a5faca4fa7cc5f868e
fc61e692f8d858ca3732d8dc380bbb28
fc61e75bdd68838d7220af26ebc94135
fc61e7c3073b277315d74a59bf64c3f5
fc61e8421dc630a52759d9d8007673c6
fc61e84f614de220bf3f8b42209b7c40
fc61e9e66da5c24fb9f430e266927696
fc61eaadf14cd37bf465b44c8d157d3a
fc61eab24ba7e85ca01565da74e9f00f
fc61eb2a8b103e37a4db1c382cc99149
fc61eb81da41750548d2fff3c0dc0af8
fc61ebf4c3315069675c48bcb67dd4b8
fc61ec64f75aa790037f8e923b2d9c28
fc61ed0bcd6b054f0abe5670f5170b71
fc61ed2523fc4027c44fdfb092ee5612
fc61ed515047f0112554c5e4ffdd47eb
fc61ee1bdc808b75490d011a5d53a22b
fc61eeb982a59a99b1034990d66c1676
fc61f024d391a0e8bfc2f9b4a3b198da
fc61f203546ccfee4adfb1492eddb022
fc61f20ead31b7cf7bf2e8f0c109e0ce
fc61f22223df750e619216266fd93466
fc61f26c5dff813203220a0b34f573d4
fc61f2be9950bf94229d86c77a217a31
fc61f3187ee8ebf734bca05c43f86ce0
fc61f3eece7c99617e023b3befbc26fc
fc61f5afc6702acb4bc7c18524844a8e
fc61f691676cfd5582bc608a444a05f6
fc61f7ee708e2bc78d93c5b69006fce3
fc61f821f34bbb3591fa6b27fcdc38a0
fc61f8de40a37144b7d3fda6c55e9dfa
fc61f9ecc726bded6758bbc53dc08df3
fc61fbc29131724761ccb4d59dbf5c63
fc61fbc80207fb6fc5f80285393f6db1
fc61fe06f02b855856b5d19daf347544
fc61fe07330b21bcaa440a1b8516e814
fc61fe6147902befa2b94e48b3a672ca
fc61fe91c190555a6185f78a511cd450
fc61ff0ef0e58966f2f8142674837307
fc61fffc967afc9cd1546d02d124bd55
fc620017f95e2b4baf52c58449de33b0
fc6200629dfdee93a257e0b8f9171f9d
fc6201ba6333fbca94fcd613bec45e63
fc620203a9001b52797ca5b6754c0e6b
fc62021f2c82586fd1291aecda2374e8
fc62023777868a3baa72e7e7893d8097
fc62028651f474f9251915694a09fa20
fc620397da88a09a47a4de50ad530412
fc6204d99896be62c461faddeb56b730
fc620566710760975330adf5cf1a1104
fc620637aa5a2fbdd1ddafd1686aee35
fc6206f7e3c12386c31c446e2a2bc6d7
fc6208766b01a1cae4b6ccfb164bcbd3
fc62096b32473038699ca8dc1d1cd774
fc6209b12cfe3edd8393d9213a2f8497
fc6209cd22106a1c88627c2fe621eb4f
fc620a83f57847bd0726981a35df99a8
fc620a9949decdc40421d41050f40361
fc620ac46061ff77d486caa7fbf6258e
fc620b1463c0834f57081d943aad6d79
fc620d450b0dcfcd07cf6d73b97752e5
fc620d986b44c666d4fa1dca3671dca7
fc620fab96d9ac421a8eea7dc0bddb30
fc6210621050ed6f13d62ab4ce3f8aa0
fc62113b2a9b19b32496304203a70780
fc6212c51303009878a2b61bea5722b4
fc6212d269942ebfc71c52deb67c104b
fc62131c4034ddf0cc716a5f25edbf44
fc62137b9264312bdb3b99e217b707a0
fc6214fdadb69883c9a813fba7560db0
fc62152b649157b58be0cc50916770e6
fc621592bb9380ca2f06ef00f886cd9c
fc6215e5d6281da7b2483c3eeefb73e7
fc621612ff9734fb3a4cfdaccc3325b4
fc6216198dd517508b2602d67ea7b4fa
fc6216c2327ba6d2c39e98f4aa37f700
fc6216d94c6f336fcab7fc83802d599c
fc62172a9e440694c35c1da7eae45302
fc621753f0d134d7b7b035818e009c96
fc62176f051753649d1bea46bd5aa0e2
fc6217a1c3c18b8923825f3947b3e50d
fc6218494ebe4257c9d2cbd0fbf4e3b6
fc6219459e8e4d3935f91162af77090b
fc621b6315dc8d9e107929d18272b00a
fc621bb7e442a6ae9b58677331f48f2f
fc621cb3f1aa34346850aafd34b3c619
fc621cb9200e67f4536bc5479b0b6846
fc621d8c011d5f5cecbe3935bf79eef2
fc621da7981dc98685daa8007d11eae3
fc621db610beb8f9e77d6b15c202660f
fc621dc2a715e4e4046bb904a6fb03c0
fc621e4e6b4df368866d311b7978682f
fc621e5a0709c53dd20c50e00d296603
fc621fb2d335978b7f294031cf0de9ee
fc62219f8246875345584b8d3e92c6cc
fc62223e2aeeadd867b9b9b3b5f7401a
fc622242a3b9f17d54681397eb47767c
fc6222458f957d88c7bbd57c60d067c0
fc622275b06f60bfee448e8dc2292def
fc62243eda6781b3b29c074f55a3e3c0
fc6226402cbb08af01ee0c969a313d4e
fc622644769631bd13c8df08ca674cb3
fc622667ace1b774235709523acfafa6
fc622724a49c85a77ec5c3119ade18ec
fc62274be067807941b6d1b47989703e
fc6227b0e6ccea95e370704ea4e8a02a
fc6228803e38498eba6056a5a1d68723
fc62292fac5189476bc263a728affcee
fc62298d6e47c110147cf9b0a50b1db2
fc6229d064daf1f31af4b94b95a9791f
fc6229d12559db6ab13abf4fe02e0b90
fc6229ff492c14c0d046a05822e5c3c5
fc622a1ace87ce06a9a5ab5acb938124
fc622a1c5d1feabb6839c472ee374af1
fc622a935542e62f5cdc2c88641c78bb
fc622ba4a66f7eb3f5845d7d638d439e
fc622bc0dc6e478712fc812b8cfe15c6
fc622bd41a4725ed8bd5261b0876f180
fc622bf414e43a5c45a152bc496c5789
fc622c692a3313c881199cf43123fc0f
fc622dd9ed1d2038a8f82e4625c4cc86
fc622f570d4a3f354b39bd39f35644a1
fc622f88fbd49dfc78b52d9d8775a740
fc6230ccfe102a157db9a8355c13efc9
fc6230d44e611f323f9acb830334d620
fc6231214a857d067c62be9aab852f73
fc6231e3e0a2b48f6712418f1d340336
fc623254358dc7915f67e882c681d020
fc62330453adb239380f365f4239de3f
fc6234177762b4de1b898cfd89c77a6b
fc62342519ee1abbb56788e26986a2cf
fc62358cc2b7e07325296a3f28896ae7
fc6235dc810f3557e903212d79f1b371
fc6236077266c24effa050cd769a6e42
fc62363e39abe208948e2ed3caf51fa5
fc6236668e0480115183704a3c907b11
fc6236806afcd5dd0a9d65b14ea3f1ba
fc62370674890f91b5a94427ab9cd047
fc623758cfe00a1b3860f80c799e8f5d
fc6238026fbfd215faa5f81dab880d78
fc6238035d3704449575f5b64cafa542
fc623902a08e241b5b49416e7c6b1ecb
fc623964cc2e07e6ce5e5e5340cb5381
fc62398fd8a0e29bc5f9b3ab2bf4ea9f
fc6239edae413547ebe22cfe82e526ba
fc623ac7a8e4be2eb2b7027dd1822e47
fc623ac90c950a07f2af1f6dc4be4873
fc623b9d64e7390ac2d08c3a79903795
fc623ba6b933d11b91200e73bd5f8841
fc623bbee0bab8aea04d8ab0278dc841
fc623c05bb5a3e619179efe8a0dbb851
fc623ca8265e05a98f28a46b33702df9
fc623cbc86bf019066bfd4029fa5a0e7
fc623cc6d17efaa2ef47c20eee91a1f9
fc623d27a3a3deb6820a444be5a4e806
fc623e760f54ef32b069d451f5eb0d12
fc62403a0649e1dc9ec6e45ba5938c53
fc6240fb918b7b93de010a3e0bae9a16
fc62411f2cefa13f4c4a15f3ba72f1e4
fc6241dbed7ea108e97b64aa649a0ef6
fc6242c12fb262e0383de9939cd08aea
fc6242cb40238ec4531d43d6363481a8
fc62430f02b76adf2f3fa77b850e9270
fc6243d7bebdb67076286edd65d3c870
fc6244101c7779dcb976d6361da52c22
fc624490c0f1ada25fae32c8048f6309
fc6244f1c39821296a69e992cefc4277
fc62451fc486f78fd7752276a94c3df4
fc62457601a5812b036540d179012ce0
fc62465851a29de026328d1b6cf9ae6d
fc62469c639313fe1d7c73158f937349
fc6247852243fa3422b658cd705c26e0
fc6247fcc667db445e00b9c0d91a8fa6
fc62484681b95652ff6e11f7d1d90604
fc6248c79b2e4e6a32f69e20af50b677
fc62494efcf0ef31dc5b77f1c695bb4e
fc6249613f886868c56e2da231c95ab6
fc624b2f385a6143cb1370240beb99f0
fc624be11e4bdd23c4944acaa0962f57
fc624c8df6bb35d32aefd4ed59690515
fc624e29952c12eaeb9c1af6e440636c
fc624f34205537ab5ba15e707edfee33
fc624f3acb82d8bfdefcc5005b3b22b0
fc6250a16f5ac4d90eb9cb9afc28cd91
fc6250e919487b62c92768931873f63a
fc6251d8e7c29ef59bb4885fed73feeb
fc6252ec6f7f5638f594c0f8f704d9bd
fc6254adabb5c1322124aabf9cfde50b
fc6254d33ae769fe20b9724cf03c2324
fc6255f2a13015de5ce1b287fdfa3112
fc62562dae79123bfd0ccb087779afa8
fc62569181ade920ff99daef66d7339c
fc6257ca0c00ae5a96f2dc0d00a7c9bb
fc6257dbb8468e9b4af78db8519b2e17
fc6257e26912962ec974cc835ce43510
fc62580675392558515e23624a4f5474
fc6258112e9c7f55381e62c0af42961a
fc62581566474a85b3a3eeb299a216c8
fc62583797b269c2cf9c8a408e7bd817
fc6259335660c9d0a10bc2fa32b9d3d0
fc625951b097bc5935e3733084c60fce
fc625985d28e402b992bc4db66762b81
fc6259f1694bba8b2a86dd2ee0eb4f03
fc625b2804b0e59bba2ec08e5f1de020
fc625cf78a22012229336905dccd1980
fc625d4b3b2b8900e8fbe239d7061b5e
fc625d6725432432d1804f5e1303a308
fc625d9913bdc165e131595d025ee708
fc625dad8fce0c3bb1da96e6291e5f9a
fc625db3fa8ba4f7972df86e7f722d69
fc626080c726961f5a4005c7c6d7c2e9
fc62618e0b238bdf9cd725a765c9def0
fc62620e48563345b89597dfe202166f
fc626229f2ac03a4f64c76e7e51f086f
fc6262e34b3709d94631b45916e31347
fc626365e26515f715634bbe29306379
fc62637c11bed534c87dde1dd3c109ff
fc6264c51167543cbbe164125c1fece2
fc626535b2bb1e684c3d4e44dea650e2
fc6265a1730c95efa04648560ffc1d09
fc6268551fb6823757ed90ca2d18d133
fc62686fd8b6d1709901b476c1fb2553
fc6268c019d02978cde38e14c4301bfa
fc62694a14ddb019977c04a3f9a3265e
fc62696871bac00a33ba51f63e08ad5f
fc6269b9314c1ef63eb7e059c4b6bfdb
fc626a1b6464fb977cd968e918958635
fc626a247fb6310b577ee2749a261397
fc626a289c580a94a1261d39a21429da
fc626b3057c0f58b978425469458c08e
fc626c2d1089808b6404081862faa491
fc626d17a4f3ad1c480789209ad8da88
fc626d487fe3f139ae333368824018a6
fc626df709e341bc7818b2b14eeca98e
fc626e8703f277b6bd174e7559ee69de
fc626ee16e4b0b5ee23a6094ab2acf9d
fc62701a5462167738790b18c1aedb97
fc627150593da5dfd11f732b9a7a6a24
fc62717793cc69fa9f80587ced353e0e
fc6272d91a9889ef73a55de46b3efd9f
fc6273582fce2439f10317077154d845
fc6274cfaac19a5221a843fc7b727140
fc6275420a67a7e3532414fff4d7ed33
fc627560800bca9ed3972c4b0b46619d
fc627659b4f6e15fe2fc59d378b7f01b
fc62765ccbb860a0c8e0407aefa49c95
fc627681baee6d0cd3dd0131a08b399c
fc6277ef31ee4b1448ad1582fc54e5ec
fc627808e1651379a83a9901cee7363c
fc627881620a55188f5b490702096598
fc6279fedc5083e679defbc389e249b8
fc627a0130654eeb3edb4df548faa2e2
fc627a810205415c8f67b22f4ac4b179
fc627abd6b8f61571933d007508659cb
fc627aff8231ac7c8a0ea81083b302f0
fc627b3930bee253214bb517f152f3b7
fc627cbfda632ebe7710b30bd83e279a
fc627cd83ce0dc8c43ee80dc1e5d556f
fc627e58944f60105c571ade1f4a0718
fc627e633a954f734654566e62818550
fc627fd22d34beda8439188a5890e871
fc6280923af983c98339394ec253552c
fc6280f7ad63741a2a03c2fc5f874e7e
fc62811cffde8e90e0bad60f4d66ee17
fc6282afcf6581d411031da2485e8c10
fc628392eb30a1ede1083f4690e50cf1
fc6283d190f2b761a2daca5c53788ed8
fc6283e3ce5b8fcb1a52480e1304b6de
fc62849ad1d23c55a63e43831a9074ea
fc6284a73483bec302c88364a82c4525
fc6284cce5153e1eff522b4d852d59ab
fc62857758ea8f785b11375deb466b70
fc62859e33b19d32d82dc048e6802e78
fc6285b0f854f1c805cf8ef7565c9ce1
fc6285f854b3935186ee279853f6df1f
fc62898fc5ad824c64a870671ab32472
fc6289d4f699984898a50684f55d9a0c
fc628c25b4a5338dc6f96d789617a429
fc628c69173c1c34025a9dcb9e023185
fc628c7f3cf36d3f7445355fe6fb446b
fc628cfed0676dc75d86c66367e46f20
fc628ec18afd3f555c2b09141b56c508
fc628f922042db68abf7846e2bf2e41e
fc629035d847a3ed6658ae98b7896156
fc6290be31181c3cada7cce06846d465
fc629188f529a1bd387f404b6c8de2da
fc6291d931da43bd051fbb99a289de20
fc6292c6e157a1e5038d9406a593df06
fc6293c99d5b62de62870304c02baac3
fc62943375ae5c30bc4692cec9051dfe
fc6294ec754e835cfd63d9ee096b1e3d
fc6295e4601f4f80b095fb06ec1395af
fc6295fee021d739844014f82babad92
fc62964da9457ab285c29c78b4aedeed
fc6297849cdcd092442bb53bd2dd146b
fc629828be1cb1e1b9ec7a5e31827967
fc62983350dbe584ba8c61149ac493f2
fc6298acbb05e48033fc2581cc9ab1f2
fc6299eee696d9a6c51cf80b8b9e0af2
fc629af4ca033e4ab05c297a4c82dba3
fc629b5398ef4a1033869a92332c5f4a
fc629b9639efd78b955d8d848d0fdfb5
fc629c33ea978e06b56561c144c651ae
fc629ced0baedef9bde810bf7d82261c
fc629d8aeb4b7d30899e3cb6af6a3ee4
fc629d9770a11b1cb40104eddedb294f
fc629ee674f013d65edc61a6a549d93f
fc629f946f73f43919b4deddb0fe7fee
fc629fec94415e22ba97267a9c0371da
fc629ff854fb6dc6748d142c5d3cbd1d
fc62a1e6239f817e934fa58c64aa4058
fc62a3517e2f9b1d1135363811058ee7
fc62a3a91f2c88e9166a415a1c7a0648
fc62a4b8a29c52d7f2e3f4068b362b0c
fc62a4e152819341791fb1d9de772d5c
fc62a5537a04b7aa38bc73298822eb55
fc62a71994b8009dcb58d6305af41c4a
fc62a7c6216b3b5d20a48f8b72b07868
fc62a83072d440c4470a9f4812425f77
fc62a862d088eaf456d7da9cfbd004a9
fc62a9380c34de263656c7e86e8befff
fc62ac61ab7031cc708b0711449ee8d7
fc62ac65bb5d30b5c663a47d1fef8648
fc62ad47fd65a0932ba0e097d84acbb8
fc62adaccaa992fa03a243d934cfe3a8
fc62ade5b132192a7e920ea4d2a2ae7c
fc62ae1087e2216339a047f4ff6cac61
fc62aeb0c5bc9d0911c2b263c3d2eddb
fc62aec4d3789a64591b20d91eec6f3b
fc62afa3071ef9ee1c040b8b2cae4795
fc62b000bd361bfd998885b36325125e
fc62b031c4fd15635ba824b8a054b239
fc62b080c15e4c9dcb0ceb2965d128a0
fc62b0eb58c558f2bccfd2c0612ce38b
fc62b120437bb04ad9985d5708f2d44a
fc62b2483716f8a107dad9672be21c15
fc62b2c1293c395bd463075799188043
fc62b305f9b94c72f2aa091e97bc6d20
fc62b3bed7cb63b5107a60cb7f0ec48e
fc62b528df61c796bea3195acab7b2e3
fc62b58d550bed2ede5ad5c3865e155e
fc62b628b776a1b288f645ca8eb66903
fc62b6a32773d040b000014a0e6c8a4b
fc62b7318a24ac3913b495a0192c4342
fc62b7cc9126125fbce9706c2356e9a1
fc62b83a593529d88a90432d5eb0fa34
fc62b858fcc2dc7384925ac7f3654228
fc62b988c4df66ee0a8c2964588f1280
fc62b98aab18883b93233a5615600d31
fc62b9d585965810e8f27c1b4d853b11
fc62ba2236ce1e3a73c6d293efc728a6
fc62bb18e183a0e221fff8c71008642b
fc62bf33d9df04d89964f2338f603561
fc62c0baba4c229f8a09c532598b9270
fc62c0f3f5251902827c2acd1d178306
fc62c0f95c79bfcd489e64456f12a470
fc62c1a7d7e15df3a4867a978082b17c
fc62c263419e3c06bc1a92f857175554
fc62c27d3ab5ba070c41e46d59499980
fc62c3368a34f01a7819ba069395dd41
fc62c3b45e6594b918d9779242263ec7
fc62c3da34c6eff97876cdec6748d5f9
fc62c3eff4c0d3f92e8bda5c3ef0d0f4
fc62c4774c6cfd4c7590ccd425806850
fc62c481807465b14e08a6bc0c933b89
fc62c4a7d18d0093425c47d0db72032f
fc62c5a4c0ec143e24b75dea3b706ff3
fc62c62f251b7e2403a7b4b44f959a00
fc62c6fd0506f4a3b75466b933a56f50
fc62c78da19a5fe465bc59aeda054bad
fc62c7edee73fdd67f9415602cc58657
fc62c8567bfbfe2f85db3566d8a78760
fc62c8662d55440ef8b4e54b090f390c
fc62c8cc30486ae450b2288aaf846ca2
fc62c8d75677cf42e4f0c5b083311abb
fc62c948fef69f83b058a934191a9036
fc62c98362402406ea82a1199d2c4160
fc62c9920b00ec93ca9e53572c67cac5
fc62c9d58102dd4d92660ea56f3fd6b5
fc62ca70f5a59507cdaf9b9e5b8ef793
fc62cad5470ad18fb342129c1bdfff2c
fc62cb3652a4484b9b99b90ae7fcb8ca
fc62ccc4943d7a0e47207daada588657
fc62ce40aab78353bf2d66fe1db09560
fc62cf22f9c835320f23c06607f2cbdb
fc62cf398e372d7f4179f1f5b6271940
fc62cfc3b050375c57c0cd409d187270
fc62cfcace15b31a930d355d2ab5bf56
fc62d0afdcad7672750b6231126e062f
fc62d107286e5735102b2e8317dca303
fc62d18cebd27e5b20926095fc473c54
fc62d3ed522db8e900a0d173f5d5ced4
fc62d48011cad35da4252facfffc5a07
fc62d4989128893902c538d52ed40a98
fc62d4bcaf3cd34222aea90c7c5f179a
fc62d5306658da9ddade91f89bb08ff9
fc62d709a0d78382333198b0fba22629
fc62d791c09b171b6554f85a8309e640
fc62d7925da2aee222131d12278294f5
fc62d86c327f6d4976f70990ce91370c
fc62d9de2c7a26dd183762b755223fba
fc62da9edce5d3380bfebde3cf345b64
fc62dbb7f364cbeda7ec1bc413c5a29f
fc62dbb965a93dacb3ffa479ba730210
fc62dbce76488859a70b3143f5b46478
fc62dc39a8ac1c084ac605a6293537a0
fc62dd419010fdf4c9f68fa1b7392085
fc62dd96bd68b3a33c256044c2d2a2aa
fc62df9795407709eed72c53cd36bda3
fc62dfa01446f56be068b31216f533b9
fc62dfb19b9ca7f3fb501bb65397a7a6
fc62dfb342d647b0a88df6d88d4de86d
fc62dfe1113b576b89b6c4bb6280c5ba
fc62e0f3917b4c113b122944ff35d3bf
fc62e10291006c52dd9e93ae736549af
fc62e16f58317a1c34066e1f06602922
fc62e2fb2a8f17ca14eb194a2006cdb4
fc62e31413306142cba69e59b26bbd68
fc62e356ad786ba731edf64bef39673e
fc62e53ce8152f1fd70100a7584aa104
fc62e5506b1ebaa7bdf0b402edc6407d
fc62e60e116906533520900cee4f9ecd
fc62e730f504d6a6282a87e38b003c8c
fc62e7745cee24812ca33f976635b848
fc62e7abc0311b9f616c55729b6533ec
fc62e80ddee270452f0b51f0ce4a606b
fc62e83e4105ebb4b73f995568f46e63
fc62e906800bf4ff3a581b8fcacb3293
fc62e92c0621d177aa92417b76678e4d
fc62e99696b96dd3c60b5576f7932856
fc62e9f3a31cefd8d55d64a1c1aae30e
fc62ea6436813b1e6bc2cf68a01f8088
fc62eb429dd2c0d64226fcf250266b84
fc62ebd03bd23b70b185084a24b8d3b3
fc62ebd9709156e7f00392b9cdd0ff20
fc62ec2ef212393efd15281d4cc0d603
fc62ec3905062223f6204fc1eb03d7a6
fc62ec3aef526504e4b2f7207d9047e2
fc62ecb95d7e0058985f909c54292b25
fc62ed24bec6b1ed0d0b40c3b5446261
fc62eddeaad1bd0b99810e75f7ff3996
fc62ee9f049bad0ebd2d43ae8f50e176
fc62eef7de08f6229576cf58f2a1566d
fc62ef10b6614eac2372a39153f6ba54
fc62efd6aba387dceb90c01f4d22125c
fc62f14c84dd2d93494793422b5f095c
fc62f1990a436cea550179d2e1414d94
fc62f23f1da6587a68c76372db161a55
fc62f29dd8f6b4e49ea75bef6258590a
fc62f360330b3b6f63c416e5cb57d57b
fc62f57c60d5528368cdb713bffad763
fc62f68e856a2dc3f58b66c77eaf3446
fc62f850f663cd6316c26a208c3514d0
fc62f97bb1d67179e87134168f9fb178
fc62f98fd0982e3298a88b144e167f02
fc62f9d368948bc1ba39c19a7c3c5e59
fc62fa9a2593c9d4ce9800eddea204c7
fc62faa503eaad8aa28acbaef13d4495
fc62fb1d06dc865720aa847c670ff050
fc62fb1ebdcf0c101852efe7584d5211
fc62fb4e145fee54af2ec7f5b3189811
fc62fc565c96341e2fe69a635f555d67
fc62fe1b9e477cdb07e8b173d5ee0051
fc62ff66308919477dc29729b9e8f572
fc630016aea09e36c5e12c7ef296a460
fc6300e376d025690ab33ab3de257abf
fc6301eaffd7c5cf1fa9a90ac71e10e8
fc63022f6632f3c18a9eba9434634339
fc6302391a0c41bc4f1ae34b4f00aa77
fc6302c1a46a547a5c3f4f2cde12966e
fc630416db2e1d87d45b679cdb670a68
fc6304549bcf968602a45247c873239e
fc6304949cd7e3605ba9e41cb74a1440
fc6305271e971910a994084ad0c0a679
fc63060dd4e25c13c70f8fcad3c6a250
fc6306339c7d0e64c3c5f961f68f9650
fc630664804cae008c95ca77e1ab056d
fc6306ee152f7a3b1bb5b49a2c8be3a0
fc6307c1b1fc83e2414e0b0ea5e3fae0
fc63094e2e5f2fb9002189a115614d2f
fc630954bd0f3ef4e793d59be5c5460b
fc6309b8d4ebdafe1ff76667137a0e98
fc630a4a1ed41fdcb84166e10b4f26fa
fc630a9e2767d4b8ef0f3c6f758355ec
fc630af14be2e0d8e0f349a7906d83f9
fc630b2b35eff4d0b5267433308b58b5
fc630bcde5fadd6a3574e1bf06d28201
fc630bcf98256fac502057645696d588
fc630cc67c9b04d76481eac47f9e9f08
fc630d93269bf7f789d874c3a0d13456
fc630e6a4101bda56b37325b28d538d6
fc630e7ea6cf3012e8cc1fd8f711b45d
fc630f9e9648d47537ad6c10a5e757d5
fc630fca2263e8912285a63122ca95b3
fc630fec87eccb8ef3104cddb07df61c
fc630ffc4620c33b3bd628d8b48c48a9
fc631111a31aa4d95f82752e63868acb
fc63126e94fda4bfe9a610be61d84ba5
fc63127a72a7aaa7963263bf431759dc
fc6312e9f2b819a0615c6d73b4234f40
fc6312fcd41f080efc89ac0f7138a120
fc63136b48db1e27c59010d908c9b67c
fc63148e7f16df2d84e2d5b35018a1d2
fc631687de55b657876aaefa49a0e091
fc6316ac9ce92be3a6f44f3ee6fdb579
fc6316cb450ec101d66eeabb0814ed75
fc6317cb30c5de85dded3ebe7d123638
fc63196512fee5c08c54533bbc221f31
fc631a7071d9b00cdbf293444c4fdff0
fc631ac60c005c7370056d0792f5a002
fc631ad827bcb76446cf57868d0a20c4
fc631aed26fbe4ff5f310b54ff96e73d
fc631cc6cf95a06a29c39cf3ddb5b40d
fc631e8fd897591d0f99df3eedc18b81
fc631ecc00e2b58bc63bafa902fd912a
fc631ed119d8e78fc4a82dbcedcb3b77
fc631efe9af9c3009e9b29acaa5df66c
fc631f5ce65fc215b148ee01db3186a6
fc63203de21eacd2e61b1fe6b64a91e6
fc63209d385b6c63dd594ac2daa69108
fc6322350251f95e15ead7bcf0bf96c3
fc63226daa84841044385e1f4e2c8321
fc632276993104484c4579a0b1dfbcd0
fc63227d91e126e74667a7785f905b40
fc63228e8fa9df2ef4e3e8c731c2c1d0
fc6322b32cb0c72408fb8eef0d974d85
fc6323322bd80da2663707d8ea31f705
fc6324164c4f011e2dfe0f39a66bba2c
fc63247befc742e4b3067dc03f45f3b3
fc6324df89cf29285ee968fcb09eda1b
fc6325992ed87398ab4ffd3f3567b741
fc63263a0d5085a4cf2c361d2ac549ac
fc63276537b2eca853e81afa99082c08
fc6327b21aebac12338feb39916b8885
fc6327b838644042ddad39f8a9f2eab3
fc6327d4582fa8782d5b4c8fa421e6de
fc6327e95952f6557d519c24345cc284
fc63292915a0349518bc9dedbb14bc54
fc63293196c46aa924de04099c243f43
fc6329da62e3fc93f95a926038de1469
fc632a2967dae02693818ae80ad74f31
fc632a3ebf4c684b2befd0961928b451
fc632a5097240e8482afca71a2034b99
fc632a53624eac3e2acca13ae92191a0
fc632a9e34301f4cf61182df4a602a13
fc632acd77007561502ac6eb68d0b3f6
fc632bcdc6249f889ea158138a58846e
fc632bd1396e300204838e68545e965f
fc632bebccfd50720df4f3400d77a0bf
fc632cc484e8c5107a5fbf290e421f65
fc632d8e59fcf00b98e4acc96d07ca65
fc632da9b13593d87d0088c5f43a9f5c
fc632dc9284f55a0c42564b8e98318b0
fc632dcc93a87d182a52ded63c862a89
fc632fd88a408ba18078d918af0d85a0
fc6330b0cad97dba5f6e498e65171727
fc63319a07d8c08e68d9a7fd3daf70bf
fc6331a0e2c9d8356c88630ba693dec5
fc6332068cffe819618bfa831cd75c6d
fc6335beb3e1318a1596558c1724f64a
fc6335c56869d2173be11cb117f993e2
fc633623d4d4f9efb6a846a88bc62b5f
fc6337fadbc58df38ed5efba3a20da26
fc6337fe1acb9448fa4a5f921becf667
fc63392c3f747eebb9edbf388bcb01ff
fc6339748cd0bd758cf3a22932f358cf
fc6339f8aa049f34c6a8f3a5b7f313e9
fc633ab8a2dc9e0415bbd845379965d8
fc633ad709a1c76fc031db7f22d32eb6
fc633afcb525907de4f21a3d7fe3ca85
fc633b249f10da6d70fae0f35eff2be2
fc633b2daeab6bde666afcf9a752cb3b
fc633b7cf1dfc70fbe559761e9adefe3
fc633bdb34bb0465a4cad888b6de2060
fc633c0a0c2db8bf0fd23af2612c6d09
fc633da25934568da49d3b9ff203cbd3
fc633de2367357584eb84e0e6fbe31d8
fc633e393aace9adc5fcf911b131ba00
fc633ea0c54645132125663c64908d11
fc633eb04f02a833c6c9ba37999e3e26
fc633eb672734020a1fc44d0ae78d264
fc633f4f07ed985dec49e01eb535e6ec
fc63413b6294a17f6ec57d32edcfa28f
fc634196da2ceaef6ed12249c270e6aa
fc6341ecc592d437c0e72f6667cb5610
fc6341ee75d1cbfd7080436f2767469c
fc634224a74e178457ad26329351e80b
fc634292664ad80a3a918de3b6cd1695
fc6342b526af62dac925ef2908409ab1
fc6342d7078ca71cf051c7ec76edec9b
fc6343a6c61f72daa7456766ee518a3f
fc6343c0e0a5a75b39707f6756c8c0bd
fc63440883b6077e86ed4385043903ff
fc6344c9976bec9abb10ab95561609c7
fc63453336af915a48866869ad9305d2
fc63466f787773c1122147f14ad6cb40
fc6346945488fd9f369efcc69bb93abf
fc6347130ecd623a7bbd2b94a2ac24bc
fc634970830554923bc3fa8f868d79ff
fc6349af9e40b679eb02b4885a978014
fc634a6047db50ea9db8d416ad868c45
fc634a7393549d69a55a7f63d93b71e0
fc634a95ee49b7c71d54a801994c6034
fc634a9be397c3df1d84b74038db947c
fc634aa924830795580b836217abd0f3
fc634c238e7c7179a1abdc5ff61e3a24
fc634cf858c4de75f166f7757511d19c
fc634d40154fdef31dd7dbbf8ddf1fcb
fc634e3a4c9e292c7343cb47cf235ccd
fc634e6059c6fa9875986b0ac9b73be3
fc634e8994f0fdac426e1a76dbfcada0
fc634eaa2fc240cf54e0c86bcadf8342
fc634fbbd0cc93c995e910476a0e1b48
fc634fcadde7e4bd55baff3ff480d51c
fc635081e477e520af23988f86694223
fc635131b0b74ce863eb997ff6e23f2a
fc63513d235b80a72cbb61ec0402ff3e
fc63520168d987bd1c955ab76a87ddd9
fc63520886705180148b0a9623e06ff7
fc63525fd24c5f9eb344d3aeb2eeebc2
fc635371020735feedccaf3dfdff574d
fc635394a6423e649cfe9241f1d19cb0
fc6353967fbd1834944f42dc35335c88
fc6353ab345efacaec0bf35d1d2eace8
fc6355281c46de737ec53079f613fe68
fc635558bf1753faee037f914687bbf5
fc63565d241e82099dc7555b8d3027d4
fc63566ac885360db82ce2c8f8ffea53
fc63569e828d6de0362945d372b7d473
fc6356f863ce5276c7e343e82b7ed8db
fc63571e115c9a407c253331cb4d5620
fc63577795318f1dcaf224f5550b7537
fc635864d4c9292a602b71403c05ebef
fc635b0b7f96964f84dc97cf0d2e9b17
fc635d298368688a3d3b2da938157daa
fc635d78851236aaaf63b73bf3a51672
fc635f1091e5f51168a01ee50a15ed4a
fc63603f9a42f6141e674d7b2ff26dc5
fc6360af58c1e4a0aae61b8ec8a49891
fc6360e47a9f850048eaa7615546d3bf
fc63614cac7a07c1f720d54dbeb8f878
fc636164883104a42b4d73349a8748ff
fc6361d3339283e11c07d25f6537a8b0
fc63626e07a0f76f029327b1d445ec7b
fc6362822a9cfdf819667b04e90f1894
fc63637d4cff7558fa74ea3de395a10a
fc6363b0e8f123902ea00f6650c9aadb
fc6364af8d2f32948f01c6f258798b8f
fc63653abd4a3cf5c8d0b38e26eb2c64
fc6365db320f78b63810e675e4249b70
fc6365f2f5326283070f34e951b64557
fc63661c34da0eb9d102bbebc4bc1733
fc6367581dc154b029d75281596e844b
fc6368ea51f1719b8336080416597f9f
fc636a79994073d5f15adb77759b59c6
fc636a940309a3e0b7d17daf108cb96e
fc636adbfb87bb9f000675eb881d1740
fc636b4f28edc6e04f56c9da27ecfc9b
fc636cd50cec88a79051b547b3863925
fc636d985d3e794569e8a7f5fe47e9ac
fc636e3bd1cf53207f98aceaeacc4af9
fc636e5dc7f4fee8ed0eb438c03cd2c0
fc636f0a41f83e7f2b2c58875d42f5c1
fc636f32126e3b9c3ec76fd1e2228933
fc6370746b1b689ba6e4b2a43b34b9d8
fc63717ae2154ab2cebe7de1f2d5f19d
fc63760081b2923efc8f8bcaa47d029a
fc637661f6f2ab4e75b670abc2a88662
fc6376d3633d333ec44e364bf6d824a3
fc63771e7c99d5929a3e94542585ca5d
fc63779e401cbb32f45f3fb7b328fc26
fc6377a158cd9d332cf19fc5653e37a2
fc637900f86637750ea01bf011630784
fc637937b8c67ff27373eb38aa5834de
fc637afd18e1f9a652fca2efa778f01b
fc637cb3e6acb9705fea0753d6bdfea8
fc637dbf009f2224166f197854831b57
fc637dd4352e3299898f0bf8ed84d39b
fc637eaddef0533abb1a773d76fee2ca
fc637ff83f534eb7664817ad0d399a1e
fc63819be2aa91fdc2e51de5858193e6
fc6381b86f658c341146faf265ee5ce7
fc6383105382263392b0077f1090fbe8
fc63864cfa091024adee3df7044e99db
fc63865839971574685d76dd82a82e4a
fc6387188015f18e6b916470b9d5a817
fc638732f0da8c6b9ab0954dd2c4055c
fc638798e99ada89cd3aa8c1540386ab
fc63879ec31c364522acca67c1966420
fc63881ce55197a760c88d8a3ed6b73f
fc63894917be16d31a596121e48af6db
fc638a0a95ee7fc965fd64e1d029cdf9
fc638b228207c9b2d476ca544b9d865f
fc638bf22b69292ce5b8157d7b675200
fc638c389ed30aa273f0cfa70ad7138c
fc638c4e5df576e400146e52e2ed3f5f
fc638c96600e6958eaf43726ef8292f7
fc638cb8cac936ad9429fde5ad11733c
fc638e174c4f0327ad35a4ec35b64cc1
fc638e735dcb42ba5fd93f6ba67ca3a0
fc63900122d5e0b65485cc9ffebeca0f
fc63901c1e75d7f8d2e8f0b31696942a
fc63902aa4f1de374e4dc425cd6c3a87
fc63902f513d8117509f2695ac2b8693
fc639094d10c221306e6f29578ae8990
fc6390e520e6e2bee68ac9316d7cc107
fc63910d792b54cb2a1205530fed2236
fc639115ec29169fd9227a7a8364436c
fc63928de982d62b1afe969550cf4b58
fc6392e460a46a1675c86ff18fc7c750
fc63939fcc2122d4998b5ac74fdd2972
fc6394b1f0c6211eb8ff3d059fe5a06a
fc6394dca0ec7f4d5594ef23394152e0
fc6394fc95e48aaa25e418f3c3eb4eff
fc639514d20153b2f2bb1fd6e64eb8a5
fc63955a503053f8ad4979d013e6f35e
fc6395e7d161ea5fdfa42756a090c560
fc639660759094b66b22d9981391738f
fc639698150e951fb370c0bdb4fc8a82
fc63972e13bdef7dab525030c04f472a
fc639831d8aecbc33b3c226e19645cee
fc63996b5a5b476e96533c64d4d275c7
fc639a18d6d7762ca71585822c6784ff
fc639a6c3eaa779c4fb38b024c62d0b4
fc639bae49317c5088b7fc2697f7d020
fc639c4f52ee6055882d9410f895f2ab
fc639c7753b2057df52b37cf29b42517
fc639c9be780213820f5c2c3c9d3fe23
fc639cb32f53fe55f3d35741d742cab6
fc63a0a2828aadb991f12ed08fe007bd
fc63a1e08f7c3079db69a16db81e73a7
fc63a33808f03a2e021001633d40e579
fc63a5367eccb167518098ba0ef79c95
fc63a5f5f8f34223cb05c0128c3c50e2
fc63a65289a954f68515297e0c7bacdc
fc63a6c36e92579269ee4f7057322df2
fc63a77d35e3799b46d87134fa3997e2
fc63a7cfb27260a7a92db6fbb2249d93
fc63a8fa0ea48405192da84a54e91501
fc63a91179a8967a8e39928eb7362d31
fc63a922875472a7009dd87381988f4f
fc63a9e11549a75f796babc3e9214516
fc63aa0900d17aad56eda2a59cd0d3fc
fc63aa1f84d2ca2cdf448b6c2ac88c59
fc63aa5c07f4c58d012217a08317bcca
fc63aa5c5d76440b9e3117ae257de3a6
fc63aaad4335d2f78b7c6c9bfb7b5e94
fc63aad2e21eb7b365563bff477614fc
fc63ab7aea216ab396b1e66c1b39d35d
fc63abf1b1bdb81185bd7eecf7cb37c3
fc63abfd52b6a70815f371b37b3b6ed2
fc63acfe8e604c17f66d2836f0de86e0
fc63acff24c0b8fb0c0beb2f3359bbbd
fc63ad05df95fa1badbffcc52257902b
fc63ad23c46a501d7ed5319d80b3f8a1
fc63b0b0ed1b226cf51eb8cef9cc90af
fc63b1791dd8135cd5ec5237cd32ced9
fc63b189d24c3446857f3f550b2436eb
fc63b19bbc7e9c98f09291b15cadd6c3
fc63b2702b3056319a40f555839f95a0
fc63b27a965035a6c99ca1a871dc9346
fc63b2b385945d683b9aee8808a26e3d
fc63b2d6b1c0939c2f53098b0cf00ab1
fc63b3e6044f75172e86662188868207
fc63b40d966c522ee0f8a31326bb06c6
fc63b4155ff2c4cbe43fa84f680f9697
fc63b44a70b02e698a68e7aea2c08a5d
fc63b49f4ebe61918a92b8fe06e69280
fc63b4b981bbc6baa6c3a40063513ce8
fc63b4fc477943658b23c53f3f21b9d0
fc63b56f2cbf2cdabfa06efb6a85f35f
fc63b59980d2d39e48c1fdb23c379531
fc63b68552f1835cfd4a5db689075bc7
fc63b6c4ec2a1459a180bb5fd27b5e40
fc63b7718ab6eab62a231d12c5c37d5c
fc63b797e7c960b6a736f34471f32264
fc63b81001982673460edaccfc5ff32c
fc63b8cdbe82aeba5bef73aec07dc5b0
fc63b972bd9fcf8f3f5676648a0fc859
fc63b9d363e83a65593401e9886fa3ff
fc63b9eac8aa654227bf6a91f1fb7d26
fc63ba354ad527432e4776087dc5ade6
fc63bac6a90dfb59dac32dd805fa0882
fc63bb0616ed006ed40e004e14ea462f
fc63bba16292d12a9c03ce2481ffe5af
fc63bc06098c9482879e076e1684b60b
fc63bc5399c8adf6862a61c4cf0cb37b
fc63bdb4b6818b68bcad2ea214d9ac03
fc63bde68f0e2b6c935c4ddbfa7ed3cd
fc63bdeec742827518c14eb55a48ef0f
fc63be65760fc8f759be7fd72df68862
fc63bec5741e43bb2047c3c1fdf76740
fc63bffeb0162b2dcdd958ee699304df
fc63c05ff70665961d28ae2781b9021d
fc63c0745607395609ec7b442fc48f5c
fc63c1c04713c04db0a03c2932e39964
fc63c3527bb9942c543f1f1bcf7d4438
fc63c52c0f0e73e273d14b6d4d293743
fc63c5482e17355eafaa02035261d9cd
fc63c5626faf0f78b3110fbe18abfd18
fc63c64093e2374d66e2199e75e9e15b
fc63c64f15ec3e5e16474c6425d0c9d3
fc63c6bbeb39096965b14eef089330fb
fc63c6cf4e732b31927ca53b94853582
fc63c718758e0277ce5ee5359ebeef40
fc63c861d792424c7c44f8367a0e4101
fc63c8693f342a03e70e17a751f25abd
fc63c8b70c814228e833c0f4aaa4da62
fc63c9974d43a17368ea9893567decd0
fc63ca893361dd78fbea564096f775ce
fc63cb25426ea724dfe7b4f4dde939a0
fc63cb9009427d62ba97c0a9e740784a
fc63cbc283417d1d4dcc2e9bc7bec229
fc63cc945977d4df9a300ec0bb141c0f
fc63cd9761bfb8651b9b502b9a066619
fc63cf9a6093c29e77a62f6d44cc2cac
fc63cfb607ac393390b55158f2a71c3e
fc63d003b28b25a65ef37cd84860ac32
fc63d022b7ddbbfd00fcc4e3ac5f0dc9
fc63d0a0116e7a19e2936c4465faea0b
fc63d136056c9faec9d1612feb95642f
fc63d17a863468f202af33212cd481bb
fc63d20ad048d10e8febe7808c55f33d
fc63d20b77c5cb3860842246eccebeab
fc63d36aad4f0a5a376c60d431afdd4a
fc63d37c922de663ace50756e9460e98
fc63d3a52f1ae7da64f36244be09a690
fc63d3f21af9fbe2b6481b41a7e31203
fc63d4fa4bd06a6daab181e699f8d577
fc63d52ce4813062ad49a9556acb56ae
fc63d5866af1db752afa7a2226bfd130
fc63d5fa38c6b7c70d971838c8298a3e
fc63d7907e76e72e61833b766e9483c6
fc63d7ade8231e85d25294594707c030
fc63d7bc47437f46dc6b683c2e3b89aa
fc63d821971b8c2ab7e92ed7ed41cf6d
fc63d857b8bba07b00e1dbe8d8e28e44
fc63d85ea737880ecb28f6c17f854532
fc63d874160b86070b856f28112203a5
fc63d9d39ec3e0e813d36528355bc853
fc63daaa61a9a1825e690ad4201212d9
fc63dabc4b181354bec98c89f4a4aa4e
fc63db0038fed7cd7bc672d65083eb69
fc63dc6431af9e10f3606236264934ff
fc63dd0fe280b4ff9f388a8aa744a3b7
fc63dd7450b055012a483f272760fe96
fc63ddb6451a271a585d3309d45bacc2
fc63de7fc5f6d1846b049437ebe733ca
fc63df7b0d43ed2d8f4bc4ad27213c8b
fc63df7e9766a8a9f724ef91b875e500
fc63dfd55655e9269eb487242d5237e2
fc63dfe60a62db7ac1abcf43818fe24e
fc63e01d566019e24b6a9cd2100a61f6
fc63e02be746d753fd1e58640b778301
fc63e159fe9eec8624531d16eeb6a5c2
fc63e1920fec6f3cf4a1717c2d82a3a3
fc63e1c058fa415d49593930ef580f4e
fc63e26ea0deb499e31e00c5c7d2209b
fc63e2836f0696ba6fa89b66d9987f23
fc63e2a19f7ce94da73ebf7c9c058f4d
fc63e33b24d3e6650ba02c430650a6c3
fc63e3c933028d57ddb7d191785fabe0
fc63e44be8ab910a6ff0b6c24a603c32
fc63e451428e4467135033bd1314e866
fc63e4c2408ac6b6da07665a11cec1d8
fc63e4e9cacb7265ba5da05783fb8255
fc63e543279ee882bf715605a6daa320
fc63e738b5efedd001f142d60fddffa5
fc63e75ccdd4dc0c80217a31f30be5d2
fc63e82cb1683b61e2cbc08bb1867ca4
fc63e851bf24c72a881c9e5a40e44164
fc63e98c7f629ab855b3b1e231ca1ee9
fc63eaad1872b40bc321aee6ae0670fe
fc63eabaa59af43cf5b1aa40a3646981
fc63ebbbeb8e718f26bd18df84609301
fc63ec2b9d550a63090a7f50fe2460f0
fc63ec32a4b2c42a5a39dd3b704e7993
fc63ec8087102341bc13c5f479c7cff7
fc63ec91bf5ced3b5cd35e2d8204a4ff
fc63ecac30c96918b042ddf1bcc21138
fc63ef664a0ac81c918da5511dc097cb
fc63ef89c6cac84fd4369e98e33f6e00
fc63efa2f038a5d1dafe42f4352b4050
fc63efa64e4a9acf8578d85bfdbf9c83
fc63f041afc659418bd51e2a4291a46e
fc63f07cbdae8549d2da6cdbdc50a9cd
fc63f3136397d6f596f90ae82a0b654b
fc63f3f2a4d2b30ed3ac49a1bd9829b1
fc63f434cab4a3d7415b339bafa440b8
fc63f49dd0c6b44272f48ae0aecfe1fc
fc63f4fad3b3047611145cb7abbe78fa
fc63f5de8e424a26d3a48897041ecc00
fc63f5e0432ba2e7335c0cbcbb2ff2fc
fc63f6375a0ca101d05a8ced8854259d
fc63f714416d8b4f81d3e056b638c6f0
fc63f87d1290655444fb52a8bc7d2c75
fc63f8882c9d84364f96d3585ec72d35
fc63f88fc6272f64970763c733bc2c20
fc63f8ea9b73ac7023a2cf785f15af0b
fc63fa0cd109f58e44a6438223d9a860
fc63fa8fe79661dbfafac2c9f9547f6c
fc63fb1e375a6839115beaa647793c25
fc63fb57156442f25c1cf9ebffa74084
fc63fc2a6eba499787edea2e025cafa2
fc63fcf2b2424aa74df0c1ec99433e20
fc63fdad9ac47d945dcef52224123071
fc63fdd3e58b48dc26ed51b4c11490a0
fc63fef51ff2ba1d0af0f7fde745c91d
fc64004cd498d40ebc6695ef8ff5b478
fc6400c0ea2a5209a98486318bd32466
fc6400e1ca9331083b79ebbffe9a0b57
fc64012ffbd1dab57a10f2962861f0b6
fc64019b9282c9471821c0539cd9bfd0
fc6401c240022355cd06475de3c506a4
fc6401f4f8a930cb198203f19c2950a3
fc640289c35db0a49e7c9ab980f04388
fc6402a3f44e8dde22513af86dd97de1
fc6404c5cf7039101ae48aeaaaa19f13
fc6405655df0747caa478a54020d6547
fc640588caf6ae0bbbafba110713811c
fc6406605362cab644d1879d7ee649b5
fc64073f587bc72dac74b74e444c9a1b
fc6407400f00b660cb410b01786f164f
fc64077104c05a75a454d1c46273f1a6
fc6407a6ceb3d63797f8dee497a5c59c
fc6407b7fc72fcdc261204eb06416ece
fc64086994316d76bd11fb18de1f82b8
fc6409024548e280c2c4244106954851
fc64099dab70952e8191dfbe3f555761
fc640a9843b611d06ca10388a9c84a2d
fc640b766389792368798bd42379b36c
fc640bac33ec371b0a9cdcd1dd84fb0e
fc640bd36f94946110847b036e2b8cd4
fc640c48bf9cf3b5e3aa3caf8d3b6cd4
fc640c916e7bc61533a6867b67f2b0a9
fc640ce09c53df28bc290884a2503ea3
fc640d16770887957a763871e00dcd48
fc640df4fafb274c21dcf2e7ff7c2075
fc640f05179b9a22c2b5d0f33b292093
fc6410f878958cbb7afac5a97b0124f1
fc6411e3eabb8aa9162b3ba8cbf97ba7
fc6415308a789b33eb1435f0da6f28ea
fc6415526df70a956a95bb4e00da31cf
fc6415a3630c94464c9ae8483538d7d6
fc6415ba195a84b49d5c0a76158514e9
fc6415cdaf72565548f1118c489f4035
fc64176e6fa4759b580b93b439e22380
fc6417ce0f6d7b222e7e34436d829645
fc6417ff0baf098ee93bb7bf8fcc42bf
fc6418389450be7f12d1593377303511
fc641896df83249ba9c0062712b063ab
fc64198963ba23dced9c434d8a8f72ba
fc641a45f76e6b030e79937572a74f07
fc641a871cb38048d5627d536487f9fd
fc641b258ae6e7733a0a94e106378393
fc641b6c3084dfbde8a403903848528e
fc641c21645c2485553ab3f660fa0376
fc641e4ce637b9148106ba7f2b82b79c
fc641e9be126dd732d767d4c620adff4
fc641ee790ab12972b01c03081b06a72
fc641f9080a2bbda5a0902deae4cc410
fc6421a1af194aed6a87238342027081
fc6421ceef36f708f82630a51bdabfd3
fc6423b9b762358340a27b72469787c2
fc6423c260bf1f6719f2f8c8f190576b
fc64248d5bd03554aafd0924737b6e0c
fc6424aec1a8bf32b67de46c11439670
fc64254011b3ad51ffb6e699d79a5e60
fc6425e24bfd69863a14942c087c2d44
fc6426ae54c2a63843fcfac382c3aafa
fc642776bd64ebdde35068dba7b3910f
fc6427a17da0a2f73568fed511b70c4a
fc64280f4cd0e1fa000a6562b5b7f20c
fc64287af8243ca5973c01bd11a75ad4
fc6428dd9cbb68d565bc027484632f91
fc642991a01aa18466434ae98c4a2f66
fc642a536b1f35d208e3fb09399ba20e
fc642ab4bb17c79235e2e5265632d1c5
fc642b52f11f7857eb4620e8f03add8b
fc642c8dd6eaa0876b809bd0d8d56edc
fc642cd159fbf7e61f76b9f0a7c24f3c
fc642d4a1dd7d57f96728e189500c254
fc642d96ff7c2fd9d22c7546a3610ce6
fc642ddbb1159de89235fec429bbeca5
fc642ded8265073e6b7037f23708e5a4
fc642e3f523f1926113b6765318d745b
fc642e58e81daa57620f74bd59a4c9d3
fc642ed9b47e3b27202ba8efa23837d0
fc642f0ee22dbc750e2dcf69d6012b73
fc642f476fb538388576be7643a3e7c2
fc642fc578f036e3077c70c9ef9461a4
fc642ff03360141d8561d3f095890c83
fc6430010c78366883bc819cc66a1513
fc6430099ab347b6b7a743a8c652b8f5
fc6430db477ba3ec5e5a33f8b903ec96
fc643104ad572ee985834ea1cc0d2955
fc64311e4120079cf69e4417b83528bf
fc64323f9af7a4b07a73f02c9301bf90
fc6432d12032f42f788dd42607c46d76
fc6433acc5001a102aba1d2646cfd580
fc6433dcbc7d674f3ba159c157f09266
fc64340f3334c12a23b7a87c3e2fa4f0
fc6434482d026df349d8a5e029c46780
fc6434ab11f97c9a57255c367e33fb47
fc64355587dc781cc7812fe0595d63fd
fc643562c73097e1656c38320a118698
fc64358222b6ef39ef1de22887d9d490
fc6435a65790b25396db57dac0247260
fc6436d5e18a7811a657cd024621d386
fc643734ca64dd7ccfddbb42a334510d
fc6437d9baa51b7826000bd0b1e05603
fc643b12030aa3728551a7a06e77b840
fc643c5e9683b54abbb21eb5eb52d737
fc643cdafda60b74d0a8d8b147b5a6ef
fc643da5459ae88c32fc90f59b12ba77
fc643ed0c9ab81e9df182e7f6bee07c9
fc643ffd82c9d0f20482b4ad82de5a19
fc644098663005d59e84dc18fd61c733
fc64410a104e985244cc1fa67b46a17d
fc64415bca3d627855b894739922c3d6
fc64423fc2a7ab23e3f756fbaece9baf
fc64427a3a3a5b91dfd9b25c62bb8076
fc64429a754790ec9c1c0eaedce53ad5
fc64429f16d98e3de33d2b2314828d82
fc6443ac6b94c4457e8ec5bb2e94e99f
fc6444138029b0c8a2fb1c5e64b0fd65
fc64443a0f6ff2a487a7ab72577e2abb
fc64445763823c7684f38d09268367c0
fc6445b20635242a41bcecd69d8aec86
fc64472433db9b3b07b91752b4dd88a4
fc644783b10f76c2a8cb989c7cf69a67
fc64478d5c0acdf2dc0edf8c2e8db086
fc64479e4d10450f1f8bf20c8a654362
fc6449d336a1042fed83b43b90898639
fc644a9d2e77dcec0181c83493c34905
fc644ae1b241fcd6715e88d88c199c13
fc644b00c68a0df11894f7f3971b0cbb
fc644b43642a0d23abe7e571f31d54af
fc644bfb3c4119271c8f9a48cd87b9a9
fc644c4047bc548a3e75c77e26dd7a06
fc644c77284672adabba166b6891dcba
fc644dddbb81279a4788f7bde025a611
fc644dfe245c91fc4c2eb8f2912c7586
fc644ea7cc106aa971d02390c53895b4
fc644ee31bcbd4eeebbb8df9d0a0d850
fc644f00b50b811ea3ad2e1f449f1980
fc644f5c14459492cff6f39228a3df5b
fc644f8159f86557096fcba4d97804a0
fc64509289cad5ad83880741d44507e7
fc64509f47f34fb19c1d2f16a6ce6e16
fc6450a49a3b7511760546d4b1e1751d
fc6450e2f3650b19baf4056f8e54bb9e
fc64512662fd489cffc38c6f22c45f16
fc645315bf0ce0cd05d0f61405b15ae4
fc64538eda1e2c940f294152fd0498ef
fc64545732715858731152dfffa89fcd
fc64555cbd991f996fe582a2be78682f
fc64561653671552b9bfd8a6e55f13d0
fc64563fe15b3a6932aa24efcf8fd0d4
fc64577e7fd0626481939c34d545b4f0
fc6457e652fd9fd535b07c4eca168614
fc6458bc0654dbc4e247adcb591f684e
fc6458df4567a3387a37864ae983d221
fc6459446a840f90fb14efc351f8eeed
fc64599b036289de9f21e2bf90255ecb
fc645a0472da806b762b5447ef5d7a03
fc645acae6456d6feae43aed12d4d399
fc645b511d357790ac8f080a77b99270
fc645d4eee693b3db8d2b4de40ead3c0
fc645d67b724f7c923d202940b10d8b0
fc645e1e69616bb37842e0693bd3be69
fc645f704fde8e77e82a96b1ed9e3038
fc64605e3fcd7f90efaf2d5e4153e294
fc6460624eb2828355d8a924e0cf380b
fc6460887f9736b3381dfa3653015dbc
fc6461451eb405e2d7319cf140b2df10
fc6461ae6d223ec14c6b5266473cc660
fc64620831665df6623c723964824d18
fc64622e0ca44717b983cac3c0e40e88
fc64630dd06af03fee692def4637d07d
fc646366d61a6172b6124744b18142fa
fc64644f5e4c5a9ad95d1e0bbf114a8e
fc6464b32139c615ca2aed574ee8e99f
fc6465b95349e571f5b28b5b01934575
fc6466a81b46434d76957f1eb65556df
fc64671f476b0d5318cd0b8e6331ad93
fc6467641735379bb37344c07373708e
fc6467fd8d3358edb1a05d3e2a11b113
fc6468ea3838696028da6d0eb49d035b
fc6468f8a85b2da883744061ac4ae373
fc6469eefa4404792530acb5a6a4eb3c
fc646a3f9df1bf56823169c9dde943f0
fc646a6275245b450377e01c19ebc84c
fc646af2f2fcf831f018d9dd622782ac
fc646b4f4137afb470102290f6e4334e
fc646c4854543b8ad004d33edee132e3
fc646c7341d434a4d56c5afdd64e907a
fc646c75e56e79752f3528334b314490
fc646d5744b73568b6a128262c43b992
fc646d86d3a9b19580227d9cc4c4566b
fc646e54592f1985f3f213fe823f3087
fc6470310b6bcf2d83abbd0e8de1f3c6
fc6470e6a6a7c971fd47dd7b31d79ef8
fc6470f223fd5dd1195e14e01342cf9b
fc64725094568c5dba734ffa05b9793c
fc64738d8dca34a49d5d9a0a0136d3d0
fc6473d3af7b9972cbcee3ff08e70ab4
fc6473fd3316ecd37cfcbe8a032d97f1
fc6474f2e80f48da50f59702a144dac8
fc647555e4d2decde10a0e6a8d340a76
fc6475d61950ebf41e0f34515b86b563
fc6475fd538c75f85c999a3b6ace3886
fc6476a324decc558905d8cf4fead5ab
fc647788466e66439bc9e1f83a609dcf
fc6478857aac39435e63ed9be2bfe8ab
fc6479165bdcff1554d5fbe7817ccce7
fc6479469171328bf66bfea60b03cb28
fc647994a8f9d928a1812c7765078891
fc647a4e7d27cc1546e68ccfed143ad9
fc647a69f0e948aa0f9f1f782bb54ac0
fc647b80ad1e4702c46b5e2e985c6ecc
fc647e6be0747794ec7a8651f5dd8d6c
fc647fa72c1f56c1e7ac9ad4be3fa288
fc647fd689caba4e8228b253f8d842f6
fc6480c9a7a8de9f04b5f4c45adef332
fc6482124910de301b1c904a5b86b3af
fc648213c70e2b3ac7ae942c44631770
fc64826aea0905038c6f083c1b845797
fc64828171c2bf45d75e8e8cb8caedb7
fc64829511d344959e0fc2435dcd3d3c
fc6483817831f4b6f03cbc4b7b59f1d4
fc64839fc806e33d06f74f144f8aab4b
fc6483fb0594723c2bd0347098dfc516
fc64840f1ae31c4bfb9c7c47bc43ec08
fc64841bde27e157ac670d6e60ce8eec
fc6485b227457eb16fa922bd81807313
fc64867fcde7d72a7419be95d2bf5a01
fc6486b5e19ef127d23a68eafc21b7da
fc6486e823f2a46aeebf5035e4ac43a9
fc6487f06433cb0c8b28a255b41fd361
fc6488a63e85cdfef251b0c6572ecdad
fc64890729109d4b87b6aedf40590bd8
fc64890bea73a28bbda55dab8a59fa33
fc64898284076dc390d7c3205b6f1f86
fc648a43a3c6f83bc1c78c98ae4d3bfb
fc648b01c86eed466fbbf4185241cc72
fc648b36c39fcb9d225487279f2bf4d0
fc648b86a2739200ccc071992ee8eab5
fc648ba5b5ec0bff6e2718f536c9f8fa
fc648d27d6bb652b7e63502a6aead89b
fc648d3e98838e55a9e94d1ec083b848
fc648e06c79566af5dea2f1efa3f3cec
fc648eae33fd285ff3bc7a6355ab1257
fc648f2d086aebfb877ce68c9807b2b0
fc648f88b0a6e50ef9b76ba1a410655d
fc6490617507137363bbc6cd879d1f87
fc6490bc146119868dafabc7c20eee91
fc6490e57194d201ada0fdd7b29eb074
fc64914d27c44d141e111129f46007bb
fc6492574b4d482f27e6109646382f4c
fc64926dfbcba918e01bd9d58719ddac
fc64927ce40c0ab8215b5218b6391fbc
fc649319d5ff598b022bbb7903b07fd1
fc64936804ebf01c3940e9b6331946be
fc64954183ce4fdca0376475acadf483
fc64957baa5765c8873afc722dfb5ef5
fc6495a58a3735e64bec58f732e0997d
fc6495aaad6572488402ff923ffe29bb
fc64960e36078be3d4ddc1f34f302370
fc649736966a154b262d4ce370f7031b
fc64982a7a7ceed91ecdf285d3cf570f
fc6498353e6846aa4ee0d280fcdbdae5
fc649852bc4486b51e8693385600d591
fc6499f637b2fd386ab679f059a16169
fc649af1389f9ba72450b9809baf6952
fc649b0794b91af7d84a7c9c41f3e5a2
fc649b40cb71c584d224fe8e831a88df
fc649bbb5a2bfdda14f02c510e525972
fc649c29f5149103c3ba30e049afd17a
fc649d6f6669ac65f2a31bab5e09a799
fc649ee10557d15b5c8df99e517ecde3
fc649f1b92fa21ed33b44572b35ee5bc
fc649f4fdd83bed5abcb75f0e126d6d0
fc64a0177a649a89175b3626475d18dc
fc64a217c52be7b114328955d6cdb8e3
fc64a355b6bb1d9f0ccbf3a60661ad8e
fc64a47ea99e4d389fe3dac6e284fd70
fc64a578e744f48c981a70cb6b14c04a
fc64a8f33915e5cec830d4c3370795a7
fc64a910f0cff73dacf64ced9974a557
fc64a95bbd0f12e1579be5f78a13ff88
fc64a9c4a43c4a6fad5ddfd39b03248f
fc64aa760042bc0e133e2b6dc47f2a25
fc64abd7b9ae441c0a9157a4f86247aa
fc64ac0ef68b71b460541adf187c4dc1
fc64ac2e13c77794a0a18ef59b45b21b
fc64ac9ddc272305a3c0dcc3c67febb7
fc64aca920320598d669cacacb6b8a76
fc64ad22c6f36bb91c96ec210854d94d
fc64ad92265329d070ac2df2c928fabf
fc64adf08f99c06bd84a839872ca2e85
fc64b159f5df4aa0f7328ab2341aacb2
fc64b189463450d65d6da871dc5d679c
fc64b1931e6e5739c5f9a43e389ed6e4
fc64b22b3435252aec23d66e222bdf52
fc64b27a5d1afcc592dc9343393b42bf
fc64b299c24c260dfb3f85a7149c0682
fc64b3fc97f2c9c9724cee362bfa6365
fc64b428fc62ca75deb314aa2351b31f
fc64b48f1b8b9609384f73403b476f78
fc64b5a0489716c6ae6c651dc9eb71fa
fc64b5dc28409736216b63d065f5fef2
fc64b5de328a4e50cb618ec57e7d9519
fc64b6fdd9982b76e71a4ec420b0fc21
fc64b85d01c137178736db3f5f2b3257
fc64b86579babaf9efef637c0ec9b9b8
fc64b8e2f3a0352e79be777d04fcb7d9
fc64b99c7d4af91fbb09f211cb10f3b7
fc64b9dadcf4fc1d8f6a69d8b0c60d18
fc64b9f5916e1449beb0f9e0a10693ed
fc64ba4d52b21ac32e60197cd3910ed0
fc64bdb2a9d650979824fc55761bb939
fc64bdfe701f37b9f2aedf35ef172813
fc64bee3f065254e3f9ed9a9898a280f
fc64bf83155ed5a096b7c397fe414d76
fc64bfcd439b033baf0203193322521f
fc64bfd38e5922ff03ff69edce638d51
fc64bfe7594dcf1f4d911e629fead6af
fc64c004669930bb3ecc8fbf938ce701
fc64c0b70657c34d5a827381b74d62ba
fc64c12075b587b660708d9ed921f423
fc64c41f7ca3e1e88998e634dce2d8e1
fc64c4afd6e92f0d85b588a916af2954
fc64c5357717f8209d1960f7ab2f56c7
fc64c54f00cf9313300f443cb07fdc66
fc64c5beea2374fee8342d88ee572019
fc64c767d80d0d8ba44e3dd5b91732a4
fc64c915046cee85cba06636fee2ffd4
fc64cae524c01c20e87fe45e8f1a576d
fc64cba3b066e1ce2e06fec15bc47a64
fc64cbec6b51892a67b12a6ef606783f
fc64cc954c2af1019127d8f04f93d1a5
fc64cce8bdc251f5f64ae37708a90393
fc64cd77abdaede84cc0b473ff8e2b97
fc64cdcfdd04f19c40f528f668264be0
fc64cddda3c6a06614503720769f86ee
fc64cefbb998aa5f1fa761731303c5db
fc64cfc91475737c3acc8ab9d1379973
fc64d0e070246a307d4b7a9dd913eeac
fc64d2b0a9822119ab24593df978cbab
fc64d2fa149381d8b160d46b11b19460
fc64d3915d9125dfbcc10fad6aa65cfa
fc64d3e35e148005170c858a051eecba
fc64d3f90a67d961f0fff9e1613befde
fc64d41a7c92ac5c5bd29e7d6301dc80
fc64d42bcb687b087cfccd66317b337a
fc64d54d74cffc597d7f6fa45b402669
fc64d5c8b896240f972db1bf90db4744
fc64d5dae2f30f30c9e621c5df8a8a5d
fc64d65480f676bcd232ed629fb85095
fc64d7089d4482ba87d7670770e2dd9b
fc64d7dffe084199de560d629c8644a9
fc64d814904546376ee7347a75244647
fc64d85b7ef483c19f58b2e851e107e3
fc64d88406a6dc439a912d0128dfdadb
fc64d8aec2a64538046bbcb75a03c88b
fc64d9d6a8e4eb28e834482a6ae61c38
fc64da3972dc4ab9258c245ef3795732
fc64daa5e8596acbe9d425433d98df4d
fc64daf673a7ba1a8a84c1a208181a70
fc64dc652c8bbe7f7a2591e18a45b6d0
fc64dc6ceab82fb98a90a355ed4e148c
fc64dc8ecbd35143bbc99159a5fccb65
fc64ddc36a689b8398e5d5e72abdd53d
fc64ddcd60141d719779df5c74875fa6
fc64de422da68ec30363a484b1ba8b63
fc64de526a8a26f0c35a23de54d409c1
fc64df5bbcc22ad5d99c7750574ed77d
fc64e10568360ccf58e2ef20afe71d0f
fc64e1c049bc512de02f18c375872f9e
fc64e1c92d326cfea89570f56f396d43
fc64e3203598567321874889f2bd2bde
fc64e3d7fcd89dc9207c24e0d058ac3a
fc64e46f7a0a3977c236bf9b456f092e
fc64e4f9a719734a84d3be7cdcfb75e4
fc64e54428c8f86e44d9c89da0bb076b
fc64e6b060c926a1e90064dcc95364ec
fc64e6d4a3ab8409602f8f02eef7fda2
fc64e86f7eb0a6bd9c438ad4eafeee8c
fc64e91906b3bf5f002fa785c97167a9
fc64e9736709c399a903f4f7dc2a3be7
fc64e9d89e648431618709e4589e4c1b
fc64ea8b97dee620b9fc1e7140e3cba8
fc64eb496c6645d6a3a5a09b9d849d88
fc64ebc0eafefbaff6cbed94b020d797
fc64ebd9e91afeff2bffb5a9ec8e3525
fc64ec8fbebe3263c8c44caad3a35dba
fc64ecd14ac5aba29394ea369b34dee4
fc64ecfd4267435a0260b1a32430647b
fc64ed86038b0539a2d96c8645a7a1f0
fc64ef5f1fa8d8c69eb36febc45e98e9
fc64f0e0844d2d23fb95c329d79c2d00
fc64f18e1b59d57716c1f821e880b72b
fc64f1a49220bd61dd57f207d9d0234c
fc64f2b7ee17ede1602d7b01904ab560
fc64f347c327707a2108af8d0e611e88
fc64f354c188373b0c0a109eacb062dc
fc64f374647f874cfee34ac56acb4a43
fc64f37c262359b8ccea4806de1bace3
fc64f3aff4d59ee35f85c5daa91e32f8
fc64f4265ed459f4f3193277abd14873
fc64f482602d0b511da6311a4cc024ec
fc64f484ba66b67a6f7b443f431939de
fc64f519a515329a34a4583804a83c5f
fc64f5d1eb0331ca6c2f592155d1dd60
fc64f66bd690e65c2d211bb7522c87bc
fc64f80acc23a04631bce8cbc5ae5680
fc64f8829b991e4757f80cadbebd3d78
fc64f9972546c05510ab776e43002a81
fc64fa3741d1b976d25870ce7ffc3e80
fc64fbdf189f3b1ec8cebf76ceedf145
fc64fc51702a8af63fd941c58932b8f4
fc64fdc02f8596f5c830bbbb0d748de8
fc64fdcb25728423f22991edcd36ed9b
fc64fe232c6f7085514e02e42f19b222
fc64fe4977d86419a134005d01d55747
fc64febd1ce6997e257f8b6f3a8ff0c0
fc64ff9da562019dc6ff6b2acd5694a8
fc64ffa32f0b3f8845b7ddd897d410a0
fc64ffc4a601d5b1141a5501f2290f75
fc6500273e1d9d494325467e7debbd5b
fc65003dc09fb8c427ff13e1133ed744
fc6502482c47ad72fb4e66674ccd81dd
fc6503a114184514a153fc7543939b2a
fc6503de1c03fc8bbdcfc2939218586a
fc650470d9ced51265b314ddb8c003e4
fc6504eb49c49e589ebe76be0b756280
fc65056c03eddce2028dbc0a2023b771
fc6505707e417df83da933bda5e36d9d
fc6505f7525ba9c01c0f564c43875d10
fc650605c0894728b06e0bf0f6ab9eaa
fc65065c4f5359a762cb39f1404199fe
fc650684685f4752c26de3311e12a128
fc6506d0825a0740d3933cf4d6c808eb
fc65086172c2043d5d79f290b24c7677
fc650a773270ccdf98033793cf286a20
fc650ad2519b3de4b9b4be7c97767856
fc650af34072d7f45fa95797dd0f6240
fc650b6e90b588afb3d8adda11e90860
fc650c14e411c715cb95fb8783b8dcae
fc650c8beea1389d47017af502aeff4d
fc650d1368bccd5c54241885e69f8823
fc650e55158dd834fe2ed812dd63f014
fc651018c48514e407aa88defef554c7
fc6510c782f41a988dc8eb8a4a1acf70
fc6510e19a238b5bb1563cae1508263d
fc6511c728b8d8f451b410c44cd662af
fc6512480f2954c3c8a08bba9620ebb1
fc651332433f23ee05dbb18ec7f9a615
fc6513545e05a572e55c8e72ad099c4f
fc65136b23d9685d7755d811e37b718b
fc651412e1f52bfbbf861f2d34b4f9c5
fc6514a755dfd20cd484144e0cbee586
fc6516951ae4ddda8ea5241f5b062964
fc6516c0ca8154927f603363f120901d
fc65174ea34b42564a6bd3922bd15d49
fc651763f8f696ef0e173ae4d2942313
fc651839613ea0c84c57fe2e1678110b
fc6518583b190325df9a39913d0a3f0e
fc65192d37092079661172656c3a5959
fc651965f8fbc64aa2f1a3765dab6248
fc651b2a638627a5c748b6720dbd37e5
fc651cfd22e98dcfb2c4bb4871184d90
fc651d7d5544a07c8385f4334bfbb0fb
fc651e10a1234de6e0a5583ade24bf64
fc651e3a4c906eb83a0070e8fbadf6cc
fc651edf25992e36f3de53bfc3bee720
fc651f0ca0680f88b226f5c0f330ff49
fc651f398eb3f30bf88c278d878199a9
fc651ff97338a15dfeeb15830652ea64
fc652151d7f049ba749541c6c19723a2
fc6521def441f3ac6dfb7ecda7fe97e5
fc65221e557fd4540e97644a31b7f93a
fc65232989a8994d4169bd87adfa1fbd
fc65237b24f513e0fd391051bf43fb1d
fc65240190338101e1d2a1b5cff8738d
fc65246d61bcb00e2374f7c788f540c0
fc652620ff52b58dfeb66897482f0d9f
fc6526345629f048feb6b3e0bb8f3b98
fc6526518a792c30a9e59ddc74f77446
fc6526baa96f2537780cad73024b8538
fc6527294a9dbc03bf35c4eba278b488
fc6527af5229e343cd856b9d6e7104e9
fc6528177d7844794d6a5bc9bd72ed89
fc65287c5806e69cf7970b4452eae180
fc65287d0d86f616c5f4b10b2ba0e71f
fc65293aa759cd69269617f40f999875
fc652964baf4e3dfcdcb234a112a8fa8
fc6529e4d9e8f978ea68123ff23b5a24
fc652a5c924c347c17920ad064a35d05
fc652adf43fdb66a118d9b2c78b2b39b
fc652d9eaa6380a0a9ac87e864bf7679
fc652ddc0af7cdf25c93657ba0d83326
fc652e40a41f4035161007ec07f5eb38
fc652e8c54aa90d9ecf990dff8a2b61c
fc652ea88f3ffb500892270ac2ea69f7
fc652ebf218b662f2482824badf56e80
fc652ed03091a727b148946049046268
fc652ee80b2cf22f0459c34959a13559
fc652ff0b448b6cc2a7787d78ccdae25
fc653003ee928d47cde1f1089c70f4e1
fc6530b934ac6abcd890661fbbfc8dbf
fc6530ea22f942a4cfce01f210c8d3bc
fc6531c5b3de0846998411278e5e4250
fc653349740726b8f805c44464b6f388
fc653352f4ceda9a268930a3bbc922d3
fc6533bf78e7d4dc98f932e871a7cd84
fc6533f35ad8a9a2bb5c4128f1f77a4c
fc6533fd1edd37a96e9e7596b8783e50
fc653595da6d66f398572655e06ad1ca
fc6535abd66138b4d14d1a1b7d9eb0fd
fc65361007bb842b9705b4c8794f9edc
fc6536d5d880d87e9eb35e9928a772e4
fc6536d6da2e98c480d4d79ad1e59891
fc65376284353aeb5838125a89f0b35b
fc6537c746ceec5bae9a9d37b9183a74
fc653818664ec6e86b6e1fbcfdc76190
fc6538b4ec622792173442cb280b8acf
fc6538b69133ce8c0ee464b14d22f7d8
fc65392459a97598b78cbda780eadb54
fc65394bc150aa3180e94fe82a841f1e
fc653975586ff91bdf17f45d7dd81a2f
fc6539be98f02903f8712e20448fbe98
fc653a431f2711d44c6eeaa56d2369ec
fc653a545aa2212854339dd0d896ef5e
fc653acfed7c49e8260712bdd951b601
fc653aff7fa77a7d72b744f944671082
fc653b3eb111f097255c4e2e9dd3e9a5
fc653b9ea27849567ec9711b2b71bd0c
fc653bcaabbaf3adabb70ca4d34ef9f4
fc653be082813a291836e3eb105e01b3
fc653bea79e256e1c6d6d9b0023da136
fc653bfc131f9fb83cdad5e9ec4c60e8
fc653c28bd579de608080a68befe869d
fc653c75001f44920cb57962aaab2a70
fc653d5197f698c6f63b7b96cd6f4ecb
fc653d72a47d2f8aa9a36dc625322db5
fc653d76461425c83ee141824b332923
fc653de4c8949656e1ec37f0095c8bce
fc653e302bf471653606ddde7520af7b
fc653ea68c21d2a5f4c0bcf0e0abf361
fc653f7db6d5845d6b143e4982791c9d
fc6540b091aeb65931bbd4dcac4c7e2c
fc6540bd88b3a496897c1ea9df0c4949
fc6540e84f7083c7abbaddb749b52358
fc654125809af3a1384d784754e6f7eb
fc6541b98601c35576352f0d8bd93430
fc6541d153bacaa96ae37243f6e25a78
fc65427e0ad5a7130214406340aeb619
fc65439de223443347fcd6305ba20ddf
fc6543acf4982cb4459f6e0523b24c09
fc6543dd8515dd47ef4762af5d75773e
fc65445e70bafa2497206f5551636ae0
fc6545e0d5c720df193f8806d7396f7b
fc654697fc76f4f987b1bd3c6af5baa6
fc6546bd5caeb3d7d74bc025f3627cde
fc6546d0ee015d28eb4b9e72387a2b65
fc654714c386eae3af5acd68ff3855f6
fc65477a94ca24ddce2921285c9f6e34
fc6547ecb6ca974ce88515852e03490c
fc6548dca90cf20189aa94534b5df447
fc65494246950f0cf985ad5f1d84fc87
fc6549d54e05715b3606d2a8517ed01d
fc654a2a248578df2d9e71231f8058db
fc654ac049864d55afb5c2599f88b755
fc654d5551bcebe7e2d1ee0b0864f454
fc654d7bb9a2b097f5c7fc7016f60890
fc654dd9f0a936b44662ecf0b819bb74
fc654de367c2d7bc023c8c6ecdf8c2b4
fc654efed32a1a4566d4bf003cc03c50
fc6551c21b5952d225d2e0dcd373476f
fc655297daf9436d5e9f7c25c9261aca
fc655401ca533ca100cb4ed79e5d07f2
fc65541622b53b121302908bc50ccd39
fc65541c496199fd7d6f837d073a6720
fc65552b99472293b9e01b07d091a667
fc655582117332d790a01fd516240630
fc6555ab63b0aa305f908f20dc64e22e
fc6555f40d5261fd880d05972f5094d2
fc655670b0c8163a3e63f887eb393d33
fc6556aac101087ab25a8ddde43f4762
fc6556d5f528acdfaaeff08cd3ecbf0d
fc65575e05fbe2e62bc9651a97de5142
fc6557fb4744d3a899c95bf615edb28d
fc65581853535edf816246a988d42721
fc6558230d38ed06e25bdcf8a8b69d36
fc65592dc85b718f94bd0921576d8388
fc65596185086f55581ea031a8cd3f0a
fc655a9c585631163ab8196a0d3cd9d3
fc655b572e3c90e22374840c2c482f7c
fc655b68c62d9bf7fa1b227cc6c354c6
fc655c49d9e1dd6b4164e2a4e22e17bb
fc655cd5aea4327bbd61026dc130d8c9
fc655cf98e67a4d2d0873e0639bb6940
fc655d0de4a0901787c0f5cb699f40a0
fc655e53f9f3cf05ff30ef3bf6c3115c
fc655eb52657800072007a53b9fe8cbb
fc655efe836e1d84920e172e74a48436
fc655f55d47267ddc0c9c1e81584b448
fc65627f7970b9003c7535da5068cbf6
fc65634edf1eda552ca6cb4d2fd387bf
fc65640466ecab28298c8091fec0a8ea
fc6564ca1a88904bfa1a50891f20292b
fc6565279a22fc375eed8aa1f41594b6
fc656535cf27ec75f24f966f9e1df124
fc6565a4bca4741072bc28c4cc864a83
fc6566242bde3e5960f06e0f8effe022
fc65675869ad6a263e355c3b3cd5f933
fc65679ff08c73a3b3b2c1d0e54c5a35
fc65682ed44e6b6c4ad41b7a26e69dcb
fc65685839bb52107510d6f156f7adb2
fc6568d2e1afd378714791c7b0803634
fc656926a1c13a68b34523a519767a01
fc6569c35e048a8fc7eb52c80ca218f5
fc656a5e1ea37bed510995817821bd06
fc656a6c683a25616cbcfb4b2f9bc942
fc656a89f43f9d0f46f1f50fefd8dac4
fc656b31bfa1af8d33c3f65b2ce94ad7
fc656b3e698ae268b9a6d5c40b559896
fc656b8330f4a98acf54ddcc535986f9
fc656ba9b0f4d30450d1d389efb64449
fc656d104cb31ff52e6733d173ac60ed
fc656d518ffaf05b98b1350b8e389431
fc656dab15a9c1f979757270fda89ba1
fc656dbb8e288bfb6aeb3f2056f3e532
fc656dc82fd0192d9ae0c4f9ab38474c
fc656e2f69f0bc66ac7dddafe7e8e794
fc656e47ebcae0a92fcd26c2ffd6e778
fc656e56210e9e23c3153fca50c1b9a6
fc656e7782a0d43bb8a9b4c706335ff0
fc657024a13dc291c7a6f277098523b8
fc6571188813fca1c5f45d2437c4448b
fc65715604d46780b8438ed49aa3a7c0
fc657172fc1b6ece41ece9488f7fd9a9
fc657173206470051993aaba38a52694
fc6571d63a830de0f8998b4842796607
fc6571d7dbb449d0fa09fe2bfe5199d8
fc65726ba128d9695afbd950b4e61c35
fc65732c4f1c40d8bf26680dca1c32f6
fc657493f6eb345c7670ca9ac081dbf3
fc6574c790e22e3912d0f6ce7d1a3990
fc6574cd0b0459ecd28e2431a8ef02ae
fc6574ddc52cd2a45c947c279e7acfe2
fc657556fa2a171adc359d0aff773953
fc65786c6e1cab1ba0be824fce3cc317
fc6578cd84112363ae7d51e326a0e894
fc6578e412a434dc2f41911e9be3c5db
fc6579062faa7d08a87b2691b57b3a1d
fc6579769376067da42a10bb3266ef6f
fc65799ce74c955bb362197253a305e5
fc6579e54dc29559c909ea4fb8fcd2f9
fc657a411b6b6b0e4a4b5db66d355b0b
fc657ac6e120f6566de0bf8238c9f440
fc657bece2e3c4d81a92ccb958ee61cb
fc657c5e730e6dcc5e7df20f97e56057
fc657cd1c80a2876d2087c8c7eebc534
fc657d4e92f82f3fb6d80ae960766c17
fc657e51b817ef5a0b30000a3139e3d5
fc657ed3acd405d5e529b9d8daf757f6
fc658002ba52821d173a35f153667f5f
fc6580556c2fe6bc126e69e6eed95369
fc65817a6778efc7d08a23af5d58c2f0
fc658195d4e0af191b52fe603cc1fa30
fc6581ac5a61b583f61d9ff1db360d1f
fc6581dbbfc36fc7addc616e17370109
fc6581dead21c98b1915fcf934dd3b2b
fc658214d834365d2d07a994917c0fe9
fc6583d76355e547f2cde4e51cb39f99
fc658419e8e67e3170018a2ad3a31640
fc65855c1190e71a465086c78be5a7d0
fc658579eb2da0d273c309ac7c591ac7
fc65858e583668265a7a2508863e6cec
fc6585a1e0e24b580a05050b2f971bc0
fc6586c1368a3d692f7e0c651a195630
fc6586c46313f6f2478d6fe50f699525
fc658717762e870d48063984458b9b90
fc658783064c1a67a66fc53d927d7710
fc6587a0b077a4f8a68880fb61474649
fc65883af8da3e692115ba29c519d3db
fc658b26dc89a014d5c16004094a62eb
fc658b4e9dcc5914e454e752ffea029f
fc658b88f32d9aa2e0f52e9dfffa3b87
fc658b8e7711d6117b50044c1f7efb43
fc658bfd579614273a00b522aab1596c
fc658d1679c88585fca0abd2fe9a39a4
fc658d82d78eeff6aaee90fc964d3138
fc658e41991cd8ce3d2099c7f51a7130
fc658e73ae90d5c4127fb5347d23162b
fc658f04a10c46cc464115a5d7259584
fc65905c131edd0b58356319ce3a1f90
fc6590bfb3bf0232be121a7a4b714be7
fc6590f8601fa44f9bb3615e5e7d1c83
fc65928d271e296aa598b0b3e399744d
fc6592e51de3ae0e568298eb4c918a85
fc65931dd15192d5dbce4b977555b61b
fc6593465dd14d0d822cff4430e150c5
fc6593bfcdb01e6e352f799508dca019
fc65959150fbed103aea064207080b14
fc6595e9cb542d76df2d99971c62a1da
fc6595f307b8781de27e8e753e68049d
fc65969a835f81f032f35bcd603e20df
fc6596e044a8a4e0b5615a29652361aa
fc65971c1746aec4b24426862d55f2d8
fc65997ec2d11307902945eeb04e8f7f
fc659999aa5c411ca0bc32f1bfa32cc1
fc65999fcd17c37f246ef1767f70fc04
fc6599e919e5fa26540ebab05c6d6cb3
fc659a19a2f9194a744d366438594acf
fc659a50a185786cb72a84da3a5deed0
fc659ae1c080bf673ed6706c103c67ff
fc659b95303f18c04da4da0a3fb9cd26
fc659ba25d92c762ea577844874dde49
fc659d51e4a7b92e8a3b46a3cf643a5e
fc659e2cfba3d966be153eaca8a32093
fc659e397e442b3f5df7c5c0b0cc99f0
fc659f10eb6296a068b9776d9f0cb71d
fc659f1af38199b3d30c7c21d479e012
fc659f761d7d45983c51263051efbe86
fc659ffb8e607f23e031b30ef6e6eafb
fc65a1642f11aca02ed2be332f0b5100
fc65a23d98ad937568d0044c4b39852c
fc65a3b29ec60337351870c89c133100
fc65a46bca5e559077187c1c39dadf2f
fc65a4ba54dc1bfad57736c25d281663
fc65a4e32e87a2c08266f9a84a292559
fc65a530ca444dc2705b38b67fbac776
fc65a571d5ce419b0188e4811eb6db9b
fc65a7e32b35814ef479b6aff2ea9e2f
fc65a80d6c11cd0600da3727661fdfdc
fc65a92523da12e56cd48b2989c5382e
fc65a97ea87db67b693492da456c79b6
fc65a981076bf7c9085931b7f8b7448e
fc65aa1bb0140e062f5993240debb4cc
fc65ab766faf88485d74b078dbf75e3e
fc65ab89a52cd1d1f10f1c07f630dcbd
fc65aba9aa2586622d49cacec134a489
fc65adb6b5de95a502e3f0bcd18b35cb
fc65adbe6ce72291f75ccd3a36fd755d
fc65ae3b71e24d37300dd53e6bf61475
fc65af5211ec58cf3301c71dd84c201c
fc65af6ddd4cb46f8a293977ba5f0819
fc65afe56895447697aa5a39b3fbfa2b
fc65b0d642c66bfe543f610d94263c8f
fc65b119c0c9cab53cff5255601051b0
fc65b1aa11b2e04ab7e1e5db49645a8b
fc65b1afbfaca8b6bf20bcabcd0eda5c
fc65b2abba9726b133d9e9e16ad65522
fc65b2ff3a2388919e83f55c8ff85ad0
fc65b568dc05e4e8bd8cac0c2981b319
fc65b5f5e3888e9585b3be7948179c1c
fc65b65251648b90c8382f2e26e45e67
fc65b8ad35327cf5a3347554a105a894
fc65b8b4fc612c4f288e7aba67b35b52
fc65b91d72d85848275d4e1245cba011
fc65badb228b4d0234ae374331c5a6b8
fc65bb32038059c716095cdbfa6cac1a
fc65bbefa38d04c5d15e8392b722f48e
fc65bc44e9ea22c1285ec3e620810ccd
fc65bc930817c4defd9635fd44569a1a
fc65bcfe35ae1073f4c480e5937f806c
fc65bf2284e46b490ed5b8d70ff4f045
fc65bfaea7b1ca4dd45a9b2a546b5cef
fc65c009f500eed32481b5bd558a44b0
fc65c0309c83ea9df14a526f567b9620
fc65c15ed681eed66bbca91011f61b3a
fc65c286029fe9c464920336d2e6f9e3
fc65c381e33d79223bab86a9eea3cc3e
fc65c3f7d1fce2ce44200b8aaab1cdb0
fc65c4603ddc83df5984dd35602e3a98
fc65c4b59c003b1eed955117cf51a08e
fc65c603ae8275c142c72f6a75049876
fc65c61e1b2a6388972a30958cdb5ce5
fc65c6815a47ac3db23b8b604f55c390
fc65c738e751432cfa3c638d70db11bd
fc65c7fcede99de95bde6e867edac220
fc65c97aa6f00a9bda9a79d57afe70df
fc65c9c0d9680c68a8461a3556d76e60
fc65ca0c69900eb934eaa6ca51ec6b20
fc65ca2c81a6b93330d4028035c8d047
fc65caf7f6e8c603953040adb4b5e755
fc65cb1daa143cf45b408dd973d5c20a
fc65cc508dd92db290780bfac7c1cc67
fc65cdb737abeb8dfc981772f1308140
fc65ce357cd0bcece2dcc588c5102363
fc65ce6e78a9e26fe59718a1e15aa214
fc65d1c451128d3dadf0132e12ff550a
fc65d292281dda1acd5df49071361d40
fc65d38dc1b7fbfa8cab39bd6a83f2d0
fc65d3afac57b8db152ba9cdbbc6c335
fc65d3c249c86208add8127f49e96d41
fc65d481d345c52d100b5e6f328fc352
fc65d56b1538ed8ee0f9efd52617af56
fc65d57646c86a4e09111af182486bca
fc65d5bd845b64b3adf6cea87c241baa
fc65d5ee94326a8c753a76d5eac1168f
fc65d657b4aeab9b931ae520e3b92c5e
fc65d682af0d2feef8c26b952b91ff2d
fc65d76da1add099ba2df927b3306b9e
fc65d7e695a293635d0bea59c6ba383e
fc65d891bd8d7d222856bd7547894b5b
fc65d8b5565152d2ce6165b733760c58
fc65d8f8231d025edbc22de84e63293d
fc65d9c535d4ebd4f1971f1bab953c30
fc65db09a827b15b1a4c5d1e46e79fc0
fc65db424ff67e0ac814a386152588ea
fc65db480445754f2821deddf9329142
fc65db9a0805cef1122bc549422d88be
fc65db9bbb1ae0cb541136c5ce2988f3
fc65db9d7e81ad937f26258b2d0f69fc
fc65dcd0043c6cb99025294e4895d334
fc65dd0623f5a2f0a4a8ad1c6439067d
fc65dd53073c954f55de818db635989d
fc65de007d7f34b56e52446a1016fe9c
fc65debe670209c95c5e28d4d681e7d6
fc65ded8a2eb1e338639949c11508cda
fc65e0f721fc421a401405683f4b51d8
fc65e13e1a5f33094cfead184f0862f1
fc65e155b8d72c4b053fa4b27ff6a498
fc65e29d4a22e6ed5e9ba2effaa65692
fc65e33f815acb89a69e7e0a538383d3
fc65e42171b26c4058d65ea6d9bf14b9
fc65e434d658d6954118055b5559d138
fc65e584190a549c20bf46876692f2b8
fc65e596d36c75e109607f2138070703
fc65e6228d4a7d5316f116e2ad3f4d61
fc65e672461571c733eb37a13b023cd9
fc65e81575e1f5cdf2b611833414e8c1
fc65e8621a693f3f32e658168665e391
fc65e8c286a88e4e82607ac14d9da405
fc65e93d9c928972a3a5cce98872c335
fc65e9c444d0faddd5aab5f4e5a107a7
fc65ea0eabaf9a158bc8dabe952dd290
fc65eb374fba51e8cbb00eda0ec4bd3b
fc65eb37e01338b75efb9d68295d3361
fc65eb42ce3a8a1f0df0652079f34106
fc65ec727919b44c9d3cf72a8b87936c
fc65ee74472fa6d62ce6f214abfe1166
fc65eeb89dac51f728828d7dc95e6f17
fc65ef40811a61c44f3d7874abc516d7
fc65ef7e225a2f70d7b078a6b475a940
fc65f0056f6f4cd97814661aad6ea8c6
fc65f13b83562a850c1279b2916a2a69
fc65f1497a58c6fcbefaf30e384c5c26
fc65f1945834d5072302675b43c800ed
fc65f1b98fe6cb33499d872f672c4ac1
fc65f202abfd6a307651905c52a42321
fc65f23e3c798b08643f675f40b5ac09
fc65f2437bc8babe5ba081277e0acb80
fc65f2898054dcad9093f76f332122c9
fc65f2da5ba8c7f6a1716dd363702242
fc65f31dbb176816760ea2a86fad3037
fc65f395e08456ca21eed5bc7ea70e27
fc65f49996714201d436577291f860ad
fc65f50622653443e898c5d9d7db38e6
fc65f65dd10179d6d595727ec33f8cde
fc65f661c0f80b535b2fdc8b338233f4
fc65f6a8083c7a4f19eaa99f1febe87f
fc65f702ccaa39232d44b23c0641bd3a
fc65f77e58acac1dcef451ca40edf04f
fc65f7fdce1695dc0212800ed36730bf
fc65f8129fb8e85b6cea612251ff5009
fc65f81f742475408ac151bfa956e5a9
fc65f899c75fa2e0fad7f7ef52777ab7
fc65f93263893c624517fa6c5570033c
fc65fa42f2330b6aa91a5e4bbc7a4a96
fc65fb207d29b9baf298b1ace730fa60
fc65fbab1cd971b9a953334b2cdaa899
fc65fc243ae54afaa1cfa13a366c82e3
fc65fc62cb7faa8d0a4e85de9ea3e1e6
fc65fc79cfc341c1f2f9db5dc124830a
fc65fcea4a9bdc91fac32d4023191b00
fc65fd712e5da04f67c482aa17bb5a57
fc65fda7f40e451965be788561e6ce66
fc65ffa97cda2af333266daafd27eca8
fc66000d64d3f1725e57a21c717a4c64
fc66000f99555279311122e6722ba7d0
fc660055b02905557d98075babfe0f68
fc6600b881bad76b361bdbe4120261eb
fc6601d788e28a2f110f99a603c11254
fc6602061c2b7c7d2802572e5f8a2f77
fc66025593dd7dd3d043880d2944903d
fc6602680be9388cf0c1e50149b7d353
fc660322bae8e0bbf54870acb17aa6f3
fc66032c1fd9ce29af25f9591afe6605
fc66036c65646d11b45449f39d678050
fc6603d8dd510fe2bb759fc13f9a93d2
fc6604a6be19db3fba94b7924584c3ca
fc66052f4c7abcd1507c1e3e94c7ac13
fc6606e3a1e62e55eed77e623b66a8d4
fc6607f17d9ff49f52a8fe682c789ea4
fc6608601e7e6c1bb67bc16b825d4910
fc6608615d716cd82324249ebcb931ae
fc660893ecd207961b858c1e22ee52cb
fc6609caec98b188e8dcf2962c904dbf
fc660a8d81305a890176c80ce517de18
fc660b8341931a27b49ba5f4235b8f18
fc660ba9b507d234205de62fb983bb5c
fc660c3ff29cc342329da17800eebc1a
fc660c939f6b3f25841592cf50526d77
fc660c9cfb71c63392996b5e497eb1ca
fc660cc9fdac4875261f9cbd5963ba33
fc660cf1d35dffb70be9e368da68045e
fc660d39a5147f39fe257abfa6e4637d
fc660dca5f30ff9ded5c947711092691
fc660e52f704e5ed5e76c4ef51384c3e
fc660e9c8db7acca5b602b9ff70cdc31
fc660ec56605c415f177fe39b424e0a4
fc661066d835c502f4cdfe4126b368ba
fc6611617e57a75aebf8f0ce72782101
fc661181a9c7102481e2d33d76adb70d
fc6611eaea61435dc9544fa8c0412bd3
fc6611ff645e957f090a3fad4bbb6850
fc66125b8465575d833b482bbb900b81
fc66158f58f1b5a990d0bcd0c5254499
fc6615bf9278b2222faba77ba22cac63
fc661650400baad058be10e6af5e714d
fc661676336e45ee12de92e363f41be7
fc66169d8dfdb54dfa7dbee2ab781837
fc66184dd5fa7b35c3a3a2b248078256
fc66186178dab93769373a500565e807
fc66192a2c305a693b12ca03c433dd69
fc661ae6ba31b4c30a9c18cc4c2e6f51
fc661c0749e6b8301f64fde456e29e69
fc661c879b311289156b47df500f1d99
fc661caac4c65987e844000fb9da44a0
fc661cd7312a47541a892effa4d83388
fc661d530f261e55f1e08f3f1082e45c
fc661e9e1adfe55902b82ee8cbca3bba
fc661eb0f3fa8b263893bc9b64ac325d
fc661ec0e167de5d41e999280a0a21d0
fc661f0a7dbadd7a4a3ccc0c0ab754c9
fc661f4b58bf9a078809c846ec1ac2bb
fc661f55da70188099cef6d89753d1ef
fc661faca254be4841589cee6702cd36
fc6621193511a73d8e6dd23f32e3438f
fc662176eb1ba16b05e790685237a4b5
fc6621efa6dd0026c5b6d1ae25b0b584
fc6622aeb30461f14f7eaa821e716cd0
fc6622c61a0361ba35cd91da9ff16d30
fc66231d57a7dd386a1c2ace0357abfb
fc66234078de9238fd46dd3c57e5c868
fc6623477a533b7ec7980ec19aa1dec0
fc662423acc31128648264a388e1aadc
fc66256aa05b752f1a85dc6d2670b709
fc662677c6c4eac6f1adad6e4e81d572
fc6626a27f530603c6dd3e11a9aa6560
fc66291c08fab92aa5e47da9e33f0730
fc66293618011695309a0881eae610b6
fc6629f56e78e546b9d4a9a3acc48bc0
fc662a118ffdf1360583d6d9ad275c70
fc662a4253a9d4eaf6ddf89ccaf793ec
fc662b8c3943b9cdd359c524c7b7973f
fc662c242473db67a96dca2278c717b1
fc662ea50222650a27ec6adf38ecf2b6
fc662f3313eaab26fccb4fbbe96c3c82
fc66302fa8817daae1fd03f220cd67a0
fc663324f5831a333ecf0bca44ee01db
fc663411aad45b84d40c747ba03857fd
fc6635d674d9dcc9ecbbf2791bf6e527
fc66367435cde5b2ef67581cddc9c0f3
fc6636dd6dff3436c773775517a44250
fc66389ad65da7a0210102ed89bf4f99
fc663a08904e5641c16968ec6fefdd72
fc663b4f9d5eb58fd35e7c79e47b8c9a
fc663b83484a58a12e3b3a0b600e09e2
fc663bbcb5430aa40c2062273e777226
fc663bce7f5dc04d4f8281ba526779a0
fc663c453bbb89850fd89ae663b198a1
fc663c57f116cd16ff2a1cf428e11f94
fc663d3061349d5140d77c8bb8a73ae1
fc663dbaae50db78325a933630b89950
fc663dbbc1f35a40d3efa138aecd5a19
fc663e22bf6ba2599ffef08c7936831b
fc663e659ff245fcc8bf1c74f6b99675
fc663f552de4df1ace423c052cc42fa4
fc663f62a59903310aeb93ba62db661e
fc663fe181236febf4fee408bf2b3973
fc664096a68c19afacfaced7e593dd84
fc6640ed30a6fb55ad4bab3effb50c60
fc6641a80e1060367cb30340ebeb0b29
fc6641b60270f23dd3f60b5b66834623
fc6642a413b1dad894b88c8a66de696a
fc6642c2cf91c9716773a3934d9cb205
fc6642ea427b62f20f6bc19febbaf067
fc66430a232e05ba4062adcdd97db837
fc6643be272896d01cb8ef9314358dff
fc6643d5bb5ed688eb99d3c51a7f63dd
fc6644bbfdd829ae30b06d5c6d988076
fc6644f22964604bc1d495ed01f584a8
fc6644f38a156c928137a93de1a26b33
fc664515a641c9874c314113ec5461a0
fc66454df56d58039c2ddc2200b2b10d
fc66456ffe30e0c7facb471097a99c4c
fc6645cbc509adec579c3b9ebbbb91d7
fc664612ca14684258e8cf8d928e41d7
fc6646731d38e29832c8ff7b3616dca2
fc6646cc92f229d42510b37f0332ac12
fc6647df2f6eb2048ae1c741b005c9c8
fc664805fb984d62bc221848139ca6f1
fc664850c5cba6465ba2bb8f4408c70f
fc6648770ab8a6330bb7f5a6740d4ade
fc6649c2d872051704f4ed3a9ec66c63
fc6649f00eb14058c007bf7083ddebd2
fc664a47f0b46819dee8686c1a0e79c0
fc664ae1d134b7615fca422e9c0b29a0
fc664c1b451fc35d5ac4ee301748eaf1
fc664c7957b8a095bb6480b7c5896cba
fc664d2d46da7f893793c63f23efe232
fc664e5c12998847f238a7013c8814ff
fc664eb0b14bc277ebf0c2ca55b2e490
fc664ebc85fba79fce26a199e217f698
fc664f32976993965ea1fceadac77162
fc664f8e82a854f424e0afe9ffc4137f
fc66506d87da93c6118c62e5cfe6ac08
fc665100ae8f1c3200601613f0ee87c3
fc665238cc7b9346ef651e3c4aa99d2d
fc6652716278ee26bafde00ef44f70e6
fc665296c2397d6136444c423a577aa8
fc66558f95012ce3b263a6f8668af1c6
fc66573f8967c9e560cd35c945c4c185
fc6657bc830034ee3573cd855e5bb190
fc6658130d85cfa86d24268579d8e144
fc665843bfe053a33aa743ec980e8950
fc6659fb482b08a7885c5db1f2f89725
fc665a07f64c5269b1d3ec8327738b6f
fc665a8490067b97769cdb44faa4311f
fc665a864c359399b91d669520fcc537
fc665ae71f48650fa6a05b9eebaf673d
fc665b52b4b3e1dd34e0548b037199f8
fc665b76ed894e7cba94073dce696e20
fc665bada39690d0722b1220f4c71cad
fc665ca709bb2cad520f6781c068f983
fc665d673806c7ff16ea27cbec336f40
fc665e8667f42a04f50e45f5a114f0b0
fc665ef3f80a31838b2de2c7acfd8b4c
fc665f8b8dbd912a648a8f6215729d92
fc665fe482878d5330669d270c969549
fc66602a1953b561b44241888780fd53
fc6660d51db427c18e0a2546314b77e7
fc6662c597a6ef36c89ac1f18378f310
fc6664497bae4c69554364fe67702c42
fc666548225f88ff416dba9f974b14a3
fc6665e98380c1ee4844dd83f6472090
fc66668aa0da7d3644e455dbf5fa15cb
fc6667eacaaed9af68067a4bea167650
fc666879933790111486fa8d30cdfcb4
fc66687afca0a87e2656ace4887a03f8
fc666901fe31c8dba1a84d61a36c3d30
fc6669844adc63b228abe42a23976b55
fc6669d4c08984be122289491d876a64
fc666a5b374b89f201c89a30c78128d4
fc666a9112729d3bead7a4982c3749ac
fc666b132ff285dd65ef89be05bb7307
fc666b1a5768b1b90a4f9de78291a67e
fc666b71f2be669f5aab5a62376518e3
fc666bec857e1018f5435d888a9e2431
fc666bf24a603b489fa3c856759f0ca0
fc666dabd4954ba4513c85da78dac413
fc666df244d43e1a4bd0765fdfef6327
fc666e52e3a16748874ae4d82d99e3c2
fc666e8c3f02e4208ec74b874876f258
fc666effa84bcbea00a667f1fb171df7
fc666fa61e64db1c3be7ee3e0cbf565e
fc66700d79cddde45023105108764c30
fc6670c233a0c5685a4a0df7e8a57e0b
fc6670ddadee6c06ab3774b7baa6ef8b
fc66713c65d2ee90c268545d8658b06e
fc667263f35500e30cf6a3b73abafab4
fc66726b33e42a17ee8b9ff8eed88c69
fc6672c9681b36da00c444a74140396c
fc66755afa88e6200029fea24df8e8a1
fc667644fd47e7c27fa3e65e40bb846b
fc6676bae4818adbefd424fcbe7232fd
fc6676de951ef0cf94f832b7431668c4
fc667711dbaf2be81d0b49f64f548fff
fc66773a9f2f5190453b1eee666dda60
fc66775ab26322ab68cb40227d666951
fc667791e7ab0149b1325a59605523fe
fc66785b546d433cf94031d45486951e
fc6678a412d7a1a18e29f1b8e707bbc1
fc667952a37813bf8713e405e0fc51b9
fc6679634e3d8405767bf8dc6ee6f67d
fc66799ed21cbf20ff47b9e3a073bce5
fc6679e5a7c076c8ef2eaf6166fd7269
fc667a290b91586019d7c4b7952b0c4d
fc667aa395efc61755f62299758885d1
fc667aade6fe996efb7915d2bcb25f2e
fc667af16bd2d22cbbdb22b9e6342bb7
fc667b9fd9b3b515a1fbecd4e7d87d6a
fc667c23d573740f489c7d00cee82788
fc667d318ef46732bf8e0e764bffee3c
fc667d786531324f85111ce3cd7e1110
fc667f5fe99f5f18bbeba55fa50afe7c
fc66829ac307f9c5e44444b3496b4859
fc6682e55d6f84260595fbae7da2c9c9
fc66837fa8784603ecea16dfd7421d40
fc6683a43bb7cc916f389f9e67b3f230
fc66842d793169bf1148464033a0c311
fc668574ca38559443407feddb5e2750
fc6686066819e0ad130dd9faa73893a0
fc6686cf32f43e05f979171f0bb46465
fc6687815c5fd254e0fe62802ef3c905
fc6687ccff375c21dbb3fc8e02a5bcf4
fc66880b8a87033102789ce1fced33f7
fc6688c3fa988e39a70131e8bddf25c0
fc6689a9a3a2a86e73d6d88b440e163d
fc668a531eef1a8df3977be710ca0a52
fc668b1ed0069672f8136e62ebfde064
fc668c630fea38a75de6866d1593e6da
fc668d588b26a0d206cd721eff38f697
fc668d5c98d6e30b410f8ae0b9ab828b
fc668e4cab5b3315e1db37b74060e3e2
fc66903337cee883b4de63829f192f29
fc6690519ac5100a68fa8ca20d2f9308
fc6691fed2329e7e4e6d076a8569bd43
fc6692999e07cd421349aeb3cc807032
fc6693f0a568db1011978d8a5895207f
fc66941b0d6fdaa15312fe405bd53e87
fc669596ec9527c6e970795c75965a62
fc6695a631c6bd46a0b7bd39eace5d7a
fc6695b9754d9fce918d3384a978c070
fc6695de238ddd219360df9c6b58ab94
fc6696abca127579311476729a6bbcca
fc66979d412140b5b3c686a84fa6b708
fc669864f6c6c2c72171233f7f839280
fc6699fdb044cb30d5d75aa89e3c6b10
fc669a2b196c39b4db021e2b676d7ca0
fc669aae8195562fa26f96493f43af51
fc669ae50b67608596c3e45a0b3a8474
fc669b1ac6c1dbceb7ebd06de7132c70
fc669b432d710770e72ca74687ba0886
fc669b570f594a11613fd863e9bdbac2
fc669ba51021ebe12ac92ae805f4da3f
fc669bcdb5301f1619dd36362ae72b62
fc669e5a99b7c1a169d997fd27d5b9d8
fc669e816d4dbbe05cca56c16e75b217
fc669f1074c30bfd0f95ae2471da7211
fc669f73b6a3348f15e44df3bd560a7a
fc669ffac86ac69dbbe79251974ca187
fc66a00b82a5eda9b6a6ae2c41f580a8
fc66a1063f0bb55d0167643ca886e465
fc66a11db3686bf17826082151fefd67
fc66a19bb5a0591d47c70f503a291bf3
fc66a2582bf03e8e61c3675e05642bc7
fc66a3798dda4aaa31eb9eef646108cb
fc66a420a2104f81125cd91b9a1a8a2e
fc66a45900afa9f1ee9af1ca4f6ebef8
fc66a4b34be8cdece7934df19df55ce3
fc66a527129ba9e347575b2528ae39b9
fc66a6d9c3d21f0eb3664cd412489eb0
fc66a724e60b7a60041cc7e473ef7c64
fc66a7362e3cc436665948204c1b7db1
fc66a8da1ec558fbbad3aec003006004
fc66a8e7732be7cab1d15ed8c106fc7d
fc66a962995468a17cc2127cde32c243
fc66a975e9ee5219cf3b7ae7a58cfcc4
fc66a99ebc848f6453c33f3a58b69ef2
fc66a9f39e214bf4b95760532feb19e0
fc66ada684fc2098d5c13d4884c85255
fc66afbbd72b5b09bdf6e991f3ce3a32
fc66b0a04c8e5c372424882604eb228a
fc66b0a7641ce6eaefda2d75935ec4d1
fc66b0b0ff8b4ce4e36081b637fefc9c
fc66b13e233ea51567ca1bbb85b17d19
fc66b167b6116dbbee9e312f1945f698
fc66b45be15c653b50a0c4bdd74c39dc
fc66b4a91664cc27ca070548d446bd70
fc66b700b37f0d449471f7f511372518
fc66b7875add3e5507b88048937fa4af
fc66b81d41723a41525b3c0b83afe25b
fc66b9a1dc83fa48e3e6a8cd45485105
fc66ba4bf66587413054562e2ccf8d1f
fc66ba6cf8ba2626a8257d64ad95ce5a
fc66babae57040a240c4dccf78497780
fc66bb6deeb3491f6612ce99701b1246
fc66bbc0c26d0bd9c93d1e8debd2c9f4
fc66bbde013b2ff9da1a544cab3bd364
fc66bc6fae5f8bfe71e8f957d59a5e0b
fc66bcb28c9164d0e2b08fc1e8b5fce9
fc66bd45ba2371ebd72a4c703962076d
fc66bdc6c37a05e081e99c43107781f7
fc66bde16e51960683afb381ee1e849a
fc66be32dcb619377f6fc45b9b661853
fc66bfa8176294c7ffcaf5ac97b5b3fd
fc66bfd366bfa04c3faeacfa01d42bea
fc66c00660054b8b36722845ac58fed0
fc66c01c279fddebff11217edae7a89a
fc66c0b8286d3e6c107b283ef74a04ad
fc66c25e31b603a14c0dbf5471418396
fc66c278779136a786f562f25b5eded1
fc66c3c0257af823099e2c1e213f90f4
fc66c3d352448f2a79d83178c9245562
fc66c459434843903b24a129126e4b32
fc66c479c6fdc8895e1321facae08504
fc66c515fea53bab3dd9f5ce57b7bfd3
fc66c55b7573ccdfc121d2ed668b66a1
fc66c569c4f120fe3683008b55ed9239
fc66c5cfea2e5deee22760a41d7e52d3
fc66c617f40f120fe6be13b1209dbb6a
fc66c6fa376e3e543354fa8bd7714457
fc66c75612496826f77c00c71d80cf1b
fc66c900bfec5cbebab17dc45d231707
fc66c912b9ce68ea91517da855bec9f0
fc66c92a752bc34ba6acce65e13cdf77
fc66c93c3b4d759dc8c821b3b49c2248
fc66ca6bd5aada14b0a34df000a27c5f
fc66cb1a7df8c6265034e15852e54918
fc66cbf109072372d6f9defb9fad6e8f
fc66cc0df716163f25096e22bc4e35b1
fc66cd3993eb9004fc6ef48573abf77b
fc66cd55977f28c88d6ca8285b7bc0de
fc66cdf7d358879378cb33895a2c47a3
fc66ce140a1e9a1d1a6c3b8bbc92e0e7
fc66ce2df8434178804e330265a7ab49
fc66cee53fa95a91f782e3b4cfd9f0f8
fc66cef50bb391af804d8b6609cbbcb2
fc66cf66c9e4c6c1dced87238ad969bd
fc66d0177cf3aaa5c712d8042495f172
fc66d0d89ccd010d776d92bbc3931530
fc66d1e8fd5e1ac9c5ad516536f491fa
fc66d22f6654d9a86c94722707d2a78f
fc66d22fec06ce62bbbe51530d3b7d62
fc66d2d6b54c8f3192acfe6d2fb6137c
fc66d32b80c1dd9f88f17e9d087f80bc
fc66d47bf118809605beff723a04525b
fc66d58547d611b8ddab8669673fab94
fc66d624c01561c654510e318eadaca1
fc66d63fc88d9dc8df38c1045d54d0e2
fc66d6be645c20c83104f83b9a148a10
fc66d6c370cf661ba08652777a2863ff
fc66d7087d6da9bfac6a567cde1d6a65
fc66d98017d28eb17ceabbc271f17419
fc66d9b6cc4ada24439e40a30b70e7d2
fc66dbb8d4c2ce3aba17981fa6db6b69
fc66dc922ee30a956bbb0c43ad7cf7f5
fc66dcead8d868689239a12d42f28330
fc66ddfdd79c61e29f6734597f38b846
fc66dfc6b5fecd0ec9e678e3ad053fc9
fc66e0735f4ed5cca087fbc2970c7905
fc66e0754b9480e6d1924b0ca28fa385
fc66e192375a5e951106254ec98bd490
fc66e1ae7be4405d255fb80726c5d1d6
fc66e2e9a43201aa4d81e1ee7f0a755f
fc66e33ae916b5a09fa8cb5d0567bb61
fc66e3aa9bc691aa385ad73c33a48e24
fc66e52eb43da05f5bfdf56d48c94767
fc66e55aa6c7e0e34c293f3bd95242d5
fc66e5655e89775949ff1d5212d0d465
fc66e62eeae143764123ef8c91313255
fc66e654fb6c9402263ea0afa5ce18c0
fc66e692962d20ba38872ce778aad016
fc66e6d1e143fd969ad70cf6c6030b18
fc66e7c59723245eff187439f0c07a86
fc66e92f16368089dd4dc06dbc3288f6
fc66eaa525c822be27f3b77fb85b5b8f
fc66eb18053e4242b454baf2bf4a4069
fc66ebc08b446b27698be5e8841a431d
fc66ec876308281f08fc740cda2372bf
fc66ecdc74f1160fd01e93496d5e5390
fc66ecfe89e3431f1a4a0feee93b1628
fc66ed2132a50a8080242449291df89a
fc66ee0ff9e2ea86edf9c155c8b4ae5d
fc66efcb037f7d2ac6f8b0ade1d549b2
fc66effdc54b7c23ec9660c058286f7c
fc66f0438bdd490b14b03818e45d8cea
fc66f07c9e8f09e9b29b143f7a4b9176
fc66f085b56d504812618258aa3a07e0
fc66f08934f86a9baf81bdba698fafa6
fc66f18cd8ccc13a881415f43bc4988c
fc66f2bbbed41e6eb78602f3eaf61874
fc66f3e05d89987858b2679a0be153cf
fc66f5976f9abc5af0a76922a6526941
fc66f5aadc739cccb86cc56979d047af
fc66f5af09f365afc42f4ba8382ea9f7
fc66f65117bbcf5acb6b6a1438e571d5
fc66f9a24447b0d17e1d75c359001346
fc66f9e381924b78a97a92aa2524f724
fc66fac8602cd075b075988713b15722
fc66fb72aed1f576bea006adbabc367a
fc66fb97ac6e13923bd9009b0b1c43c1
fc66fbb432f82fd48f354183bb3faa12
