fc7000127027f7e46daca4a74a8e60ec
fc700051eeeb97d0fe4e1bdd630cfe57
fc700062219f4a730730110c42b3b514
fc700064a487650b70374042ae5c6e19
fc7001c49e59128ceebc27b3488bb3df
fc7001c566b071ecf9a6fdd8fee57ee9
fc7002298a6f45877e446df55d4d8abc
fc700319db5ca8ba7898c7afb7349353
fc700385a75384e4e7b75c1fe31daabb
fc7004274f44616bc8466090546433fc
fc7004363d10c7f8f031cbcda522cbc0
fc7004cd058319f952b8501ef30ffebb
fc70051b5b0e38944ab883eda8ba2896
fc700521317f93d2ca6d8eca6c5f7c90
fc7005668e252a21a91ef6ff7cdeb964
fc70056ddc9cd0c6407ba7fff652eed4
fc70058fd517891993221bb279e9f3da
fc7006a5c553fddf8b9b7ef225e68f00
fc7006facba6244b3d788fab1d7296e6
fc70076632da7fff439e982cea2e7b72
fc7007d65a3ccdb60b443be23a720c38
fc70082ae599f07487a6e941b4f39e15
fc70085cddfe25d9be88595364dd5a5d
fc70092d1249cc78dd2e0841ab797fc6
fc7009da8bbfb9c8ff7a6100439ee92d
fc700a35984639fd133ee36356b7915b
fc700a3eb977a0388ea7726413e67d36
fc700ac51a2ad1630589813d8bd19431
fc700b70215e9b0e9a526106b66a8564
fc700bae3cd58d180b99d5a34530a581
fc700bb8a7a8a17cd752a0d8e0c37050
fc700be06ba90ad7008d22ad7a3e0bde
fc700cc29335a812d8eb28a7de2fe927
fc700da05f44cd0e325615f07c2ddbfb
fc700e0c020c5b2a2ea7f4f1d10d2f41
fc700e26889bae974eab6ef054f18c59
fc700ec212b1cc0a655c3f929156c3e3
fc700ee9161736b52cc727942e292637
fc700f1567525d9c5c62b8de247a1a8c
fc700f1de3c5f4d78b391a33df946b93
fc701015c331618407b018b0aeccf9ae
fc7011baa695e8e49ebfc2738c314b1e
fc7011e1a7b68a722cd0ffcfdad958aa
fc7012351844db1fabb6cc1aefaa5f12
fc7013b1ac4798ea794129ac05cf2768
fc7013bb3aa4d2c0e57ae5b18bb61d54
fc70140a930328e945e609c84ee49be6
fc70154c9e12536fd7de2df0c686f770
fc7015f7243297995f70c78ceee3ba1f
fc7016cf8e182534b0a9792873ea8afa
fc7016e0aaeb5017c23f8f2b903d332e
fc70172b074c6a529f6d09fbf153b46e
fc7017645ca33a1d64ca584cfb156ce8
fc7017e249c997b3b61bdfc6ac755045
fc7018e6ceda73a6b2fc97368b11a66d
fc7019d1d213148d878d403d938dd9f1
fc701b0f2ff239f1af4d9ac1119603f1
fc701b54911b0484cfd8f30e6b124328
fc701cc31edf74f4720b23539cc42d2f
fc701daf06bfad4d0efa73708a527aac
fc701e4184abc5619ea92b285931c961
fc701f277e16e3d3244107eb18b297c3
fc701f5f5e536238f428b1301e9d4e7a
fc7020269bf04f3a1b390d5696999fad
fc702061f5b8879a8dc7a3953cd9e8f0
fc7020c204731b15cf053963215fdd2c
fc702175ae922ee96c68407d60a8e567
fc702217be478e7c6b248b332ae463f9
fc70223fe23031d14b2e39e4de1aad8b
fc702318cfc42a3c8f981a75971f4981
fc7023a87775b04fce6449e7eccf6a1d
fc7024acc79e86b378c4890496da32d0
fc7024ae503cc203482949773cddd18f
fc70254c01620eb3a67cf7011c4843bd
fc702591070581ceb72b55c0ff357a2e
fc7025b4c9f4382bc05a17620e97bfe2
fc7025d8731bf7fc158e76279b63a843
fc70261c2244934e4986a63d0b12324a
fc70262a5b507600422219cb49ab031b
fc7026893c166d495271abb52e72f852
fc70268c8975f12e05d027821297f1b1
fc7027284efafb55a27488f70d361b47
fc70281cc33a19b80df5e3e9332c1f1c
fc70290440e00f23c0f2cee503cf0d08
fc702985f7116d59903fc07bf157fc35
fc702a74b3860d3827c3cfea8d9c9f2c
fc702aac9d99a4b9114df5f717b0ad85
fc702af0d88d973ed4df73f743424a53
fc702bbfa3741a2bc0a473871d6ed8ea
fc702c0bb997c2a7d28c78a8c3ac8bff
fc702c34870e0d39f92f11d2ae933903
fc702c5b17a31003c43bb8fdcbe8d561
fc702cc3029e8027f9a5e3037cff8499
fc702cf4bc35657cac61efd8203166b2
fc702de75d5d813bebdeedd38cc40cc8
fc702eb4ca5ab40211677bb7a5d4c116
fc702f8ffc1c31ce342f169943c14fba
fc70301e0ca9e17c1a6ee067feb46eab
fc70317fb37533ebe68da93f378ac2ba
fc7032839d2317b27ba96dbf4fb74048
fc703340ea62d135a5d77dc1606b3fb2
fc703345b3d1ddd8a4775ae67b014d8b
fc7035f1bc63c6cd79d44be53de88737
fc703633d3e90684daa4922879542eda
fc70381506f9e5c13d25fb952737cf5d
fc70387d5e278ae1350e69c84f594ff3
fc70391aed2257436ea8a521aa7985f2
fc703a92316e931bb2cbd1799a576daf
fc703ad1eb234d885e90260be8a406a4
fc703b3ba83f8803eff1b6c9130085e0
fc703c0d533ae4e3b89a6b3f47de3fed
fc703cb84605ce8bce40746e352f18d4
fc703cfc8a458571d20fa6b3f1f312a5
fc703d2f01380c76b099559b1cd83298
fc703ddadd1eb9b0f780505ab43247b0
fc703df3aba9dcc9b3a006438f85e2f2
fc703e3539f14ae36f5b02bf9f941c09
fc703e6d181d16fe26c127c341a28a63
fc703fc8d49513114290c551b04daea0
fc704055cf816a59c92c968907636a09
fc70406a6978bf7695a06da104276cdb
fc704110c25b7391cb8ef16315af6e1c
fc70411600f7f6100eeb0aa5eb96fbf8
fc704146738fbcfb626efaf48c7b7c25
fc7043de029d3a7322b9fa0593c506e7
fc704410cd0c742ddf29cc23b86a9176
fc70446b7104aabb53714f8334d9ad22
fc7044d7861700f1ee9e4a00d6678320
fc70455780f4c0db5dc8d569ff8cb01d
fc70458f74de59ac878597e2df458347
fc704611e557aef42063c1d4ea142c3a
fc7047151c0e0139215c90afc8a66b49
fc70486200c4313bec5bac76809d1c28
fc7048969bc5f1329d7a8e49b71b1688
fc70496dd7d5eaa09d514888bf07b809
fc704b897032eb8d95ee1d1f01e9aa1b
fc704bb05fa2c7ea9294ee167c052728
fc704c0e1dbebeee3ab87db002feff79
fc704d3560489b36ebfb2729d99cde2a
fc704dbe6fee131a31dc649fd724f70d
fc704e65eda5b249d8716307f48881ab
fc704e8a32f477878989659cd545ec41
fc704ec5fe5e1266b86d7549ecdd2e69
fc704f31deef79ec64fae187451caebd
fc704f56521bf49080c9655d93d20da0
fc704f78cc4835a4e47790d7735b8c23
fc704fd39e9ca83a833fb9d87b508e43
fc70500cd64dff27413ead2beee79008
fc705090952ca634c472ed27e9dba5b0
fc705294d470c207dc6bf138ca88dda5
fc705532516fa1930ebba36ba0625775
fc7055a049c0fd76611e47910f995f34
fc7055c0ea7596977361539cd5d675f6
fc7055d2a30eb834b539d2ab840854fc
fc7056a0f19ecd3d541bcc139a9fd2fb
fc7056f055e6a056c0e0ae936d7b9437
fc7057330a50c81515349ea2029c8c38
fc70583148864f93ea1fb2cd3aeed700
fc705879f6968aa9cf15410768c0debb
fc70588fdafafad3b3449379862ee292
fc7058c67ad1e4c6a43565769ec1d535
fc7059203508632ca0728e150e254fbb
fc705b75d21dcabb090809fb52b5cd50
fc705c12459eb1528b2940a5815cc4f1
fc705c87562d24885030ce5a3520e518
fc705c9600ea2ae45f37c93f8f068159
fc705cdd077bbc67ba3251609810a0b2
fc705d795ff9202d729bb3d5376f81bd
fc705d7df876b6a150b44a9d9e0f5a67
fc705dc6bd49ba39776fd8a43ba6ecec
fc705e270405e963a02e869db87470d0
fc705ef761a79a8078c01d3266adde63
fc7060191a8c1d85ef72a23c5db5d9a5
fc7062b2fd0a3f731584287cdbe5b0f9
fc7062c4ed76eeba86cc3149954894a2
fc7064498ab4c63de750a273a6738d5c
fc706557983f6b8f01a8a025ac07018d
fc70656a6cf479fd26c2831733afcb80
fc7065cc983eb4183e9a1d95de3dc57a
fc7065eef04b17d27a881fa098228303
fc70676667b2a4ceb1ddaa7e264c1990
fc7067afc45bd8c349fa08293f9c69df
fc7067ea32755236fc8bd7a7c62f706a
fc7068d2937993820e02cc7d43ad8d39
fc70690fee9e368ee1ea6dc7b82a603a
fc7069a834b17531ca0a7f5301d0867c
fc706be420001f2e398a9cbea9efbbb9
fc706c44f4980e8c5e8c887264cff4b4
fc706c9ca40dd830b45e97e27f7ca292
fc706cd5887023d026bdc9d6209ee3cf
fc706d36f802aa6cddb091306e2be798
fc706e0444c06402fb1a0fe0b043bc5e
fc706e2efa2c7561d047d4cda093e656
fc706e66a65e105cef84297d8492bee5
fc706e7a8caef06a2d22566e395be7b6
fc706f4a1d70b180be7449073e39dbb0
fc706f586869c4c3d2c8c03cf4a37bd9
fc706fe520e5592bae16bc7db3f9d9d0
fc7070343d90ba3d717461033d326275
fc70706d8e5a310c2d3fa109d61ea821
fc7070ca9ca4920fc78ca92b2b5a9e4e
fc7070d75b7f49f56926ce035641aacf
fc70710d73e0f4fd3f73cac93914fbf7
fc7071ac4847dfbbdef191139b5900d9
fc70726aa49b4f13cba8ce36aa2eefc6
fc70729297ca5064023d6a235f5232aa
fc7072a4a56eca5b3a1f311e6eed9e1a
fc70733c08a57e8a8ff01dba299402c5
fc7073cd48f6a39616f1d6b96e852a86
fc7074bfd8f74a6c6fb3a393ae2ba61b
fc7074fa60fb288ca5de7ec5ba7597db
fc70755d6d2a3bff3361480d2116ed78
fc70763c6e1af7716739115ad017f337
fc707665b172fb8e9fd14c74aef26570
fc70772856344d26b94698cc967b4a51
fc7077435ed33dcf95600a835a16a1df
fc707892e9fd049a6ee51815d9a9c4c1
fc7078a1e01b6c1dac969aa1f5b775d0
fc7078b43737d0e3fb98e4fa56c17b50
fc707a699bf1fbcb93654b2b7b2d762f
fc707a9f9fcdce7dffecc4ff7115b6e2
fc707aa3ed98ecb8e3a68944d5623877
fc707b20dc6ea87322daeb4de55ff4fb
fc707bd624545b2b39280b77d495bc46
fc707c74efe50088c09ca39f06a53950
fc707cd3e5f95429ef50eaa4543f745c
fc707dcd9402b8dd6fa5eea240752e54
fc707e98c34a6415d4a52e1a6d740049
fc707ea834df61d84c4d8607c6fb477a
fc708091cde6c2df74a26a17c056579e
fc7080b91c4d0960ffdfe64cf5a37f13
fc70826e3336b2253ca9af0316233500
fc7082b6831c05151c05ddad24b4054a
fc7083ae00a74faf56e8e7020fe51eb7
fc7086d51de26d0d6b628b5803b07d9b
fc70881f9c6c762ce22d2e835a120c38
fc7089ad6a8a30ac2db233605e5bad60
fc7089d198444a7a05cea10ea3fe9d20
fc708a2e8928d481fa58bcd2aa767b31
fc708aa30041b766833aa1526bb63f6f
fc708b4e1fd744318371dd39412e4ebf
fc708c3b7278b6a187ea9bb88cbd587c
fc708c7613505f2ce6abfb5bd671218f
fc708cea0ef9c970ce7301d91b72ecb1
fc708d70c90b2a79f0650a16a5ba09d5
fc708e36a997c9cbe48442ca722ba4b8
fc708f3ed64054b196b8103683159990
fc708f7c846e55b52722e0847dd0a735
fc7090277e4add7b57ae9762e838674a
fc70914bc7d4db14e3da633fa1e13cfe
fc709206b58e848f60105ba80f6b29ea
fc709273ad03d45bb9e8b076f14c457f
fc7092af06f18556f0f61abb507c749c
fc709360a2b3622a32cb2aa012217571
fc7093f1959ab85513d9903e54caa5f7
fc7094d49629f2a94aca985a72911741
fc7094f17139104499263fdf8d321917
fc70958762c859a7c839f4d4bc0bdebf
fc7095abd1aac734b606b1d5bfc77b81
fc70960e6df17ca404e29b8a01b8e84c
fc7096a19bfa6a3e2ff30a6c031a23ca
fc7096a2f5070e5391aca3bd5ac2180c
fc7096acedbfea7d92ef7b115e265a69
fc70972f5d9abc8be0d6564e3df86766
fc7097470164df54ccfacc3e5193aece
fc709769661612f72a3dcfb3d37bf873
fc70976a8b8392dd6da643c04f3542cd
fc709b2ded6dc46f835627c505e7be0f
fc709cf1480b99e52d952e5985c2fed8
fc709cfdc9c11f24a0f3c56b34dae7dc
fc709ddc8d4f741ba2196d912a665f91
fc709f2c3c166f9174ca80a6fd0919ab
fc70a0b71525f80d6c83dee9bc4bc574
fc70a0ede0f409c95924650b3a0069e0
fc70a1276ca2c5b656f2c112895f4929
fc70a2a0157c1dfb7eebf6988c72e6e4
fc70a2b335c0974300389bf7aa7fb098
fc70a2cf708825206ed8376e90ba62f0
fc70a4122b463b4bb21b3714d540c7e2
fc70a42467c4054d4a16c3c7fbec171a
fc70a497901e485c9fb6b4113f77b8f2
fc70a57c1c5c2ca39f8333ee2896e4e3
fc70a5cb009c87b4777ec1c35fa3a1af
fc70a6353b7bae36526f65880f3f13a3
fc70a687327dd946d5ca2ab82b3f1493
fc70a6c9accf0e29c1072930c3199b9a
fc70a7fde0672fdbc8aa65917b59ccf0
fc70a820c4c586af89952664fa5f6098
fc70a8271e7d975e07d7264890788fc8
fc70a8e47365971ded1d20dd40a7f8f4
fc70aa98eebb75e4f6137484aec2c604
fc70aade1412d6677214fe39862229e4
fc70ac8da59822ed456a27e396d6a610
fc70ad5d9cd0ccbf4e378780f1e2e44b
fc70ad876663c83e2591a87dad9e9fff
fc70aeb897a6aa0d9af39b9e8900f03b
fc70b22ed10f16a69eaba0edb6aec338
fc70b40173e59dc0d248a9ca16b681f0
fc70b42319431aaace7880cbc4c45e27
fc70b4e8c48161a8302d186a340f5d74
fc70b66dbf88a78cfc0efe36ea1903bd
fc70b733c0505660700447f8f7c17514
fc70b7496600e7895eaf2152b066f95b
fc70b79c04b8021a7431cd377df09a91
fc70b8ed9fe3ba113a8bfd77f2f5d23b
fc70b8fba1009304764dc16c2b1ffa1b
fc70ba38bd30e181a1c253040b3b592b
fc70ba922e11e335c609bccd4ca22f68
fc70bb5d4ae348973693fe89560fca09
fc70bb89e87b301c825381199301a1d0
fc70bbb659f13ef1ead6001e1660b291
fc70bbdd35169608604420fd32ea8bd9
fc70bd221c5eb236d2b5570ba8f31330
fc70be2064ee7092fe92f94aaa0d7228
fc70be8c11d527c1f391a9aefa54431c
fc70c04736da6ae9ff50a0fa1fc3c51c
fc70c1599e09a2fbe198e886d9f79b14
fc70c1de674b6abd0ba00df570376359
fc70c220ff7d87fdbf0ee93f07077a0e
fc70c23722b59f101f8058d2147302bb
fc70c26d882afe81dae5c1562ffb3037
fc70c29db7a7aebbf812725424ec81d0
fc70c2b92425f233c119b6bbda5b0460
fc70c2cf91b2da0708ef570d0b1b8bee
fc70c30c749888d8dd9c10c290f79d17
fc70c384f2ed17a9a23b7d8e009281fb
fc70c3b7c1a1c01b25277ae809920e65
fc70c484ba552b29066ab6919e1ac204
fc70c5d4667d79f2d87312c98ea0320d
fc70c5dc0a54c2ee49353459687f2292
fc70c5f335e80b371a4ba82a0d31c7fc
fc70c63c9bdcbbb261095858e62e3c73
fc70c67e6dea135daec3e595c338a9c0
fc70c6cfff4632774c3b135b3c1f425e
fc70c9759a6a7e6f3731140d9218a197
fc70c98c20bb765089a9cedc9fdf8908
fc70c9e157802f98334709023e722db9
fc70ca7bcc3da44826f81959c76db980
fc70ca7ee7b15e8c9aa028bf242204be
fc70cb116c516c903e2d629816026728
fc70cbf1c78f5ba48c6b417ab980fe5c
fc70cc07de20b6ffd77beb796e46a6e6
fc70cc3b09c93f05a7e966e0ff805240
fc70ccc9068bb252f5ccf8ca86b0439d
fc70cd35042c91493d7d775a8110f174
fc70cd611d365bb082ff935e9672798f
fc70cd6c1f145210f8f4678b4e30b8ff
fc70cd992b4ce853aa143638bfabce00
fc70cdee40ae7b88eb7a67cfedaa8688
fc70ce122a8f52a5b988e36e7443744a
fc70ce65a57f4d02442be44e3ee28701
fc70ceff0671ef24a09d5eed2bd71865
fc70cf13aa537d5e8d6fb3782d3c3755
fc70d006f1a487cc528d2576ae8ed019
fc70d028095e01d0f02a3f633b3ee5bf
fc70d032093fe24e58a95835cd60a35e
fc70d2b5d3a08a8f2bd69688fca2f212
fc70d3113718a524efa4bc2875764b13
fc70d3217d70d9f3a7d279c1be3279af
fc70d4e4a78f898fab0d299efa3215c0
fc70d4eb67d3caca787e4f1ee56b8a60
fc70d54005a4aefb18f1381330529f2b
fc70d546d949602716668a6530b10ed0
fc70d63867f89a1b8a6f1a276ffff130
fc70d6cf9a735d7d4d4d8c3dc2f0fcfc
fc70d78ffba0d9bde51bd9c1202967d4
fc70d8c9a0739e2ffb6390ca0a01e9a5
fc70d91c48cac4c08818bf7c38ca1807
fc70da2c5b73557f14bcb79cd2bc51fc
fc70dbe682588606b178e9824f9b9446
fc70dc6ee976a2fde841289617aec294
fc70dd172b591564ce9485ea5a2c2269
fc70de2cdf821842226a2e994d8ed1ed
fc70de6c2d0f3ba2a66a327ad88620c5
fc70df3e76eb8dd8a842c168280d5600
fc70dfecc4dec193b396934d5893a26f
fc70e0057a129bbfda5472315c97d60c
fc70e075e177c94f4e0e5875827d85bb
fc70e089f14441cf8f7725e992493854
fc70e0ef0e4e80b2d13436446e075922
fc70e14ae04845930279c18dcd7d5b41
fc70e248995a0e5b6cafe613903ac621
fc70e249a37ecac2b12160292121bf06
fc70e3756819e9a1d6eca925d1242152
fc70e38fae69f5d23632a9937d837f75
fc70e3a6485aed18f3099126be7501bc
fc70e4324c9c6dad0df7ca90b6bbe8bf
fc70e555babb1102f0095280d32e81cc
fc70e56ced21728b6f5feacdcbe81e8e
fc70e5f103571d5f2e31a15fd90cb1a0
fc70e6e9cf40179e6ddfedc92484433d
fc70e6fff9c218f7cc8f2e087154d593
fc70e736e98ada12faa0d82782d878fc
fc70e79af38cd576bfc7ca12bdf33b74
fc70e7aeba9f1e4413c4dc9120769bb3
fc70e97f5e0cf18541e4fdfe85edeec6
fc70e9e3cc904646873fb595b0f37c0b
fc70ebe6c16bff0ec364264e547b8cd9
fc70ec712d85e319af2cbc8caab055f6
fc70ed24c955b4e58b3be9ad64ab9bf4
fc70ed4da0bc842187b93b9e157a96cb
fc70ed8c11c22df2d0e216cbaa8cd8c3
fc70ed9c2800e5527e86fd534d1bb3fc
fc70ee5916e4bbdf90774947f428515c
fc70efe348644a696f77d1123bedf27a
fc70f10326b6d226f03ad3e333bcea29
fc70f12c608a8d20453528c2a504a4b8
fc70f19701455eb46137324e1c37c487
fc70f1e6d97f6e41487cff09e3565101
fc70f1f9d391d5ebc095dcda9709124a
fc70f2bdc24a564a03812cf61ef3f1d3
fc70f32749e76b53c4450070c2a9f340
fc70f35fbcf874ed7c194327ad8055e2
fc70f5557c99050787726a4556d39876
fc70f5a81a75f28b6eb9fb16208059d2
fc70f76ecb7b33d1cf5bf864e65e11bd
fc70f8649fdf7e093c29159ce61e9a20
fc70f90eb6d8922abefae07d04b036c9
fc70f92c64b4b970f061ad5e457fd315
fc70fa2f4eeb93a66800665a4e1127c6
fc70fa4c7a516331109c2afb4bd10527
fc70fb402741b841229e52ac6b2738dc
fc70fb982d13f66abc75b05491a1af22
fc70fbed26a3243276897abde7f14ed8
fc70fc5edccbec4a53861591cd772dd7
fc70fce04193280f976f9c3f72983999
fc70fd02c6587ff559b87029ff7459c0
fc70fe57e8088384a6606603c228f4b9
fc70fefbae16cc7ec77293f4dce1f901
fc70ff80b57e71e546445ae61320b535
fc70ff9603c828b1d15ad88e30aacf49
fc7100072c353c140d72450d9d42cb47
fc71000f53b173df1592d9c7452cfe73
fc7100a9722a97dc7af5552f15cf6875
fc7101bf9835cbe4e94aa140833d915d
fc71027503c6085e7ac598b8353a1ca2
fc7102973760fe1db36faa7476d86f00
fc7102f7f7145f2e84ca4a78acf88f76
fc7103e4bd75ac78b56f9c7aecf7bcd7
fc71049fc73f29d66b846e24f0434510
fc710563957632df37541ddb50465dcc
fc7106389a7f1969efe00c417d47444b
fc710715633afb2da952c6854d8b9a69
fc71082d873d6cb319a1331e410e93d9
fc7108fc9ca3e8427699d8f5eb4ca5bf
fc7109f1eda1c63ba6d8bc6c0c269d3b
fc710a4c482ad31bc8778d73c632fc66
fc710abe85b9f1cedb786d30737fc3c6
fc710ad6d4b98874cc17bf9558831220
fc710b0fb37129f47ca66476ecd42c61
fc710b1ff032496b86bab2f93ae98e00
fc710b703871bc1b878b444a89b60e9a
fc710c6ddddfac4bd254b8723c1683a5
fc710d3064bac119d414fd495d65e45a
fc710e36e483cc815c6def604840c7a2
fc710eab44ed6055c30e8972b3554790
fc710f2a378953f28b230635d09a8946
fc710f42490b7dbe707908c2551fd5fd
fc71100f8b827bbbd3e1868ef3854fc2
fc7110e66c01773620d133665125a515
fc7111081274d72c3aa3be91687d69b2
fc7111a229f0b0e75392ff9c0ff98633
fc7112f952d37760994e4c106db47294
fc71132d0f4063b0af815f14702557da
fc7113a3ba603a603d9bfc0d9528c03c
fc7113d9fc40d055744707b7df1c584b
fc711451ae7a4446f934a512bd12ea62
fc7114a2c75b5d06e6bf6b1306d90510
fc7115d7f62d38bc2e11614637d55126
fc7115e5144ed2737e62a5abbf83b650
fc71162a78fd45c430dc99d3801517e6
fc71166577eff75fd1b55da5b7222a69
fc71173681357aff098ec82b9e0d5e0d
fc7117d07c102f0f0e39056fafe82e55
fc711939f33fd42ad36ca19247f4ccff
fc711939f3bc2e3272961aab5d98f650
fc71195f59a11c3be655d77adfba0d05
fc711a57b76e5bea58ecc319ef9511a1
fc711a68683933632a4e5a4c2dfda44a
fc711a6ab2824cf05f7a7fb02511b56c
fc711aa6a27320b41b54a7cf5274c105
fc711b6d9c646c7738461d6149b7fedb
fc711ba7b4f49b2221fb6f470e0edf3e
fc711bf6943cda34acf721fa807d3301
fc711c0457a8a4fa90fa585535dfb040
fc711c33c00e7e58d3857da90f76c43d
fc711c8183812c36055d67ca84c088ad
fc711d30b4d15e736a4f3c837f1da66d
fc711d404e9a7d54eca36ceb4731f279
fc711dfd3069d36f68476e66172b70a0
fc711e1843a388db475a668bb971a734
fc711e33acaaf3071aaac779207bbc1a
fc711f087f67152fd4c81127c7422715
fc711f19cef72310eaad364b7a9c0f6b
fc711f79047eecb63475b552ccf46a30
fc712009bffbd9dc1ec68fc3dd28208b
fc712010b0cc5488791c7195f63c0e2f
fc71204ef59c303a024cfeeb7631160d
fc71206075a22edc8800479dd97840a2
fc71211148bf63916a55a2ba45cc6baf
fc71211cb6f2ff9c57fd9f128ebb24e0
fc7121e3e5a729452d50db0172358b3e
fc71222cfba8c061895b2d48a6b4adb4
fc7122beb1eb6b51f751982923d93558
fc712308b50a68511fd2dfd0a9d7ccf0
fc712372b371cf2f26a5a761b539bb52
fc7124445614a9a4e51e621c34fd6400
fc7124c0ecf042ca8095026ab4db6060
fc7125801d998695bd14487375c5bd6d
fc7125ac01670f93d981df884c49260e
fc7128bf59145c8931c579f7aa293368
fc712a76e1984a933bce111005945ff3
fc712a77a37be6ebb24686720051cd74
fc712b3ea802e0a69947fdcfd2c210eb
fc712cd6bd8e3751053c80c2aa5416b8
fc712d41eb772c3cb41be83f666cb6e7
fc712d87565f482c8168494f7da6d9c4
fc712da06c60177851259a4b5af661e1
fc712dd6f0e442f9415fa996375cb8ce
fc712eb22e1632d9aa0663f34c5165c7
fc712ec8c446cb434086562ffd263954
fc712f2c815c36af2165ced4e316471a
fc712f349875334bd47de2dfe4be456b
fc712f3cad16c36619418534bf927459
fc712f5fe313dbb7991dcd8bb5911581
fc712fced963256c794cdd89389bc421
fc713038df36bbe5d040e4bb65ebcda7
fc7130c2d25c84314f58e2f823676ea0
fc7130d34c67a564bb232b1a9eaf2e07
fc71316ef0f5c5e4ef52d040e7b5ae3b
fc713176e3f062fa0ac372bc06b35f4f
fc71317b1872fb62c940c3730cfba0dd
fc7131e5984aa5befc12f5362d7cc0cf
fc713273320ddf1add402d8bc3351847
fc7132ffd67c053a960478d23e36ce26
fc713304a6678ab4b19663b7b6307d48
fc71331dfd6f2e8537664b42557c6fac
fc71338d435837ab66e98f64fad11ddc
fc7133e9262a5138332fd3c954f4ba08
fc713541ed0ca626d2387cf358c9026c
fc71355ad91daa31b8b7478f38875cbd
fc7135afe879330b1e80a4c0931343c0
fc71360b7cbcd7c3365ff5b1ab9be242
fc71368a4c2d85c9903044f388976e1a
fc71368f637c68eaecc3e4dcbebebb4d
fc71373bea23f61cee9237d1d50d6745
fc7138859d43a776b35ecc2699e72880
fc7138cf684bf99a25399dd79abf89b0
fc7138fa606cf3b95d0ff63d90b0ee32
fc713928fa7b31ec9828c6b1be0a9e70
fc713938d13b839f305be47f9bcd5a4b
fc71395a8bb652793ed21e3d0d3af086
fc713962eb3fa404c43027226bcb860b
fc713a2fa76bd455614a3e1939623c24
fc713a3879eeec6dbaabdfee27efa8e8
fc713a748204324ec59da066f4495cca
fc713aaa74f600a5ea3b40032687a400
fc713adaec46f18c2121c9e5de40854f
fc713ba4de2df3f6d0c78dbd4a3947a2
fc713d493520187f4e07cda17439f537
fc713d849d6ffb26ff55a1084010467b
fc713dc473e2fd1d550630f9f6b5fa3f
fc713e0336c2d765c1cd5eff71607623
fc713e8d350eb3a19088fd971f9a182b
fc713ee06e0b877ce59b44be2aef639a
fc713f26e6adcd4034282bb6018361dc
fc713fecb25c158e364137fbc14ec51e
fc71405550e2bb4277d179425f7236e5
fc71408b01cca1f45f40328466429cd0
fc7140f700f69279a0246661abd1d748
fc71419c62549982a914442e3bd4f969
fc7142203bc432fee7312116b4b1a627
fc7142dfff3e41493bb321538bf4b497
fc7142f712c32a72dd5bdc25a3e9a63a
fc71442346c833713e37bd4c803a1e20
fc7145aa308980f35eca3df0e90560c1
fc7145e0bb05a3a8f9da728baf1fcc96
fc71460b72494129224d42ce8c7bc3c2
fc71468ca95d9197de7a7f21e6eb7e40
fc71475233f4dcaa3f57de38f4d7b3ba
fc71480bc6b7e71876d41b5dc94b693c
fc7148126b1a2fc8c11cb3e0f5e6bcb0
fc71488a9fff5dc1c70de21345bf2918
fc714932cbe09f62429ef39a1cab507f
fc714a5055a81a8d1ff088ec4f88afad
fc714af705475c3c6535dd0749899d6b
fc714b0842225bd97d74d24ff533b3e0
fc714b7e1cd64b287b83b43c3a82555f
fc714be13ea96baddfaacdbaadf3847e
fc714be48780696d6ce7ea2bd02c1fec
fc714c11d1446e3e2a8b10e9f2e071cb
fc714c26e244fa116a5f1a88d44e1b65
fc714f681dbeadaa730f8ed6e68f129b
fc714fa0198e57a389f4999e035476bf
fc714fc2e7c8ae68829b0b2b21fd343f
fc715016549b0f16718af76073407df8
fc715063760508482f513a99481c804d
fc7150dea156f0a6589911b6b1d80915
fc71518e7a17e794c06e7cff6652b509
fc71520c652fb49477ead7e08f30742c
fc7152c6283f0b9b30daa670987f78b5
fc71537f58717456f15cc833ba854592
fc7154f29b73cb6c947cccbb273ea5e8
fc71560a08b51d0f2b0877b0c65a5227
fc71565e33921efc321ca0b4c16356af
fc715676f7c7bf4a29a2c0a632cb84e2
fc7156cec602a97315be13ce381845bc
fc7157213488275cdd9b82b59ab15657
fc715806e2593c61c166a33e629c5f00
fc71581f3a42d35d75d6279323d6be33
fc7158209f66dc528dc428de46d6b200
fc7158688f6832cfde5eaf9b273a49c2
fc71589d694d5f52b1c8fda6743c737d
fc7158b6225ba4478d49addf4509fbef
fc7158df2c0b41b4fd2c6717dfc75aab
fc71591ba5717a324d31702ca0f532f8
fc7159640552012631d6c7c0d1163f63
fc7159c8bf5c9631780b770ec0cb4970
fc715a317240f489503edc4219a77354
fc715a55eca3f4b06e903889789a62be
fc715aef4d1b5dc78fa731326f74b8c0
fc715b06766aa138a30c57e59ba8b460
fc715b4f0fe6b09efa79f2586537f522
fc715b95b061b4a83af5cfaa786233ea
fc715bd71ba1432cfa4e24cbec337439
fc715c28c0d4974669acde23c7741a4b
fc715c3841d3a421911daf2f17413620
fc715c385c08b191ee52f8476706f706
fc715c6b530307d8bb6868941df9b586
fc715d8b35b1c2f7c60dce8664dbe15d
fc715dd4d699fb490ccc6ddb4540f83c
fc715e78dd2dc3955007204c50f4d90c
fc7160301a9c98bd132408b89637b83a
fc7160458786846461a785482a682663
fc7160d47a963ddd74934fb366db2107
fc716186183200785b006013898bca39
fc716238d6dbd3f3c0114fa5df6a2f95
fc71625649aed23eb75c0e2366d5fc0c
fc7162df0487a8f46748e8c8abaac588
fc71630d28c457a3a5b704de03af8769
fc7163c8be2b8074637fac802b3e5a31
fc7163e746c196dd3ee99311d4de2074
fc71643187d2292cc2cb1eb74c21a110
fc71647a88161d3c28d588a5c847198d
fc71667c28ff211e3fb2493bff702a31
fc716715ccb194fa16baab76baa8fce0
fc716734107751bd53535eb9ab941fd5
fc71674aa0d8f8a6452764c0d504856b
fc71682af1e5990f7b62b1ba78f7a390
fc71695e022c28de4f1697d304641e73
fc716a78b9e54dae2de586e9851230e3
fc716a8d274f0a0c6b613e11178f228b
fc716ae6990b09217f1a7a576a53652f
fc716afa24891742fd44d908d5703c70
fc716ba8c0d0a554381ade34bce86b70
fc716bacc21ebcf90c85fd79db3ff221
fc716c7dbec16559ece2fbc88707c389
fc716cbfdcffca7785acd13786093b83
fc716d272579b9360482ce62634e8efd
fc716d58a5d4b9b752d994901f29156d
fc716d93438b74f02bc7cd38b4434506
fc716df5abf235ca28b0789d7b34552c
fc716e3352c3586fd412ba7c8a9479fa
fc716e352e2881f14458fd1c8695fe02
fc716ea40b73140bd984c31c040159bd
fc716f75f5c6ed4c8d5169b74eed2051
fc717007169ec3b618b500fda752e71e
fc717076e20ca704d04c1c84d89a8b52
fc7170a14399fae6266d3f041883984e
fc7170c81de6d3fa5e2844623b3a5ff7
fc71711755be9b2cec1db20babf8640c
fc7172c64d97d96d78adaf0cc12c275d
fc7172da5139b5e37e20d2a549f2b60e
fc7174763e2b0c88d4952ad331b7a710
fc7174c16d7904885fb6c04ac54008ab
fc7174d6bba8a94933b6454b601bcd31
fc71750cc8f7aa5762245cbf4c6aca83
fc717515c32fa5dfe21da656bd6ba38a
fc7175279107fe0d564352a47ce1e242
fc71767b81422e71f80dc02af7a4f5f3
fc7177a215722796b111e5525f03fb96
fc7177cf6b76dc526b984187b24db436
fc71781ee7e79c4ab1f9d5fe9c223023
fc7178b1d99c3941d9ac07d8b1cb1d12
fc71797d9728660564a809b33c4759f9
fc7179bb50e42d9b44f15617ffb0779a
fc717b0610e677e22ad05683f0bdc8ee
fc717b2bb2c223c5b3a6e124e538d60a
fc717b5ae7aca0750aa7c95d010716b1
fc717b90dc7690b2957f9159c9eab11c
fc717c0a6db1349b8672cedda2c96768
fc717c19ec83642cc93b4f8baaf010cc
fc717c88ee91b46f5fba066bae9ce700
fc717d9ce96143b555ff734175ecc4a0
fc717de14ad7a7fabdb72648fe778956
fc717df3e175b66c82785709eb8f5d31
fc717df5d15a707b8c28ff1439ff9515
fc717e29d4dbc556200d70f9b9a78fe0
fc717e6d408452096186243479da6557
fc717f6053af91c4457c1268a100fb8e
fc717f65e2c6e8ad4476520f40255a78
fc717f7990f8e955f2bf322ecee5d6d0
fc7180c32c36862f47ff8a9b960d4425
fc7181e108923c488aec9e0360b324a0
fc71839ffe4f465e3edb3b33c1e2ea64
fc7183b18d081b195b3997a0cd41fc7f
fc7183cb508dfd2d096b6fa136e9da6d
fc7185c21b7fa1c26cf6440e7fa78bc1
fc71892c4ae384c1daa9c258b722d52e
fc718951c372de489ace78dbf2346b2c
fc71897d55454619361e012f94d13d68
fc718a5b9dbf204d6bb4526b0ef64a2c
fc718a8577d49a06e7304e54fdf22287
fc718b61ba2f0fa805ab798eb2cebb42
fc718cba9d7dd945caa2a16fb6464581
fc718cc32c636b4d79b3305580689dba
fc718d235f343048e938d42d6564e7eb
fc718da9fbfbdf2497b48608705f89e0
fc718dc77fa49e10cb886c8c58846892
fc718dcbf42617c8d2c91329677799e0
fc718dccc49cb6e6a47d7985d4b0c47a
fc718dfd3d745cc7161ce00273911aa8
fc718fbc1a7bc6298f881c106433fdad
fc71904c3c82b1b8f789e7fec61ca392
fc7190565ad675ed07f636e1d305ac61
fc71908974f791f23f2703a07b8a4453
fc71911f30d5d6af1744e763a3b7eccb
fc7191f1aaeebc5b15d875bdcd8d4010
fc71927c07ba3ca4d78fed212b54a4a0
fc71940152344a07c558f4cb30b25fc7
fc7194217eefa41746e3d4155f8a5731
fc71942985fe9f9eb98dae2a2e592a44
fc719485b5a2e4007d904cc3c5cffbdd
fc719494e8b6d871d72193ccf3071ffd
fc7194dc8a0ec34e3c566629d4fd2a27
fc71950cba2428f9ef6e4a7030bf9635
fc7195687d23e7054ff4f352ece7fd0b
fc7195a18ad6e651917d261539933caf
fc7197cf8f1f3162085dfd20f926d505
fc7197ed24c73d53c7ad152059789ec0
fc7198018dc32a96b40701f887dc9a41
fc719851540d1307f2378a7d8e96f0ff
fc7198864a2879446953985405608542
fc719a8229e17918c7d6641a6ce2e490
fc719b8cebd2bc94a276e64db6b602de
fc719b9ac7567bd22de6694aa628bb51
fc719bf4a1e6269e8610547161e4f24b
fc719c1892739187d5cc77f36690466a
fc719e2ee6522898e1568e08772210a1
fc719f01c6cb97c4765ec9e42e90fbc1
fc719f40e6b2b35845ee20903971fad0
fc719f60bd31b994bc59a25ffc2a1e7f
fc71a08d697d6a0705e8e35dee64aa57
fc71a12e4593d4348189837984405a75
fc71a1a60bcf7810dc0e269c46e0c0bf
fc71a460617e41c68208a34945b75998
fc71a47032be243e871995313dad56a7
fc71a4bb6ecee259a9c2533bc87f2670
fc71a5f71fb8efcd027f833af706da1e
fc71a5fc7379491a101d919b904513a7
fc71a5fe735e034b69e4315e81786cfa
fc71a6ec5fc360f7f3d604bbd7920754
fc71a7833d8e8851eea96fe30e3990f6
fc71a7a03e6245fc1b91f34480f6039d
fc71a7be074ffd41963154ff3a16613b
fc71a7d0ffb37f66a7b3fa2f22796a46
fc71a859fb25a1ef0e857d3a8588a6fe
fc71a8e885d4eab132e1a8d253014adf
fc71a96748ddc24a94a4970a3db309b1
fc71a9e86a3900f15cfd69201453e49c
fc71aa13752f2c8b819ad0e43ce68217
fc71aa5f798e9078ff1a2e91863c2a89
fc71aa7a684cc9270eb6aca2710b81d8
fc71aa94c312f8503566d5908659049d
fc71ab39457cc9fa314d1e4b64187fb8
fc71ab5290192fb40a8a7617599160b5
fc71ab9b6882a48bd1cb1bd3f49d926e
fc71ac1f15768ed7215da9b14a7d20cb
fc71ad4864de9023031141b8d73fcfea
fc71aec17e3e1f7ac54fa30df1c65013
fc71aef69a059b6b6b6298a840754e7f
fc71b055621df7748ff1f616b7dedb7a
fc71b0c4c20eb998873fbbb5b774dadf
fc71b13f5ce39dc8fcf23fef572bcb2a
fc71b161b7d888180b7b2cc5612e48e0
fc71b1ee60765288ea57bd637c109bda
fc71b2a6ba27cb516fc1ca2ed9d44411
fc71b2a8ec19a840fc48feeaedd85cc5
fc71b2c89f858cb75fdd5520e956e2b7
fc71b2ffbd10bac39765729d7f8242d3
fc71b38a7ea337f2c9ab497da288b3ff
fc71b3d84528d84751506e0d0f63ec66
fc71b496ed79aae57d03f58fbdeef219
fc71b5f04c79b31c747d62fa2247abc4
fc71b6e4d7ad51e3e91fcb682353ae15
fc71b792eab11c04b87e830b2d125c2d
fc71b9d29efcd5d5ae1ed6fa661cf8c6
fc71bbf25db534d67fbc5009892698a6
fc71bdc654f3aedb9ff73daba307afde
fc71be53fbaa9788b47464173282d3d8
fc71bf47daaad945827f7a781de4f799
fc71bf644a88f9abc42e354c375293d3
fc71c0006c2754469d0a66f204a32907
fc71c154f64c83d1b97878d2ef2fe875
fc71c1a0ff03ebb78574145a4665ddf1
fc71c248a9ccbf897d8678f1c00345c2
fc71c316b7c9a10786f546793a031095
fc71c35f10f31131674c889b13b66071
fc71c5bf928af4936ad6e186f0997df6
fc71c5d6bade55c4b84743cf5c5f147b
fc71c639e646e4a11084b28055eff450
fc71c689edb25a35956edc67b753d3cd
fc71c7798a5e5a59d686ed14962325c5
fc71c84c4a84ae2add5441ddd7bea8e3
fc71c853d7b3e8e3e91c4e3012635b0c
fc71c8b33ab393675409394b37961233
fc71c9bcfa2944ca5702af37a1a7caf3
fc71ca693c471f2ad4304f9316766ab0
fc71ca77b3cc40b55f98f5a0ee470457
fc71caa0f48e01908692fac281a53269
fc71cb00bf428353970c280807f92600
fc71cbc6c2476ee0942383a354b32f3b
fc71cc004393265c669e2ffd7427e77f
fc71cc90be07cdfae5b6c8b37de81fcc
fc71cd69f76124f123906d989b4d9ed8
fc71cec32cc06c60de8c6422d1bc296e
fc71cf4ccd3b43ee0b2cf9ccd7b0dfdc
fc71cf5fd8616f628188bb711f184f5e
fc71cfa8f5c4cb267bb0a9514a61c470
fc71d016c166a33fdea8c1a8654cd162
fc71d1047325c48c621c2114f058e66e
fc71d274f6dd851ddf0430cd4b5ab790
fc71d367bdaf463a0a5ba6060af4ff6d
fc71d39c215c0ce96c553e19e2023d83
fc71d4388abbd4958dfe368cf503b6b8
fc71d4b4749375af563e0632323f544f
fc71d4d78434647e83d687c53fc1b3c9
fc71d509e76772b9af9f4d9b57cfeadc
fc71d51ecac99eecda669eb70ecdb3cb
fc71d7519669c7bbcde119f34b8d762c
fc71d79e94294d20a51154704985d740
fc71d82932f80839fb05820ef926b437
fc71d8a85ef34b2150b5e07df54715cb
fc71d8e87d7b48efd378b2638f1ce34b
fc71da1ef26ce275315636f28e45738e
fc71da60d8bf247ce5400b61d6ca4672
fc71db185848b06a1714f3513bb03768
fc71dc31bc0183bb3536ff617b7c3b31
fc71dc6e42c14448f4bf83622e8c107f
fc71dca5081dc6b8b60edb99fab7e698
fc71ddb4fb86e9f77292d96ea93f149e
fc71ddd8d111390c7aa64600c2f8322b
fc71df6f708f8e745a7c6a8ee603529c
fc71df968f795bf8b8753c13fd177bee
fc71e02f7ebc3e5467e63dd7d6788181
fc71e16d1d5abfba9d905bc63d2698ee
fc71e26076d64eecf87bf7a41d3ecf54
fc71e3efae1bfb9751263d7a47dd88df
fc71e4834d481fce845d4b22d647744c
fc71e52efb61f67019ecbbf8cde33c76
fc71e61135634f89033e49c830bd2893
fc71e6d191c3edc19b2f91727cf4d424
fc71e916e0aee8abf1b37dc1d6f02a1d
fc71e91bc93aaa9ad15f5985f29864bb
fc71e94f293633a8791d8a9107960125
fc71e995e7a598a24bb6b5dad1b7172e
fc71ea8e3299f766fe5200b49c8ab2c2
fc71ea94673ec266f97194e3a992b9cc
fc71ebaecb211b2f9254605e23a521a0
fc71ebd8fcbd1213f7d3726c493ab8b2
fc71ebefa2d22a05851de380ff4471ed
fc71ec29b96864378bdae3cfb9844e75
fc71ecc2860c46ab4cd4b0c558215e4c
fc71ecd52a6c36b4dd6651c9515ac8d5
fc71ed60caac16daeb309ce384f72ccf
fc71ed900b65b74a7a6107f02636c975
fc71edd8b6437b8bdb4f358a1aecced0
fc71ee417abfa793cbe58a57e2024ae0
fc71eef911fb2d2720c5cb53b14a50cd
fc71f07a606a2484abc777fb6184a2a0
fc71f181335bdc48dfeccff77442a9d1
fc71f4c1a34371828690cc27010220bb
fc71f5b1bcb202102468472421d3d459
fc71f69725e8eae4992f6096d6716970
fc71f741020b3a97b1783a3c814781a3
fc71f769e5638418e0e11e99d1e21ef1
fc71f7af08119c7758246cc65eeeffaa
fc71f82afdbefe55cc423f4d491d412a
fc71f8548e8be272fe3bb8614c95e2b7
fc71f9e50fe91c4e30f2b190115be1c5
fc71fb7aef4ec5ddadd40d8229e9148d
fc71fbe175e71e1d5b5382b91f45c08e
fc71fcd1487c5a1a61cb5fc409af4660
fc71fcd5b8911c5a1d710a22be8fe5f5
fc71fce9208ff5337adab59216ef0a6f
fc71fd78253c8951df32aa44a945bfb1
fc71fdc4ff144e2dc86c8de5b58c731f
fc71fe739739133cdaa79e806d9af5ff
fc71fea0714c8665bdf3360351fb865f
fc71fed3d03e0c760b4456e588124716
fc72005a2ae593154d48c342be4b4c66
fc72009267c435dc71d56b0eebe912e2
fc72031adc7feaaeeaee6db14ad391d6
fc7203636cf0869e824736a5cdeea7ac
fc720393f440cbd79250d1e667483087
fc720404b7d40b2f9d6163e64fe56163
fc72043833bf6972e231e52d14930756
fc72043f9a6c44b49717b33c1c40eff0
fc720609c09ce183aee13cb539d4c692
fc72071a3e334e63d2691d1a806c3e60
fc720859cf5670eab5b460731e1ce403
fc72088fb2df08ca5ee94b60a1a96f40
fc7208add67e7780381aba7b4a33eb22
fc7208c13bdecf736655dfcdf21a864f
fc7208dcda360a2aee699f3a21edf5a1
fc720a04724a2fba965692dbffff4436
fc720ad3fdff6fb8559729aba09d266d
fc720af57b5ed571123383ec6c866edb
fc720b339153b4828e66b7a4aa153e79
fc720c29cb7f8a6398c619a185d99c6a
fc720c4532c67c2bae5bdbd5371e4f09
fc720cca12306dfa3d19496f72de4ae7
fc720ccd8672c8a265c6d8369efdc55c
fc720cd7b765e9f4330e54987c1f34d1
fc720dba2e22d1ba693c2c7feb6e01df
fc720e76dec68a1afb8947140bd2bee2
fc720eebd2da59e55f84f2608bb81f30
fc720f2c3a32bf51f3e6710af557ce3e
fc720f5b7317be1ce6f8698a76624bc7
fc720ff1e7919d10fa06579b4729cb63
fc72107431328677a4e824ad2cef9d9e
fc7210938793bec5124fa6cc1aa4b9d2
fc7210a459f39c83a8d142371219c597
fc7210a4b0d643f79a768d64fa771069
fc7210f65764a5683263c74eb1dbd5ce
fc7211eb00d6b73cbd0625066e34f2d8
fc7212108d7723f84fe2c2d23d0850c8
fc72121ce5d5c49da6d79d0073192215
fc72127dd68da8dbd2e070e08ac77660
fc721321186eecb4e22794a32ed1aa6f
fc7213d4d06109e0a1a5fc406e958ab1
fc7213d58d2164387c54a64dcebf470e
fc7213f32ccf921cfbf6ab23fe8b73b2
fc7213f8c63515e0e90d7ec45efbae9f
fc7214449b5d1a56b663ec8badd09d4f
fc72148acfc45173886a0363abb6fb75
fc7215a126c631a995f3bf7e2a0ff643
fc7215bee41d509bd91bdbf59596f209
fc7215e91057ef4a708c77e5559ec4c5
fc7216081bb6119653b91a2cda488d82
fc72160a85831c8bc7e73669e45c7067
fc7217cf8e63250c59eae7cc47a9f7d8
fc721873c44324eace61346a63c92f03
fc72188ca1f35fd6c57b72545fb933f1
fc7219991fa652a6d45d7fc95ee06d90
fc7219df053813bc0a4150642a8d9e31
fc721a4f142e941649044c3e9c2793d0
fc721a5ea576adc566fb4f588edc9d75
fc721aa898fdc5fa53355245c716cd1e
fc721ad9ed603b049a6b2422899640c7
fc721b075955394889a0b2bc305a4891
fc721b4bef1abc9a4aaf41694b570d90
fc721b9028a49e0dba3470742cac986e
fc721c0b92e2a74d95281c939edd342f
fc721c34a6645f0ee79c7181626295a1
fc721caac9da9ecd38c6106bf04ae00c
fc721d2858937e0298a6b6bc5e533e97
fc721d9962a346ce7d5effb9614a2b6f
fc721db18000904c4077db6f848f778a
fc721df04e85ebed90da5a06fb5bb964
fc721e0cff73b18b634eb9ab03761f9c
fc721e2a5c4da7df4690bc543ee66b4d
fc721f2b7d8c704369356ffdab2f851d
fc721f4a16e42a2dd256d1843b039576
fc721f4a30185ebbf5d1e238c9b114e6
fc721fc58b17243c313c04bbbd63172a
fc72214e5e5c54cbe526d6d89d7e4153
fc7221a05892e15a1c5587c14a40c7e7
fc7221f3dde418e411340d47c95d09a4
fc722230617591163baab496fb378c9f
fc7223c884c570f4c855fd81b8ff567b
fc72249b6defb092e882a0b9984a775c
fc7224a11abb1617c5dcc27bb3bef35a
fc72251cf0c3dba3fb67704ebfa44ec8
fc7225ab11b972c6cd26f66d9b64b40e
fc7226d9e541329e2814cecb2fad6b1c
fc722708965d02216687da454f7acbf5
fc7227fa9200ebe79c7c6b47796b43a4
fc7228c1d1c7c5ed6aa408682afdc847
fc7229457a1761e17a94713d89581745
fc722ab949c96f0e2a93a3bcd808ae15
fc722d2d404f13838ecd64ac7e543558
fc722d5f544bcb87adb87d2d289f77e0
fc722e6846a28261f0b97fb859b3403c
fc722ed3a8f0ae7a4a2d8eda9b44eb10
fc722efb6cf95e679f44f64adb78e248
fc722f703d289eac12ff922c93f0127b
fc722fc3966f1503e4af7c3d6900207f
fc722fd71262872d283e0f529d6c30ba
fc722feb8f52fdea7d902adc6b33aa81
fc72300274220b1dc45392a54a4684a0
fc723022119c139eb70cd7493cc5d9f0
fc723037437ea056c6126210b44395ae
fc72306b62c4e47103679565b10abbff
fc7231040550605fbaf5defae1f4d524
fc7231c3e7f953b63930b6fe1b35fb17
fc72325c9e2facb242ad4986c64424b7
fc7232fc56f6b33420d174cec520948e
fc723453794bb9115d00aab90bfa41c1
fc72346695393787b8d910b358e5c649
fc72354861ce8c4c7a66c1f92dbc0b85
fc723573267b0e392df22f9d7ba156ba
fc723670ca7cd4713e86c78e637a1471
fc723782584a46e5607ff87fec43e22e
fc7237ceb054e90406ce61f2b0f66a56
fc7237d530694da0a66edbfa8e7599d1
fc723820cfc917a4a5f3a7176a393678
fc7238eca63a5430e81c608b6a357b54
fc7239096f92ea08193eeab91994a39b
fc723925d209044a668deca8992e1224
fc723951448cc1253dcff62b295d9f71
fc723994803a67f6fa245166b661c889
fc7239e40329e6cfa874f36c20076ea8
fc723a86de7d8eb42586815d909706e0
fc723cbb09a6462d43c99385acc7ed73
fc723d2d6ece77fd16a2a6d0979dc224
fc723dfef9f6e5df32179b8ff26b6829
fc723e1b4e602b6cdcf8e1812ad5be13
fc723e2a2889f9921330606f00b25db6
fc723e34200b0487fcd6f36800647b5c
fc723e484544f948326705af6920a051
fc723f01aaccd5ac1f8a3afb03bf1c60
fc723f6e6fed892b3085597538c75ca6
fc723fd8fdccb407fa2033f5db9fdf68
fc724260330c60e96b5a25beef2017a0
fc7242ad66f7fbd200401fadfa48bde9
fc7242c985d42d2c6fc1349cf8179680
fc7242d69343cd8ba1e525bb8fc6cd77
fc7242dd7c540823bd93886d5b0d6d19
fc724352dacd09647ea34b9bbe047989
fc724363f0fb68760cf451e025dfc6f0
fc72437aa58900543420b9380fa31ad0
fc72442b8d81cf50041e7e3eb51755ee
fc724489402f5ff7ae9f667b32268295
fc7245559a03071fea1033efbffa8dae
fc724571880ad89db78d97b60129d786
fc72462ed111deb8747149200eaa1a8e
fc72474522d934a8d49d3125839a33f0
fc7247ddbf32f4f1fc4648acf1a6930a
fc7247ec8619133859c0fc11fdb07d31
fc7248842c8ac754f561f1c8a072463b
fc7248f77448438247e9cfaa039925dd
fc72493026a20fb91cafe7df42a4d931
fc724c04cae6c09d480e58cd80d42b9d
fc724c15fb628f729d6e067b5a73a7e9
fc724ca437b5834d8679538a7f3e1f28
fc724d256e182e129c120e25caea78db
fc724d8292bfd550dbc7c4dd092c1084
fc724e309ae1d19ac8588accbbb5d90b
fc724e42967a246a995f0344ec405bea
fc724e69fb66dd69a5b7256e3071785f
fc724e987b9cf21eeb671dcaadbe6fba
fc725015c136fb60cad8199b65dee4bb
fc725063ab941052984c53f3181b863c
fc7251578d9d418b8fa37bad7d0824b0
fc7251b77ebe48d9d3dcc467007d70a7
fc72525782677c95e95d011c0756cb94
fc725290b1e59a47a63d034830356373
fc7252ed04bcbe57ef577ba89db91f92
fc7252ed281c115dfbb6b0d461644d73
fc7253a2f78c4df85d6114e67db9d83e
fc72541a71508d2c13c1d0d0b2846636
fc725454485c19d31cdb4de3ed26bc24
fc72545f3cf0dcaac133dbf681f25fe2
fc72548e30234c89af3d31a4f0fb2d2c
fc7254e4171acda955e439d24bfe3004
fc72551b7bb8a8ddd57b616915e51e90
fc725602c490f9cbed5da45150c120ae
fc725615173e84ddefe2ac01e826a092
fc7256465559f149373541b3ef0bd9dc
fc72579e46b96d738bd3e24a555405e2
fc72581e0719e7f4b6ee4c43dc8164af
fc7258219cce9038519a0781078a9ab0
fc72587ecfb37d994157ebbd91b2a5b5
fc725890cb0ec457991187007f467d1e
fc7259041324a402daafacc472a33970
fc72597edf400df061fb05615e4678a0
fc725a3a2c1573e99f6509672986b4e6
fc725b2ea7b2f3d7052615d09597bc10
fc725b6161ccbba497ab3dc1174e1224
fc725b8ae52ae605ed58fe02c6ca1871
fc725c6b6d89f0eef6b14d8b20d1f814
fc725c99a130aeddf5c2f03fbf941049
fc725cd803878247c5fd77994206fb02
fc725cedfdcb67034fe2959f78acb9ad
fc725d5403cee373fba6bbefd6137634
fc725d6ba11a0c7f0d24509029615cd2
fc725d9e2248287e7625097c76523f4f
fc725e0ae3cdcecb73a6b4e6039667e6
fc725e3d16f45c4241a72ba37bc76fca
fc725e8bdebcc70a2ff07d7df87cc5f2
fc725e90a19c4a6b658c19df9b9fdfd5
fc725eb3c41df167cb36a120bb3a6b1d
fc725ef33c55d19559df3c3d07df8f4c
fc726054e716d4971a1fe5cf1a7f0eba
fc72611e629529c0094e5a899d7498b7
fc72619d57dac8890d03c70b9b9d2db0
fc7261a08897a14be91d5fd8ef75c88b
fc72623ec730200f419fa7d33b9d228d
fc72624262cf4a09cc78fe8449a7eddd
fc726295f8cb49e8d1a62a92258efc4f
fc7262f5d8c96eea49c1862f4db91770
fc72631c019775aa2a422b08f3394a61
fc7265414193b7928097e70bc223dff9
fc72669fd470be54a9adfc44e6083765
fc7266dd3a60963e4adc36c6c07eddaf
fc72670647a29679b50590a9f88f0130
fc726791518743d21b05324298e2d1e4
fc7267a0eda0d44ce6ca0833b1635cc9
fc7267c6d0b816bb9858a0e0e3ca81bd
fc72681eae58ac60f7f03dfdce149227
fc726861395f9c5e6ba0623e27f4a144
fc726a45aa3ad9fa1142a0fa6a4ad410
fc726a8cec3549976179d2ce38152059
fc726b3393dd9dcb48b5131f348721ae
fc726bd62a28d030eb4a5918871873b0
fc726c2f3ca7b8736cd44499bd13dc6e
fc726c7173eedd60ba5eba6ac626eccf
fc726c8ed872982058d8fcedd1797be0
fc726cab96c04b8a5fcb9aa9e9e6d8dd
fc726cb99602762ada45c13ca06fa47a
fc726d37ff50430b1ec72c1bb4984582
fc726fab3d002aef7cabdff0d3825878
fc726fc69e7c072a2e3640180177fd49
fc7270a2ac4c343d6844e3605f44c509
fc7270b6677b14911e93782a6f30e015
fc7270bb505a4381c273b3c6e46f63b5
fc7271007c602df90567e4c01ffc8b66
fc7272eaf856148a026e95e54b02f637
fc7273611cef567390b6a6a183379464
fc727396c6cf3798130e37b56832584f
fc72741e0858e1139dea754b3143d7b1
fc7274aad440ca7d679a24510650ddb1
fc72765de67ef8c959afd65fef65b0af
fc727695a7afedbf3476ce8d149006ea
fc7276ae52d1a443ce9b78419b924474
fc7276f407717b89c8005d6f4d56760f
fc72783e5b685d97da7cbdb19e894305
fc72789f4999ae4d6e70f9f3963bb0bf
fc7278ad73a6a908bd43e7c5c9a81d88
fc72794b6640d21d1fa7fd90edd56932
fc7279c2a098f852995da98e19961f49
fc727ae063f77b1dda288c13a748c582
fc727b01e9d3feb050088e8b9e19b941
fc727ba7fd9880e86d667e1f85fb0ac3
fc727c704b4dae6ef6e2922b47976d45
fc727c8fd25f3e169d86b4917d612f22
fc727ca466b988878ab1ff14a79eb0db
fc727cb2d17edb478338ff4d5c365027
fc727cb8e59a114e0ce62254d4439de7
fc727e08227185a62bc2c1c240d2be86
fc727eb908b276fb0f8d0829e516b2e6
fc727fba6a033d4d583862e9f58b70e4
fc72803b451648e5145961d7ed96022c
fc7280d1139d176556ccb76422256569
fc728120d2727d3faa3ebd838f20e392
fc728123a7b9ee5a9da278a6833795ab
fc7281f4a2ab04b4793381348febc18c
fc7282c34363e8eb31da7f1d4e0269a7
fc728319a245e2ac78cf0f9f0f336cc5
fc728364cac47468080a792f57b2f770
fc72844ce2f8b04320c17f2a1553cdbb
fc7284afe4a9b62dc31e4cd925bacbc4
fc728557ed8d424197d891a184c7dd99
fc7285ca45d8d4a7183f626b2c362cbb
fc7285e1b66f3aa73c04b9840790d8e4
fc7287133136b22201a32d5406a3790d
fc7287bbc8395a0767c2b71a1b3f4de4
fc7287ce13b38b604574fd4fea9309eb
fc7287df694d5e7511fbeaaa9167e43a
fc7288a9f79bd208cc344a2bd8123e9f
fc72898b61ac3249be0c165d23c0141e
fc728999ef18ab35344186c252797060
fc7289ffab11e6b88c908af3cc0622a6
fc728a5f3701fcb9bcc214b0d9f2475c
fc728ab1a1ecd5912ce2cb8b080ad577
fc728b1366cd8ba67401fc353cca2a3e
fc728b94257181758b84ec8c25a393eb
fc728b9f5142712b1dcc06ee36dea0a0
fc728cb3799302b1cae1262eba93805a
fc728cb69242f6b581b917d129cd0690
fc728cdbba5dddc8bf54bba38a6ebca0
fc728dafe6f400c3685b876f2eec03aa
fc728eb9e4db0b497f69cc64fb3ddb38
fc728f4ac97ef25cf7e8729b1cfab184
fc72902a96a2377957e5f5bbbb8d58cb
fc7290ef188a9c11b7e8f8d3984eb11c
fc72911a6953991b591c06a12ee9e56c
fc729155dea708d53f489e048c4aae90
fc72929d8118494fd6d3023b22c7ad1a
fc72935668f4928b6c5c40899e6cd0c3
fc72948335c455ef2e20e2cadd127ac2
fc729502626bf44b39c4525bfe160ca0
fc72952c035c58acd63567e6c2642edc
fc7295e6692b24ad2b457bd9cb0408ef
fc729628abbbcff8e66c25bc2a5a37a0
fc7296c428d1be86cb752d671adacc03
fc72974e8c9152605636010fc561a820
fc7297caa8856dc77a7e41e07eb96898
fc729823b218edcc02a80b3716cf8f10
fc7298bae7e9ebb50ca7a96618c7b544
fc7299effaa74a368df6774e689e4f97
fc729aa25692f86363233c9b9494112f
fc729b46ccd0b41fc9fb848d0ad7d8e0
fc729c77bb98dc6a0f04f3bd051b41e7
fc729db631ad2e7314c9efe202f801f0
fc729dd91e7da3a749dc42db2b82d48d
fc729e04c99f8c6db54892cd5b7c4159
fc729e911b721b3b6f1318d9b16cc8fa
fc729ead87fef9d2687e52dbef73ec60
fc729ed5d99cfc8d628db66daa45301a
fc729f0133e720a9934af27129a34452
fc729f6c753ac0d50b758004f2adaeb0
fc729f9002061660d3beed10d58c872a
fc729fe41a17013310a8a13b743c887f
fc729ff44f8af631ca84a3810061193c
fc72a0bc97789ce8f80e91634f1cbad8
fc72a1171df92877b73a65eda655bba0
fc72a17ef457da41a38535dc28435670
fc72a1a3c5bc9b01b51aac1cefff27b7
fc72a1f354ac8154c2301b2cd071ef78
fc72a33c5c4ed97ac7e2140e35a2be92
fc72a351fed2de4f25c01709bfd16f79
fc72a35beca6bb30db82c5b5cf7c817b
fc72a5587dab1063dfbefb847b4c2edc
fc72a587f1c53162837a50c95f4752b0
fc72a5abb507f2e98909590cb7786b79
fc72a675195bd07223110f131d31da40
fc72a67c6d6bff97475109fcf501918b
fc72a6b967f041fdf812ce2762eeab35
fc72a6c46c68423c0a0a378a7a854293
fc72a7bd9515e6b6a2cd12b05b3d06a3
fc72a80bb87dbe8a9965ee0eadcbb9c5
fc72a82d53425793a706383b5ae25550
fc72a979950bc95ba60e9569c06a0f85
fc72aa5533ad9496508e71aad8966129
fc72ab9dac8940d274dcef2e37e3a500
fc72ad2fe41a91410660d67db9581541
fc72ad8335341274d6caf2d9b9ec6096
fc72aff27f9e71782c19cfe11b1dd7b4
fc72b0b789285c11d2dee914dc74cc95
fc72b0badc35093c0b22216707db218e
fc72b1c0cd72b9a79ff4c1c73fb0840e
fc72b2d1a32d73bab9f8cedc467bfd5d
fc72b310dd6df4fc24ebe60977c17e5d
fc72b45450b8c9edec17f8f5e6b274cc
fc72b4727f8c8673e19d1326b88f3a5a
fc72b577de9c77f26d6d70c70d907d7f
fc72b618e6bad7d5dbc2ea94a7819c29
fc72b650477ee1efe8044032d6ffb8bb
fc72b8d62fdeeb1d2f043b8a7a11496b
fc72b980b015aa1933a5098445a1e68f
fc72b99071a56df9f5e61fa5b7e2decc
fc72ba53f696a23c025f60387f4bb7a5
fc72ba88fed3745fc0d6bf5c809d09b7
fc72bbcc574dc0737d490227b25755ae
fc72bbea8720a12a19f079e0d72af54f
fc72bccc2e64dfa2dc45374e19f3a351
fc72bd59189fe3b2ecd0bdb1bbf41d49
fc72bd8e355256f0e49558050a3c832b
fc72bda405dde209334089db3f6b807f
fc72bdec9d67ff6de408ef73517d8d44
fc72be1a885f8c77e863e7170ad22ebf
fc72be6b4b09b9223703daf868940d49
fc72bef408aff116782781453ff85ef1
fc72bf33400b1c3af6a0ec34b286b504
fc72bffbe8feff3ef7539891baa44152
fc72c00d0ad9777fbe48c51052efd02e
fc72c0954ace5264cf3df5466ddedac1
fc72c12d265e33a9313b0ee8a8143e80
fc72c1993f7c4bcd6421db542cf2dd50
fc72c1eafbfaf4213063bc407f148ce6
fc72c24baade9fef67707da7e28bd224
fc72c2be629261ffb754467027944301
fc72c42c50d17df96550ec0cac5b2b9d
fc72c47271adb3bfb40caf457d534844
fc72c485e410ec94c9c333900aa11e35
fc72c531a74f581c03d1ea4ea34d6a22
fc72c5e4dcdf5b6a11a70fc997b85cd5
fc72c71c6dfa208293bfedcf90b6e48d
fc72c728e59bffbd0f17bc5deb717405
fc72c7ce02f4b3bc7e836950fd120829
fc72c88056cb1ee744fc59bc74b80ee5
fc72c886761ab4946aaad3e52538c430
fc72c8f178b2578f6f016bcbd8e97096
fc72ca217ab2854dae7a9b802ab535b0
fc72ca33dacf8d9a667ed3268593b5ee
fc72cadafca49db890b974594fa88af1
fc72ccac6b3be55456701dbd30ce6642
fc72cd238a14cb907a3b14ee5c30909b
fc72cd83b370ecf798ee34983e513f29
fc72ce15d2973615d2194e318ea25662
fc72cf7c8257329986ce0a38f6ae0bbc
fc72d05afe8808055890c87bcd201730
fc72d109ed2c534873a8c35196b1632a
fc72d1303f77ec06a1c2aad671e541e7
fc72d1f72a6b5c309d7fb084fd9f96c9
fc72d2194f0571d52b85b0585832ef1e
fc72d2ba286deb97331f559477d9fc20
fc72d30258f0b16c5a3dbc02c8613e9c
fc72d31a26ac3f9cb453f6dfe8e08c86
fc72d43c3f4286ed6a4eb23dbacba865
fc72d6649e0cfc3f210e5cca8e0c0f32
fc72d6e9c105610cb0aeae729b769f1e
fc72d71a68a89225951bc1801aa56815
fc72d7fa467c8253ada46bb225fc1010
fc72d8ffc0887c03ba4cc4467fc9163e
fc72d9057631ad4763e1ec09cb5c4069
fc72d9c75eaea0962addc5820b1df528
fc72dbbdf37e7b7130e216c1ccb39b38
fc72dbd0097aff7f7a1fae8692f30ea7
fc72dbd0ff8a1d7261627b9037d138b6
fc72dbf297b8ffc46e3fd3d90eb48130
fc72dbfe260c63916ff7dc083df5a68a
fc72dd98b8b797691616bfafc289a072
fc72dda7b6f486b75eaf9d4ca9d71041
fc72de109c7ac94d21f112cd8db32ac5
fc72dea455c3b0b8b72fd1a692bd348b
fc72df52bc614d73bdff4ac7fba372ef
fc72e1ef27676dd21dbfca9580a92668
fc72e38581fdd772485d2b5d4f98a79b
fc72e400e9ac4a25ee2d97b452889aa1
fc72e5b63609763162c21a3a7ab8d3a2
fc72e5cbba06316c4259e5bf52beb7bf
fc72e625d64adcfd424c8f64f41dcfbd
fc72e652f7b8e617e55681bdfebee342
fc72e67b0a269328077222a565e89695
fc72e68c3134635ed70c5973a52e77eb
fc72e69aa7589b62b984107635f23fcc
fc72e6d3c4e703014f7045a6f6ce7273
fc72e73bb594d74ae0ee28c6cb6ff3df
fc72e762c4f037b65996fefdce0ea757
fc72e85985a8fe4357729db2e4900850
fc72e9672715aa3012888b4d093d0359
fc72ea0ecab4c2a8422a0e083d59f0c6
fc72ebecdcdd745c1cfa9b9c58f505ac
fc72edb38113bad3e0f91fad114a0690
fc72ee246a808f033f839a02aa26770f
fc72eec7c082d62c32dae09042668ed5
fc72eee97a723d9676d9c18afe790d25
fc72f02c3d9234d10c2a0636e946b6f2
fc72f1e9182aaf050d0d3f03b3800849
fc72f33561b9e0e4299cd83cfcd2362f
fc72f348270081f0aa29140a4af2a58a
fc72f485f7ddbbee73c823c53c457c5f
fc72f72317f5f2cf27489454154d3df6
fc72f7608d214727006e21e59b133d58
fc72f802938aae76894f49d1f340b300
fc72f8ef955d945c78718a1a74f49682
fc72f9a47971a5d1608a59fed9931eb3
fc72f9c275ec898cae273120a2012afd
fc72fa6a912824a5ca6cba9aa59182d4
fc72fd40224334dfde5b5a2928d9462a
fc72fd6c5c4b75bec717d59dc5a53d53
fc72fe4381832e82ed3edec0782a7183
fc72ff4e9dcdbc042409834a1d13aea2
fc72ff56e7f593eb9c1b929466d9a65a
fc7300e1c85e958281bb9f1fc56caa2c
fc7300e28aea4fc7abf2d0696257b1fc
fc73016f88307eb8180def797a9cb46f
fc7301735f824203f75fbe41dbac6559
fc7302dae940a5ea72f04dc211296eeb
fc7303408575a4e6c6079b96bd8d2079
fc730360d3080c619ea58c9aea7fe275
fc7303724003fe41e1dfa9606bf49008
fc730379118d818b04a6f61a12084223
fc73046f0691dab0b00d60267f8d9dda
fc73047dc486cd67517e84c5b4c36c79
fc73050c4b2e777aec7f777b7b57ca72
fc7305359329bf70f7a72af052ef79c7
fc7305520419d5ad86b9f9bf55812f0f
fc730562450efd6bfc0e93d24431cd6a
fc7306294bfa40f624a509d9ae236e90
fc73062b197d176d6d50acb712654887
fc73064d825ade58788325d830d78a60
fc730680dcc1578772daefecca6f8e79
fc7306b63da450a358f88d60d2e85501
fc7306e6c2cea7394c20bbba486385bd
fc7307334c961fb094544506e7dbae89
fc73073d854101dfc1b602b748de922b
fc7307c7ec655663ccd61564473f8296
fc730992b55bae30c66ae2fbf789fcdf
fc730a8854eadd6d7968cf946a2c7db9
fc730baffc3a6e234b6465967e93cbfc
fc730e195214dc4c6e2508185e3afe20
fc730eb8fb27e63ccef3d5f944a6e53d
fc730edd238f83708394c74ed58f7f3f
fc730f0fc8ca477d2cc3488393bfe698
fc730f9457a6abf0f18c6e62042f37e8
fc731000217141a4e199e312fdb9de38
fc73108d47e3395dc18f1fa8017e7fa2
fc73112ed99b12e340c25c3a246a4c9c
fc7311987d0a473b834316c1fe94a4d9
fc7311d8516a4437db2a9efe72a94447
fc7312e8a98e869188c3882741691435
fc731339b860533bc3af9877464ebd21
fc73137146678abb96c9902f7c942c20
fc73139677f4f030aa2a3db79f548119
fc7313c4ee3999f3aa96277fec8ea440
fc7314031d5380e0f90791d2258291e6
fc7315094b77430ad6e420bc06bd1b24
fc73159a8c8341283bc9ed7c43ff0608
fc7316448afb3afb345bbeda62fe9c70
fc73168f19f74931eab52d81a4f4431a
fc7316e73bda1a2f2608f8802703a18c
fc731704124f4b83f552e39e457e0930
fc73179262e71b0c6faa76d318b05cd1
fc73180595911f6616a41f5a55ae2cfd
fc7318782ee429f84e897e85579b705c
fc73192419922094114680ae5472fa60
fc73193bd9a64ce76a51805f3caa2bd9
fc73195b105b4ee6754dbbd896620707
fc731b29c0ca643a7aac8b60c4daa40d
fc731dbd7e337bd42a3e79133210cb62
fc731dfe8dd0ab35380fa4d855ff57c7
fc731e348cbd3c167dc76bc609de184b
fc731f6a6a070dbb9c9f44dcb2330594
fc731fa3616a7a860e7ba0791cd2da2d
fc731fd1231fff8c71fd495bc6985270
fc732024816e4156251cd4c53ee03961
fc73203237f67358d70b98b203d9b36b
fc7322005b071640bdcb38beb86b5a4d
fc7322ad1ad8c3784b106ea08be5b667
fc7323fb1f3cc61d3d5e370d841682e3
fc73245894de7d511b3efd8ef2b11a36
fc7325413a873650ba811b292c96699d
fc7325a58a17caab078a7a6eb0966391
fc73267dd8883316fad6a9231611b5aa
fc7326e0212a306ec0612a8451707f80
fc73272cdb3a30b79cc75c3a8d3fa7f0
fc7327ec8f996bf709c5aadf864da45f
fc7329d89755c159084176879f1db309
fc732a81a9df05d4df2eb012bd36568f
fc732b3e0f351724ff150a246136ffd3
fc732bb89c585eb79f7c04355b87cccc
fc732bda2262f493d3fe9e8bedfb0a84
fc732c2be89f47a719725b3d7bd98235
fc732d2415371b9edc4acdf8633971d5
fc732d68af5a4a78a211f62e63155f30
fc732d97a9e8efcef902d159da41a3c7
fc732db0745676760b52864b4c2bcd02
fc732dd77c9a7a719765e6934af9d70a
fc73300205a274d10648658269fef194
fc73313b5533520132d6465e7e5c584b
fc73317bb1ff60ba489b6dabd419c570
fc7331b43b76c1d8f0f7c551a620538e
fc73345b81529784cd35f5eba8f0787d
fc7334998a92502d7b446eed230a4b1b
fc7336246ed66d2ade274b6f8bef31d3
fc73369468d586263d299a93a6a337ab
fc73370a966604a503fa4d2b97f39821
fc733740c0a6f36dd1b13b8bb89f8746
fc7337ec6e2f6c563ec0b1882b760c20
fc7338448f7d20fc249a0fb58334d703
fc7339a65629f0f57d2355d51ccb07da
fc733ae2b7bd67504c47b39be98fd0a0
fc733bc34dbc48d6fdc7c3c081f4a3db
fc733c2b580c2788b9a3ac5949eec6c3
fc733d28d3fc68ef1e6d35876328e87d
fc733dd2b14ed5a233e8aceeab1d93c3
fc733de1cccc098d34aa8492a79c21d0
fc733f6b1945e2c091e5362b5e4bca42
fc733f74d232f7a0d2f3d09b6a233c98
fc733f8ee366b29d3a9fec1b2a0f13a3
fc733fdc08e7eff595548a54767faa7e
fc7340b044fb9807b017e4af7a7cd293
fc7341cb7953e5e74f8c155c2103aa57
fc7341d987bdd7e24acd1c60bd5a2345
fc73439cf7f650bd803893976b9d7118
fc7343ba176c9d9c42e98d3e1c92eb71
fc7343f1060ce1dbb69b7a7c9fa7a9dc
fc73449943fd67c718281ac2a9fd1d74
fc73453d8cae7b64a1f4c8e91b72f390
fc7345fc255daa1d236cd32f1b75eedb
fc7346083e78fa1af9e4a5168259e3fb
fc73465ce60d3a66593a42739e65cb6c
fc73466eff8de2100d5a00801c001556
fc73470df402dca7689dae8b95ad51e2
fc7347e2b8985a1ce0210a10aa22e473
fc7349d6e31bbca402b8e133c58f8c71
fc734ae941aae04ec37bf4346c7bd4f3
fc734ba70f0acc0e66e2e30ca0c0f918
fc734cbc9e0322112f47fca9841b4510
fc734d8887aa4d6d94c94ca6bca617f3
fc734e873082bf59b87f2b17003e0cd6
fc73509efa8ba24d03d9475c18d5e850
fc7352d3edcb1388c92fe17745af0960
fc73534f99935ba2d5a9cb31cdae7098
fc7355d6059ed5d6ef7618e01c1402ad
fc73569e47f479334691afbe2c8922a0
fc7357797b6753109cb5f5f7c52e1c79
fc7357d8c245fa42d87797bb23c42beb
fc7357fbc9ab760040eef97b36c4467b
fc7358e4e75657ef1b07a0a78ba15bc0
fc7358fac53357987df53809d5673360
fc73592b88f9bd9cf9500a39ca8144ed
fc73598142440140c878de3fa11e7a9a
fc7359aeae89b50b858f29a0a75b3736
fc735b4465659a2f5efeca1cc44b1330
fc735c06dd7bed4a56279f28fc31b269
fc735c4e381a2eb58afea8c63ef076dc
fc735c5db3a744abb320700fbfed7cc0
fc735c85ea3f3a5fdbd4404f62bd3cab
fc735d657503c5dd05ab1380bffad9be
fc735da29cfc44dc37ad12967c0b93aa
fc735de15075b04073e0c65c37e1e668
fc735e91f09edac0185067b12129cf72
fc735ed49773656ce803d4b16817f32b
fc735ef124d361335908cadf3bf2aef2
fc735f22f50a727e05dc56d061f8e748
fc735f2657fcd37e2b030c7e4eb144bd
fc735f4cf08d7367a5158da19f43aea4
fc736061376fc2ed85b3bfbea7c67a20
fc7360fcbdec0e1c4372e2154a9710b6
fc73611a21f4dd64d36a408083c758d4
fc7361267e4233f8eb2a2846eede7a08
fc73625d7f05a006cdb27c377a67e434
fc7362f617b9a14d66b08d7a49452cfe
fc7363a7158d70fcc2b8f5be7d702ae0
fc7363cc1f2f53ce0ef5dab711799cb4
fc7364165a67690fa177fe18c1d17475
fc7364c2851564ccabecabb4857cf01d
fc73660315ae13f9c13207566def773a
fc73663df903fc0ab201119033b4dee0
fc7366b8a43a5822fa3841b4e82c082f
fc7367a46721dfc2b6b9329d3c121bb1
fc7367e465183343e11fca4a499aee3a
fc7367e56e9c2aadb4dacbaae53e848e
fc7369ae665d646807d18cc74cf4e345
fc7369bb57239ea4e58bbdf92950ef30
fc736aafa0243b419ba8f5b49c52d3e0
fc736ac1a6dd45d18b148ff4d5ce40a9
fc736beb14583185b1eba7c78820e5f9
fc736c0a3fd3866fd422b3dbbf815831
fc736cabf74937de2464233e71a9ae9a
fc736cb70cbb86b3301d1ea3b5274ae4
fc736d02d5dc2e4d7ba37796fd132fe0
fc736d9437e9679fd9816653c704e154
fc736e1418262909f4e0b777d1099046
fc736fa8f7e3722d7a90e7aab8a816bd
fc73709205f084c1d6617131cfe3a6aa
fc7370cbd29593487e5fc208a371e549
fc73715b13f826d5f308154520238a25
fc73719bedc8e85128297a741e1f7ccd
fc7372a2da62f40b679076173a89a817
fc7373b3217871412c3a5eba7488bd08
fc7373c8ccc12adbea3b7d65ab006140
fc7374f16b9b6d483e13680ca2b0ef5a
fc7375a7fe9e5ef3cc39ee3a6e9985e8
fc73766fdeb7ccc21d0b86debe4403fe
fc7376832d4a3049fe5bcb102d2b45b9
fc73772890841529a1c42f01b8562a51
fc737758ea3d17667ea7bf3a6868c64d
fc73785c8645724574ba01429910ec87
fc7379c00cd0f8c492caa7afac7c9f7b
fc7379dc969a0a2fafec7748ca99d5fb
fc737a06909ef034b986d0e168b56c1a
fc737ad1d2250d9fac5eabc00c40c6d1
fc737ba95fa92f26bce03d4da9ecd709
fc737e8010d7dbfb1e30e2a3fb5cd4ee
fc737e88990e67433773d5781ff95356
fc737ee791b82a0e891403496ec950d6
fc737fd49b81404999ca3fce2b15b0cb
fc73800a0e2d880a02864edbf0d4f840
fc7380d4d8b63a4614936d427c3b7ce1
fc73817db703b477087a2f0092d40b95
fc7381cd7c9cbd8ac0ab473169ef8b44
fc7382c03122d2ae1706fda03c258ce5
fc7385d6e8259e9e9f0e3e56a61e50c6
fc7385ec086ed0e39aa26f36266151e2
fc7386087889e5615a4e0ce59045fdb6
fc73866659816196fa81a802fbaab8f0
fc738700d6ffee3b7e54ca78a7d3ad7f
fc73884f17b21a1744fede653c955f73
fc7388facddbce3b051d021bd0f11da0
fc73895b25a0496f034683d55778c7b9
fc7389931a62509fc8392b8874b2bd08
fc7389e35b05a7afb13fe6633a453996
fc738a1b4798aefd0c06f3ee49e7dd5f
fc738ae85c35a58ea350d4426ca496b7
fc738aefa578ad12443d9e8b4a187ba0
fc738b028319b7b1365c350fb9a0225d
fc738c3d0365f320609b49be42321f6e
fc738ebb263ee6897c380bf5d63f3738
fc738f02532943c0aded03a43e60079e
fc738f2f5584343a2a2b2bd6aeb39a97
fc738f4da0b95dbeddb1901503cdd117
fc73906c84f8c34c787d88064aa593ff
fc739092b0ab3cce43a27dc054206b8d
fc7390b1088f083cc1b0b8d8c75fdb00
fc73917788143ddc384adb9e376f84ef
fc7391bf96d3c39ab51cf9bede655d6a
fc7391c82eb2d32bac5421cddbfa6c3c
fc73923697f1d03b352fd1b7fdbca750
fc739268050eb0a4a3f603dce9809611
fc7392b67efce208e0714ce3e95cb798
fc7392ef094bf705a83f9a4587641527
fc73934e4cd2f810a0cc1f4ee6659128
fc7393e742c60f180b946ce9067f0f20
fc7394071c56867995d293be59f25e34
fc7394db9763f80c4c1394f8d5690a58
fc7394fd46b3ea7b108d617ab61d23f2
fc7396498324ac092a37dd7cc24113b6
fc7396dc25451d00924e8b2735a0485f
fc7397c8dcdab530b028272fd919c107
fc739a708b4021345dedcd07558ef96e
fc739b1e64deb40f4dd7ca9e82027e04
fc739b5058ad67c8f2e89115b045c166
fc739c0097b155aafa6ff4f8c3404a88
fc739c669a6d6ada32aebc04efa9d64d
fc739c83e1e9390f784371dc4a6919cd
fc739d28efa7cb902e1c5a94f3462de9
fc739d4b4f63d5940607f3c940667f35
fc739de5ba4b154488a2f9c488c98657
fc739e0b8d0809be619bc28276e6f957
fc739f0baa7a201e5ce11c7a8d2822f5
fc73a192ef6373d7d24deb8e568d8854
fc73a1bb1e293a7eb6d19eaddaa95282
fc73a2a3522ab7dfe98423fa2ed1d162
fc73a2d4c94fc66670b4b1ecb7a8dd10
fc73a2e9ad2a08dba0d50b8fe319e26c
fc73a2f75fc37c560b22601716e5cac1
fc73a32e32a546f97edf3231a607578a
fc73a356468b2e864544c4e75f6996dc
fc73a36168757a7060cbec44a35e6a08
fc73a36ae4b253805e7075cd87820376
fc73a3c4e848aa8be29e91db569e90b9
fc73a4461fb8c0e379228519d4c87b14
fc73a4a0ee9e31da50cc7139a762d240
fc73a4beb1d1276b084bfb3425e95fdd
fc73a4feb8d641fc70b7619d2c1ce520
fc73a596a763aa43338f1f485da37588
fc73a6122d4c25500c8e7470bbc53b7f
fc73a63e1277b6ea053c4a78afda4c71
fc73a728fd2a5a6eab9d9e36ba77cbf0
fc73a786465ab4a360b5debe34f1fc8e
fc73a912e73da80ac56d4dea9bf55eb6
fc73aa9ed56a8ece44ca55ff2c3f98c0
fc73ab2b1aca68e161435a1a72dc91a2
fc73ab477509d73a78cdba4f30b356c4
fc73ab850694db9803eddbb0796a9f78
fc73ab8e8abe5c077e7eec7fa88c173e
fc73ac6a74382e1071d4c3369ec2984c
fc73ace9e85baa3785dc965c5f7425fe
fc73aceb77e2edd583874d44f80c3860
fc73ad0a269a4c049d2ba54ed3061ff3
fc73ae492f2ddaa6ee86216f2a65c88d
fc73b04152bb6cec0c154183096b5f40
fc73b08b9ab25cfd1418827184214481
fc73b0d0241d6f8a093561e908b702b2
fc73b104520fb251636d0c496baf5e9d
fc73b2cbb9111b5dfe191ccbde9d8690
fc73b3a772e435e2f5ab7e295af146c9
fc73b3d90cd6659036472faf2291691a
fc73b45ef4ff8eeee17d41abede45c4c
fc73b482741bbc319bab0e44b84c8c07
fc73b4a35940005c53548238c4842ea3
fc73b53cc415f0016e0ed6f9fa47eabe
fc73b69079b1943a44f9ff1f1316efc9
fc73b6b9acbca1752861594b23ffeacb
fc73b782dd5cc960dfa164aaca4db902
fc73b7c3892a1ba4134e8dfd02c719ab
fc73b82edec962bbb467bfa351274b86
fc73b87a5b934cefd268f1c418bcbb49
fc73b88b162fca6ad25b9f120b4e6ad2
fc73b8a966eca9c84cc0ee453f058a30
fc73b8ffad3ec40df15f587cdd0d0251
fc73b934a34e0902b250b976f0ef02e1
fc73b98b08d8af6c0c5dcb24f08bee1a
fc73b9e9db0d43f2bf3dafe75d352290
fc73bb0ae7c8aab76ba896a1f3be3c87
fc73bbb7c22cd1ca3165989f3977a648
fc73bbcd7b686b7e41a9ea82f9a01b48
fc73bbe39558f60e6b99621b728cdb53
fc73bdbf9f68866d42ca668f8d56f65b
fc73be64dc9be34e65c40bf9f68fda0e
fc73bfe0e8ca733e8b55785dafa315c2
fc73c027e5cbae63996dd84acf61b815
fc73c262a3ad9cf67bf22d7de80baeee
fc73c26a60a071f5f65df7e8d7842476
fc73c2d4566a0874e70bf1229aea1ab8
fc73c3302db739e681b094a912740a1d
fc73c410f1dcb8baa1bb6f47d9e9e612
fc73c45d3613d40287936d5444e644eb
fc73c50de4a817d858ff6655913c05ce
fc73c59b410f946f367e107c03fb6ad3
fc73c5fd53f1e0cde99eae5160894151
fc73c63b4cdb1cdac5dc3a9a6f81ce1e
fc73c6a14bca552de017947960318271
fc73c75d0f0be7b28cbed8879d1c22b5
fc73c809ed923d32e3247dc0f7037b53
fc73c860c4f43b4d43d3ec0bfa160dba
fc73c937321cb24072dcdb3a9b51fe07
fc73c96ecc98431729db4fd578a5629d
fc73ca4d06fedd635c93563b3a6d6188
fc73cab2babef231b93d3ab42e4f2e20
fc73cb69877666f40885aa7300addecd
fc73cbcbe427de39ed3d60369081a7f3
fc73cbd9c19fd28327e13d48efd18d27
fc73cd0fc2a846174ec3b43d5e87afac
fc73cdfb31bb9b28b18fe9f2ee6c6ec5
fc73ce11fdcd802e96ac542f10107f0c
fc73ce3f950c9df73ccc27a0afd17e68
fc73ce584ec3909e15176a77cecd095f
fc73cf0d8b0b94740041aee6bcce6ec5
fc73d1338c734d06b97bd8770b628b35
fc73d17db54bf337c69491a1de84e2e0
fc73d1eaa4c5c050ced8576c35e11d0b
fc73d2bf6ecfa30a0589bc6aa512b705
fc73d3a4b14059baec4ecff997292ca8
fc73d47c53c837d20af96a444fbc8d0a
fc73d4f1b117afc2d8fe46fd5228f169
fc73d4f26060ec8fc4b7ec45e8f5e650
fc73d5302817d378ce77541ef0bb3e52
fc73d5de350a061356de14b5559c0700
fc73d619908efdea32596160ddf570ad
fc73d679b595be2dbdf4a99f7eedb79b
fc73d681c08c3ed3d040d9726d0de978
fc73d6ef3d825cfc0de0c51bad5ba010
fc73d889db30ca03f94ef86ba1d84ad1
fc73d8982722b6118d345f0c26caa064
fc73d98b2aa0a8167b6c5e3c1b6c8c06
fc73d9d92480deff6d77479730200998
fc73da09bc0eaded5336a443c11d39a6
fc73da2ace4e357afe0e27cc8b85fcf2
fc73da9b48f53b3865ba85c7397b49aa
fc73dab121d9ee50660de602f4c7a5ea
fc73dad74caf683fa31d18f9fa2aa71f
fc73daec422e3ec27c75ba76686620f4
fc73dcab90c2e4536c439b6119ed7277
fc73dccb0d435f34515a5c587fd6c340
fc73de86688cc2778eaffe6ce5aeafd6
fc73df23dc2ddcc2cbbbd503a67a9760
fc73df2c39493e5de3906f9cf9026b65
fc73df3876b1f3fd723098689bd07d86
fc73e0053de8d5c4f671daa3e023c6d1
fc73e0278270283d45f349d14e5a8b67
fc73e0c1bdbf8a77ccc7d9d7db9b56ba
fc73e0e23e708278bf36becf161d4a16
fc73e2a1447465456ed5ff060f2888c8
fc73e4162f2448d6e43caf0c9d3ac08a
fc73e461ae51c3196de89252a4fd8676
fc73e4841fbaa212db5c9ec2e48a31c6
fc73e4a0ea471ea86dd28e5f90b8bc7c
fc73e5310803c5c0a51a29edb2895203
fc73e53c744c45bb4e13022fb9a6b44e
fc73e75b2b73a76f4e5b587021357ccc
fc73e96084a487b74c0570c5b1833b6e
fc73e966ffad3664b67435c5b0bf2ce0
fc73ea0824c62d9d700c75709f9bd690
fc73ea1d4cce2f48646f0400efcf3a92
fc73eb0905887d4dafb39fa6533bd61e
fc73ec2a779c0f0cf6b323f45a0bc4c6
fc73ec6600e113baa0a51e2cddd3a2ec
fc73ec99bbd48f7e7945e02d50e32f10
fc73ecc318f0961fc1fd1ca6e1e3f8d3
fc73ed10001132130f8d21cbc41f1324
fc73ed358683ec753c1b08f2c1bef8d3
fc73ede5ad0dbf576a398f4b0c2c6557
fc73ee05ff9e201bd602aeb0c114903d
fc73ee30f5da3b61bbfc6df744655514
fc73ee43f32c8bd313de781023d4586e
fc73ee6f6555cb46fd9f208cda36c811
fc73eecbf802d41220710ccf63956ae1
fc73ef69ad593936bb8593882e163066
fc73f02d078700c2dd8a7a26c5d971a9
fc73f0b7633feb5f015ed0f64f35c050
fc73f0c27990c9f98fccaafbc61015aa
fc73f0fadfa7d4b3557c0f1d9bed065f
fc73f206ca72496c596069d152cb29c0
fc73f3b193dbe69bb73267e31aff502b
fc73f3bc34cb2ad9e98330c1b39fc065
fc73f5d87a21e902616d34bb10ec3d94
fc73f69550dbd1a8314e5f29bff1b677
fc73f6a81ea0aa5505266f33703831a0
fc73f7d5f6385df0ff870bbd3886f1f8
fc73f84113f00cc2b0afccef839f67b4
fc73f88f91c708201419b5c127269412
fc73f8dd813899390a3ec3e5256b8b99
fc73fa4783c137e815aaeca84c851556
fc73fa9e70f55b7aacbf93003bcbc0a9
fc73fb16e099f936476a01e284b7cb1b
fc73fb8e8d637257d02f04229ab48a9e
fc73fba3107dbdc9d0bcb5e8e8f83a60
fc73ff3f2bd61076012c18e2401eb755
fc73ff491793d16dfb834f7fda5fb416
fc74005a36936005cc1591eae6e6ba24
fc7400741ca41a28eef64390d09aaa63
fc7400eb51542dbe08cd0813dee80449
fc74017142989d647838b097aa8f5b97
fc74029768f7347ee253c7eaf7c864b5
fc7402a7908eb70c65d12df4699b5431
fc740364c00aee9ff980792a0dff2ed0
fc7403802862cb86d372ce61aaea39c1
fc74039f2f92da737f053bfbe1c60ba7
fc7403b2c7c2e36560b6e9016b5da29c
fc740416af03431687e6333dae46bea8
fc740417c273facdcb639be87b03bf65
fc74042d6bb8587f88909a758cc7fa3d
fc740580c7398d244616105516bdcd51
fc74067458aad556ac84ae60c71fec49
fc74067584aa7b9e4748f28a07b2513b
fc7406ac817e459894d4766c66cab364
fc74076a85236fccc4fdb7e0bbba9675
fc74079ff84a458e2bb7c28571bd76b0
fc7408ccd1efa80e2d941633cf18323f
fc740aef5f0a72b890bbd87b4a181acb
fc740b38efc7332a384a93e57e541763
fc740c7b8e1dd194f384962026c94fc4
fc740cc02348594e472d9f64ee4664b6
fc740def8e2b34c608973190470ea255
fc740e40ccfddc626356a64e6ffd54f6
fc740e9529fb1090ff3174a134c6a677
fc740eb94158e2a314f4234f3fdc7bfe
fc7410231ff329c88c1672b66a37d73b
fc7410bb27e8aa3c73326953da834b4f
fc74119d036d48b0ae581abe9a07946e
fc7411df2d0eac0daf6f0245f67c61f0
fc7412581f686346c87455ffeed39b6b
fc74138261528ff23623b785d0a736fd
fc74148816ddc09590f133da085610d5
fc7415277726bc75583eae949c84a3f4
fc741527b6c207da70934039f763d140
fc74155646bd436e39c7ef39e2f625fb
fc74155679b3294d1593c33816889531
fc741609769969f71acc394346c18180
fc74171461639345eaa8061fa800af47
fc7418970c45b46961c0f09ad918eef4
fc74191eac17115917d61431778f83e8
fc741a1e5b00ed226bf2c19ee59d656e
fc741b3cec09b61feb00df3aa508b795
fc741bf3c44676340655fc0b88c3bbb5
fc741bfbd09e517baf63ce71f2fe46b4
fc741c2095fb76577602623bb8958e08
fc741d775536c4a33d26e84ce5127810
fc741dbdcb7534ff1090eb0e63ce1270
fc741dee06810b3cd07954fa313b72d3
fc741e18074396cbce281ccd2fe0431c
fc741e89adc6f259e232687f954a480f
fc741f8ff60d1c4ad5a2f0aaa42f4d7d
fc741fd7c9e9ed964719437fea7cfd8b
fc741ff4f927c8c3b79057fb4c3a2239
fc742173237182165c0bfbb23fc6c8d6
fc7422f3da080ba0af03eb659e69fa5f
fc7422fb10092848bb62918b5bcddb02
fc7423cc44ace4e322d8b97ce8a22719
fc742459cbcfdba545adebfe4e580188
fc7426276e0d8623aaa0088301f03687
fc74265a56a52851e4b17ff38bc13eb6
fc7426637b0d4281900cb40e696dd28b
fc7426c92fbbdb7a0667ee04018f6056
fc7428394140cb9466fe8f672b748403
fc74288c33b5d7701e8b5509fdda38ca
fc742927c96a35d7aabd17ff65d99441
fc74295230a5ab4b366305df16375ccd
fc7429ae07058166f65f73e59ac333cf
fc742a0bab123e9ab5cd393c8c8352da
fc742b266a99f7c986f1d1a9f08d2176
fc742c2270062aac30656fc2d2fd7917
fc742c2b7c00e2ac0ac4783247485ba0
fc742c60af89c0a2f7c2444cc05df4ec
fc742c730e365db53a89d44dfcd0ae92
fc742cffa7326ba84225fa1aa6d2c952
fc742d87c97a49150bb7b53a07fc68f3
fc742dab50f20efc4443b37c61c3800d
fc742e5acba6efbf08302ccc0e35f9f0
fc742ea51a0e818eae94e850b8f7f684
fc742eac444d01d54307c20588f5ea2a
fc742eedac6a0c34a22ac05fde6e79c0
fc7430efec444825641749614067fcf8
fc7431627ee321c113a95c346d100c93
fc7431b26ab77b7992039c3449f05f4b
fc7431beb6303efaf536f4dd428fd526
fc7431f422c8ac6e068c72275516f970
fc7432132aace9a54d96caf9189e8374
fc7432268492bdc242f5a94c52cfb188
fc74324114961454fda032c2aa5f4e6a
fc74327588ca65d3c135e84d4279b5c5
fc74328c52497a4faba27582029388a5
fc7433b5ed14483a0ad16cc411e92eb9
fc74348728c3117023e8a277c2e953be
fc7435430540b0ef95f48068ff1f158e
fc7435f84d5809ab8de9d9afd515b1ff
fc743831ef1cbf4926ca2525ce9a7071
fc743a94e461a072211dde99126870db
fc743b1ba0b4899cde42c5adb4949de2
fc743b520eafd51af6d83a81fd9a4841
fc743b8b69793152a0362f8f920a4b01
fc743c12655c1306563d9f9840466b03
fc743c8c27dddb296fe964cd5ab11ce2
fc743d8a4b258b56a7a3ff38a39a5586
fc743d978a707d8ad4060283233d93da
fc743ec0d075b4e8d6d07f3e463458aa
fc743f8cf3d4a1be237a8712a192c2a5
fc743f93c656507b67a498ed54795bb8
fc743f9c4201c0bfdceea381abae347a
fc743fd0736ddec2a4a381101911fcd0
fc744088227e32aae7c8840f69678673
fc7440ead2a0fa9a9e42e008588780a1
fc74418533c8a5d8f1184dd04775d0c8
fc7441fb34233d2a1e1be47f38dbc63e
fc7442587285cf1bd60df682b57bb6f1
fc7443481532cf235246e64440684950
fc7444fd550ceab1d8cbad4b5fa94b00
fc74466a38a33d1d47c9cdb1616fa845
fc74471eeeb893c2998857f5a24a67ff
fc7447c46a31b6a32b7e6f3b33a5597a
fc7447f38154ca505b576ba338302cca
fc74498ca7a14ddd94c760e8794ba80a
fc7449b185792d96d693ecf633f7d9cb
fc744ab1b6365e1d7dd94bb10c3c3f9d
fc744be8a1bb9fbcc7c819949b446f23
fc744c2431c9b87ed26cf4356d47ff7a
fc744c3a60c0a7de538f083f9ba1b71b
fc744cbb97ee218dd5253cf079d6ad55
fc744ddc60af08792693d6eda1239f90
fc744e9a8f2c3de2c84245a071670716
fc7450198029e003e1273391f4c27c7f
fc74508bbba75117514e6dd7bfb82209
fc7450903e5e342560ec1af2165b5aeb
fc745094f54452c3bf526a001e7c29b0
fc7450ace8e834136ccd6aac40ad1081
fc74516a63d72285838e98be08c40163
fc7451984cd4aeb3cb6770e624529123
fc7451f1faaccbbf6d3adf1f3c7e8111
fc7452914bedc4598e489e352315c3ef
fc7454222c9108e1783fc60b0091ca05
fc745443b0fe9fbb47823bf567ed5d9b
fc7456149caf41cbc2985338964dba25
fc7456f5dad682ab3434b009bb9f54e8
fc74573cdbecd7f40f70e866e35d65bf
fc74579b1d518555db8755031b2ca76c
fc7458590b8d0e403c298de55a9edd09
fc7458832e8db431649e4bd5713a4637
fc745a2122b8009dce3ed431efc98c7e
fc745a3d4e7a499976024e2e2a0f2e90
fc745b866169c454693a59f14853922b
fc745bb24d59c08b8ea99683315c5122
fc745c3f176d4d232f6666fb87f0d46f
fc745c9973aeb8ebe78bafbfb5967f51
fc745d0960865ab11aec954e28f6d924
fc745d09e4235d3a164d539076ac45df
fc745e0da8f27fdf05a5d87a21864981
fc745e2fe254a89eaf7540b8413e2d1d
fc745e6cbe276216329c8f8ee9bbfe77
fc745f145db4d2c070fcfbb141c5fff5
fc745fb042ebfe04428f96d6056cb6f4
fc7460f0cb788493d13ae686650b5266
fc74622a0d55a9cce5c38d6fb94405ed
fc74622f1dea4ba6755a38d755859cf7
fc7462d183bd313482fbeec5d26a9702
fc7463d14107502ad804ebada6a8ab59
fc74644972df3d609aa2cd1cc374b8ac
fc746455f4604407246a13919db71f00
fc7464b3462a60e81d6abf2d2df17bc6
fc7464b865f3269689dc0525660f4895
fc746581ef6227e86ca5d786c871beb5
fc74666294ec1b23ed0418bbbcfc7594
fc7466c9f24dcce4874b092b0b28e661
fc7466f2f50aafd1ef1ebdde486dd380
fc7466f9072287bedc454985b38a3605
fc74671ca2b47fe7d031728014819c4e
fc74672e8a4b07255342df17f89a93c5
fc7467d1e2b6c6d35c42c441027f1352
fc7468bbf76378ae99241030a7e95dc0
fc7469a1247c0edc495249553017c598
fc7469f0c2e1529d18206efd9aec1a57
fc746a1ac9322b98a83692fe33fa4626
fc746a233e9644b3f302fd63c7a2b94d
fc746a54d290797b5a978be8aaf114e8
fc746aa65fbc3a872679761a6a35a5f3
fc746ba71da3379d10b0df52965baf12
fc746c8021ff9a3d461ccdbc123d5123
fc746c88716d03d9ad7747d9b7bdb0bc
fc746cc7b2a35f7254476476124c7ac7
fc746cdce977e4078ae21f532c00b2bb
fc746e016dd361710cbb5a953f92cbef
fc746e6e33afe255177441cb777ec5c3
fc746e8d86cd824edfadf89668230975
fc746ede22dbcf024d0794f2ea4c88fa
fc746f5b239cfbd23ae443de2ed048c5
fc746fbf7f969a4086e3a23a66d4fb02
fc7470a89e36c881447b23f3110611ad
fc74715d0b073280d67b7e2bc9a571db
fc7471abda8b2c9c0466099d59522358
fc747226c73e350e7a28b70e1ca69310
fc7472d693ea5b8474ee315f5314866a
fc74737509c9761d84009bbc675f014f
fc7473cd8009a4bdc14a2de5eb5f394c
fc7475547d116325653caf6c8ba1c50a
fc74756f9383f6fc944f913feae3cae5
fc7476359c37c62715cb4e3663e7fa78
fc74770c17f5fe0bfeea090fe7fe54e5
fc74771840ba9d234427bfdeb7cbecf5
fc747787c5e7af4bce593004a519cdfd
fc7477cc3504cc4a0480a1b5cd8e6f6f
fc7477d89c1888b257ee72a92136bd70
fc7477e07aa56b95ebe31fa4127efd7d
fc7478b2350c638f3282da66f6dbff0f
fc7478ed087e446dbe5f474599931151
fc7479be159f8e948dae6ae5ce560064
fc7479f2a03289cef4cf59dcd02b1051
fc747a3881fb212018c86beacebf2aad
fc747a67de6823d561b3e2242cc03650
fc747ab4e27959c41ab3861780b4cc41
fc747c54c2acfcec6cb50bda45979833
fc747d08b6091113e4d0d12e966097d1
fc747d335496cc4cb61e595b7453a883
fc747d557168224e3de270bdb573c153
fc747d635eca88d2b4a3a65d82c641e8
fc747d749c646617b52bac9da08fa525
fc747dd0d64ae53c1413908ce4e2bdaa
fc747e59f23ef1536a07fbc86bccde48
fc747e67bfbf5627812773329d104339
fc747e694c283f40246ac96098cc2a08
fc747efa21e35331fee1e9382459e5c7
fc747f65c9878436f4a1b6ccaa2d8921
fc747fbb899fad248b13b0f3c8d3e730
fc7480ecad13c5c8e4497849ccfb941c
fc74811f90dce3852d575e272ce9b453
fc74815d3fe540d9be1bd6996995b7ae
fc748175a7dd089b51ea73134f5623f3
fc748182aecf9de377a90a7587cf2740
fc748257382948660a49e00f362abdf2
fc74828e24fe49b425320a17ef3e3fc0
fc7485090a8d209023d3eb48f2221e0c
fc7486148495cf767a640a345e08e59a
fc748629c5c032d05ae76173b579ec71
fc748664527d47a42572c50ef18001b7
fc748696127ac3e113e2b8263b4d625c
fc748703101ae31390d9b64ac7051843
fc7487bf715d767f3caec923deefb3d6
fc7487c6bc269cedb8d3274f980a14a0
fc7487f1b427c71d553dff517772afd5
fc7487fb033d7732d738818a2a10bd5c
fc74885ecdba5ac70353b18f2c5ab3a3
fc7489d9444f3a4767e6b1ce17d1925e
fc748a2f7b8bf28bb5e35f2a3a5acd58
fc748c778708c497b9d39f79d0161caa
fc748cb6817817ebb9428ffd14d60e19
fc748d4471cc271e0288adcf3a70786b
fc748d77a44dd69b7d25beff5d7dfc0f
fc748e6ac4fff89295aca2ea2f543d2b
fc748ee6b111f80a01989b0c8fc5ee4c
fc748f4a3c73763bdb2f6e9f0c2ab5de
fc748f9c2fe8d78c5266988882f1772d
fc749088fa5e01288aaa9a2060061d62
fc7490914cd5ab6cbcd4efe4e73c6738
fc7490b365d256eec78e1bcf4bcd2ab2
fc7490facd9abf204160da13b10d56a1
fc74921f645df325e880b27b66c59ae8
fc749288521ad6504d045d380d51b0ba
fc74940be29d2bacc1728db65f861683
fc7494921ee0e44f6dc466ee93a0c893
fc7496464a30dbebaf70e8904312ce5e
fc74977197f8fa66c9b08298b2e700ba
fc749880c0daf28c20005c6ffba6f942
fc7499b9c88e25603ebca4c9d359bf31
fc7499bc1417b380871b2d1b4614e6b2
fc749a78129be82536d7869a4ff94e94
fc749b168f63230476c104225d5eaf44
fc749bb7f88584d87e526d9dd4da11b5
fc749bb87088249e45429ba025054da7
fc749c5bd258a9b921ca2d675d5ead18
fc749c7c47f156a0e27c6d3b66fb73b0
fc749d6fd3aa684850da2226be815402
fc749dd7b9905e05fb9a878d573979fe
fc749ded54b4525763bc3a8c2f3bd9a9
fc749ea8d72742f207aadd34b6e074b9
fc749f0795ee51df7ed076c50a0312b3
fc749f5acbecd3f4709d0804bbe47306
fc749fd453dec57c83e6e503eca9b781
fc74a1670e2cf4f543e7341e57848efc
fc74a177a3092edf7908a65cb21acef6
fc74a19f318745e88f1977581d716390
fc74a252402ee6905cdaf0afdaec3f87
fc74a2f6d836b3c44a4adb775c7e97c7
fc74a3185949833dff5a2fed13e82dd7
fc74a39cfb0890680c4a9cbd67d494d9
fc74a47b1f853caab0ccd2908f8deb9b
fc74a4b681a4173ad25fc703b8de679a
fc74a4ddc7a7a6a1a685b96c86e04b05
fc74a560372994b83058c5c2153ae780
fc74a576e0c89840256c8ea50515c0c0
fc74a60712f7fc22b08daa610012e272
fc74a6261cd7205f0ac85251541f5ae4
fc74a6843a6165862c72158f3464b931
fc74a72162caef9f6e7ecdfd90d27863
fc74a806a4ea06ea16f1172db42fa878
fc74a88da93cb2d2171558b1ba5f5283
fc74a91dfa35353a1d3080aedc928c30
fc74a9b063b431fb3061fd83fa519ebc
fc74a9e6ca810d5eaf46b5097d1c7011
fc74a9ef288bcb54a4cca2c61e16b430
fc74aa228d0a4eee36c451ace993d5dc
fc74aa5adb38ea6ddbcd0f2399462663
fc74abb1725551253b34bf9d9221c814
fc74abe67c96dc8d9e4fea851ffc0173
fc74ac3932f6d9c3e05c9017bbe65e95
fc74acb4fe85141c88edc41533a0b6f0
fc74acff6e6fe4ca0824abbe2870ecbb
fc74ad40d53286c7f958c0f19b466cbe
fc74aefe0edc861bd6e86b71b27ec36b
fc74b06015f4dd7f81d1dae029a0be6b
fc74b0a93575884d47b31534f69e4730
fc74b0cdb5021faf7c604ce16dd40609
fc74b1d54858bc9482e7c736f5816f73
fc74b277d215658d8faafaf7033bb876
fc74b2afed9de54760f2b43c7407ea19
fc74b2b3c35c768b40640b24b664b64c
fc74b358a4798e4ab9f42cd96bb506e0
fc74b4a4c73b06894e0a7dabc894064a
fc74b4b519dad4cd49b7934d419c68e3
fc74b59bcd11446908c2c3a787443c2f
fc74b6596f2ec2f1835ee7984d19a30d
fc74b66f78f8b276167b64a9a1179b5f
fc74b67c6e8c13794dd5052ac32c46fe
fc74b730a27424c2500bc0b5ee23d26a
fc74b79f6f0c35b7e90a48cc903013f6
fc74b9134c811dac51ddb9219e1a4e3b
fc74b946dcd75d637e12e2f89ce904d1
fc74ba624b6b5bf5eded12e84c25b9a7
fc74ba945f4455521c94d965432f5b60
fc74bb2f67c5e65d393ec0c7bddd1531
fc74bb307398f81f799b67433f03a41c
fc74bbb4d8ab1c3e208c5196f5276872
fc74bbdb350711ba72f5be7d1f2eb33c
fc74bc2f3756c8c6a2f2b24c26ca3609
fc74bd6ab2dbe8f46c265a74b9bf5ae5
fc74be7caaeb94017af12fae83d0bf8a
fc74be9da3796a93c82b8583548735cb
fc74bf18b8d8fe80baed372c50eaba2c
fc74c14db1de16d650eb17bb0f6a0d22
fc74c19d95e2dca2f583ea3383090051
fc74c27bda69c9aca06711ed71fab093
fc74c2f00217525ed48cd9d5d2b4bc73
fc74c3099111c9f01c4a4927fd7a9473
fc74c3361de773642af7fc73daa29075
fc74c3b1c24bce6d8091894dbb154e1e
fc74c454ddb820100bbefec9271be011
fc74c4ebf7e2af203c1854550c60e98e
fc74c5681f54e3d3855b7e7cfef40048
fc74c588bb7b7cba38690f251c43af57
fc74c5db5ab59e90ff7ccfd6c914d919
fc74c5ee8674fee20ead175aa478c934
fc74c63df6e13f466e0a29477915111c
fc74c67812d71161857edeb858711774
fc74c6fbc30fabaaf56ae798d6b92bce
fc74c77df7ff2b4c4249463ff2bcdb02
fc74c7be4d699b281246ad6601550b58
fc74c893541a984838518ca43eb08190
fc74c8b7d2cee35484dfbc684ee5ae99
fc74c97a7d4221000231db25249edad9
fc74ca08f9c91756f55c82f05a9df660
fc74ca69b63109a7b9575aeab87a4138
fc74ca8c914b26367fe3289ec0df30b8
fc74cadee8e89d61f9dfc6405aa00f26
fc74cbe9210d851e9c9ae38b5279d05c
fc74cbf7f989893d4231c733b2e0ff3a
fc74ccc82700f0f3c183077e18b32629
fc74cd662cb15a7e9d49a8fe142cd393
fc74cf12a1967d50cf9bf79aa1366cc2
fc74cf53610f0a53ea13da52635bcac7
fc74d0090b7aa244c1490fe4134840dd
fc74d00ba350169a55bb48cf658a5bc9
fc74d0b24e024a511d31e1087b206e40
fc74d2b34e8cb09f02c894e44f104162
fc74d321bf0acf90ab5ff99fe331deea
fc74d34b92ea3d4a74d92944f7d89d9d
fc74d4359129f109a0afe3093ccad85b
fc74d43ef3f5bcd6f95afc7cb63fdb0d
fc74d478c815991023c5a543f65a28a0
fc74d48668d712ffff493c3e613fc3c8
fc74d4b7e92e30fe512052ec681db9a9
fc74d53adb231631614adab759212c46
fc74d5651e3a3f67f3f4cf527227ea6f
fc74d733e8ffb564d39ac8fb97768f91
fc74d8a4a8a85fe536ea863f9f1e336f
fc74d9aa907204b7e0aa6dc529aa268c
fc74da2f6cd7ba6ac50e9ddb9d9cb1df
fc74da3ba662988ab4992026bf76b65b
fc74da65fa87869214833d3ae0264f4d
fc74dbe207a34f92a2bf2070bff01e2c
fc74dc1a687690da728d0c5072986390
fc74dc80f6d9c1dc14eb86583b8bd16b
fc74dd1adc45799db7bba0cb126b341d
fc74ddf4bf136e3775ff684053123880
fc74df442752e62290cd88d9de57fa14
fc74e0a4e36c7e077c61fee7977c0309
fc74e0c556b585139b96bee4ed0241a3
fc74e0cbc38f042fb4a5c0674775a94e
fc74e21dc3cf162fb0bea7038509a24a
fc74e2c0f2808e80c8ffbbc7badb2182
fc74e57460d22dee816fe10dffae1744
fc74e5f2280572dfaf3f58187d3d883e
fc74e5fa065ee8000a96e9489373eb42
fc74e6239ab0333ede8e08711aa947c5
fc74e697ce0097289a42cc4a512b1d2d
fc74e6a19e2387202830c3b54f102d4a
fc74e758ee684ea6b6bdf71526a37577
fc74e778bdb44c0525cecdd3024f8cba
fc74e782c5b0a320502d25e474674fd9
fc74e80ff2f49380972904d77df1c0f1
fc74e87b42e37d6e27d080e3505a17a0
fc74e906aefe6a313a864c1533ec33a0
fc74ea3a03820057f1c5ccb6659e98c4
fc74ea923ddd3701e73c8101bd9a1f24
fc74eaa3dabf495a3c639ada36580f91
fc74eafbf28c262f08dca37026ddcfb2
fc74ebc9b8c88d631b5ad8a683078cb4
fc74ed1bd8abebfa68644fc1e5499ee6
fc74ed6a357d2bfcc92dc3cb53c5a18c
fc74ed8d62b1afd6b565ef5bac0c0c93
fc74edbfec69036dae71dae662679e71
fc74ef168c43185d7505dd191538365b
fc74eff1c9b9d6cb666194c361b8f700
fc74f0375b4cc350827ca20e367a2acf
fc74f0929b2a737c8ee1a83acecf33a0
fc74f168f65f84d57b94da73313b279f
fc74f27c5fe76658a1be16058fa16638
fc74f37672cab1944fd4d1602e5c2067
fc74f4488c1440cfda51f0875f99f544
fc74f7333f9fd69e65e7edcc41854adf
fc74f847e946120039d64e7663f0c217
fc74f8a9a61ac7d1b4f7d41ccb8ec20d
fc74f8b5812a1046d10e5790f258892d
fc74f8d1b93d7d78946fc9597965da24
fc74f913db752fac005fe44f47b04fd0
fc74f9acd29124edc1ffa3018939b5ea
fc74f9b7fc3cd9987ab777c0245ac240
fc74fab62ad16d00d4b86dc9004ed816
fc74fac83242d66fcf33fa13612655bb
fc74fb2d67caef82c88dc877ea71ae18
fc74fb4066917e748c412589b08e0848
fc74fb4f2c6383500faa9f5e7fcc7dc5
fc74fc309a924744a6b2223ff404e9b0
fc74fc34741cba9fca41f7c07a113795
fc74fc7dfa1bdb1e76016e444acd06e8
fc74fccd69255720d46307c7d472fc00
fc74fcf600e2d6f1f97d5475630344f1
fc74fd21e19f58e55d17c43247ebb950
fc74fdc9ebb9de25d064e40e6a3e117b
fc74fded1c88cee6ba768537a6730317
fc74fe88b29ce598823a2d04606e1887
fc74fea8a047c0c138a09596da0ad70a
fc75005638bc83e49e49d00a3491266e
fc7500b65c7c6534c741a374639ca449
fc7501ef2c3606798ac63caccf1adffa
fc7502acf26b9cfb8b0f287b138b3b10
fc7502d7a08d209078e26f47413a59a0
fc7503311994c20542f10c8ae14a4809
fc750337f429d9adeb41e8391ad2465d
fc7503577a0a6f7af1ad27e69a15fdd4
fc750377d340c24fea28e29edecc8a68
fc75037ba3f3c901cd13f50c586676ad
fc7504744d31f98526cab5f9900a8bc8
fc75052a567492abe2fdbfcb0f4c5c59
fc7505933cb363f16edd737663330db4
fc7505e7e18541615fc305b7b3286af6
fc7505fa04dc183a07ed6180a7b47973
fc7506c1627939697686bd1cd6971ef1
fc7507f3ff50b047726d0d9342bf0727
fc7507f8b500df9b8761af01298a859f
fc750821901cecf4397dca985007c4b1
fc7508a904eab192ba8e639dbba25630
fc7508ca36c3b35451216af8854bf654
fc75091fe002cd003d8791141ef9b39e
fc75093e3a38c429cecb3c5aa830c1f0
fc7509f10cbc81576abef40224d0d0e7
fc750a28da42f9a755b269b21a13a3cd
fc750a2c6d1e5afea7a2628c3bb642c5
fc750a3bd1560dc3ec2d1b1e73bdd955
fc750bc5d3ffcb98528f02fa9fcbc5c0
fc750bfa1fd3c8c58a4f8333a12b7dbb
fc750d3cc158cfbc364b2ee21d05c77f
fc750d79457649de4269932924343519
fc750e0a0a6396517630dd37d8dd762d
fc750e995b91cf22089de538f0b2e54d
fc750f306a1a7757485bce23a6bf8c2c
fc750f41af810ad5a785f58c8955758c
fc750f6c7b4c57b368e7c01aff4399ed
fc750f7fe0ddad4b3731091d79a87f7d
fc750ff06692502e7ccafee10d77f8b4
fc751084ffa0d2aad5b1d81053b1ae2d
fc7510d633b6d02c5725de3134c99bba
fc7511cce474fa8c24c11657f2db39ef
fc75121bea4d99faac5a08384cdaaf4f
fc75129e119b113d1fc3dbb55a5f2c3f
fc7513119d436312e7c6ccc808f5d0c8
fc75133e11c65205b78adf3fe152cc1e
fc7513b0b1fa903dba02f16b0225ac64
fc7514249663b107ea942e1b8fe01a1c
fc75143bca5de1802adcdab571099c7d
fc7514c16d23da0ae0d902c5b7c88fa4
fc7514d29531e0f496194c4a2194a0d5
fc751557bab486fa541020dc8b1bbf60
fc751595024c932fdc3f85bce3ee0565
fc7515fcace49167d7bfec299d33bb84
fc751615977a5c7f7a2dcc8c946efb70
fc7517ff381433eee1f9de6820a9b589
fc75184f5c571cae168e9f8336dca950
fc75185fa52764f28e05705f3905eee1
fc75195048d1008228dacc8c3bf3d92f
fc751a15219828b9113b4e65e0c297f8
fc751a9dab7ad35db25007b39a70f026
fc751c007e0c6b63d821e718328c84f6
fc751c10f827af890aa480e828dc52a2
fc751c34f22e0a6dccd9f6ef49559770
fc751c7c693cd61ee8e34f1720ac6035
fc751d88da28a800222ae858b914fe22
fc751da2f62ac1a3d20310970e969477
fc751db9a2b7e7a57c1ce8263a7b046e
fc751e8cd437c7c9535de687c4ecfdfc
fc751fde4acdb5959cff498eddd920a9
fc751ff02fdb28e26ffbb6a7a345e3ff
fc7520769b427b3be62aadb51f4894ed
fc75207c81c920416245038f3d3cef63
fc7521870eee110b872d64e18c05eb25
fc7521d5c2beb1f789a287237549eb34
fc752341ff9918cdc589ba4855f16da0
fc7523b7b3bb1cce254cc62e18695286
fc7523ee8b1b04194371e8be59945b9a
fc752407cacf6b17259d778f71d0d500
fc75245286038258ee9987a6dd368f4b
fc752525e048b162e4e587f8b5e40b5c
fc7525390321a8409c2e33d406372619
fc75257124ee6a89743cf1c06b91ce7d
fc75259a4ed232138105e9f07a117633
fc7526c8a6c518e2ec55a2cae3b44238
fc7527e752f330f211e053fab822f0b5
fc75283bc24d8d19173a83c676481b4b
fc75299b8d257ce02efa2b179dbc54ec
fc752ae8770f252e28d30bb6d6637de9
fc752b1c46b717339d3b60acf3ab296e
fc752ddd8e44d9c1e543cdfc0bef744d
fc752ef07a098d301ac321f163935b10
fc752f1e4d4c4742df8fe94b10771ae5
fc752f730a2ddbd3b320b22d0cf6d3f8
fc752ffdc0d0f0a54819bdc2c99daaf6
fc7530406e2d9230b19b798e260bc0b2
fc75306483302ae6676bfec7763ee4eb
fc7530e3016083e0c2a895b3e8716070
fc7530f3f5cb70ecdedd44bf5f8bc7af
fc7530f486d62f50882fd0c21cb3056f
fc753158285d866a6315f13511ae50b2
fc75317e9176ddeeafceee276f1680fa
fc7532ffdc3562a71e453bcf9b9ebd9c
fc75343d1d020f43356d1e7cd3241c5e
fc75346025321bf437626bbbec40122f
fc75350c00c8b19109555d8d0eec1555
fc753548d837599c45a2efd4e11d0040
fc753625f6cfa2b75bb063cf48633510
fc7536b461dae868f3b5409056133b2f
fc7536daa0382318b9a466eac6627ae8
fc7537691d7ef341efe02a6439f162fe
fc753781f7b5a1f32eef0be3069061f8
fc7538fe0edb42e3dae5ca793b536cb6
fc75396f12fc7a33076b12b7c6a51020
fc753a1612069ecf02ddbb5abc2b1103
fc753b2148f746f8e8f5b7bb6373a9b4
fc753be3a7477c92070da5341d6b5990
fc753c680116ae98001d182675466bd4
fc753ccb60fb5826c098f3c1400e3bf1
fc753d52700094781f2f3e69dc5a7c4e
fc753ddf30e5c87979e8a628adfd2e67
fc753e0912a965b9e95117c98e6ebb98
fc753ec9a0714d9223d4ea6e80d7cc0e
fc753fccd45ff69ca625404bdd0c9f30
fc75402b02472bcbdc3341048b56171d
fc7540436ef463a2de7d3199443525aa
fc75405deb9efbb53f9bdfd6ddc41133
fc75407ed027426304bf1d71928e58c0
fc754109d7dacdfb2aa5603bef26fc60
fc75412b79edbe89498fe916d23f2926
fc75413681699b66b48978e576bc2dc5
fc7542d2cfe9c5e67cfb198788c8fef4
fc754337c5f584fb884264c9a883b002
fc7543aaad3221a64253deec57e5077e
fc754573ceb70b9b5eb9f66b7418b5e4
fc754609b25bf3f0c4ef8aae97b5f7b9
fc75460c9c35b8c42c0e63e5f5f83fef
fc7546a61792cddd187150682a0e947c
fc75478ad692fb8eb65e2147d8a16399
fc7547cf189c9c67e929557a98ee9ff3
fc7549a3b9bac4a2bcb4cbc572313707
fc7549f79b3596ba11dab040011db450
fc754a263a065d70bc8448675d7f5bdf
fc754b2a357cc8d8c00313fcbcb8c4d8
fc754b93c82097ae8bce50692ae83fff
fc754c821145e87c8d0baba458b90080
fc754dcd9a611982b89f63359b752e40
fc754f6730f035c59b5a741691d66c37
fc7550715569f460e7751a1dd1aafe7e
fc755073c8c238c67645cd4609466efd
fc7550af1488dd4feee973ef58fefc1d
fc75518935d515223b8fec4a2970104a
fc75528bcd4beb942d45f60ffc22b768
fc7552de194a1605ed4f26ac5ef1e976
fc755304c8cfd87522344d97217fcdd8
fc75539df3e49dcfcaee9f8a1b6d9a81
fc7553f463f3ea839f2d27f90ff7ecd2
fc7553fb2b3a94572b32c0a4bc0d190a
fc755411475c5fe3bf612a171f8bfa51
fc7554338b560f93d358ed963a392986
fc7555d726567641fdbc8f41ca65b307
fc755675d7d523ac5b79fb7df61d71e4
fc7556a5d22c8034b5a9b70606bbf8fa
fc75578a9624616ccd0d653b9742faa7
fc755848af330d1df043d6ba38704b02
fc7558e7e58f37c4cf0a125f3297f570
fc75593c55dd489c48d1195cdd5028db
fc75593d5f8ebc494cd0a0a3083953a5
fc7559d3153b3d62553779de62acd222
fc7559f0ab183b1e73b4b3c5cc6cc081
fc755b3277ddab16feabfc182918c9a4
fc755d62f35505e7ba7f0b0aaeff33b0
fc755d6d2cf5b06bd46c4f754396c690
fc755e9203235dad7d7df7ce0282cc4f
fc755f20ee91b7d7b9a9748fb9e1ca0f
fc755f98aa1f44886f856391adf38a8e
fc756097b285b67518a86ac5b1480420
fc7561f056972ede9db938dbd39b8df0
fc756289461ad408366de6b8c8dd511c
fc7562bbb2f6c4f1788b69646a80a381
fc7562d31d78751b875744477b49f7af
fc756428f59559091f6130bff6dfab07
fc756472e18c9fa4eb95833f8cfe65cd
fc7565374cbcba0edb22f51db4dbceb7
fc7565a2829643595091e4e376351fdc
fc7565bd535a1e3d7a1bafc5d7e2f843
fc756722d11a7962d48d4be5f4d7782b
fc7567b39a73fd574f8326210c6b0574
fc756821ffc0f52d9f2f5200ed5ad005
fc756888e112cd2c4e738d5c7e3de04b
fc7568aa18abd734cc022ab11b27cd4a
fc7568be82d59bcc97cf7998c19f2af2
fc75691aaedfbcd4819b6804fd0ec9ed
fc75697a71a61ec0eb1797d83f948190
fc756b64cd52eedca55c7b0acb8edabf
fc756cd2e5dc44007c43a94174e82af2
fc756d68fb7a0ff87b36d9246cfeae81
fc756d778f45eebc797c056a4dc85ec7
fc756e577ad361874cb9c180a8dd518e
fc756e608676a9753c78e1d916310d22
fc756ef618d5a7844a90fd8cb11fc2bb
fc756f99bb85c3eb10c8e3b4103c1882
fc757022ed2e657b1d8d97855986b1ab
fc757098aeea39a6511df7b2429eb28b
fc7570aceb47e4b4941ded51506bd2b6
fc7570f35c2244d00c42c7f9bd30e477
fc7571c8334506af85d539744c13096f
fc75728c2d3bcc96064858202b2b5299
fc757294af003525c9674bf471697a47
fc7573f5e8a304d090fc150564aa3161
fc757442e7243b514c5da489fea3e76b
fc757534534c6f0f7d5254a2b949f49b
fc7575b16769b91fbd5b9e6b100b2ee3
fc75766772bd6fba48e9c77933b882b4
fc7576e7810ffd8e46dfc189eba302d9
fc75782c98d5fa97081f2bfacefd7917
fc7579190b2caa292d7e07365718ee97
fc7579a24eefe5b29f24112e8cdc46db
fc7579fcfff87f7305f46a73d50dc1b0
fc757a197d5c467a611401096a070b6a
fc757ae5d8dbb4080e6da824b97f058e
fc757c278f9f46945c15c052e1eab3db
fc757c6e4511e5e8b43aeb64e4094632
fc757c829eb56fe906f456c2036ee92d
fc757cb12d509de31bbcb89e1a80a515
fc757cc1b7d4d6e501eb20e0c9fa5bb5
fc757cfd8e34a6a0ccf2ba4ed41607e0
fc757e298a071509ba97f36399936879
fc757e62c173a8166bd9bfb786f27c01
fc757f381293b5ed4f39b1a1722d55db
fc7580c9e5729145b7ea759342c2f6b0
fc7580f874db4002d91fdd04dd4d25a6
fc7581d233ba230d6eca4b6dfd520734
fc7581d6c59e556a929215a5e1a7c60d
fc7582345fdcaf3f8ae0c44cef675f60
fc75843a2cc50f214b17277100dbf74a
fc75847a3cf9d233a145e2691fd64f2d
fc7584b2d0e706ec36f7571ed5c992e9
fc75851d5a246ce4d0142f68eb127d10
fc75864fe10d1e70a318a29c3eabcb90
fc7587306d7bc1eafe7c006e31e6bfd4
fc7587dc4dba62a7f2de60ba54938010
fc75883d6c73f57534062378dbdb05e0
fc7588b61e57c972b5ee6c19a459d6d6
fc7588e942ab90392828e19dc8113afa
fc75894feac4097ab2f30f309c3d4f00
fc758a34030b1a34ebb6f65276ba1df1
fc758ac7b6898abdfcbe9f408608df3b
fc758af3f89d87aac40ce93dda9fcd1c
fc758b36afc49497e98c1bb8c7bd6c73
fc758bcdbfe030b67add24dbdc8a013e
fc758bd1beb8f2645b92c850bb40e2bf
fc758bd701cb41a752accfa55c94c925
fc758c15b4b00b655d3ff06297d5847b
fc758c7c638cc86f2bdc95d252261784
fc758c8879f5a0dd58138fb851792266
fc758cea920cffd175b42cb8e4e41ff3
fc758dd15b5d5987e6aa84e2e9179696
fc758ddfb1be5da67f0f609136f26883
fc758e0061bb9aedca15fb9c454c5908
fc758e968c76b5c567d332562ddef32f
fc758ff47411fce9ac4e295dc92f070e
fc758ffd16c80717af7b20baee7ed748
fc759052053281589616c51d2c32e6ec
fc7591c47029c0a174b76c651f64526d
fc7592624513bb292f216f099e32fe1a
fc7592c9f2e2264c687a806459387d30
fc7592cfc6b3e5bd1c376658137b4ef8
fc75932f476f1538e8000616d4be37ac
fc7593ca670b3e31561d46960da34f2e
fc7597033e8e65f7af78a84516a34f81
fc7597b0b88a9618bda9696fff722f9b
fc7597b5ae149ed42a35bb7d646a1fad
fc7597fa29b872bf25bfea5870f5e893
fc75986460d251c545cee96b26468ab8
fc759a8219bfbff14aa41f104d8e8178
fc759aebeb87ad6544e1e108e75de396
fc759b4116708907df5f6af96f0db3b0
fc759bd3154a5575820f7ea38ba46326
fc759c247554fdbce3de75bd9318539a
fc759cc2b35453db36d2959710f61235
fc759d2061c625f9b5e19d1b117fd7e8
fc759d237e72f849cc4668f0b9dd5730
fc759dc9d2c70a96a6ca0ece3d0fe396
fc759de93afa8aac756af2edf3cf4f7e
fc759e1268d20c751e87a1e40c4db000
fc759f4115c3de85410fc1a8d08b70db
fc759fe094d01378c9d14e60906a8b30
fc75a02d94f202ea045fde3b22685272
fc75a0c32e00c99a3f6de95b7985854c
fc75a1bffefa8521bd4cf82a903e3a9f
fc75a1dd8d9f66313088fa8922f78979
fc75a217433f58ff08a5d6719127741e
fc75a32793bd13a83672966c2dc5a49c
fc75a34b4cf38fc7fd8294bfc7928c30
fc75a3fcc51a275f9f033a2e7709fc86
fc75a4038b82de48bc589868deb921a0
fc75a42e4830e5bc9c22fd6adfa4d7a7
fc75a479979ad2409f91d0038bc8cedf
fc75a48c4f771976c8d086e9c41cdbf0
fc75a4beb0d742e8136f88f4e47be7cb
fc75a5f21236321b0bfad15f37aa65a2
fc75a6017d3bd7e502ec4171f9ffadc8
fc75a668b84801c8f2ec4c26a5a0b6a3
fc75a7146140ab216057c20cc2ca0524
fc75a72ba9fbae8fe097849348831728
fc75a7e5c3c0db64254a55e3796ac353
fc75a9390993320ebd525d2487017f4c
fc75a9bcd91e73c10db58e19e355ac0b
fc75aa40997e5324a2d668e2f5a2adbd
fc75abd55b00fbbf6d8090bb8946b800
fc75ad050d1884e5cabed7f75461272d
fc75ad1467fce5e8a3489c9f9261af67
fc75ad854c45b232b8eb2542a9a7ac57
fc75ada4611612c3575c4c0866783602
fc75adb4c1c4fc61276948b362ea0222
fc75aeb05f60523b7af161704b942e31
fc75aeb37f09583d42b243f46a3afb8c
fc75afa70c737c09b52cf557a2e7f392
fc75afb81d2275a90514256c7c55bf63
fc75b0952817664227db018446ac1b0b
fc75b0e72ec49bde4af29ff7ab797e61
fc75b1241ea9609162ee8aea96bad7fe
fc75b1e4be1f76d7ab80bb9286e3e24b
fc75b286543b8dcf73cad279709133d6
fc75b30a0fb18af740949ec7882d3d65
fc75b35dd05f0370567153ff3f6571b0
fc75b3ff412fdf0b4a5e037034d5baec
fc75b5507f0da3c6eb69be93d01d5cdb
fc75b55cafa75d56b5b5d4a800fa767e
fc75b56c917fdd8b9e444f4758b7f587
fc75b56daccc8c5d2497ee7e716fa95a
fc75b59336daf74bfcbfc3210c066b0b
fc75b5f79c50d0c9718bb6823f00bf13
fc75b5fa9c6202cee3b128e45b12bd4c
fc75b60cca6a461903ba056e3b2e13da
fc75b64a0f5868d821c4fd1d52ef0968
fc75b68eed63ff874a3ca580e4155fa3
fc75b6cd3c97b9bb0a3977af2f05e28c
fc75b6d02dc01f51ea3023d25aade666
fc75b721bdace481b76289a0b37ea5e9
fc75b749d04b5d75ffc1a80c0597dbe0
fc75b812fb91b9f8bd464aa1c90a4429
fc75b879f0cae49efaa42041c7a88b76
fc75b9cd524c8dd3125167cb26d03b76
fc75ba8caa945acd8d689f64d798e9c6
fc75bc485412a61d4e6b6cefa24d4425
fc75bc51132b0715179b726e33b22417
fc75bd1151a6ce6f82684088844483c9
fc75bdd38cab8bce0630b26be870e6c2
fc75be65ee8e3a5fff882d50b30442d0
fc75be75e9d906007a11acbc56af719e
fc75bedaba09c0cfd196dc59f00f2717
fc75bfbacf8c2d3cf6bd2b69a0ae8d9f
fc75c289da58fdad6572fa221355baa2
fc75c311191b200d55755de814425740
fc75c38ad993c7d555242450fbb6c54b
fc75c598b6cf5665e65bbc1733605040
fc75c67db21d34970c37e916316f6452
fc75c68fdb94bcea354636ac5fe71179
fc75c7648201c604c6c5233ac0278710
fc75c80274696acb9ab658eea5421ae7
fc75c8746f5dd06803e5910e1020ae3f
fc75ca145f09a65610a1cca52332833f
fc75ca7a6719ee0ee0e278d719c9e451
fc75ca85ace6b44d1605b520763094c9
fc75cc0b14a5a77797e028ef21be96cc
fc75cc178fadafe11336ad1fda67500e
fc75cd39b389f4fbcebf7cec63832e5c
fc75ce615b9f3333a924ca16edd799a0
fc75ce6b7eae55f4c3a915dcaef00825
fc75ce88e0711ccc570fae5f5b7359ba
fc75cec001edff197eafc0da7d28593b
fc75ced716940e35cfadb36aef655869
fc75cf5d00ff1eb17b367e47a633a438
fc75d012a6d8c8c840e1084c28d17a64
fc75d02e576b4c36a354da1e15828134
fc75d06b6b0b434dbea8cf7bb564d46d
fc75d0eaed23a8100632c68aedb7829c
fc75d12df4d121958d9130862b0db909
fc75d1e7753c0c03eaa7164f99ed9358
fc75d25b7ade1e73be95495b9a8a643e
fc75d2cd7c05d51693313709c892a8db
fc75d2eda5e30f65a75698ea6da913be
fc75d2ff881fac293b4b241f977aa356
fc75d34f6a49ed3a8349fd4f48db82d4
fc75d3f3a4abeccf83dbf480fb2d5ca4
fc75d4fdfe0b99f68578cac88121eb2b
fc75d568acf0595bad3f1518722759b0
fc75d6a9ab57e3ad80281571ed02595b
fc75d7b9c804a3d8998ef016db901d07
fc75d89ebf9e0422b07712d130f45ae0
fc75d8d2854e7ba663969c82113b3e46
fc75d8e6ad33e4c4e2a18a1149eccd1a
fc75d9434372f38d48c67eb4b6a9cc47
fc75dabaf22301b0a30fbbe13a528b69
fc75db1a52e71efa543db39ded68d994
fc75dc2db39e48fc4b466e55c52dc3d9
fc75dc3eedc0c8708bc97e454706e1ae
fc75dc81ac33bab6049ea1f9f3d7ce83
fc75dcde16bc944f4af41217a03ee19d
fc75ddb07126a5cdb7b91dfb83c3e2d4
fc75de9858a87e10a7242e1ee76e4a7c
fc75ded8b1d7a899874cd0d07023b5ea
fc75dedbb242b37ce0a818320d1ed590
fc75df0f9d8ae7ef914e782e96a87d1a
fc75dff149edc203ffae01594edcf3d0
fc75e0696562f9b00202e1063e2769f0
fc75e077a522339b25e60ba024978ff9
fc75e18be6daf71f6b2b412ae06f8a97
fc75e1efacfcd59c0fff54ec20df1ee9
fc75e24c9a634e5e9040e562db1bd229
fc75e2ab0c3a395089ebff04777e6547
fc75e2f2d3875de4f5a274c3de7a9703
fc75e3c47f2a7280fd7d404396b294e0
fc75e450c6620077a195b0acf0886bf1
fc75e46f20c4e9cf816eb6d198330507
fc75e4bcdb18945f30721cdd3a15ea2c
fc75e5d2db275e7ff1771311836a5e5e
fc75e677ec319d2e32b912592a1b0671
fc75e6d999e2f775ce48ea0d42202a7c
fc75e7bccd23d5c0b0840360fb76be40
fc75e801aef9128101814c1220582e5e
fc75e81bcd64fe2b182e7e142cac48e3
fc75e87a2a7cd91a88f7e8e81d27c5d3
fc75e9431c5591a650df7041cbb7651a
fc75e96a6f00927a25393120febeb6b0
fc75e97f376a6c8ec7668da5a4847424
fc75e9cd799d1d53c6177abbdcf82faa
fc75e9e46547db2ddf617bb3467abf52
fc75ea1e6873bcebcf89c53a57660563
fc75eb2fac6a2ac963758cc4866ff789
fc75ebd578c263c6ab5e022fc7c25177
fc75ef10df4d05663e6be263f5e8b993
fc75ef375e330d5ff68f7c3f838fd0bb
fc75ef5e3fe47341ea32464f9a2c107f
fc75efb1675931ae1a1bd6194be53c7d
fc75efdbf14d82b8daee6d5c2dff16e9
fc75f01fb07757de84f633db248d2e6e
fc75f183e274d5db022f75765e1a791c
fc75f22b195c23680f5a310395ed95a0
fc75f2379f342378b64f9ba9274dc53f
fc75f24da3a56e8aac57379259500103
fc75f3106e631070d38e55a0d774683c
fc75f40b597ee67cabd8c0856c0d742e
fc75f62e0cd220db35dc54bedb4e3d0b
fc75f642f6c8bc85eb2162ec66ed90a9
fc75f65893fa5303f8c1285fa522cb22
fc75f7182294e25f19076e64c0d620e6
fc75f7f6008029abc9dcd79bb4793ddb
fc75f8fb3c9c0d9846ed740b0ce28c30
fc75fa61dc7cfe84e37717258a35ba21
fc75fa6fd0fc209eedb7af4e14b8d71f
fc75fbd074788b6e3408690d26f0871b
fc75fca2fca5c6433de7feddabe756c0
fc75fcd235b0179c61150f1b48f71369
fc75fce4c83103b1d3abbcd194982d5a
fc75fd8de99602cf3e0b3bb06cdf1320
fc75fdaa18a20629b64572e74e786a85
fc75fe110396132c49e8b5b12495b51e
fc75fe39fba7adf0830e75fa35e45b1b
fc75fe6b209a0036dde19fc048ee3edc
fc75fe83126897aa7b3e3e3d2c854e39
fc75ff94d11d6a53e304ae1c024b87de
fc75ffb8ed7ebb86f34dc656a7c08ab1
fc75ffda83631f883dc4fda577301087
fc76003fea68fe5532401839f7585e0b
fc7603b3abde0dff147d11158547a9f0
fc7603bbbc392d2aad1b879b84dc8c50
fc7604c34e56d1e9a9d6a52068d8da31
fc76060a82bec5d2e364365981250350
fc7607139bea0dd47360b9b7fa3604e6
fc7607ceea6e1b2ad22c21e080737d40
fc76093a8f8a13efacb6442ad77217ba
fc760aacac3eef37401f8349c7a81c4c
fc760ad4942f744506c17bbe2ba154c8
fc760b1f0c2448c884c94ec82d175a35
fc760c4968437c97caa543f9efaf6103
fc760cf08a4deb679a48d738cae6b061
fc760db9390c698c03b5451e0e1ec559
fc760e2889f50cae13dde272e5d680c2
fc760e6e54b9aeb13e49d2e42e57d172
fc760f021e66529a3c4390a45e03f2c6
fc760f6d27ff8fb6ea5f25cca42a6dd4
fc7610b1a5697633e2f1be75bc16f7c2
fc7610b2dc435b6c29dbd90b25558868
fc7610b905bcbf0331459893828bb388
fc76113b2ccf54d4f159a795faf368d0
fc7611818965328a2d3979341d2188d0
fc761221a4cf082657410bef588019a2
fc76124b27a0b738260c58a08d1dfe6a
fc76131119feca4b56fe512444e568ee
fc761354bad2960f9a6c744757b5cf72
fc761422b4dabc6a322c71543d10a9f7
fc761438ae439df4dfd4d07fe8499dee
fc76146f3c123e143570c12f3b651f3d
fc76147b2064077c5b80d42dcc9174dc
fc7614a75b04e696c47f6c824a0b495a
fc76150c36bbf61c47271ce7fd128fb5
fc7615583819edc50817c5a2f8d978de
fc761575d3695897a5a2c4702a4be3c3
fc761679ed658f27a8d7729ed63aa606
fc76177d31ca6ad950e132c8bb8ae698
fc7617be78f657e977b77a27c203394f
fc7617dc1656be6991fdf5e435a1bb81
fc76189e4ae7ba399f73a3635f0592bb
fc7618c30a5e2c07e924619329c2c71c
fc7619b2580e31bca7c5d6da5b493d6f
fc761c42a9c4eabd784626f4130f6a13
fc761c8a8cc40d70e5a79287dfbee524
fc761c8ea4f11436093f2ead8e2de34f
fc761cdf6052a12b5dcf8c51c302a5c8
fc761d96388addfde6bbf13e9e8d37fa
fc761e129392492a541950a79dea8ef0
fc761e564263e7c11b41b59aaa5b5489
fc761e624164ef49e2593462b0f2e7cd
fc761f34b02b631273c55cf2ebee7e32
fc7620bbbfd9f2f777f69b5f9fdd49e3
fc7620ff8bbf0c064820a10801b8d5b5
fc76210002308d137a91c9edddce0670
fc7621a764953b74a22fb8e4bdcd8cca
fc76220c8da193a244bd12bc1075abbd
fc7622eebe44e71b32fd8a71c64fa993
fc7623f0a05e13c0f50a81fe7ddeeb71
fc76246cdfef1d1fcf62c977a6aaf0a3
fc7624a9f1ccd72dfc357cb40054f955
fc7624b49992b7e6704b03ca050c4480
fc762816188b85ebf0a0b982cddfcabd
fc7628ac86ebabfffb3e4f466b1922f1
fc76294ddb26f21a6c47cb43202df8c7
fc76299e3bf2a219d0282385cc03fb17
fc7629b1f14197ac005b145d6ee282a0
fc762b5d4c4cf81c60246d7fb0367570
fc762bdd1da92370cd0394f706544978
fc762c0a43a6e7fd17d3435b0801bfe6
fc762cb2d360699278e36c7b589190ad
fc762cd467035ad9ae9e09045fcc6919
fc762ce15c8d6326217f1e99737a4e1c
fc762cfbcb7b317deb296e0978042592
fc762d724bdd3a38a45c918118ebc3d6
fc762e52859cbb0b5d5c941ee70b7b57
fc762ef828b9eafd3f928668c5f2aa4b
fc762f8e9ddb059aeabbb5c73647e529
fc762ffe4e8033a14006628f8268ae16
fc76303a522d30dc2d3bfe74898ca7c4
fc76305ad174f509c30aece3084bad6a
fc763152c6dd2221ab125ae222fbad66
fc763204e855982470e70ff15c439e06
fc7632a1d0311f9ba9d020977a2a0feb
fc7632ed90c3249ce43870acdc6e314a
fc7632f36ec9d6410f40e4ec7a72970c
fc763694bd35ac605228ac5fa4924170
fc76371bd77fe6f00e22e73d7b67186b
fc76372feeecd12aa0f3a863b66b3ef5
fc7637f91df452f834b49861aa2563b6
fc763823c6ac2f46122d93b2453b4280
fc7638baa504f48b0da778da6a6d8f67
fc7638bf0b85730e8aa74adda097b747
fc7639f5dbeeafcf2dfbcfc58868d861
fc7639f612fd9eb1473b5e14314e8fb0
fc763a298784161f0e54180397ebeb74
fc763a343e0c2202418cfc7e4cee4613
fc763a78b80c87155c8feb06613c5b80
fc763ab3bcba8c8837fe18a0d7860759
fc763b4e001deb4285d19d0516d81270
fc763b82902e1c1d464798a8cf226ce9
fc763b95be993b35bd02007424f3a28a
fc763dc2ad8ecc7573faa27873e7df57
fc763e3c8d280f7f8d6fcca6987f0fb7
fc763ea0a0422415c67d1dd93f323373
fc763fe06ffe59ca5ea624f798890ce0
fc7640f831da9e3d68fb978e2578ce35
fc764184274539ef8a51c7439dbcb66f
fc764199e3aae94a33fc62dcdd6076cf
fc76419ea8cf7910c9b3a9affe435835
fc7641ada5391204b5ce1ec2f72fe5a3
fc7641fe1a50d2d531d89b20a0db4001
fc764212f96e02c178ff59b539947cd4
fc764235c218176e3eba556f8faba18e
fc76428fc54d241d303487ce4cb12191
fc7643156101a0c5373f0f3979decb76
fc7643256553bf8f751d6df1729edfe1
fc76438829eae64bbcaddd256a72637a
fc7643f5b06dab1bc7e7ab6637d28453
fc7645698dfbe2d8889bff1dc8a7dc0e
fc7645c4f99912050c3190dacdb4d5e5
fc76461ea2cd7a0abb3b5e6d630fae5c
fc7648c688b818d8cc51283bdeeb3aa1
fc7648c7c8758365d243fbe6b9bac049
fc764957d47019fa43010861c156b3ea
fc764a99b1250e2239fc080a4eb69078
fc764aa43db1a2ce3cedcec4c390c67b
fc764c162bcc19887243a5b9e3635011
fc764df11715d5f6463783ef425abd52
fc764df57716535636a6b9f489baf720
fc764e36a60e440e82811b1c9dc38ac1
fc765011e502c88a573e151ba4abbfc4
fc76505b678e3acdf8f6c6683d9bf260
fc7650762f76303a952de26068fabeed
fc765085523cb92c78bf671eafeea354
fc7650b94ba32eafa60bb8b19db7ee28
fc76523600dfde22325b6d5470a8a8e1
fc765249ee291233ed30fc3203ee5bbe
fc76528dae88ea5acbfc119e669b5a70
fc7653dabb0937bef0b8d129e6e8b1ec
fc7654cac0d30c2d78c9cd69903761b9
fc7654f1de46c435b532e472a112b878
fc76550470da14f17e513090bed28631
fc76551e61ce12f3a1e60ac958e0e468
fc76560fa11efb83bc3218d9266fcd62
fc76569c90723995c97ec537166d01e5
fc765727d9b18b39f42c2e6dec8ff8da
fc76573a9104e93212c3ff68edbc3335
fc765874dd4281f0570eb131618e6221
fc765a0ede48b177997189795e09d5c2
fc765ad0babe2aeb86d6e8c1bc3d8510
fc765ae34380c940ecc29202a11e4718
fc765b5ac5c8af0b060c970ec08781f6
fc765b7ef9a981066454a62f52ea7209
fc765b9264527f09fd561bee10b63510
fc765bec141bb2092d5fda1d4bd8c7fa
fc765c60f883f0d07c80fb9e87c20580
fc765c7d19aa8d0510d5cd65d774b861
fc765d2bef702e41a06091b0299b8ea0
fc765d2ec25eb1b825b04a36bdeb94b6
fc765d2ef4642ee1e929c474678d5eb4
fc765d6166cbdc3fbaf43c1abe632cf6
fc765d8f4da76641d2de323f27313dd7
fc765e4fb3138d424145e582bcdefdc8
fc765e6a446c7ffeb7c2fafe44ce0489
fc7661ad68118a6c729fbdabfb09e8e4
fc76624bbac8f4a50b5b493f788ed7bd
fc7664ba21c716a1e6a9cedb9004611e
fc7664d2dcee424b3fdd69793421306f
fc7664ee1cb2e231299b81c50024ef51
fc7664fd569b59422cab5453f481f23e
fc76652413b1091e89d823d89ae4aa8f
fc76659d20f866c467a07f1d5c59f7a4
fc7665c0a3245d2189d697e272ae3fa5
fc76663ff465ec684a1c8740dd1f4fe9
fc766650cb56f432b5eeae47a9156367
fc76667341e9f52f18f0c0b25bcecf18
fc7667a1924f4a495e177fcc957c075e
fc7667c962cc70254bdbf5c20490ff8d
fc7667e3ee8d7d92656aabcffbb57b80
fc766808cc941eef508ddef076b07b1c
fc7668d6e60456dd0d7b708469ef2d78
fc7668f656c56cc6b109feac632faa7d
fc76694ed6bcba1ad80a74f84b62da72
fc76697addf80c16f9fe67f903517280
fc766994e77e879683b3abc46bb9262f
fc766a38fa14574c2e1a6de132115183
fc766aec1400fb4c7bfaea59a5552f54
fc766b1afc38c965b5ee3c96314ce725
fc766b565e1d0f8d7275a1dd60f23f69
fc766d5ec144e49272ceb5c45af5d304
fc766d8589f0ab218a945ae00649f695
fc766d867c71c039591868e9f47b67c4
fc766f1950fd6d29056512c6ce2324c7
fc766fbfeb927a624c794160a077c1d3
fc76702d0feeb8314d2d4a912e6afcc1
fc7670d61d77852efa82fdfb1d7f087c
fc76715f6bd753278ace3ae22c1d76b7
fc76716540b8e3fac3e898664319c623
fc767171269c89ab964faa2daa471e31
fc76719043015197c59ff81eaa1832bb
fc7672908c3afffaa60271d55dace357
fc7672d7cd3cb7c5713b33817b7bf3eb
fc7674077fd4cf230f9c9e536f0f3f38
fc767485c891b094432274e39b04f868
fc7674ccd796db5bf1389a0a1029cdf6
fc76755fd77037e80f5b19b4d5cb7611
fc76756e816299bf627dd5c347294fe9
fc7675efd9557590f554bdfc29928557
fc767794cfdf6395b336ecc1de0a41c8
fc7677f5b74a8dbd31b3129f8103a263
fc76781c436be86b86b9232fac661224
fc76784b5365fdd75adbaf12c781e73d
fc76785fbe02165cc58697d39c39c5a8
fc767a591f7bd1de9968a30f864f7b4a
fc767aa9298775cf3147f58f5e0c5f7f
fc767b55a96a600d5b771c9d728b87a6
fc767ca4c38acba491f139560ce0ee0a
fc767cca977aecff702518f93ba2291f
fc767eabfbb94f5bfd46272edb3557dc
fc767f058a603a3e3c1c6b1869cc0a2c
fc767f35c9ece55d60e872b3883a95e4
fc767f7c77727c84734c49e85bc87d1a
fc767f94b29f9d5523b6e27483e1c6de
fc76814d72dc6fe47a66a739359e05a0
fc7681846ee1e7c7ca29798bad620a60
fc7681dd2e324a97e762070883b7c4ba
fc76828a673c2a1c2b7922f2e5ffb196
fc7682d108f19937dffdc1ff4b2940f3
fc76832fdecfd1323400d0f8d641edd7
fc768435e25b9e09fda57c405b17b300
fc76843821ec0c971e9b6a9465baea4a
fc7684837cab8c7512bbbad5994584c1
fc7685534bda383cd6cbd1aff5d999c4
fc76862469a1a75b7b7af7ba5147ea89
fc76865c40c27c920bcdc7ea6f0d8c52
fc7687129202ef1474b3959ff0e4fd41
fc7687344ce6d948eedef6f284ace75b
fc76873935ea7c95958d3996be40e36f
fc7687ef183f093de26e4582f2996040
fc7689a7498be3fb0e710c33a6665e34
fc768af05805275d2dd7807d02cbbe5d
fc768bb9fcd32c7271e77ee617ce2558
fc768c6e2e8ee684a6a88c56b624219e
fc768d47f4b148c1b497b9ed83f7f1b8
fc768d838a569a37e3fb8ab240f9664e
fc768dbee7d0f3a66e5c2b7820e50236
fc768ddc6d0edc91a129daa5c62d8720
fc768de125975212d00b6f00a8f90b54
fc768de263d7dd402ab4498b79ab2596
fc768ed3af59e3e96d8398b22485b9ef
fc768f2ef9f7e58b76500a11283c7af4
fc768fe6303c6d0e1c260078d11c8e60
fc7690b565259a2585db52b1491af555
fc76911cb7bc98abccea4fdb74703b72
fc769183dba124ee1cced84941e36959
fc76933222b4d2e9273d6eb45dca0783
fc76954da4cb1bd271a6874b13a21379
fc7695e6525500bfae6250d459915ec6
fc769646da93752009b7ad91e4070c5b
fc76967030598683102c72535b7cde50
fc76968148cefb772160e1d136b8dbe4
fc7696c9aa7f523f37d55dcb1a5ac727
fc7696ecc8ea2fb92b387da2bc5ad7a0
fc7697158f1e5ea64a150e545934ec8b
fc7697a8c6940463bc47a1b20d39a76c
fc7697e8ec02a6fcb07258bd0360c167
fc7697f58d3b916dce0777a96357a295
fc76982ba549ba3a0e86ca90c8b98de4
fc7698ec94ce568e51f26a5fa896cd45
fc76990f53e46004c91f47606fa35c72
fc769930a14f965cc4b1d95bd765574d
fc76993e05912284a078c622ac16e560
fc7699e10990d49545900337f161e80c
fc769b10350125daf40bba07c792be45
fc769b8460bb30d52acbc9d41a7030df
fc769c1a51ad88ffc665a5fe65fa4b1f
fc769c948cbb243704080a14ccd9cbb6
fc769ce9a7bec1a4ba7cc9451bfc8935
fc769cf34c44cd961be906840f2e6aef
fc769e588dd3069503f705f9d2e33d23
fc769eb8970414a9a1547c1dfe656380
fc769ecddc2e317c2591b80867f273e0
fc769f17d92acccb41eae54795351a31
fc76a01321f72bf365c24bd59eb1ad77
fc76a0400e5de066ba68f50bd912afff
fc76a16abd1ea2e56e6ce8e61d978fff
fc76a1a35449d20e154fab019ec29be2
fc76a2a22e88094d0dfecc211316fbdd
fc76a330cc3a730c0a0de02ac95c040b
fc76a420e469e282060c2efa5fbdeb3c
fc76a47df1b38ef19795f09b68ab96f7
fc76a541e902deb989963e0ae287956f
fc76a5fd4944cde0c35b9af4732d259a
fc76a62deb57061395bb826c5e4c38cc
fc76a6d4a30150fb58998998ed5fbbbd
fc76a792f4153d0b6b3911e92b054542
fc76a7ac63e58736d3489b2f1a477a34
fc76a81a66da294fc2575672328c0385
fc76a822b6828164adbe3c22b6495812
fc76a8b64841034a89c1d647a53d77ab
fc76a8c9bfb169bae9700437f7f5e956
fc76a8faea928016c6260feb77514ad4
fc76a9fd595ffc73115f8a9b8557c6b1
fc76aa4635142cc5181c14cbe3bcec40
fc76aad75711c6dfbf5c6930e3a8169a
fc76ab3bf83a3027636fac1fc33ad2b6
fc76abefb52e9159a87eb6b4e34976bc
fc76abf8c4c27913c242c71a163bfe37
fc76ac016102d7c88f461a3363d3232c
fc76ac5c20fe4351eb301194dd8dd931
