fc800053494a3b9856a3c1bf6113f830
fc8000f8f8aadc0a57ffcc7d1ed047e5
fc8002c39cc18e1ebc3bce37bdcf0c59
fc80045bc1a1b9270be0b0275d8cf5fd
fc80056c52c143bb9df3b19c752f5fa2
fc800584b679d9b0b8a0090ffdeb442d
fc8005eee3f01c8155f97ad5b87533a0
fc80060a99d20e67b130bd3ec58fae8d
fc80066676f56b2b7bd673c4c0a17dc5
fc8006a527ff168873216092e712951b
fc8006eed0e41200ab40643a843bc77a
fc80072e43eb532e6e5e05633e5e3f9a
fc8007b33c82bd813f6960c92c704e30
fc8007eb591b6ab6502e658b5a4fbee6
fc800a4e738cef83791d3341964e9e5a
fc800a5099e596a5b4080ce0ea593450
fc800a7cc1bc877b09dc1cd71fd7e7f0
fc800b0b5a14199692c9287abccf18c2
fc800b714669dd56c8e71e821a4be592
fc800b7ec193463f328f78a5eb1a62ab
fc800bd2727a8463656558e9b8b3cf3b
fc800c16dbb70b57bb28f46f401e828e
fc800d0bf9f8cc47dfbe82172725d06c
fc800df70aad7dab131977b9b2863db9
fc800e1253c750a33199eb71a799ee2f
fc800e83c8d0909856e88f8318a87b31
fc800e9ff770c26b4e9e5699ea195176
fc800f29771761ed18310a4106977950
fc800fcbd7df7ab47ae34bbedde7e83a
fc800fd975808f080739e33a23626c5c
fc8010c79a61507a04e6411be52011ea
fc8010ca7e639e2c9f9e2742a682bf0f
fc8011c5e51b88a27afc9144f36dc5da
fc8012f0f79d44c930449a4725a106a1
fc80148eb9bf151b600a0192ea20d640
fc8014cb56bd731f93eb04cd2bfce301
fc8014fe3e7aab23885a1873c82eb016
fc80153335a07009c1388ce83c492a34
fc80161db3799c73e30f1c84bf17cf76
fc801633ce75cb4cf753948340f94180
fc8016491541ff460da258376eaa94ba
fc8016a30257f2e562fd14e13a715634
fc80185534b58d005fba731b1c41e160
fc801862ebfb76efab2cd7089b4cc465
fc8018877da5bc7439b263cff3ddca41
fc8018eded6286762e7e96f8cd3c8366
fc80190c80b40358755b24073622eb57
fc801927e2ac50121583e826306006df
fc801952773df251e287f6ed28bdbff3
fc8019feb5c084ce4b2749cd90194638
fc801aefe0875281a6939e0ea6e96b21
fc801c1929b6d9935e148df6d59a3502
fc801cc6332694f99c064f2027bebd74
fc801ccee5aba9b988f490424ac94c70
fc801d4f65d005588ca680c71537e635
fc801d6e89fe7e4c2c17f95d0db3e8fb
fc801dec5f16658dd0cbd49704914d9a
fc801f15c2e34ccb0385dfe2be0141fb
fc801f9c50261abd1d886d9563caaf4a
fc80225da5d02c887b2c110d14759bee
fc802261ac401578116f42cb821280b7
fc80227c466b8557dfb6e370c6508bd7
fc8023ded958a83f3dae7f1fa9b4f1c2
fc8024191fb56cb34cd8906a67120014
fc8024d639ab5a4d5b2c4a45b5701a80
fc80261fe4cdda08c64d4fbba50bc690
fc802736cd7fd06eb1cff499089d81fc
fc80278892a4865f86355045b029cab4
fc80280c9c85af86f481ff6b670465e0
fc802880a7da15b1b4d917da4aff0c89
fc802906d4cdf5bd41e432ff54f9cdc2
fc80293f6b676b93425e8e827257ee2f
fc802b3e68ebb8840be8d08cf5a42c76
fc802bc36f1ad85b822b28880b3ad6e3
fc802cdfc8bf2237388b376005662a20
fc802d68b6cdaf7f453274d99a66b1ee
fc802e0cee16d869d9897f3c9064f424
fc802e922cafc295cb03868cdc897464
fc802ea86b7efc46cff0e58895c8d0c0
fc803068455922c53d065903a3aaf288
fc8030944edd3caa3c2ce5b3ab4acda2
fc8030fd888ba41432c8c502e896f60f
fc803140a607e53d5e7f50204c9b07b1
fc8032b88ed49d98b859c412e5048517
fc80335180a77f67911b820f144deacd
fc803387d3423b0bb7d5e99d7b7611b0
fc8033c11ebfe0b79e489cd4f4a1f6ae
fc8034de56341633f29ae81ac270b9bc
fc80354065bc5075e1be784ee48ef72b
fc803542fe9468168b73e8ac8bc8eb11
fc80355615ae48e15b7db1d85e19e6e6
fc8035d0b7f0d731379e381e69e79937
fc80369bb5b95d282c87c7cf0f358bf0
fc8036ef1df4f97c373ba5581e2ddcb1
fc803708ebb6647ee515174435a83964
fc80380cb29c5d0fc38f7a3233b74397
fc80397757a151637ce23d67861e6eda
fc8039c8ee06661d08fe6d76d42832aa
fc8039db613f4db0ff6a51e8a59c6423
fc803c81b46c119d3f5282bbcb39a628
fc803c999e5a6526bc7c171c33d90a4b
fc803d954e47a78f820502a109eaa1fb
fc803e4429d2ec32a8b26b9f8e0aabe9
fc803e644aefd82d016789cc8193b475
fc803fd0035f3840532d55deef846b53
fc80402c92608fdf79dc8f1aa1d154f9
fc80406ffbd1b46f7cf2966382831bd6
fc8040a1c1c537a5422721b9da172e61
fc8041b321fcddbf2321a1b54f94a98e
fc8042259d24804873a3b9f1691cf6c9
fc80424b1689ef9f0a53a944b4d6ebb4
fc8043555b28bc9218326caece93bec9
fc8043c1b1472723c2970dba53498658
fc804429d1381c8212999ee5ecab2b7a
fc8047cd5caf6f9d828ce0113ad630df
fc8047d8f9fff52777506349d8a6d46e
fc8047e7929ffe219f443e6def22d5d0
fc804845ea346ec05de7be7c9a4152d1
fc804995f65ecabcc7d1c80507ce3b68
fc804a7a37e14c65945d66d464d572e5
fc804ad83b2d57379edc8e7c8b616d57
fc804b09f2cb0575454c8fa1aeae9215
fc804b6ec1d12c0413ad22265c753979
fc804d5e1b388a33763eabac04455f80
fc804dcffe2f5e9fb8bbd2b6a68027bb
fc804e269c7cd339ef7e15d4a50cd318
fc804ea1dcf7f998dd27cb1a5917099f
fc805015cb236112f944c302e96b314f
fc805097f2a4693f2a572986b61261d3
fc8050fec3bb264a8c741554ed42b9ce
fc80514dcf0d134a7ff15e6dc45d3a19
fc8051f45244ef2a978a03469bee2efd
fc80533854729fe3f8c636ea578c6b90
fc80538ee69b36098b93b16fd1751797
fc8053f4dbdc777b37ab05a87fdf5533
fc8054a24f6f3ac7af3bce07e3a16540
fc8054e73d38eeb8d0fed3ef4d2f91c1
fc805577e04c15f1d74a17a7508708cf
fc8055b920a2a256288f0a0a5327a8c4
fc8057803a4bf96dc4641f4026b97589
fc8057ba5ebad615e3db216e307b2a25
fc80584c031611cd466d5532512fbd00
fc8058a0b143e95391cc5243eeacaf7b
fc80599864a19279e4014347dcb90e10
fc805a3571a86dbd669105cd77d2f68e
fc805a9b0792e68a5c9662b68943cbd5
fc805ae5656238c28b875e7cc934dcc5
fc805b313035f047f2fe023290536767
fc805c133c9ecedecae9cadae965cc7b
fc805c6dcda555d36f6e3576b275d349
fc805cfb98f0dd450d71d00af8a9e14f
fc805dba06638e410ebff1e18faf23d9
fc805ebe8ca8565ce74a33f9408b0028
fc806014ad96bb0663e28d530e7d0664
fc80606a40a06b6652808b8456ea5183
fc806084f7010021649ecb8b2701b255
fc8060deaf2eb021da144e31b6dbe667
fc80615c8921040a17e3ff44b00c8270
fc8062b862828d7dfac45a52180936e7
fc806363bd276f88e3d1cedf5130b63a
fc80648a9353f8bf368812e9e6557bc2
fc8064eaebea73823b76201cc72b3f12
fc806538070ea16dfbda19fdd2ed16f4
fc8065e8d28d55cb6ceb54df474d30ba
fc8065fa6ba7ae1f5ee7f24e278e1e5a
fc806613e3c02f491526654827eb6390
fc80663536adfc6aa2fa801384593de7
fc8066403550a939146f4bdb5750e3bb
fc8066531ea30246db3ca8b025ee562e
fc80666b2f99e53ed3b05df8eddea0f8
fc8066ce451209973458a41b9a4990e9
fc806713168de052cfaf1775595d6887
fc8067974eafecfb149b31f0614c5929
fc806804612d473aef7b56edb27e6a3d
fc8068099ac209a7786e7225c40fb073
fc80688eecfd1ca20c33292915e61f6d
fc8069c5e92661e44bb770a660f1d162
fc806a4a4dbb6f2ca22bf05378b7c8e6
fc806a5717619cd46210d2dc47e1380f
fc806a62f2874e2de198b1653869af70
fc806c92e5434eb04704c2735637849e
fc806d7ac93d0d5b470d258a22424c91
fc806dc5d454897c14215911e6aa496a
fc806dce6b788c6d29743895da8a8df1
fc806deccf69b0280e4cb4481cf4f84f
fc806e5ead62353eae652ab61a2037bf
fc806ece4c4d7ad08b46e7c08be70ec3
fc806fa21fda1d3e8867daa88b1df104
fc806fa41239ed01924a8117ec88feb3
fc806fc6f1110e865da5882e740b5f3c
fc806feabfb506e2cbd2cdf5bd2a5b2d
fc80712eac23c70c439cf5f03b2e0d1f
fc80714ea489cedc41169e91954f01a6
fc8071eacc4cbcc7449adbe81eeeae6c
fc80725713fe6f695a98a9c5700c7be9
fc8072722e637e0ac9ceae85ad7902c4
fc8072bfc1068757426846469d7ca9f9
fc807312ecfe187d14f8d7472b87650f
fc8074a8142d1e450c772fc9387b640a
fc8074f51916bbc2f8bd4e69eb672ff5
fc80750633ec4206176f40301b69727e
fc807516bcd95c5840ab89211d24c938
fc807541a4e307e432c32e4213fa12b4
fc80756e6d7fa91e6e521f0cd8c467f8
fc8075c7407675191f77321368037ff8
fc80763de879208252e51c514f01677a
fc80768dbd7adef056eda3982509e731
fc807740b9143614f4b578e04e71c303
fc8077fc71ffea423e590e012e50937a
fc8078b107c4cff305dec6fd4404cb30
fc807980b1449c0e75c2d21bc3ec7b13
fc8079fb9e268c1f12ae21be7b482c5e
fc807a4b126e5eefcda66c4bb838e4f3
fc807a96548d6adeb6c1e1237e11a1d5
fc807b5a36478cfbac36ca9135a5e9b9
fc807bc1f3e26906e1ab5dee53beb2f7
fc807bf2c3bd54aa0417e32c786f7286
fc807cfe120a5fef36ae3333d8615a20
fc807d44ab809bab350258bafd2ada70
fc807d6ef761edf0eae8f70ad8d1857d
fc807e7282e3d1fd6efbc91f3d62d529
fc807e9d795a3683a98c1fe8144cb365
fc807ec437344b976305ab15d9a3d330
fc807f0150d64fd8619c534ce6dca826
fc80803830cf5f6838a2b218ce470176
fc80812ca7277753c630abb90aaa8c9a
fc8082dc10790c9b9b15ae4ff8ed7136
fc80835f07cb62d8dd45d1ee89d0b518
fc808389453f98e42ea4d95c235d9193
fc8083fddeca8c8826d4af8542183929
fc80856628050568700c6f94fbd535fa
fc80858a24783129f5f58388e7b428b7
fc80859cfda5f488ec50abd022ba3f39
fc80859f90b3e1abab5bb8265ea43352
fc8085e5ae261c4eb3b42275859b7e4c
fc8086adb6849ed79a031d65bf446bfd
fc808718f318600cd96cc252dd36d7ea
fc80876bb6319e4bc3e6cd45972a1e04
fc80886319a56970fe0507b31b499fb1
fc808868947f1b13854636e77363962c
fc8088d8f8042933742eab41a3dbe63f
fc8088db51af83f0805d28837b2bd43a
fc8089140d896269a1f971cb14da34db
fc80896c49c9e32ec9ca9a145a79092c
fc8089a416d22ad0bb1381a3662350a0
fc808ac4b05c698f47fc6b4de1180534
fc808b0e377004be832c99f11c0ea0f9
fc808ba388c43e18f0b1679b8edf72c4
fc808cba066eb64bcd9d41e6413d13e1
fc808d408ea8465ad071b897a62a0287
fc808d97d81d33a457fc001ad90efa3d
fc808e166010b2d05474fdc151b76ee5
fc808f3c2718f894eba909c97d760cae
fc809069cb46c3db5981cf69361ee88c
fc80914ccdfb26ab26d6c7d10ab35288
fc8091b73a83a84d088b52759a0d0244
fc8091e17083be70fcce7ec8b54b3418
fc8091e2ec269e86f17b220775ed0d71
fc8091f93ba27c3c44c813368ee3b79a
fc8092e974034d533e9f279951251ce7
fc8093024746a6326f86a1556a37be10
fc809496898fb3a6a9d621e4ee588946
fc8094f95a666e6ad6b95788ad54ade6
fc80951e65ba38b71ff45ab23e7c49b3
fc80956a5b780241c4505d3304f046b5
fc80957ae0903535edf16ff10db084f5
fc80958037aedf89323bf0d79d15f4da
fc8097050d9eacfe445659d2deed3c6f
fc80975e1334dc2e5613737f593166e8
fc8097a547c9832137df0391d11f236d
fc8099bef0accb3f04ce9ef706ca22de
fc8099d28b89fcda39d39fc8c6f25256
fc8099d3508ba1d9f196ddf8f74fdaa5
fc809a1c402bfa5548e12e766de2b498
fc809a80196620840ddcc221c66a21ea
fc809a956f3bbabf499916c789491edb
fc809afb7224c9d150fcefd00464a980
fc809b1123f656998a13fb7aa3f6b69a
fc809bd247509fa9e27277c8299e69c7
fc809bdc7b298b3400413cc7278cbc13
fc809c5c40877d5b5dcfc41eea8c2d43
fc809d814ff99c5b7a378f4525783e5e
fc809e0c2152189541be32898b8af8a4
fc809e2ac1e765aa30f79ac989888b58
fc809e8086d2b29fbfb07cfaca914ae0
fc809e9b27a530c94aa6dd9ac310d338
fc80a0bc0835462cabe3eba07b276cec
fc80a2fa04188319c7a45bd0d2c8c1dc
fc80a312ef98d15c6185449fcf703aaa
fc80a366694880ca1fa0b0e5aa7254c6
fc80a3d5463d58f344ffdcb5bdd506a0
fc80a42fcfc49e35d48066551fdf311e
fc80a43b01489055d028df4fab6aefb6
fc80a4ddc3daf76d1939ec2911ed91ab
fc80a58627f52ad73b3bc613543a131f
fc80a6191d7904d0644bb644ee76c9b4
fc80a684b1ff8dc3bc5f3637ac170171
fc80a7260dcbf770194ccf709e6eafa4
fc80a79977f7c9609ed490c385856a62
fc80a82b59cb45bdd8c6eb13c7b76702
fc80a8ae94d93c2f7c38efa234dd4502
fc80a8c22ccd05608cad2f293f2b93f8
fc80a9113356da49b85f25d0217a9660
fc80a9234c72b3e8597f8f06fd53dbe4
fc80a956a38e393f71bbaf59554069fb
fc80a9ff3d90db734e71709b5352fac7
fc80aa8c8fff064f63d0e2819522515f
fc80ab80a4d9da3eac4865b0952076e9
fc80ac53ab7c3d6fa3fada3fd8bba459
fc80af16becfd3b23c50d804900f74d2
fc80afa7c616c51968ba000bd05785dc
fc80b0752494d268459d71dac5678da9
fc80b08c4baa4b276fb7d49ecada0050
fc80b1203a58ab2193c27a76ae2f1df2
fc80b13be1eed50887ea626812db33e8
fc80b207fee49d9ff1ba114387b9de1f
fc80b237e184ac05e7e889750b200a9c
fc80b3e9e78129c5a3dcf2107fdcfc67
fc80b7572ca77f43731785ca8df66a95
fc80b834d38ade4d36f1a5c351f9551f
fc80b87466281f4306513876e2362ad5
fc80b8749a7b9b3889b337e9137a9eb3
fc80b89cd7332ef25a54b2da2aa12a12
fc80b97ffacd73a1fd8572115b827807
fc80bc2e4f76d805d8879dee81ea85b9
fc80bd84131089bb217050922d708d48
fc80beee43e45773d9c6965b9db7b4da
fc80befe6ba067b14504043fc84606b4
fc80bf075d936667d128e77f7c38fec9
fc80bf7ae90efbdc140cba32cc7c8a60
fc80c1ce391a65eedd4f1d99a21f394e
fc80c1d83a53f677a534026cbea23b70
fc80c2e7905bb4347e3da19a337f90b2
fc80c360b60e6d470e5c4da90de32955
fc80c3886bc6850b26082f0d121a97c0
fc80c5eac0623d2f7316a3f97b8ed1ea
fc80c66cf20c54a94bee38891b824098
fc80c69ada95a3328327926110c89b92
fc80c6d8dae58476176918772cacfcb1
fc80c94188d2e3dd8831593808d318f2
fc80c949813d17ca70e030232a00dca7
fc80c9bbd2510994dd714319f0b3d93b
fc80ca7a3270aa56a61520dbb0643070
fc80cb3431ba297443f11ff249996024
fc80ccd72e44c4c1fea595d624b86593
fc80cce4eae1ace0469929e87b12e058
fc80ce29fbdb9cb8162d77ce31d81e1b
fc80cebb27d4c39a016a3d2adc1910e3
fc80cf673a003c4daf70ffd0697718d0
fc80cf7963f2e407266882f2dc9cb7b6
fc80d025a1777eed57f5f9d35e0aae7d
fc80d05403a1a00ebe5429497e57ddf4
fc80d10f4addf1af1e7efc9190c0d219
fc80d11e261b23b5904a95d2bef9a512
fc80d1b7d1f9c1c9a022ef022de43c53
fc80d3061d255ef44b639a1c56e6aed1
fc80d45dc43dfcd0ae61ddd5b34ad415
fc80d483ab2ff347e3b66d63634fc5d9
fc80d4bde73cb67541de04811bc52250
fc80d4e4994301ac5fb036ab9fd59088
fc80d5b49cbbf2e51e37a015c4b27eaa
fc80d5d8aff717a15a73d4597e09532d
fc80d5f76d0ec4c5d707c7ee4af703b2
fc80d6992945fa0297bead7b7d67e11d
fc80d6c6d32dafc6429c9c37e508d35e
fc80d7defc931c949a47f17a5b11ebf0
fc80d7f249a31655d8fafdad33630729
fc80d921eb15ea4771075e0cd7ea3b1e
fc80d93193c1837b14bb0d6d0ddc840d
fc80d9eea50ab5d3676d4714fc6a3286
fc80dbbcdf2fdb379e883d92de8942fe
fc80dbc99942fdf83646d1fc40af1915
fc80dbe4cfb33ec8bcf5cc436f5a25d5
fc80dc12f7336c71ad5b41a3f2c6cc7c
fc80dcc243b529f2f5cb4d954bd3cacc
fc80dd5fa230714b62ae4baaee18b8ef
fc80defd00e37f2062aebdb9a1920ccc
fc80df5f5fc7c87d08fed67b4675c69b
fc80df9e86ea7920505d2a794a9277cd
fc80dfe87a5c319db968f1615b81ed0c
fc80e0689f3d01a3315eb93a95c403b1
fc80e0a9a64523c0ef9a9bdeff3828c1
fc80e11288ecc8bcd318d38976f0da32
fc80e1dc14cbd6c64cd27240bd8890b2
fc80e1f96bee17d86248616ac635d0a8
fc80e2996ced521ef2487c3ef7ca6256
fc80e317c5590130acaa4568b2a9517b
fc80e3475b796dbbd8a4c9c631ccd0bc
fc80e3680f09b7f510e65c358e0b0fbe
fc80e4783f679e74ef1b552f6ad4fa0f
fc80e48866ee2aaa6a21c4031d60e270
fc80e49335826ebaf600c636f1b84820
fc80e54b4ef5d7aece3ad082eaad9d19
fc80e54fb59ecbc03905db03af8acdee
fc80e587b00c7c28b986ae54274f1560
fc80e5bf6148d6698bef69c42291e73e
fc80e5c1a878d2602bd77af23bcaafc7
fc80e6498d5736e65f06f05416192138
fc80e6750c0e795e4b44eac43f229da9
fc80e78bfa5e8f25deea4af37d542f22
fc80e7a36cd0c6143b266f2dc2165970
fc80e7d6b8ffee02a89b677994884716
fc80e81e3480d5cc717edaca018585a1
fc80e82015a0378cbdcf84f8b937ae67
fc80e8baf89ec5421f354f14094d3aa7
fc80e980c6aebf64acfeb82134577355
fc80ea3614d4b40ee552594f663b0631
fc80eaa01b9419d79830c2638c63b0d6
fc80eaed1f3677a520c23d5a01d069a1
fc80eafd93d6293fafcd63714969445d
fc80eb17afcc6cce5e2749972c678d41
fc80eca780eee3ac879f9b4b8127c77f
fc80ed3037f09e749f286a580350b69a
fc80ed874cc60887b3428d47c55fa3bf
fc80ed9e98614b008f82601e0a063b43
fc80ee01ff9630f10d49fab83a7cf58c
fc80eed5c7df17b9fad901f9cc99b5b1
fc80ef4825b0ad1ef735be2126e4c992
fc80ef90a106aab741568b7e2cfaef10
fc80f0a3d4eb158d32e77c4084ff4cd0
fc80f118a9899d66a35e5d6e564335a9
fc80f1b767025474ba4a4a8757322989
fc80f1f4c0b07c12b3eb408e16377dc2
fc80f22d045c71cb4ff936cebaa5ff17
fc80f27f7073cacb10806340cbf1de77
fc80f413da53eb265d7af1df9a037655
fc80f4223766339db7ea3a23c5d3d62c
fc80f536c0ee8f9f4e3a29e246a77963
fc80f5a3f8c2e414c6a829af62179ed9
fc80f6459b259be14e91841e2b48fc8a
fc80f6cce6cb723e7ea101096b11ab1c
fc80f76d42b769cb9f5abb939092fb0b
fc80f778e955c7f0b70cad8597daba76
fc80f7b7fea3e929b942b2a30367cce5
fc80f7f3bcad47a8d569e8ab3304cd59
fc80f866458f07502fdc3c99d4e8bb72
fc80f8ceb49dbb5ee77c8dc42b9bc29b
fc80f940d38b0e780f0e6663d3f7b0ff
fc80fa1a9972e0525d002b6c17a1e9e7
fc80fa2c85ff565c469e0d28e36c919e
fc80faedf6431037f1d6e364ab125b2d
fc80fbcc36cfa9b16c76bf8f04e5a160
fc80fc83fde3d30f14d8a0aa66e041f6
fc80fcb97e8f9bd954cb6721ac037a71
fc80fe01cde88f8e76315f794f5c3029
fc80fe7f27f146623520bcf055f5b7c3
fc80fed7e4a10ccace020e2efa7e1f9d
fc80ffbd8cd2163bfc5f666862c9c685
fc81014203454f427cdca907fcc4be38
fc81015984b29065286eb869687c8ebd
fc81046638f5d4f0481fb26266835851
fc8104f55574e55fd88091805ee1ff41
fc8105a88c0905bc41db04792cc5a564
fc8106a94e808c4bc644d5e6cb65ded2
fc81079c34ce5765d3c56f0e5723a9da
fc81081fc5bab2c5d2e2510a3bc41bc5
fc81090942cfcb76c8b02281b4bee050
fc81093f0a5b415075ad5bbcfbed1158
fc81094941006544b44a57be0db45417
fc81098f6b7f0c2bdf7e98e03ad03a10
fc8109bf78cd137d021e8430cc1055fc
fc810a163a469ee8dae093085cfb6e25
fc810c019a7da1f1fba772e8aa83eaa0
fc810c2cc156841506b4ce29a91945f7
fc810cb74ded2289b9b8e9c49ec3d071
fc810ceda9e11be01381d361e24b7d8b
fc810df042c938c0207f652397f118d3
fc810eed186675c720eda67f4a2fb3ca
fc810f25157f25507b28adc75a671832
fc810f7b093d9ab8e7feff0fdb066382
fc8111e51ff732063677f2f94eab7f29
fc811218ad4e059329c8c30cdfcc9d61
fc8112b2508f17179a411d2e813f626f
fc8112b6db9d929735dd1f1ca7e99d22
fc81155470c3584ea36b1c3b7f78e2b0
fc8115c36ebcd1ed619ac3ff9f72b7c3
fc8115d899042bc244eb7b6931f28771
fc811707f221f0bb30c863085c7c4f7f
fc8117296c5ad63e56dd742bb77ab24f
fc81181b0462dab6111e1d61117df039
fc811834b5ac564ccf645c7d37924a66
fc8118c74a8d84e150e8d038fbcfe83a
fc81195269575a53a7087546563c1d5b
fc81195b5fa47e8419709df4277f77de
fc8119e1ddc18cfa55f9c4669cb64b76
fc811a024aa2724b9639d7a726874745
fc811aa4e271c6bb70868456c971644c
fc811ac62cbdf3309ad42a0a92ff9cac
fc811b4fdf3545706b654829b6ca3f10
fc811bef6220e03e26540cb0b253f977
fc811dcd6ca61745c92a8f0b396e4061
fc811dd70095628b078b5dd935484c7e
fc811ec3650cdb719dac7a45e71f6ceb
fc8120fa1bd1e486013f956c89ae8619
fc8121401f73900c1609be8a5c77089d
fc8124c51b1739cb3fb31e7ea502dff0
fc8125214c0b591d3bb0b23e405d6447
fc8125331685eef646d03fb5d224d797
fc812584a78182c534be20d096d7cb7e
fc81260ef4ccd07318caa3321a3a773b
fc8127e4757f84a7b8f9cce5c8b2017b
fc812821a87ff48e848538d41687ae23
fc81288e7b3ff97213c40904d15c824e
fc8128ed98033f28829a84d3440c70a0
fc8129ca606b593b0fd16f7ecbdfd567
fc812a4d41ed1e4dcf49383dd10e2722
fc812a75822b6c9297ef78957f37ed73
fc812ad2ce5a0a532cf983ea4cc34e2a
fc812bbbaf7a3de71132cff8135593ca
fc812bbf6b480a6910c51a0b5f58a5a3
fc812cb8a8309edf534da09953f8774b
fc812d899ea063c23cf8c86a0a0491c7
fc812ddb0ca5d3da93bf8057662c1aba
fc812def0cd789a30c2d511c84431023
fc812e3d1b3d093102b8f2680df77d85
fc812ed4ff4f88aa804f2f4f56b92629
fc813027c10028cac7245bf42abf9e5c
fc8130c28578757ec05b685486d48b07
fc8131892c3773455c9c62c8b3a05080
fc8131c6413d3e0ccbb5720cacb47f83
fc81320f9f0a28230ce353a61467746a
fc81321dc181f779234a8ea92efe4dad
fc8132369d52620900614cc309f6c137
fc8132b31c4657b7461bf5bab6a13249
fc8132b3a0a6b4c18774dd4437ce9ad0
fc8133de8619455ee57e8a95c5a3f3d2
fc813412b1730a787242df14a869b96d
fc81344bc5a3911410b6eb6e6fc6e3d8
fc81350e239f6db34aa99fdb8e33ac33
fc8135e10f6283c2778a58efdaee696c
fc81362722f1c03649f88e12f64c5073
fc81369143bbd561f759280c2a82c163
fc81372eab2140cb96e61ed074b64f95
fc81378cfeca783129e54cc5ee3c70f3
fc8137aba7b632f331674555ef14d86c
fc8138e0d0ec6e1edd0e29f3167e8ad6
fc8139730d79389f75a2899519019546
fc8139c0048f05ea994d0c5c5d5f7a26
fc813a6a53013f947c9c890052b91290
fc813b56029b8594b69ebd0393dcb107
fc813ba5506ce0a35912698cc46cf8ab
fc813c038925874bc3ec40bf1372b213
fc813c75522570a1153148f20eedc0c2
fc813ce6d9540677a51988bffc2077b0
fc813dc670044a0cf28868a18bdd474d
fc813dcc4957686e8aa3fd8cbaa0b0f0
fc813de8272656c64defd08ed65b9867
fc813e8f9aabb4ef3fc5deb436807fd0
fc813ea088b32baff155c1e01e06fda1
fc813f722723efe54815d917fc87c5a2
fc8140708e82a26e7b3abe43f59149fa
fc8140e5c4d5f7f1be27759ae1f2d1f2
fc8140ec1b5cf9ddabec21380477d702
fc81413c679a820a36dc0b772099fd68
fc81414b9975e68299b94ddb67837878
fc814209076ca8bfa60c27bd0a023c0a
fc8143aa55387f210a25d6e9652f4729
fc8143fc0e406a856797e31637e63f35
fc81446094a14a8b7f2cb82687be3dd0
fc81448df4b39d806ceca640c86d3e42
fc81451c9646fe2ef30c69e4d4077015
fc8145233a1c77ecb5ec328796bd4c09
fc814523d0ee7fecd7bb2480565160eb
fc81456e9ad3496b04ed77157419e18f
fc81458a21505d8ee5a4d45bc8d1dee2
fc8145fe9afd78c542163a1bd5688c7a
fc814685ec8c6f44dee19e4272abbfc8
fc814748df9cccecfc183b9ac23149b3
fc8147ac922d308ab3c789777d2b1fad
fc81497d8ba10b83562ff613246d3e4a
fc814a0ebd07a4bffe22c3ed8da2fac7
fc814ae9709ef7c7d1817fd7f959373f
fc814bbc10861d12b59d7f32c9c5c759
fc814c272540396e7ff036579a49b787
fc814ca4f32a70f43f2c56089cfa1174
fc814cb18328353584c8987fdd231e33
fc814cb9998d05b3561b956844503a10
fc814d572f1124d4c715b241b1e92370
fc814d8386069203c45c217f742216c0
fc814d8719596dfc73d1c25ef546b3e5
fc814db38301166dc107a539870852ba
fc814ddbc4198b6c580fc050daf87a95
fc814ecbd445a404230f5bc1a4ef4cc3
fc81512afadeaf96bcc17387aad10eef
fc81529dcecfbd6d4a35eaddf6ccaa5c
fc8152e1a8c03a5c63a490c7908c7695
fc8152f1cbdd5c89808ed3f2d4308ff7
fc81531c6d9891534192051da017b34e
fc81544664665230e2e503e9779127fc
fc8154cba01f1c9f63fc4f3697331e7f
fc81554687c5ecedf34a715d06da447f
fc8155e8bb2ad2ef33aa36337df51f3c
fc8156c4e2f93b99eed48b0fa131ec24
fc8157a76f75be6cfc21bbdfe33958f4
fc8157da182908439f9c42e20df8f1a3
fc81591fe73fcf21f2d30a9a6f7ac380
fc815a2f316c90f9790c0c737974ad1e
fc815a3e321517c6eb2e97dd678702d0
fc815b20ba4f56bfd6c71f9ca9a5016e
fc815c73d2b1936fec6c92fb92f38436
fc815d55b4aaf1561c0f99d36a0eff2a
fc815e4ddfa9565d3b5eb78a64463b3c
fc815e9992d98df803b9d1cf0ddbe355
fc815f3dd3f6abab7c74b9cb2470b9dc
fc816213537207f8fe2d36c809a74671
fc8162191e6be54f8ff4c9a9c7f4bafe
fc81628127547b66809be6d8034dd9c1
fc816290a4856ec7e70792a0407e6d8c
fc8164db42c88cdad94cebb05cc0b280
fc81651b412758d69087d52f9e7d29c0
fc8165bb4dfd9e5ea0c9595cd5d92c8b
fc81675921605a1e2fc398510edc78df
fc816889cf6236e5c87da7bcd480ad76
fc8169a0e9ff32afdc7a3a0b267a51de
fc816a9ca8b5db88458ced836576bd87
fc816b59bd7124625158151266630d2b
fc816dae500030d66b97d2b664aa9952
fc816dd79193b99d3fb87b49d11b451d
fc816e647cd5bd145922d72e5171dcba
fc816ed90e11b31cff6a14616bcff5a0
fc8170b436d6e45fd282a91d92e495d3
fc8170c70d28d5c5c2908e08ad3b89cd
fc8171304306054451a08df4c52af407
fc8171dceb1345dbc6aed2f027e55ba3
fc8172cf093abf9e46a48adb48825b64
fc8172fc9c0eec262d75a2cccda5749f
fc8175d830790b18143f65571e1ee9e6
fc8175f74f6a352e8b83e3b523282cf3
fc81771e0896b669336070655dcdc6d6
fc81772e322a07cf01ef9b985190f47d
fc8177c0d23ebe912302a51761a25890
fc8177cd6fdb4e8ed6d96e4a589979ff
fc8177de33608645a82510c76d4acb26
fc8178e0f175794af58272f930ef7d2e
fc8179a7cf3014e5431177050c5d452f
fc817a10a75a2f9157a58a9a3c149b4f
fc817a8209314ac343ce6c542dba343f
fc817a966025cdfbfb2b349261846f30
fc817ab797581cb4c0ff7f0ce917b337
fc817ad4c5c8d183b46dd79c7082b482
fc817be028dbab2f73d529cf7b289560
fc817c110a72ee4fd95e1277b7de28f4
fc817c1d9177a10243767f6dd2eda1b6
fc817e04190c2716bc592496d0908f9a
fc817f15c05d3c99a3dff270a2135a47
fc817f4eb2ac255ceff96b891800b4a1
fc817f6000a42bf9c61e84f7e2180457
fc817f89af0bc526049204697c383424
fc8180445d9a0c6cc22349e8f0022117
fc8181c5e5bc4ad77a255961868ba223
fc81825153ec733cd6e5e473507a9669
fc8182e0d34111533351e34ea2a29607
fc81844ed8e2b83081cb71b49f75ef15
fc8184665ace5c97916cc26cca3ed428
fc8184838bd3dec0d9f572585453ab65
fc8184b8f080fbad633fc6602fe5121f
fc81854847d7aff02a8be4f6ab05d3de
fc8185840d789826bc997e00cc3a937a
fc81866599004540c6887e8ee86a7327
fc8187247adc83004f4772f7b4e81d77
fc81873d2c10a22057198b19481171d3
fc818852ea3dd1636f2b125fb449c77a
fc8188e472e1654086a495748dde15d9
fc818a341d19562ce84dd5d51b173bef
fc818a5915ebbb7e0b78a1f68e59de08
fc818a7e30f3877e0ce63cc7a176fb69
fc818aabcb56e321c9dc0b016f60ddf3
fc818ac4faea77f7c0fe0255bf1bb3c0
fc818b7bad17d652ceb762c7603bde9d
fc818cb5524a7593d63802513ab92321
fc818d26a08836da950eab038f5a5f22
fc818d65d993b470b9f14d5ec586f882
fc818da308a6f5b8d53bfb01cf3915b2
fc818e1e6fecddc29e9f0c74eb1e6e0c
fc818ea83a322c547506b036b2427ad8
fc818fb541d6dda5277831e68eeaba77
fc818fd177593bcd2f14e9a98339e53b
fc81907dd84229bb8564d573ee5df2d9
fc8190a9426a8bce08f4f8baf990a30a
fc8190e8595e2a0d05834234f6dbd827
fc819156984ed67d8c9275e51f7a63f1
fc81916e7ec633db3332a307a9d2920d
fc819182d8128d50f8a2ed5318767d20
fc8191864fe88c3bf3b94e7185f0db26
fc81927c99fe79532e25a367f4395e28
fc8192900fa73dee99e50cd7d9b45bd0
fc8192a93119d9afee8a4b72c393136f
fc81930cde34d1e9a4a16f31bfce57dd
fc81938ef242e664b018bacf803cb02e
fc81938f81a4ce0077a30cf64ca1f344
fc8193a93cddc8a1b785dc084983aec4
fc819623f53166e7e73fbee4e9731af5
fc8196f8bd0594a49aa6e475947bebbb
fc81971e81a597cb162dcfdd16799af0
fc819786b2d7308d358d60693fc1192f
fc8198103e5efd629e99eee514f0e7af
fc819853b83807ecd8723b7ad5505dee
fc81989d33b5e5055cce1ac7771af4d5
fc8198eb8e85c41e70586bffebc8cda8
fc81992b6c0529d9d1218157447677b7
fc819ac8d25397c4f4335cbb95e86942
fc819ae606dd36a8b334f2e7852f4edb
fc819bdcefd3b6452ebe98a88b696f5c
fc819c5a415c04bbb3158465ca6f4b68
fc819cf9dfaa241dd64607daf0b584a2
fc819d45c2880f2e9c753bb43fb86195
fc819d9916e9b7f4f10cc96c831437fc
fc819ef268e8bf6f067ded2077776d98
fc819f2367f50c43b5849a2203260851
fc819f3c590dfa65e0e71ca54e4cac7f
fc81a0159da53ca97a5fae6bf60cc00e
fc81a048547e0149fd852c3ba9f2b679
fc81a07324e1f0b9d50e203120e5ef20
fc81a08222884e2d524ce01167dd474f
fc81a0bdbef762b9e59115028a35e479
fc81a0c3c24270bdba2561beb6cc3bb9
fc81a0f154c3262e103449b2aebe3b88
fc81a0f858502bc8bce8565d9d1ae8f3
fc81a13e606d5fed29057dc6f4d5a64f
fc81a1445a5583cd34b5dac2f1ceac97
fc81a21dceddacffd9f3d46835d9b8b0
fc81a285d2638b5a91282330c8f17022
fc81a29cbf376451909d08dae7913a33
fc81a2a36ce73bf8f91140d3b9239f7a
fc81a2b8e27fc68c9b1edf5bf5b8daed
fc81a2f447f6f6f83a23a08b7009c0f4
fc81a39a3858f76b9f5ba268d444832d
fc81a3a0de143cbf31ffa63f491443fa
fc81a41b4c4d34eec626ac9039c1645f
fc81a42c21d3a339ccfac1efda71e3d7
fc81a4311ec95544342717412409ad8c
fc81a4accbb23b589031f3e295eda869
fc81a54d8d5411b59d66ad7b9dbaf360
fc81a6c8533c7f1baccc0031ff04abfb
fc81a6dae7bf29408650eea3634b7c34
fc81a6fdeea0a763e7bf97cf2f99a185
fc81a7dea10e5de986eab29d0716a9b6
fc81a8f9b3be1129a04de7155075fd7f
fc81a922986692a1acd0338a8e1ed68a
fc81aa4d504c13aed9e278ceddc8d9a3
fc81aa87d82d92b9e2bad049dc110806
fc81aa89800ab407ed48b299a3d3a8d7
fc81ac4802bdf121085812e2af15e667
fc81ad0bd6aa7a3871bb90b34c46dc9e
fc81ae0e5a9aa7b5589908e69db49b3f
fc81ae8f08e01ec97f240831c45e0be0
fc81aed600d1e31269a66f73c3b799b4
fc81af16443e2b179d35a713369780c7
fc81af6e8d2bbdb1e92d829c8e59bc28
fc81af8a05b44064c891997fe966a5d1
fc81b003517d1b89f9dd3e5117da525d
fc81b10e001d05d95b075e063eb7ec40
fc81b2e7e5cf70d1ace0263b0faac310
fc81b2ee04be0a13f4ccfd31dd8b299f
fc81b3007c67e65aa4ea22e206810b0e
fc81b3583b5d7281b5014f82e8a7ef49
fc81b394f45be19ae646c2aab38cc412
fc81b423afdf551d4aac8c2a65b62a70
fc81b49b6f8fc3c82149850d97b43c91
fc81b5c6f38239e70df8ba4f87fbef6f
fc81b72b0c895babc0f95f38ff4fcd38
fc81b90961e9b57640caba0ffffeaa5d
fc81b9abdf242e6127635721e6a4f683
fc81b9de6128fe7c8d436e164b7d7fe7
fc81bacd15eaf11a994ed193afc41818
fc81bcd72703118aab9c0f3281fe7f43
fc81bd6af445ee9334635ec00f737bb5
fc81bdff95ab5e02b7297a4b3fcbf195
fc81be9bc65d47c853e79c413164d37c
fc81c01eedd1e78503b1ca6907988983
fc81c034d84043041159274c67acae92
fc81c0a4528ba5fd521c4d475ff45bec
fc81c11af457aafddf2a1a3e0bdfe8e4
fc81c26f532ce726f8d453a1490596bc
fc81c3dadc2e3c314788e8c5cccbec6a
fc81c452c4c743b92a11904b617aa025
fc81c485abcb42ce2bb119905766da0b
fc81c566c5131c4af9ecaf9dcd2401ff
fc81c5c531b7e1107cdc38b99764c415
fc81c5e2b3e5a31a71ad7e20e78897c5
fc81c5e3a848d8c2237fbe052d85dccc
fc81c71b5536cf35c08d634f572090f2
fc81c732bf1fd56a96fed2f79246fd00
fc81c7bab57c0538842ee6f26d1c3a29
fc81c9903d2f18833a2dde589813cd72
fc81c9a5ca53ef960de7523aaf05333a
fc81ca560124d21d6a281ddb73c7ba88
fc81cac13974e02c10277bfa8947946b
fc81caee19d3342fd424c567f0bcd9e1
fc81cc28861c67535daef992c7b42e3b
fc81cca9d5c8a4d92299c7af2896d794
fc81cce0e796d6b61dc03d2ff4541b2c
fc81cd0340b7ace4312decfcd53bd3f6
fc81cdf01a24e327ab5810e161b5fa20
fc81ce30ec6113d676fab97250f4a72b
fc81ce3e70978bdfb2b952bb70ed468f
fc81ce50265beb1eaae35c9a4eef4c34
fc81cf41bb96a32f4069b98a2e17ce6f
fc81cfc113e2675052f040d259a3e4ae
fc81d017b91926f114c1d4cc1f584389
fc81d08f4ded5cbde0f0efd026a52e19
fc81d0e8667de4260f07e069b4173e4e
fc81d21d18ecaed7ce52cf0f2b2ce248
fc81d268463786846ce0114043fc1171
fc81d2ad546a4212f3be7414948aa2a0
fc81d2b50a71d1eebfbfeb7dc0a1f29e
fc81d2ebfd80cd36e8b37003eda64b00
fc81d3fd0981c0653c55f312cf0c55fd
fc81d490732bd00b532f31912c47d5a2
fc81d536b5a745313c026fc19d673baa
fc81d79885085f2c4d84ae8eba4c18ac
fc81d8a94d9850532b412a14c1d4eaff
fc81d8d2491c88f3c0694ce2a3a9a6dd
fc81d9082eac5b93e4e9dbd0b6e7ded9
fc81da523174f18a1072db5c98bc7385
fc81da9cabd8b4a3b0415a39d92f1227
fc81daa479873cd1dbc82fbe8fac82f2
fc81dbd47cd070c87a1402e9b678b9a5
fc81dce0e58dae3bdb2eb7699e135da0
fc81dcfabcfd57154aaeded193fd7037
fc81dd6fa522752aaf722f4092523acd
fc81defd26fe51b93eeae7b0490f5618
fc81df14171597fd54984b1fe09f3b87
fc81e0bd6667bf535a8cf09b7dc732a8
fc81e187c7d83854444833a2a48631fd
fc81e18c3e3a262c4c960a93d5faab92
fc81e1d3d4ffea7eeeef1abbc01451a6
fc81e25da077fbe8663708b57fd8ed52
fc81e356014b7bd79a0896956bbaa8a8
fc81e61f6f9c881ab6e631b44a074533
fc81e6fd1fa035c8032eebb0d810eaed
fc81e794b58d04e3a1ce3b8a775695d0
fc81e839e811b047918e8ec79639c556
fc81e863bcdc96bc868087914c5979d9
fc81e892897a3c1dc9c7efead92e13b5
fc81e8fa7a7155625175dbfb8b1f2560
fc81e981fb6d9d986d6ef978752b8e07
fc81eac15d91cda06544f5c704395c52
fc81eb6b8179bee8c3f33fadcd489aa8
fc81eb6fa3cd8d1339e31e98c8fb3acd
fc81ec5ea6f70fafd173357b07e21b4c
fc81ecad8b268bcff1fd64c113f80c28
fc81ed5d1d68674edfd2fcd5091bed19
fc81ef063954cd858563b7442653dfb7
fc81ef991064774a1444e9696733a83f
fc81efe20c5132a224c9ecf56b1d3923
fc81f09e3feb7ca1187c4ba8e1b39772
fc81f125a92adb45215ece93587d5527
fc81f182e1660e249692d5034283a82e
fc81f183060c84b73ec1e3c0bcb9f64a
fc81f185d38db3522359b1d5dcd23ad8
fc81f1d8b45d1ed5d03dfd50db4a9e77
fc81f1ff88b379f446c59ed41231b789
fc81f21cc6cd4619681abb0607ad2fab
fc81f30eddd248faac0f0d37cf86b1e0
fc81f3c59faa179ed7b5e7d36fc23b93
fc81f44ea5f22a3d6b32b8eddc78baee
fc81f4797e241b7dd5c3f49d1103299b
fc81f60ceaa94bc7c07f6460038d22bf
fc81f6684e12b491abbb1398b2b56bd7
fc81f68cf21afc4b076f3d366ae2e7e0
fc81f6923d19254a1a82abdb92f12292
fc81f6df4c9573248476ca6b6f21fcae
fc81f8513f796f11c06fdbb72af2be06
fc81f948b642cb16343665e634cfee21
fc81f959e954d37d3c7062e2ecbfd69c
fc81fa5101ed3261ec38ed874a54f78a
fc81fc25cb2d19e49005402ca0b51f14
fc81fce53a4eef93ebaa7e33b38146a9
fc81fd24dd3ddf16bd049084d0ab2eed
fc81fd4e20043d839ff827de29240558
fc81fe78172d383797d9eeee016ab910
fc81fe785fdcfafb35467ebe2dd5a116
fc81fe87589ce6286443ab47ccc1f189
fc81fea499d33016f18c235c1cee84c0
fc81fec5c5dcfb684e8e0fbe426673d4
fc81ffa7f74e9797bebaa3ca270c4814
fc82005e5ac77642c3400ed55e10eb94
fc8200980eb3b7c668aa4f72470f8d6a
fc8200d6530a75b315133db532a863df
fc8201c95333e61bdf7a527ed5b0b124
fc8201de7cd09668d88f72bf55a7aa68
fc8202b14b85957f7ce7026d507a49df
fc8202be3fead62ae9b14d347eb95d60
fc82032852b8fc27b40f2ffb97de5316
fc82036107aaa599f36f90ae1705d7ce
fc8203a40c084c85ce8e26db693e8a6b
fc8204687acaa56007a2807c033c2483
fc820499880ae8e94c39194109ba8126
fc8204bb78dc19a93d7d6dd714391ce8
fc8205464fa29da51842f6ae69aecda6
fc8207e8d7a42eb844ed43d613dd3baf
fc82086b53ca6be0726f334ca0004869
fc8209d43d330523c0c48fe3eedfaf79
fc820a0dc14f3a16939fc8a6438af5d2
fc820a413dcef402b4dc86fb2daad376
fc820ac386f0e61d90a07bd0de2c207a
fc820b887ffd09df3587b96824832e3f
fc820b8a41ab74899cd178d7b9c2f93f
fc820bb3772219a902bacecb86504812
fc820c58aef95432d8f93d74850eaaf6
fc820c7988f37bd6853306b851a474e6
fc820d0927c22b6554386fa3d015a758
fc820d917c208af54e75a2225f1d11c5
fc820db11c944078ba42067817fae302
fc820db4346b3ee0771042ca1769253b
fc820e7875620c71b0e49547e18c538c
fc820f2b7f01b87867dc4f3e9a56055f
fc821053836b50742eec442e9ec2fa97
fc82110d01662e175c3cc4c0a45e53a7
fc82115e638e8e30be04e36226c9a919
fc8212c3cf0c286f398f62bd3082ba9a
fc8213a5d579ef4197bd8797ff3c3e0b
fc821464ab635fdb1bf448bd217d82df
fc8215127dd1d3cdea612f808ace9699
fc8215d9394a39de96c56ebce4832074
fc821610eefe4ef341e645ee232b99d1
fc82162a0768c8b208d59afa47251090
fc82179c1ab58d51a62c3864967359f2
fc82184e0d654457e1fa9b74c865a650
fc821855f1cd5a07b861d884a96ab31e
fc8218eddc97b9e3e994d13f62e5ee57
fc82196c43923cb027868dfe25a6d7b1
fc821a2519d5b15b984a65ead06017fe
fc821aa2bce1e8e12e6074be4ae7e2ba
fc821aedece83f6329ca1f951e9a3369
fc821ba1c7f886b492d22cbc0f7698dc
fc821bcd14c39ab2bf43f3de45cea386
fc821c3d177aa38d399acb0627a5489f
fc821daefdf4a852b50356f14b37b9f6
fc821e43179cb032936ffea6342910ad
fc821f6566c9398ed576a8e5ef3721a9
fc82201b62c89f471350effc7ca9912f
fc82202959d729f6c3c9d622bbde6478
fc8220528d1b589ff443df9372853069
fc82210383c0b0e596099326ba931450
fc8221c973973d20a82eb467d91a3886
fc82222fdb57472234c314ea82ba05d2
fc82238c19ca42abcf21595a39e6a73e
fc8223ac24d7c4628e2414186b96b460
fc8223e64a55d26d84ad311478f85751
fc8223fe80ccf39250a32a322a250e66
fc822445871a1fd523185f5049a02d36
fc82244bdc62ee4b0be29295d5130629
fc8224750fc48750c665d97cde252609
fc8224a05a5462320887840934441615
fc8224e63089a3ad050394245bd07d6c
fc82254c9d70b51b51184663b30c3ba8
fc8225bdcbcaca511f372f87379bf04f
fc8226f775b233dfb679788eef3b3d37
fc8227bde6e0dd96d09f4d3ca7b8ef13
fc8227d4dc64c73984d66a4deb314bbd
fc822832773497f5a9065c16a0237fc0
fc8228a0e96914c7d51520e1c967a306
fc82293de5815167681dbfbe2f5a7672
fc8229f3893db8fda07f1b8c23e3b929
fc822b413c1fbd2bb7cf5c67b7ca4607
fc822b7a7cf857fb5b465a72ff6b0f4b
fc822c3a575681ba64786874c3acf99b
fc822e74b6bca2fed471ab1dc0be4fd5
fc8230d5015f1c0f70423dda4935fb23
fc82310676d96a2b3a22af56b6a6dcf6
fc823112a1edb4d2bdd62d6d74d703b9
fc8231a2c397f448959b3a08dcd5d8a0
fc823252971883053e15cd5b70ea9b95
fc8233642ed84658a29a1930b15c8070
fc823377c428c3352ac2245ce0f2255a
fc823395099fcaed50087e09e843225f
fc8233bcbd205ef1696eb7377ceb6554
fc82349eb882037314cbe2b79e24bd1d
fc8235a0fe5e9057bd23beaffa0d052b
fc8235e7826ae03e0721148113075895
fc823637bbb5a0c8f9c6bec13a97fdc0
fc8236cc74f68f0719a013561bb5b81d
fc823729526961703dab083f654f9d7d
fc8237eb91ced59c249fe6fae1c09604
fc8239399c76197a6b54be3bf18711ef
fc823bd02a7f62ff26f532f1691582e4
fc823c91e23805a7d4a481bebc375fad
fc823d97aaef2b618c77e05664595868
fc823de751b1a3aa20d23bc4f626ca6a
fc823e125fe79366d7bb909203a0d619
fc823e35bc48bcc486fbc7789fd58916
fc823e6a81b75ff4bbf877f956f1c7c0
fc823f0c8496b15101cfea7b94aadd48
fc823f83e4f9dac5a4d929ce00f2e599
fc8240b3e44122bece8098b3d52829be
fc8240c1c6333453516f5efaef2eb023
fc824170a10a51b2c97b1039ee3c0004
fc82426cbbdeebd2aa41d286f58bbac7
fc8242874f7cb41946845126fe90c447
fc8242d9fb0c5eed42c86d3f28c9e529
fc8242db040a88ce60e2aed874cb3532
fc82431509cc77ff7e720f0e2f48a3c9
fc8244e3e51976528b0ebb3f25b43187
fc824538c3038920ce3e3f312bcd3dc7
fc8248a37afea496a953d403489cff4d
fc82491cd5b41bacd67823347069941b
fc8249ac8b52eb9db401df523c19cbc0
fc8249e7652a3748421a7bfb550614dc
fc824a3bcb04d5098e9f746f9978ec3c
fc824bba745d709b2bd8a1697027f794
fc824be950ebaf72df57e59479e4f290
fc824cfc2465949185bd0abbc69dec70
fc824d10ec22dc9d26e772e3e3aa1212
fc824d298aceb9e6417078d9ba01aae0
fc824d8ea251275eebd2e8c2a78ff912
fc824d9f8ddfda876bc5bdcd80e7f9e4
fc824dd9df962a046dad9d61fd8b099a
fc824e1f5b0c12bad38774f13add6120
fc824ec45d71740669169cd5ee9256f7
fc824f07177a7e504ce65cc1f9411c7c
fc824fea1f89465cbd9c819dcb695db0
fc82501b3a79efe3f4f5840d08a7e5ab
fc82508d5bf381f9fe5d977a7a6a3720
fc825097770a288d78994cb82748b585
fc8250bfc19ed9598c7ddb9b58d70dcc
fc8250fa258728ff72bd123bcec2b136
fc825161738171894882aba6538c5927
fc8252b3d4c118a136e04aed582b05db
fc8253895030e7295a7dbb0f0c1f679b
fc8255800250416723daa885daa9cbcb
fc8256bcc8f95da9b473a89961995722
fc8256e085a6da28a7e906db49be898a
fc8256f7f7aeece3bddb8d2744f1bf6a
fc825701deded61473d4360718f7b81e
fc82585b9cdae6c38c8807f60ac32ba0
fc82587a7193dd000f9bd7be038c99ae
fc825963c807334bca406fbe33e7ac13
fc8259776a7f37250bff643c97a22d7a
fc82597834296c2c86049be55ac732b6
fc82597bf3eee7106a86e5622e654de5
fc825a3f281ab27e8ca2ff4028577926
fc825a72eda67bc0286aace9d1a862fc
fc825ba550dc9203770fc273f450378c
fc825bead4bb6a2b534199d554459595
fc825d279e5bde4ed947c47e73b64fbf
fc825d27df242fdef86d77ade370cc17
fc825d3c3778698dfde63fd3d15e3ade
fc825dabc5769e72f8fda93bcc39e0e0
fc825e8a046fa044a9020ca436b12a52
fc825ebaa09613ac0f3ec401d756e280
fc825ee7a771ef2900ae4576f3d2281e
fc825f2e78d710b36560312414a134c0
fc825f4b44cc402de3112acac5f8df24
fc825f5b19b678258f43af70a97df237
fc82605c2dbe647532d9ff7ddb19acd0
fc8260d67156bca7daf41059137abb38
fc8261f72f8d685b3ca7b5c83f9fa119
fc8261fc5a9470e1c23e923bc53aa2ba
fc8261fecc7dee29c638c89e39c99bd7
fc826205106f4a925602e28861846d98
fc82625484d636ba3d0028af10755805
fc8262c2342d3984ec6a0496dcf291d6
fc82631de72ee796a5361af9019f9466
fc8263497420983c9811bbd389861e1e
fc8264cd49e49ad5df5fd754ef0c2a7a
fc82655e220805f92d8d3b814dd07cbd
fc8265833b7e75b2d5d6f19e2869c8b8
fc8266801f6434d323cc756d75011fd5
fc826745b5e7b4aefbe052b75b34a74a
fc8268c0169c2bc1f5054fefbc203240
fc8269107d958f3994fce783739239f8
fc82694890b07df35d55ed8d414e3daa
fc8269cfe8e83030a477a098e582a3fb
fc826a2e65cd5a792c528e42bd0e02b2
fc826ab3ee05355974cf0f6385cfa109
fc826b02b8f0fc1d969aa2c41f53fede
fc826b90a0e63d9303b1d7de0edda923
fc826bbbdedd3ce54a0e3243f0eac780
fc826c5dcfa9ab10818159a38c6eb019
fc826cd3477f2fc2e2df549c49d3a52b
fc826e6675ea19d6678ab941d9632671
fc826f581fed9ba7a9f48bf89016ffb0
fc82700017d0517e486c75f8b3305c8a
fc8270c58164b081ab53566b65b163b3
fc82718440b7f997dc949533b82514b3
fc8272c4b0ee4d020aafa8f6bc7a8969
fc82730af93070ddc2a0aa9ad91645f5
fc8274a957459eb75bf7488db4b6513a
fc8275a06306bb45cfb673fcaf01b610
fc82762667d9facc5b1f08e86387bfb0
fc8276e9837de2361854c7f3da6a27e3
fc8277ee71f46bedc5f78402d8fb50ef
fc8278165e05084c34f888ca3e4df7a4
fc82788fcc7f5219e5e76beae383bf4d
fc8278f06d0553c21b368e01dad71d33
fc8279e240742343532e301ff0b0edcd
fc827a0ea11a24d0daae91375493a71a
fc827a6d0817daafedc7e09a27bfb4e9
fc827b7510afc3ec1b6fa3881d2f5065
fc827cd75ea28d23a5d1ce5b2c21cc87
fc827d259d0aacb435ab02df170ceca2
fc827df01972ded07539de2f739413fd
fc827e431e3ab58d766aba578f3e22fb
fc827ee14b9792afddec9d85c59ffe74
fc8281d199653f6987f36f19c48ea86c
fc82829a459c3865f90f4d43ca962d27
fc8283235e429daaa8b8a27c76118cc1
fc82837bb92ff52a7d394d5133a34d51
fc8283f2210c83219bbbce4a677ba0d7
fc82845fb169d534bda5ab54c4830eca
fc8284ddcfc24deab5a819cf9c1ff26a
fc828551137150045e9148a919c6cba5
fc828602951441d80f66846f5acbff50
fc8286b65211201f12d8f57d8cd803a6
fc8286ec93329d8ff47011511101542b
fc8287cbd65759d973974d970c4d10a3
fc82896fd218ad8799cefcd0751e485f
fc8289e564aa8af6f9f89a442be741c0
fc828a48f977dd0b6b0761845f2fe37e
fc828a4cddcd65fbc808eb926264242b
fc828a87c5899a5546f72a98b0a24f7e
fc828aa98ca255da8bacdb99bb626163
fc828ab99f2542c23355d0d3bc6fb9c7
fc828add4def9198b76d145ae49670d2
fc828b1fb4896d7f4c0ac6eadef1596a
fc828b7979ed8937ce0ba822bf79b9d9
fc828d3db452f55ebc2ffae1ed00357d
fc828ddf0d703446f3c0f023eb505248
fc828df4a1f0d72b44733be25d1756ad
fc828e2f03ffc5cb5b52623b05027ff6
fc828e5dc44f8caffc5525d046f06b23
fc8291b5ec9b676cd4b20acf72750f75
fc8292deb2503e7d0812713f140c86bb
fc82932877122a1a8c5e766a17038b92
fc8293eb0b5cc193c0d9378be3e1ad87
fc82950dcd7d71745f7eb22c97500bc1
fc829613feec340a981cffdc31ec4fd9
fc8297cb7be058420ee4acb2369ef1b0
fc8297f7146ecfa84aff1a58ee84ca0d
fc82985f4a739fbc5054251884b75898
fc8299b4d59a919a9c6f0fce3e6d5a2b
fc829a7c8abb2594ddedee113946f8e5
fc829ab09871fb6fb52547222f73794e
fc829afc797b003805762681cd94dc23
fc829ba7c4d14e53af7ea9c3dc7d1ae4
fc829c986fda7bd1e723b084274e2157
fc829ca564428f332ff89c675800dea3
fc829ce6cd440667868aa523aa6d8de0
fc829cfea89187fd99d715fe94312a0a
fc829d051cd8a56d6c5eec8f68b1e68f
fc829dcc47ebc46ea0ba596bf2cc82a7
fc829e43250fe9b92301df6048759203
fc829eb307efbc084e7c532f87c1b2f0
fc82a015c410a5ff06a924711cb91625
fc82a02e06cfba9f405d611266734efa
fc82a0d269bac1d60879d7038d5cc74f
fc82a113f5ff2c627818ba7a53e016b2
fc82a12075f8591f333428603e409ef4
fc82a23f16344a00457e191868f7b7a1
fc82a31b5cf1bb8aa462bdeb0da6799c
fc82a3823a35797232d1800414e962ac
fc82a4009df3204416a6dfeaf88b22cc
fc82a63df86e51b8429c32a1ab71cdd1
fc82a75d767ee0c7c06c1230e9da5b85
fc82a76470b15c2045623d979d6a5b7d
fc82a7723d574c75e440993c0dcc5b82
fc82a78cda1adbd710e77a47331bcf75
fc82a8d6a0bd0836b5a2583fbd8d6dc0
fc82a8f5efa2c4a2465d8a6fad93dc8b
fc82a9107f41182c278b458856002e70
fc82aa6411cbaccb29e28dcaaa0a7331
fc82aaaf409c84648957ce311d8c270d
fc82abad587241f28c678fc2cc131833
fc82abb39999ecc091727c6d02041fc6
fc82abb76ff77a2099cefd08efcc45c8
fc82ac8f466abb719656e263facbcb78
fc82ae6d2b9844f83eeff13c9a5caddb
fc82af8b9ca639c367089178b1b3da23
fc82afcc05d342d63ad27ef3dfc6bdf7
fc82aff2e0152e9ad00fc2ae0f3549d9
fc82b04155da200367d6ce695245169e
fc82b05dc2939444fbd1e9590f8349b5
fc82b1a28d55737adf787e985bd1fae7
fc82b20f2529f34d6bfeaf5e575bed84
fc82b219ba7e4de480968c7fc20f327f
fc82b22c015863afdd9a6eafd0f98cf3
fc82b24204d0385af7ba5327338b15a5
fc82b2cae7e31b063e4c6fd5b7f8e04d
fc82b34b1e414ea0381bf1aa0c7f6f9b
fc82b35932e6abf5df7dbbeb066cc48d
fc82b3b5de8685b776514b51352e9457
fc82b3c06c6473d1c5f71d62760025e6
fc82b3f4c7a152e76e6d56c9eef133d2
fc82b4dfad08b0ba4e83008518e58b11
fc82b641f8b0cf13731cf4a7e2467768
fc82b6570704f72262c6617935c36726
fc82b816a1e1665e97c5cc802440f7ba
fc82baf4a21ac7f028ecd468eec0e050
fc82bc9c5e6da6516ccc547871eb2b57
fc82bcdb97bb9aa73f09ae647558f308
fc82bcff6a678a24ae4519f7035f4907
fc82beced292b75605e48ca04433637a
fc82beee205707e97e262cd84a26a982
fc82c10ca39454d7def69669b7d06667
fc82c1c8874e8854e810329c17a947c9
fc82c32a4de5aeb8c9e52a8f254f9f6f
fc82c38403926c0d6241a3902cf99843
fc82c3fe649af1327a478a9592c10b08
fc82c42bf7b96642abc9de1f3f5a6ea9
fc82c43e5602a0bf20be8dae086e989c
fc82c6bda37c87900e86924dc5fd12b7
fc82c6c72fdb41c6e6e1d2da5e064ddc
fc82c6cc527330951db589dbc2a8ef20
fc82c7d47cb743df778801cbe71b8053
fc82c8948721df0dd37d43597df13c73
fc82c985fd8432aaffc41619d6ad3a63
fc82ca5f718d9e335ff073ca0af31499
fc82cb1e67d91a43adb3d249331849e3
fc82cb354cd16a593803dd8cd2807e20
fc82cbfb2ea46534c9d3bc746cbfc43c
fc82cc36ec776c5e058f87d21c69f9c6
fc82cc5aa9bdd8184602dae488379c49
fc82ccda2fa80e34ae28485409721ad6
fc82cce439a75b5b03ebef4cfd273030
fc82ccff9d42c861907a2f87ab063100
fc82cd5c0e48b1839f367ee51e777320
fc82cedceb1bb37fc072b594fe618eb0
fc82cf787598884877b0d85450cc95fa
fc82d00d14dafa43f98b54e852adc4e9
fc82d00e9c3ac4617c2195f565ef306a
fc82d10a4b33afa35402940bfeaf1560
fc82d15e7b77731710f3942d880e350b
fc82d37936f92f88ec5dd273d7271568
fc82d3c0a349c278cecbf052317658cc
fc82d424a2805fc1e70a6421c294a751
fc82d448e00910d916da3a1fe08befb7
fc82d4f784ab935dfd6c6388b1abdd61
fc82d565afe0b8af489c9ad734973d3e
fc82d5c5df38641c9a8cca008a71865f
fc82d662e49f53ddb4cb0d8026950109
fc82d7c8a957c00600ffdb2a50a58f3d
fc82d8266f1358f08c08515d912256f0
fc82d8483a39aaba879e535bf58247d9
fc82d8562df816d42fc9445ec434c5b4
fc82d8684128639d9ba8f77064e485d4
fc82d8b7e644ffd60a076224be95ff6c
fc82d9442f0234ad14940cc48b815b6b
fc82d9dc07c8f14e3f20be062c09ef84
fc82dafa2361fe90d704bc633390f039
fc82db1fb4ff82037cde4b5ffbb862e9
fc82db293cbc96ce0c88acf95bbba9af
fc82db7e72a77016454aefb8e268a992
fc82dbdb14869150e8b1a5bb38428b30
fc82dcf3c465088b8922f246f65d26a0
fc82dd285f44e7482d16b2c8a8bd2c6c
fc82dde28d72b2eeecea710c4ae41ab1
fc82de0def5d7136bfd0350bf46820a1
fc82de6d4327553ab20212eacc13602a
fc82de7bf4de082cd25019c9bccb12db
fc82df73e53cb5ecca8d6d7029a03fcc
fc82e04a0c3f155d57d174beecc79553
fc82e17122936e61be4a02759bc35438
fc82e1e25c88157fda80674a96f07ff0
fc82e2edd471b1cb0323cb7539ba2ce2
fc82e311e6f0db77de8b573a0646bb3b
fc82e34c3b67943d50d25680657916fb
fc82e3b3b11af69b6fdf74cd4d52801c
fc82e4c746914e44673f09c8f4021adb
fc82e5142d4da022fc55ff370dce94cf
fc82e536e6a69e2b6ff1c755e4a76a40
fc82e53cdb8fba3068289faefd8c6773
fc82e677668b067765a0525ba100f095
fc82e786efa965620c4f6a79c4009dca
fc82e926db4fe222b5c8ee837e443fe7
fc82e96d11be2617e569954df204c1b0
fc82ea924cc5a4001597410e0fa5e701
fc82eab05f8459d8ac4a58269884ac25
fc82eac49ff76acdc59ac4206f2acb2c
fc82ead853674a6cd0e7a72338e5ae7f
fc82eb754f417c2cbfbf2a3d9fac9390
fc82eb7a8c92265d444dcd79960126a2
fc82eb9d3d489e8861bafce0eef99800
fc82ebb7559a35a2892b15945fadce40
fc82ec5f045424133ae1357e1967a83f
fc82ecdfcc603c143c9a13adc336f9c0
fc82edadb78ae12aa4137359618134c6
fc82ee95644af9cbe43265460d447677
fc82ef276be7e3588ced9b71c8346726
fc82ef5fd9bf85ea4aa1da0cdfccd571
fc82f11a5cd92cfa6907b8b3cbe54dc7
fc82f2dc105f7b36ed14db7912582441
fc82f355183ad74b1dfd4748c2dfc666
fc82f4d72938cb9de4c2366cb32f11de
fc82f5a4001674f0681e8a3407c4afe0
fc82f5c20d5019f93385cba0ee991b28
fc82f5fb221ae2ca8dd84428aa35111b
fc82f6bcd6578b308d7d60d23cb58b98
fc82f7fd23e294e48cd3e1668bae98f8
fc82f804654e734dc13cd864f4786424
fc82f812a5c87ead64d256219bce8390
fc82f819dd89bcee434e53c40809a6c3
fc82f86d0465351a1554bc4de2f649f7
fc82f9a54ddc99a1c16f40f325a04697
fc82f9b24e609d3754bd43fa93370432
fc82f9d67422e5b37922793ec0874006
fc82f9fe3a2292dbb96e82542ea09ba6
fc82fa729a419068cb1f23c490730937
fc82fb7b15289a51b53fc1e988922325
fc82fbe80bad1b0f57c035e9aa9be646
fc82fc09afe0b33ae9f959b994a36b91
fc82fc29dd88568b5591cb480f34261b
fc82fc36a5af7b25a4ce7a6f2466cb1c
fc82fcdbd133b125fb53197d43872e04
fc82fd9580bda3b2f72a59f388ff7bb0
fc82fe3e288945f22d042ae6fc0d96b8
fc82ff0e83151049da8c9b408fb92638
fc8300232a1aad015336a51129c3873f
fc830177ddd8f534e810f04a900b3ca6
fc8301b9faae3267d568796c19586515
fc8302436496da52f805c03b873c07b0
fc830271d2c399846f26211380ce9bb1
fc830294be733d4add4faba667df0bc0
fc830302ea22ad3311f5cc3cff5f68d3
fc8303f249cf3fb313543a20429a7977
fc830702fb8813b8f86f11c953d26f01
fc83071a4994be89d0f92bb40944e687
fc83077ced3fe023e094eb9151dfe304
fc830795b744cf3afe2838ad5d206fe0
fc8307c211cfa935b7c865cf1ca7d497
fc8307c3007d0689a0d3ad8d180121a5
fc830883d070379926d5732c192badce
fc8308a41a99f7d778bc035ae7a2e245
fc8309d5b2662a6ac50c799563a22948
fc8309ee60c63a7a624229c298569293
fc830ac1d7749f3e9a1dcdff6351a130
fc830b82b4330ca7d4769908e41492b7
fc830bee469b3e55f4da57cc98376a41
fc830cad0187476ca2bc58bae72d9097
fc830d0cc520ab7f5c423c7047e861ee
fc830f2c97954ff35c701d10847688cb
fc830f9b42b280d2b17beb2d8b9d03a1
fc83100587f0f5744d2d5e8a5d85518e
fc83102090a596ceb69383605efad6c1
fc831037555d941c8d98295b290b853b
fc8310be092222277b7f48652f8c9cfc
fc83120221d7f902f3ef9792c4a745bc
fc831226190fa679a340e5d20bceb468
fc8312303734a3a17f755c1a8d0d3962
fc83127dd939994bb93de3dae0fffc2a
fc8313eb54798ba31051a634eaed7653
fc83150bc425ba955b807decd72efbed
fc831569f9732950af095e7491a74350
fc83162f990ef0b4bb813f9a1ec9aad0
fc8316e2bbaf3e919056a350f1b3114a
fc83179e1d9b591d0e9e47df2c2a2a94
fc83185d720b1081f54e7b790bd1f4eb
fc8319c7b7c133699f33260e6314223b
fc831acb52dea3ff2b351e473fdb19b2
fc831b57c4857bcf3c36684510653224
fc831b6e584478abae1c065dd07c2028
fc831be8ffebea192a461d8c31f1d577
fc831cf3a3dde8436cc7e2fe364e0916
fc831d021e41f419278a46d192377033
fc831e4e99248b96434145a4c7c27972
fc831ed66e9624b590ae78915c7efcca
fc831f4e5e64798da3de1871ac1bcf9a
fc83203ccc2328a484655146faefb208
fc83214c51ddaea26c728ab4de5e840d
fc8322ffc181ca1ad3b64e8950f0b637
fc83234b08a044a5fc2d246690cd61de
fc8324de86f878bc23d72f1cb7568b40
fc8325a41916c5d9584b027f142f0542
fc832616547488e1e2ac84343bf4fb20
fc8326e7a109311a44aaadd0f2cbbf20
fc832710980596db9c4e86732ea5f03a
fc832747ca64cd2db6477c269a2bd0df
fc83276034c2a72aae6f36f097b9a9a0
fc8327806e8832ac662f127e604e48d0
fc8328870ad37883b6a60a71746d0428
fc8329ec9bb686c4b4d1155e462b7ac7
fc832ad4768b2fc1d6eefc1a1c53bdd7
fc832b9904cb94fb5a30b45001807a98
fc832bb80094b21f32166cbd47736557
fc832d65b13b10f6183e59c7c283b022
fc832ebcef0514180ee27049c5223546
fc832f12aec7f66926051021d6f3273f
fc832f576b3e1c63079b499f8c5e2958
fc832fa29c1c9d3dfba7c64da8cc0e5f
fc8330d14060a5c7ba838097b2b2daca
fc83313ab170ef88c24307e87f36ae58
fc833311f795a0c045a61fef0ec272f4
fc8333c3c7d04f3d1f2842a956863410
fc83342df42e76f8a475da2203901d36
fc83343be2992801f2cc5519d917aa53
fc83355b68ec77e066bc0e0307c74088
fc8335dadabc61b05e265868c09a980d
fc83366ac90abe8b7eb97defcc93dff9
fc83367971a37069b912bff0fe584f3e
fc8336abecbabb38c072ded8b8ca6956
fc8336cef5617478d975bef125f00e50
fc8337030224fb75f3059cc0a5c7d738
fc83377eb8f4147f5429feb03345e42d
fc83386b7b511fc4a4e8f2e618d7093c
fc8338dfcc522d95b3da85c4f4de7632
fc833a0961af2a1e228b0798e91861f0
fc833a104653f18c744f571dd4c1fd5a
fc833ad7bac317135a551bd62702e8fa
fc833bf26a3c90f319a7f29a3ee54ac7
fc833c56733c37056aac9f4d8a6ef207
fc833d381a8b517f525bf7ff1486c4e3
fc833de4f819528deb5d96df777de6d0
fc833e980bed9f5ae177deeb93499af5
fc833ec6194981a19e3ca0adf668fe07
fc833eda5588075acac60338b00611bf
fc833f3d63d793b672b328803dedbe6e
fc833f4ec05f228081a1c849ff6424cb
fc833f7e1bf302ec34ee91d507276084
fc83423421cd2d1b09955e3aee7f29cf
fc8342b0744a4f76f74f87b27bfcb27b
fc8343c14977275368038b31797d229c
fc8343f3603f3cdf895784c68e0eac7a
fc83447d2b07aab16290ed1c67c419a3
fc8344851ec2d23a051290241e2a6d4b
fc834538010787ca873b875929ffc43b
fc83463ee2fde78a84e1f0acb6597e4c
fc834700f6984b0c70c74f3b588ca31a
fc834754f0bd205978536a7da7a531f0
fc8348022c54e67369b45c2e80a52b9b
fc83484170770f9f4acd852ca60a59c4
fc83488f594a457558bb89c6d425e86d
fc8348924de95f50ab33d4342bd771ab
fc83499820b8e3fda0a59c012ae5dac0
fc8349bcb1d4e55471dea9429dc38b20
fc834a46ec723881eabd6dfb6da23ab6
fc834aee0a6e965117b232d3f7e9a318
fc834b457ac23548ed518c7274ff282e
fc834b522bd6fb8df6652d430fa493fa
fc834b7608b47e9d2ba85f23028ab0b2
fc834b82482217a4fe1c54f3d6ddeba2
fc834bc5e01d5d29ddf6419d786df48e
fc834c1fb9506e24d60b01247b9c83e3
fc834c39d5ac7908d29a620fb86c540b
fc834e009686edb37c7fcec09ac0ea5a
fc834eb438a12fbf1c43149701fda5d1
fc834f3e224b74cd6bfe9b7a9e1b8b10
fc834f6e3a0a5fd5734917064a061ccd
fc834fa2d43e9696ca8523a48b8d0b1d
fc835107f27f0f76000d2e27d8cb048c
fc8351b6bc0143eac282f2e50c166cb2
fc8351dc384825804e0d1faf5e56b502
fc835319527d6371d4af39907e18abe5
fc8354eab701cbf8161f57bebf7eeda9
fc83559bc31b5c69fb819c87945a2a5b
fc835644f5e0aeba619bd831899bb263
fc8357cab37aa209eaed7b6bbf99e141
fc835a16100f1ebc61bf6521e027ff19
fc835b5ae3e58a5d45dcdbcb900f1eab
fc835bc781c797d2b1590ed363a72613
fc835cbdf3ced053495a398b4aed5af2
fc835d9836f347b3e21bc932d0162a24
fc835df5dbf43b31df3430b56cd72a07
fc835f93440ed30c92fee092fd716678
fc8360038089ebda660fd27609893380
fc8360df332c01f067fe98e4d6a32998
fc83611ce87e97b75354a0f64e604b88
fc83612a1986eb4dc6aeac4778e35a58
fc83618d0fef4cfb6bc699413a63ab55
fc8361a83082eedf121a8f4045238915
fc8362097133b906bae383e01d73a743
fc836245f64b0ba4d2f219810255cebd
fc836331441c82aff0bcbf5cd7dce5f3
fc8363e51e18ec95785ee7c417f1d800
fc83640f90c814aa32ee6b00a7dbac00
fc8364398a595270fac8a5f216e60180
fc8364664b5b72f5dd840c66e2ff7750
fc8364d00705c72d393f5ef7d72a0438
fc836546dfcad8a9d9795d44208f6ba5
fc83683798fc640de07355534df5de49
fc83683af6a24bc9ccedccf3d0128e51
fc8368623a126a78e4a035e9fa7d7d30
fc836981e198abfc27d96a19034657a6
fc836b6fd60891761b18ab72a4143703
fc836c0a8ac1fd294416d04309c94af7
fc836c71af47485869087a717a10afba
fc836d569d3131217175f2696a41ef8e
fc836f827b7e3336f013ea68b9491ee0
fc836fd649e61507725eca617626b0ab
fc837052e30b5112fa9df93433f83bd4
fc83708dceed3d7c9bff58e87dfd94a2
fc83710a8a9f98eb600d14ba3460b8e2
fc83715914021d5a292300959e61ec60
fc83737b262768902cd5b2b958b84640
fc8373876be54298597216837649dc51
fc83739c6c1e95c0090977e9896a5e25
fc8373bb1e0efa5eb95627455b863a5c
fc8374142c37b92a601bb9fea24e4630
fc8374d7cc400aee9890eb1939ecfb2c
fc837597686684f78127085926357dbe
fc837649077af213c0cd3134aab7af93
fc8376c7b225dd55b986a0f2c061dac4
fc8377c6193cdb78def9ec1dc72b53fe
fc8377de98143a3ec1e66cdfb65a2954
fc837820710281c22cc02fd26dd20f7b
fc8378580d657de823e2ffe943a6640e
fc8378b64b1ddf5fd4f0d5c3c2720530
fc8379f20c2b020b1d2766f33725aae8
fc837adae675bc054510fa4111c0eb94
fc837b284ca5408031045ea1cffe3dfd
fc837b671383454b18bf6e014d83162d
fc837c70cb34459117185ce9cfd3535b
fc837d94f955b9545a253479846ec91d
fc837f03f54f1bde6583e9d9af4c30d8
fc8380a5a9cf9d0c7fd81c03d9222bf1
fc838115fc568b5a343af0cb18f5fb50
fc83813f3659b7010656033ee4da47d2
fc8381dc888a9a55307fdc9834bc0099
fc838244efe882389561756961e88541
fc838250461738e9bd594171694101bc
fc838298df65a088921b0765009cb68d
fc8382da36e2c4bc4a0698c2b0a44c92
fc8383759c97cc033d13b7b741cf1427
fc83849d96834faee4a567dde6f2e201
fc83865fcc9f4ffa4af435f5f2c91a23
fc8386cd01f94e912f6950598fc2b65d
fc8387b3cea9b47e16936fec6b418fd2
fc8387e56069e4706dcd30b33011aa5e
fc8387faebeb4a8fa490b9d502ea5680
fc83881711673002c527db664f349afb
fc83885ccc93a56af9006f1d293d59d6
fc8388a7caa31fb89217fd51dfd027ab
fc8388bd970213126799becc2d3ff45a
fc838921b3e83f5212712d85818db084
fc8389634a7918e97cda7107b5da7329
fc838a2844b69edc9a00167af53b8f60
fc838affc97d28863055a250ecf77b57
fc838b0d6640c577733a8ff18f95901d
fc838c44dce6e7370215aa6b98e9f92b
fc838d4fb758646cfe228f9c1bdfa4ad
fc838dc2596ee9fde9400d93139d0755
fc838e0cdb1f3420edc1f186909de21d
fc838ecc83048dc369c552101b87705c
fc838f34d69e312f10d82736cc5f5a83
fc83900c7b8ca7634fccc045920c592e
fc839192d41ec3bec986640970e1521f
fc839400407e23245aadb9774a0f6309
fc83941e17cea4b197a52ca08c6a9b12
fc8396406ecce92ada426408e444fd4f
fc83967eb0ffdb61ea68e763580def66
fc8396d5fc8b4fe96ebefb1cc287f57a
fc83975132d677cbc1d25e665111510b
fc8399faf2fc51addd84b60ff6a5a9c1
fc839a18eefe0f95dbe1299525f5720c
fc839a4943c6c8d1b842992833f21fe0
fc839c64adcb87dcc5f559dccf6e37b2
fc839c8bb06a3bdc98dc8d3a714f9d48
fc839cad12d3bed4c7e7280e6c1a183c
fc839cdd325bf49fbb819ea8f2de1bb3
fc839d6d29a6cb3c9530d9d542698f1d
fc839e8fd4e11c46b3a75ad19fd13f77
fc839f1d742795725b692c2e37f6df4e
fc839f22fddb2535602ead7a0c6b6d31
fc839fc37665e83bdb4ba508c63591d3
fc83a015dd9e8a7e9e516a3a1f8bd46e
fc83a0c227fb2bd12ceef6f5672e97c4
fc83a1437efe4125008ffcb84941e796
fc83a16f664719f528c712ab2883d9ec
fc83a1dadfe2c1a658eb4c65f162aca6
fc83a31771764648fcdb94f25e99e639
fc83a39dc0b4a1844e199773a73daf3c
fc83a40d6e052a5bcb290aef969dc8d4
fc83a47ca4fce0b30c823f9220ce75ee
fc83a5cf096455df6da058e2c7ccfaf6
fc83a5fccdbcebae6d3225d576dbdbf5
fc83a63fb85c768dbaeab6438b239406
fc83a6a622c7bcd9debf0a04fbcca420
fc83a6f46a71a119bc01dba203841a39
fc83a70fd77e4b408eb2912b27447fe3
fc83a87781cc10200cc5202356716444
fc83aa2cad9b3b2d3b94c940893ac9f7
fc83ab65836a28f255077f53b4ae6dad
fc83abb8b22031e7e4bcb39d593f2ddb
fc83ac4442fa422c11be7d968125e598
fc83acb1cd9394323fd39f3aacc77de0
fc83acc3e4744e6df0b9522de59441e6
fc83acdc46db51ee385018b547cfb1c7
fc83af13bedb41db47d45ab3f493a479
fc83b0e780df6d36c4350b080d2ab77f
fc83b46b152a680a909da0c681aed739
fc83b4c15d19324ec14c1fa92c3df905
fc83b52e9fb0b52b15394f69fb6d0c17
fc83b72015ce7d7a9ec29ea0f1af00bb
fc83b80f1b0af4610fde7dfb810a2a98
fc83b93de468e18945a12ec1ef05924b
fc83b9c8c832c0ac2e00b70035977ab1
fc83bac7d201db7eacb8085e85a73b11
fc83bacbb91a580a24651ead0c538c87
fc83bb5c59ad3970b061e396068caa44
fc83bb77a0114ff2e6e84ba37e17b2a3
fc83bb8ac96619550c1e185b6d974b81
fc83bc5a9f8fd44e08e83a6ddebe895a
fc83bd0cf0bef4acbac127b046d58e02
fc83bdfd13b406ab14125ef1b03c7de8
fc83beb07c1d995083dd3623d4b3c12f
fc83bf215988809e8b74a95aaebc10d7
fc83bfb3aae8689becf554a3b6be63eb
fc83c023bc0cb42ece7c0fe3da045640
fc83c02ebf9cfb0f4119cebe2703fb16
fc83c099a77a3f5477df7c3845a0d942
fc83c105110659f6df5d609ef05f62de
fc83c19df642da7c2f65b15b6b958783
fc83c2a61aa9f25c6ebc733abef1704e
fc83c2daa4930ebe0ae2f752ee9fd6f4
fc83c37847f18d6e89d21421b38310fc
fc83c592eb1761edeff90d731a373c30
fc83c5af370aee3b96deeaffbcada116
fc83c62c52e6dfd127f8124c749d6ea1
fc83c6d53a7d11f98b1ad512ac2f6eb9
fc83c6e627d68ff20461428a9c265537
fc83c6f6cb1a41f9d12679a9a69411f7
fc83c8711c803625ab6ddeadf443910c
fc83c8f8b61867727a50afd604fd3335
fc83c969b09bd9208b74f1355903c7d2
fc83c9a6926df6998ce6446c74499878
fc83c9cf137a87e382186fb3f0b6bce0
fc83cad14651680f5ca32504b1c4d792
fc83cb3bf8e58227f962649f39d0e196
fc83cb4bcdb283a29bd5eb77396319e6
fc83cc0712acfee8b8829a8b601716a9
fc83cd2bf1f8bc890be698355d5914e3
fc83cda9a1a48264b8d164e27c17ea25
fc83cdaf6524686695ad71659a061d1f
fc83cdb3016c756f32216241bd554b44
fc83ce359b95e793d2238bca4b5be405
fc83ce8bfcef20594a28937891448199
fc83cfb4a5f50e36d38b2b12c6ffcede
fc83cfb7a451e7873e660d40e43d9fbb
fc83d0fa1e466e8f0884aaca57cb2088
fc83d174e62fa01d84ccb15bcdce95ad
fc83d18cd4b6424690d03e976867b594
fc83d24b86d8236f9753e7d4182e12bc
fc83d304941306d89547c0e9cd016a3f
fc83d3e4c24a6a6bb91f4182dba4e6db
fc83d4b60944b9dadae5eda5cbc9b7f7
fc83d5145e3249ab3b6b805dfb1a0cbd
fc83d5bd3ae64609dad03694de96ad2a
fc83d5f75faff996f6b115062085c69c
fc83d6c3b449061f89825addf14fc00c
fc83d7ab5caa63d57869ac650362cd00
fc83d7e4bca2d7fb5aa60f09ad30e701
fc83d830ed42a8d952624240efb85313
fc83d83c5f5275592bb3a069f343ea18
fc83d86ac34ae2268f4d3fc1facd0f68
fc83da39844a7ebb69a756147e4f2029
fc83daab13da564f9f5dae4cbed7ea98
fc83dd718925c94241826597621eba55
fc83ddad9c8739d669a6a0891c08bd2b
fc83ddd48dd3b2c1f9c018d297b1b66d
fc83de8df33e6f87bd506636a55db3e3
fc83de98ad995f0acbf175d0fbf28d20
fc83deaf264fa1a8f4094d22fbba36e4
fc83df1804533f39b73b68eee74ee870
fc83e0be50488bf6c1c4719eee852b41
fc83e14164bee2aa1433ed0324b1a622
fc83e1f7c7de03b2b2479a143f2031a6
fc83e23319bd440385f73221311cd3ca
fc83e36eddf62c7fec356d7b113fba9e
fc83e3c7ce3de3f331048cd5abac0d8b
fc83e4968540523c56b1163b8c9c9f16
fc83e498ed51b4ec01a00d73b9dfcccc
fc83e507336f4f42f7ef71b55e5565dd
fc83e5a36e8810f51fa17fc5a5653c66
fc83e610b97395da9a9dc0d355a799cf
fc83e6e998234a924f51452d29bb0af1
fc83e72c1d87b9ad4fd378179625423c
fc83e7a9957fb6c21eea9bbef90796b7
fc83e868a86043e3e0f38e2ec1c31f97
fc83e934ba1f5c1b724d94b6a5e5da3d
fc83e9c76d44144048acc13f6bab5015
fc83ea01ca1bf4b0cb1211c321890a70
fc83ea02ebf5f038addcd60cfcae6e77
fc83eb09a7b42bde5edeb3467e9e3600
fc83eb6fb4ef8ae09cc75567477545d0
fc83ebdc095303f6472cea202a9946d3
fc83ecc2033e3a544adbcf9da0bf2f5c
fc83ed57a4c836ebfe18990894e52347
fc83edcf370caeee32bfa3c214cc3d7f
fc83ee4a80ddfcd627f6f4d7e8a09336
fc83ee7f307345ebe677948f6c49604e
fc83ef60be60c2bb57f19890b218a1fe
fc83ef7b6281d6878b9e7b1ec2e11420
fc83ef7d245cba6aa097b9d89dfc2fdb
fc83eff234c9bceedfb56dd8c2fb776d
fc83eff7cb97d282a0819f8b0f75fa03
fc83f07167f8d82bf44fcc78d78f1109
fc83f1c6c4ee12a91b8b03cb4f075fa8
fc83f2180ffb624f417cd8190ba3d722
fc83f24769558528e63c5d6c98e0c9ec
fc83f2fafc2944a14823a1b92cdf7d9e
fc83f32beab0a2b9047ecbeb0b6c79d1
fc83f447f98ec950fc1cded0ff90a19f
fc83f4aaa5e25a3dfcc0df1b7163d3ae
fc83f510a30c299a4e82d262d9260860
fc83f51c9332e0a5b3ce9e695da70866
fc83f53536fec1ca2555f0b8bf047b39
fc83f540c876dd357093f211629a1b8f
fc83f5d979edeac3a9e55e9a0b96c612
fc83f67651ca58c0beffaeb360c38c14
fc83f7dd0ca4faf4b126f55c50913bf0
fc83f8581887effff13df24b0074da1a
fc83f8c8fb4b5f88341a941272ec0b76
fc83fa69ac2101dbce9723634bb58483
fc83fb2e4eb9fd3068d5ac9f2888afd8
fc83fc3b1859c720eff5842b76d8d710
fc83fce4757980ac27ef65172d189a0f
fc83fd032a9892a128ce36e3a6978118
fc83fd9176fc2db578f4a310d0bd0044
fc83fdf768d3986d87b34b5f830f2142
fc83fe2e7b7edad1b4059aa2f481ff9b
fc83fed157d663fe25d04cbb5219a6b0
fc83fef343aabdcc4dc0b22fd3acb688
fc83ff39300a2354816aa1066dd8bf73
fc83ffbe335553c0a204648cdc58eaad
fc8400683ab28e69e17bd70e2bdf89e7
fc8401f6d4ae863f571197e93ec1d748
fc8402476fdc178430171079a10101d2
fc8402656facb5a0a6f7601651e4b348
fc8402e22d5391ca27ee557102750100
fc84037730c9927ab153d7b3680eb270
fc840396624121a3f582f85eb357bb50
fc8403b03a8dbfe4511fa4b071eb399e
fc840483ac53b13844bca47e24740574
fc84048d9fb0c4c8d950cae69c72b580
fc8404d68d1414fee4cce222e6c84987
fc8405dfab0b546923bcfe7b88634065
fc8406ef52375b51aa7010855b0112fa
fc84073392809f0db185710521e8efe0
fc84077b8c0133536aef7da5d77eb762
fc840902968021fdc13281f010127a96
fc8409d9a60b7996d95fbef22074f82f
fc840a29858915626c27d4db71d5b305
fc840accc899323f4f5b74aaa368174c
fc840aef82242f329ed8c50f37a210ec
fc840b7cd80969e3ddcc25a7ece5cd13
fc840bd24b22ba2cd39a2a55216a02f8
fc840be51d4258dca39d01808f84433a
fc840dd6129c0ce9222c894b1c437a93
fc840f67e8aca0b2c4b80f084b53e130
fc84102ad8a37f8b52a5ec96e96e4f2a
fc84105225ecc5efb52b5b441673f3cf
fc84108fb21063c8423d57e96f4afaf0
fc84116087283c84897dd6569b4bc27a
fc84117a912ef6c5f624c67a0896f632
fc8412bdb0dc5c5c1d3ba4b0c3099ffd
fc8412ee085927d4cd188cf554a7810a
fc84133e1157ef0df4f40ec09887e2ef
fc841403e25658845238810db3060390
fc841432ac2ba6d02bef32cc8e69b8c6
fc84143de62d8912d6f088d6fd636f3f
fc84152863e8ba6dc1c50bcf89c7dd79
fc8418ee6691ab05ca90bea25f3dbfe6
fc84190973e236c6887369e829c72120
fc841929f201563c657b8728994aec59
fc841a278c7b41fc8e58c69672d84ef3
fc841a880fdb4c3fb45d7d9f8651fa4c
fc841bcda7e7ab35cfc9d92a8a4b7ad2
fc841cdaef02bcf62c258b9faf66d67c
fc841cdc6d09e3638e40b9c32b7d0cec
fc841cf06683a95ba91ded5a538cdc2f
fc841d2c5b6763006db623b61b1afaa8
fc841dfeb146ad27c60ac38f76e51e3a
fc841e91f15ed42543c567777ecdabaf
fc841f2b4e55cd488769b915c6f76fbf
fc841fd4daaa0f476ac8337dd5fefa83
fc842032577309bbed83416638ad0478
fc8420b5e3884c2889dbc4c03ead4b4c
fc842239d4e0ca1b78bae5a947171475
fc84228602412327f7b7c1b077bbd458
fc842357c54657948dce3f68466ed9d8
fc8423baa7007be53de82017b5141b00
fc84250ad576e339b0ba7eea9d097e82
fc8425af80a93e2eb54ab13b452f80e5
fc8425d5d2eb836f578e28d5e28ebc25
fc8425e48cf64df4fb4a6132e614868a
fc8426a260ad1e041f3082b2ca6fafb4
fc8426c7ca007f27861537df052731a1
fc8426ec98f0d739002a837d4763d7e3
fc842759dcf21e051cf9919cec0d2acf
fc84285233714312b68c921368e91a2e
fc8428a4e2663a5c879d6703862bd3f1
fc8428e406fadf609286337f79ff5dc0
fc8428f9789c2f2b0bd4ab9b94744905
fc842924e0f24107d5d588752b18544f
fc842a6b9a5331792e21ac7b53c36967
fc842ac02f68a01556e91a1b3d0b9522
fc842aeb27eaa97b5a8a9e7275a49b9a
fc842bf7c1c131a5ad9841d78accea18
fc842d205bf6754a8342ed23ce3ea1de
fc842d244c17f43a742e48a212628426
fc842d2a5abd8e9a00884728a00e53b2
fc842dee662ded85801e6b18bbc06522
fc842e3d452bc434da695564416083f8
fc842ef76e66b42b89fd97bc79d5ef39
fc842f0b88457333893850dc37e85847
fc842f665e62b40a04a91d7b19813896
fc842f882b6400628b512bb0c7936f0e
fc842fd3d0d7f15e749dbf75bc4fb4ff
fc84305f3a3caea26e65176c4a6fc543
fc84309de9fb4f0210b8a0c17a16e079
fc8431083aa7aa48f72852800a2b6ea9
fc84312d7cc3db513b9da01473144a32
fc843138b1e3dab16888dfd175afa0cb
fc84323e326052c91ffb366fcbb66cd5
fc8433fdc2a17ee6fa8bbde971a5fad0
fc8434ec0443911bf31535ecbf6c1ce0
fc843518d8fc560eb8a9219dec64f3d2
fc8435428a39d152204f9f8cfdff781f
fc8436f6e0b43464f2d3985b4bb332cc
fc84377017b7dbada95e983809df4741
fc8437e5403e7294d3454d7c12ae4556
fc843920fe3eaa66087863cfae3ff2c9
fc8439d3452855f47b639213620cd450
fc8439ed4b17af0aaffe98a522dc56f9
fc843b01fa90af4524e4fbfeb7901bea
fc843c7d75fcc2cdc2a32e4c80daea98
fc843ca5d4340728935104c83529efff
fc843de1bedca7a4bbf58ba11c3c3ad2
fc843e6b8b35ccb7b26705092d8d6fb4
fc843e9cb89fb82d2408a7761b663ae0
fc844037b150f2ca4527851beab429a8
fc84404e8a5283df6ee47d53b76bd574
fc844118e34e3c5d369d9c479900a56d
fc844188129421c66a2b17a60ff5b0d0
fc84440fbef90a61ba331651966873ba
fc8444381833f1888e426bfd37ea1b5e
fc84444984b632923b6373e412350965
fc84445c5367ad558467102570a9d9a5
fc844549d53ee5533ef8e6a9fba81ee0
fc8445781085b71fd9978afdbfd23cdc
fc8445b85545bbf962bba30a743a10f9
fc8446b031701b5103f10a30f6d2c5c9
fc8448d318a5f15d1bbc690880ad6730
fc844905468788c0138d6b9f1e9bf1a9
fc84490b7a3c7c642b732d216900cb3d
fc84496ae401f828d292f8b96f853b1e
fc84498393f23f761ba8583743d9ed5c
fc8449894cf3f0811c717e290e5eded5
fc844a0e721d85dfc9697f26a3493a35
fc844b91482d9f57e9c28a160291f8fd
fc844baefa93690f23576675bc3e38a4
fc844bf33a3374524a0ce79d13bf83f0
fc844c6d6e6b0268d32ad968cf6b49dd
fc844c757b5f53903658b47e1e0daf77
fc844e4ec6513aa551c446cb1d48109d
fc845003735207496db1d9d994f4a090
fc8450435aaf59fdaaed76009f6a4907
fc8450c272d3d2b1d8d1b6fb2c7dc787
fc8451082586802b356cc5f2068cbb81
fc84528aba9bb87ddb56d3469f021a93
fc84528c26b501074dd79c077882265e
fc8453146084a1d374b148db236d3a70
fc8454c997aa6053567bebb73ed1ed30
fc84557817ab79b332614048a65f465d
fc8457305c059c7ef986e58669a6ddea
fc845736f5548a1649bd829e0b06c7a0
fc8457c7e6462ea50a184db0a3256fe1
fc84581563914d89b8881162d97e6dca
fc8458ebacc87cfb55622c7dc1543ee6
fc8458fa10eecd8259be9f19ce020e81
fc8458fb764df8cab52685fe5eeecf90
fc8459184d2d5b80cb4d0915d2bfe0a1
fc845b13ac93f758f586c2260fea6bd0
fc845bad69724cab06a3f1d3d8fb1ffd
fc845ca87121af2720ecbc1045e54c67
fc845cf0cf9ddebba59d65d80f4c0f0d
fc845d0f6426945fcf18544554276ce0
fc845d33a3283f48b3cdaa02a1c648a3
fc845d48dba2507232c229cfcbe61933
fc845d946893768503350a92a0b16cee
fc845db0ececc74eaff80df2820e0881
fc845e2cf52779ec8a7c2a6493a6b5fd
fc84603dcebf7f0d2eb056b9d45b27d7
fc84616d221f88a38f8a8a55735cc26b
fc8462de2d8ea2ebc22c025cd56b1a41
fc8464f01463f0e593f702dda3110b60
fc84662cc9a469be7ebcc9093f29f74e
fc8466be4c75aceb936c45eff06e7ff1
fc8468cd09c16f4c85393d9e80316a4b
fc846909100e60c01856e2c0ce823a39
fc8469835d767a53b37ca685b2e6bfb2
fc846b36db9cc1a7fd4f1c8f397916c8
fc846b5b5aee4ece7bccc50cc57db815
fc846c52f94ff16aed8aacdb38ec6110
fc846dfff959af0d59e83ff7a8fe4565
fc846e2d91e1ba167fe5dc651b953ef1
fc846e42c9e4a0cb522a2c0be6ffa63c
fc846e74707c52151c3480420f27de50
fc846f286c9177661684ef15c94372bb
fc8470071bbf0d11f916c90b8e8e8f40
fc84703117d437525dbecf25b06f8cc9
fc8470a203d9633ccc98792aa79816ad
fc847131cb9f34bc56eb7fef087638c8
fc8471866fbac755cf88959dd5fde74e
fc8472165ebd485594e541af54d48d0e
fc847284c385be697d04f755d0db164a
fc84734034d1edb1ef1e5a5328c8b9e8
fc84735093f3f2c9460aacafe0c3216e
fc8474310a2aa0ba3eaef4de3e4d3110
fc8474b06d5ac6b306d1ec0c5f5ae793
fc84758ca7a2c755d6ea62ce1ac5ddd5
fc84761f701f10ca02b7122bdb87588c
fc8476325c51ac045b31eb4681fea0ec
fc84768c0d6c922463c04d451750ab34
fc847874968bca00a8acae7e7c471327
fc847899c827c4e435bee28b8a7e243f
fc84794f35310e413c7d06f9605443e4
fc847a1c7b4c0725c4574605e79f7295
fc847a4d673ff05331c5e32fa2980875
fc847ac9c9b27d0c072a64657cf303f1
fc847addd46fad094776dae1a40b2163
fc847b6c842d5b28f4e80d8739fc5a1d
fc847bf45c4d058152ee775b9dd98acb
fc847caf1a382e31032916b11727f615
fc847d8e0d3e8cfbab3e476d58c04840
fc847db6d0bd1e6a5eec4251a4c04cda
fc847fb9194ab47ce307c3433a12ba05
fc847fc850b22260a1e7569e945f04ed
fc848026af00490ad2d84a656cf66678
fc84804faee9fb8bb20db1268ba82ef4
fc8480691d98de9273b5b317ed76dbcf
fc8480764bb22ac5f4ea9f5f792f7960
fc8480cfaf5019c90f71d3207c11c205
fc84824215a37b74317a4b06bde3de5e
fc8482e6f22781f959bea12e3318dae5
fc8483ed6ade0bbe7a47f5326c9b4c74
fc848456f5ba17f3d03328e3bd3034b7
fc84847fd5887a170a0ddc2f9afd15d0
fc84859414342a2eece3593d75e9e350
fc8485b59fb19b4a0bfcefbb8eca9759
fc8485eeb6adb917cbac82bc99b3ed50
fc84863e159d657a0e729d85b05257a9
fc8486581875b1011baaed1dd4b98841
fc8486bef74e67fc0fb0d605f48b85d5
fc8486cca6bfa471a15379501435bcaf
fc8486e38adda5a87a45ee021761f26e
fc84880130a6809c9ca95d5c636b9f40
fc848836af83b36878f21da151d94153
fc84886a6e251a92f483e7f9ff08ec07
fc84888a97245add58df775083096b94
fc8488f134ba80fa51794aa962b11455
fc848927426b5fd15868337710da39b6
fc84895c059f70ddc4e6757fde36f7eb
fc8489a430da95b11d35185aecf787b6
fc848bc9657e34f81c733a9105619977
fc848bedbc26a164642d1c2d14391af6
fc848d321602d0cf61d8198ec71adad1
fc848e439a74055a52782cf3b159c700
fc848e754653561f82449e855e0be139
fc848e887403b2fcd3c4c708a0350c50
fc848f0651140d971617964ca2f46359
fc848ff38113d2999202a5ed2589bd24
fc849020fb75f591ea7f60a4a135b324
fc8490564a0c67b002e4b31e712ba5b4
fc849071da838d0e12892d4b736f5579
fc849113355139d3c314d693a7b1a1f1
fc849377eca1cbde3b92caef5c4d1723
fc84937ab233992909a6b94548071b2c
fc84938f1c460a954e8f0c40149bd3a4
fc8493d2a1daa8f3cd8c25a06845c83c
fc849442b480f34e0360dd120f65d39b
fc84948a30c417df5eba6c431c1d39b8
fc8494f009e5aa0191670d3febce72e0
fc8495751ea3edc74bce22a3a4012cba
fc84967a0f16867881cd3a55b9baef2a
fc8496cfba603918299f50dc00e4f38c
fc8496d55bb9324c6b3355d0db7af711
fc8497aa6eb8730fdd54314e8385e222
fc8498863f120367a9eeac363f7ec2c1
fc8498d7cbe46ced7d5bc1a7100e3050
fc84996b0c81593edf072ce4b4011df9
fc8499e2d5d9ffcc58cee6e081e3d1e9
fc849b8b8b9ab064c7c70197d3301d79
fc849b920f34b27430d937a24345f472
fc849bfa847858f001c96024ad87a527
fc849d642193edbf7728d66a1bad56b4
fc849dbcdc14bce3486cd6122048705e
fc849e646405e98ca570a2ad4fb34e44
fc849f117d748081da23d06a6eee815e
fc849fbe0557d02ac03cfad8ccdef67a
fc849fd368395b5ae8a956fc7e8743f4
fc84a08ac8a429c902fa779d97eeb06e
fc84a0bc089247adf89b828b4b91f43d
fc84a11784bd4e57f4a77fba8831b3b6
fc84a217aeed7d4455adb2003bc5940e
fc84a2646f1d1f6bfb899d41620f7ed6
fc84a268560a703ddd9ecdbf419f83d3
fc84a28064c88a0d38879103e0a576d0
fc84a30a1557671d9085865031557a98
fc84a3ed38fffd4514613dc5352728a0
fc84a49c3825bedded452dbb93e66c5d
fc84a4d6c654e473df28196c81ca751e
fc84a4e6359695a680848e6ef6d7ae03
fc84a5203b62a3f94b54b0517af7df67
fc84a5422e74f197a236ee3fd63ffc67
fc84a5fbaadea526409c18db5b2b634b
fc84a7e2cf756c2234b5c42d5a7a5911
fc84a8165761e629ffd4197325bfe419
fc84a8a6097ed167eaffcaa3a68d2e98
fc84a8b8ae934c9fb0848586d290a173
fc84a8ef4e230872c7a81990b0931a73
fc84a929c0d2de8e67f0c8464cda3a58
fc84a9d6d3300c863f3864046772f697
fc84aa1f148b3d7d78929e506e85c13b
fc84aae6eeb440ffbbdee045c1f963a0
fc84ab21beca71f34a2ecb413d72f8c0
fc84ab3ed3c405f544f83a050bb26dce
fc84ab74f07f3132c20cb28df0320954
fc84abb412e4cc1647fed507fa8b8b90
fc84ac57d06bc54ecc2f78208091bad6
fc84ac8d2ec79d96ffbdfc728e49ea13
fc84ad54ece5a74ec9721dabee154526
fc84adbc7b09b6a13476747fb8c2e875
fc84aea8dbd8ba3c73aa60a336803088
fc84afa8ae4bded5809f7a124984d8a0
fc84afc251afd2511def7a3e5b6061ab
fc84afd440a1ca1aacb3989c46659c6e
fc84b07f825d8946aea154baed9282eb
fc84b0ff3a701c088ec47564a84a0888
fc84b19a1f5e1d2c76fd6261843738d1
fc84b1d54a6ac8e30a5646a3a3962354
fc84b229a7da05fbe4dfa2c2f05457fb
fc84b2a2bf6cb52374817f8c2d5d3c08
fc84b314f2bced32db9bac7c7941025e
fc84b473c5b2761794d0f8b53082f5b7
fc84b48d97254d46ea7e2b535fd28be4
fc84b5a6b1dd7114d396c1c3cedbc72c
fc84b78f3b45bba6b83e7f58f9b6256a
fc84b7b117b9c12a5fbe4f0bd443bd27
fc84b8ed32bb8d48da54c9e8af0f52a4
fc84b8f46a2cc4e65c9b45626ccce892
fc84b931d3f58a90818c9c8861034a1a
fc84b99a36802b8f1eccd2ef5ac061ba
fc84b9f62806a73ce3f3ff4e3304e5e9
fc84ba11a61c72e9f2a9c2376fbbab4c
fc84bafafad3bd52017dd4b347d8b417
fc84bbe50af34bb32bb3a2b9f52c7812
fc84bbf7ebfb21728fc983c68e45c577
fc84bd6bedc20d535db6fbbf2dfc6a67
fc84bda226b66344cd98cb135ffa4add
fc84bdb6c3f99c6f8b67455cdcbdb835
fc84beda148a362a8bb4402600a1350d
fc84bf4585e1a7aa9f562ca78fb6c4ed
fc84bf73eb814f2c7c8aec5f0221ed5a
fc84bfdc33c6867adcc7141b37ae33e1
fc84c112703b68de86e8d45ef4dc2503
fc84c18bd4f1e0ccd14e759ced1399a9
fc84c1bc3676cf98cdac4b8d14048f7c
fc84c1e53a9dff7e720f26fdc47bfcac
fc84c29177f5bea5c5dce49ea5de9a9b
fc84c311de279ed3868b57c6153bfce0
fc84c3123a8877e541c2fec8c9245f32
fc84c3ba77988cce310e29ffa4ce9bde
fc84c44145a706eb15ffed89eaa06ee0
fc84c4a6434864d51f99b8d7a2df689d
fc84c4d91a6e8705b9fc82bded17eb77
fc84c7682ccda0b8b534479f9407faa8
fc84c7be102e75613c7c4179c7bf6e02
fc84c8f079b0087ccecbbc3083103e89
fc84ca197dee95a4b97bfda4384306ef
fc84caa3b3ff0b337e2379222bbe42ec
fc84cb9e81c93cedb27c11efc62f0d80
fc84cc61c47d58dd154e79f9d15f3b52
fc84cc7c0ea5f3f31212c9e3d9c6c7c4
fc84ccbc6ca4a51682819bcafbb39c15
fc84ccc43c387b803a30ffa77137c8a6
fc84cf99dbbd33deeb5ccfad06b69964
fc84d08a4a87253ae1f2f8c2b0d9674c
fc84d0a7cdd2bb857a027aeb53424d37
fc84d1d1c42b512d4f36ff40096c141d
fc84d21e9b03149ad5069e83b6902a3b
fc84d23dd76243d9dbc134059ae18ad0
fc84d31b1ed578c8a106247634354dd3
fc84d3c933e7c0e738324e7369288092
fc84d3d17842ab6cc7cbcc639899749c
fc84d3ee8e0272d51eae5bdbe702df35
fc84d446fb95a6618cef9de784b9d595
fc84d4bc77fa69e3c771b7fbc69dcded
fc84d4f8df4cf43fb8c939be546ff666
fc84d530c18de03b9552fbe9c0ea09e3
fc84d618155d6460bc6f50e43637aecc
fc84d788e9e57c7c93006ff258b0545c
fc84d7a732e82a47ef8172599049d806
fc84d8f8b48168b393d68f6bef136b37
fc84d9ff10752c6e207bbc0c0d1aeb88
fc84da0dcc98f814a14c39db1a102da0
fc84da52d47e50efe81819f6918055d8
fc84dafc091d9227c196c4644a4e7012
fc84db4323e78d337347427e40352a0b
fc84dbe95347b65b370c48aac9d4f468
fc84dc754c0a4e7ec17f49e3d5f8ccdf
fc84dde9110ea79e62b7e9eea8a6608d
fc84de3c5fb3a16a1691c1f530588d47
fc84e039e3d04f83476da2654b6f96e4
fc84e082a36e84cb026794eeca1de873
fc84e16425eff56169276cf8db216d01
fc84e1799c5340515066b8b08fe35bf1
fc84e1ef7725d3861c677569439050f6
fc84e21e0b3e4e134afcb6107f983487
fc84e2b581bba3798dc039c2d9ffdd8c
fc84e53f7a6d67c4b294ba943c1641c1
fc84e541fd456e592d02591cd0e0f96b
fc84e6cd624b05d82bf91e3d317865a1
fc84e7324f16146f5d55ca40a7ddcb7d
fc84e73d8017ba6f6fe95cf5de9392b8
fc84e9931dde6f794c5bfd984441b5a8
fc84e9c7dff5e679b15052c80aae23fd
fc84ead810483127d8be7dc42e4704a0
fc84ebfe636025af94fd0a1f22ca83b0
fc84ec8accc2585e056522236e55ee62
fc84ecc9c373af487b4ce53c7c7ddfdc
fc84ed4d33383534fa7131b292b89689
fc84ed9fa72d511053c9c0d29b97894c
fc84ee294f5e9435ec5175ede56df004
fc84ee3e36b1d1b622e345c87ce10dfb
fc84ee87b2b9d499a2ce228ceb5db54a
fc84eea2faf6233211c0966b2e877ab5
fc84ef26c0606f8d12c5744c60f583c6
fc84ef7b5ad10a86db02ec85bf2cb6ae
fc84efdede8802a5b17429a5dc9a7ac2
fc84f056576a562eb181f9c03e0c887e
fc84f0f112a1ef9908a6f7f8e65bff85
fc84f15f4e7d34f91d0e73dde92afdf7
fc84f16fe8dc41dd2e294fe60f101f01
fc84f222f81ce5b6a8d121c9d1a2d9ea
fc84f2648384fb81fd36dab12495e32c
fc84f349ed6f7aa739a41f81f1d0afee
fc84f351b1351f7e855029a278050d35
fc84f3c1a3676cd5f6743d5fb8b9e04a
fc84f3d265aeaa89a04f044da6983378
fc84f50853b8910c1fb69cf4ebd140bc
fc84f5d2ae6e9b3c4cc4a6589626feac
fc84f69fad964dece45efe2eceef0bc0
fc84f848cda25f1bb15c035db2d700e9
fc84f8b0dab8b6aa50af3de5a37c3966
fc84f8c2f48571d73c275d754959b24a
fc84f94aa63662a6a4b7a00a08f37a45
fc84fa181cc20ec97250f603e2669421
fc84fa353ddce98d37e168a7f0ad59cb
fc84fa85177ca0f31dd69e7ba176f24e
fc84fb896a760aaef6d8303d1bbdfce2
fc84fc3746b4391b32a360830c773944
fc84fdfc894cc25f8b492ce2f9853c67
fc84ffcfdf324fdcab7d75e96f4e13a8
fc8501431d0d57a19011281ded533b3f
fc85052113aa1624107c23261192fa84
fc8505234582b7f1c9de8fef4b215d30
fc850606b2190955a2dcd3d3ffab8dd0
fc85062ce152df657acaffb6a05df0d8
fc85063c5080e5a125b2cba82420d1df
fc85076d449b984da3c0216ed31aaebd
fc85086b281dde0b24db95cf10297559
fc8508eb37ea6b56e6a406e4d2a6f5db
fc8509603ae8acfaa13e4b7e65335ac5
fc850a1d4fd855d58888352f14ce62c7
fc850b329788acf8ba3ef99ed47732e6
fc850b399554670be6318502c47f06af
fc850b8e20898501d961727591c823e5
fc850d27a21d2df6e613fc7dd98765c8
fc850e8a398e6803a882a22a9bbbd414
fc850f7fcb56ce682370e7b45d85307c
fc850fce9b4e59e6aefd16a3393c3530
fc85102e1dab5a0e1e08bcb54c7751bb
fc851132f4701184987f0c0a1212439a
fc8511ac75272161fc71f281105fa4d0
fc85125931f1c798c56bb3a4c0eedaa5
fc85125e496b805eb688ce5c921e8d21
fc8513629276c4a7e7be5814de0ff1b6
fc851425a182448b10bfc8c50ecf6351
fc8515021bc5be9a17dd4c5fe37ce610
fc85152a470a2ccbf1a92ea25d1b8590
fc85158596c89e6c15eb05de931e8842
fc8515c111ed7b1cacc0bdce7bd4f3d7
fc851652eb640c8bec028018356e0e85
fc851722d1a8405355129c693dc4fb8b
fc85173990f5e4193b788db34930c14c
fc8517b61c92b405e8721e835717f694
fc851866a3e9999e1d93720426e50f25
fc8518f7d7c8316de6d194aafb68f456
fc851af5285d573e176d4d49bc53ed45
fc851b5133b05c67fa27f628a2e5475a
fc851b85a68ff356268c1167eab7adc4
fc851b8dd84f322bca57b5ade6ab8787
fc851c00ad0c0e95137b044625033101
fc851c4bbbe33ef1b055cdc7a04b6f65
fc851cf0ba5992673c134d79becb45e5
fc851cf3ce8e3c5ea4351ac1dd30eb96
fc851d263cdf67fd9f0c9b244b5fc1d0
fc851d2d5cc0c33e16c23d75c89c1f7f
fc851dc0a38781545c8164a3ce4d4fb8
fc851e1944b64dd5cbe4ecce3b8bd29d
fc851e3eb6aec1448c2cad1013bfe436
fc851e92f47cca3d4fc3c27cebfd093e
fc851eb6cbd91bf8cd54b2abbde38e15
fc851f9f1b06a90084f720fdc5e70b4e
fc8520a4a218efcac4c287a3a650acd8
fc8521175a284ba052f7713d976355b1
fc8522f8f78c2f1cb3c2881148cd5bb8
fc8523f78e63c637e361372101053164
fc852546a1aedfbbbfc1ba0fd04cef18
fc8526516343b16e644de0160700c250
fc8526cd411531caf334646237a79085
fc8526ef400ad794f0af866a153debb1
fc8526f2ebe9067b232689325978a968
fc8527702b6a03e74b31f95245561ee9
fc8528dde72c7ecc2234c13e572c2a92
fc8529dc2f42fed371c114804a4328a4
fc852b86db1eae68568df64e3613e00a
fc852bf9fa94dbfb5db0494bb25e0548
fc852c9d9de8f0c41f38b2fb671d18c1
fc852cc8b0f953dd5ae1a8d2cf365eb0
fc852da29c3abcf7a0273d74796e6218
fc852df2593b693ef6ba581066c6922f
fc852ee22cce4e183f0e825f8aa934bb
fc852f17e7c11e938174a263fa52ca5c
fc8532dbd2cb1cb0417f54e3ef1afbfe
fc8532e7acc8bf9651d1f80a4b8274b6
fc85343caae11db50f6b8d598d72b88a
fc85358d80ed5e196ee98fadcc1f7c10
fc85361457195ac892cceca495e19be6
fc8537ab62be792e594f662859152255
fc8537ce885eb8bbc343aeacd39aa7a4
fc8539c4d6ce06ecd69ab95dc678b16a
fc8539fed83be18007ce723f67febd44
fc853a22a3cccbc8979611d2d24ff568
fc853ba1591dbc53b646fdf22262197e
fc853d7169e6961f49dadf0ff6396c94
fc853d79d912660924204011bda906c0
fc853e8811b55c33c11027624c6b8555
fc853f7d54cb987b9bca947a28eede91
fc853fda525d7aa7e35419261f5d7ddd
fc85401d487329258ee36288cac0698e
fc8540fc80d0ec87f2090901104e62a0
fc85417289851f760c4e3a2531367680
fc85419e4c14af1d399d670943a9c023
fc8542d2cf9bca27190f356339728272
fc8543200ee27b9a6d68ae402167587a
fc8543d6d08d2c05b5b8a4e23be00400
fc85440edc08ed5e0e5e8da2f3d684ac
fc85449b841ca498603da2306e868621
fc8544ff666527f7fbaf6a962143c892
fc85454e6aff9d0c71252849bbf390cc
fc854588536adbd048f5fecbcf248c9a
fc8546a92e61748fd8e9be9e9925786c
fc8546bbb3bd31e4d517fe8ef6453e31
fc8547936384c5b565dfab7e78831529
fc8547bdf0860b652bfc67bda64fbb73
fc85480a34d4f18b76f2ae635c7fd5b0
fc85483b3d0e1fa2674369cefaf6aa8a
fc85485656397fcbd52e6dd4a558a5a1
fc8548aa3b6eb731b8c52ee634b4def1
fc8548fc942777a41d6d2ca171bdaa10
fc854ad4bb49ef35989a7339c7b4a88b
fc854ad77fe4cbb292af7fbe45be8709
fc854c8ca55adac7ddf4d5655a5e5670
fc854cfb87a2563f2f3feac963817bb6
fc854d1a38818c3a0d2cf2ebfa04c217
fc854d218c774ee102d92180459c6536
fc854d5ce3877d788f7c2da3e2f3585d
fc854dbe8f8b435e4e5de1d037fc2f1e
fc854f82978e2590ee6a55d96829bd71
fc8550004144d5f852bff3d204cc20e6
fc8550c9996b35ca6329dcd38156b4d9
fc85513661e32b3bd744e0a9dba8c590
fc8551e8abf989de6edd001f41698d7d
fc855218ae96de5bbae0d4f00d7c5ba9
fc855219e86f92942eebd70dee14a058
fc85523a7aba02d7a8cf0fba31707879
fc8552550ca0abc2932262e562b7aefa
fc8552bae8240d290fb622177741cd00
fc85530aaebd94eb43afb20d7bc465d6
fc85538922e8fde7621de2033bdd82f2
fc8554b6537aef555a6e2cac541e5067
fc85559ca315837c23d037895520537f
fc8555bc6621c40b714b873fd4c6231e
fc8555e852327f30c99c36d512ed09fa
fc8556f56fcd081f4c830939634d327a
fc8557ee378030b9d05dfa532789b85b
fc855a9c89bee81be0d26bbb2c8cca00
fc855ab279d8276f5535cb252fb40290
fc855b1ee22549fbe973cc55e8bbd1fb
fc855b510063ca47d51cefcf390d4560
fc855bdcc22628f224e852ef622b30c8
fc855c27c34374e9db8e1f057bf5a1e6
fc855c512751201b178f5cbebe125943
fc855df2177b4f36a0ad2ff3a816b408
fc855df29356f3bcf09b4473e3580f32
fc855dfd5e62983da9d54cb41b6a8dd0
fc855e66c6eb3996489c35da5366b53c
fc855ea211465ed5d127838ad2365c25
fc855f99161b10613cd6d932a073a287
fc855fd101e302b827687a45288e80d1
fc855fe27f22029812eea918c42346be
fc856001aa54e9c72afbe418314fdc99
fc8560c2b0485c416de8189274a0a465
fc856290d67d00626e9c2b3ee1e5e85d
fc85637cf17c22cee21ade2263f74adf
fc85637e87b88fff8e67886fc85ae7a3
fc85644a6cf7390620d1d442315f2cc0
fc85644ba4babe66bf80d37e7c0af6f0
fc8564933bed351dfb2fa6891a38d71e
fc8565586c88f318f9dde6e6fe6a2e49
fc8565f902d3190d689eb51166102c6d
fc85665283263f81e672230c0c83e2c4
fc85667ea0bf551ed7505f5545d705eb
fc8566cf961f723ad19df3c3c6200ed1
fc856808bf30389cc80e5b085d6cce7e
fc856824a709fa051c1a09dc36e3e992
fc85689c228a24b062aad10bab583d34
fc8569a7773f9cb690884f5af5d5bd6e
fc856a41c29a66810fe6b32c961bf5b4
fc856aab0d77abaa46978b3b9f9016d0
fc856b24548c784d1235322774ca9c73
fc856b5eecb75d20fb87f91bb35b3df0
fc856bb418125d54c7ab7f5e344877eb
fc856c65a21e0fe068f36a3521b13ad3
fc856ceaf469fd159b42a82abb1f5b1a
fc856deb979a187f3e8e16adab780573
fc856df1471f2c24ad69ed9501b75b52
fc856fc2a5a770b4c12345bf1c530ecd
fc85702b4a85c21a0378b372a36b8ea5
fc857280d2c92c046ad65d4e6dd0724d
fc8574153d8ea524dec98c8027ed972f
fc857415467c9d89be121c591eb52570
fc8574588c239253f8d3f63fcafb966e
fc8574e6db98de1728b7b7b8be6ea558
fc85754ee826cf02ae24f6db9ba1abf6
fc8576cbaaadeeef145f0a552d9d7d4b
fc85770c3578bbb980fdff1827a885f0
fc85779218fef11072a868de498e4725
fc8577e9ef09de999d292cc5a5568cc6
fc85797b27971684665d58f7081288d8
fc8579cfe6727ce05d0579932a8642e9
fc857a4b1a955ddaab756d43cb5f2fe8
fc857af289e5e8d7c9e8ccbe373f157d
fc857b38f49a631702b255219957088e
fc857b8040b3a39d57d740b2ec101ef0
fc857bb077bf663898f15e0fab8b5db5
fc857c271db074e004f97ddac6e6224a
fc857cc8d1f7ad2c8b59fbe4b1ebef40
fc857cdfefff6b338c13e7944e2c8025
fc857f195405b95292cba87d4d409fc3
fc857f588aa95e5db0d04ea5d93b4b87
fc857f5bdd101428b5a2d47cbd096be3
fc857fbd761db6c5f6ed4a239aa8cf40
fc8580077050cf49fa789840a367be06
fc85804305d4c44fe3cd9e650369cf8d
fc8581d56035b48d88560ca194b9c1dd
fc85828e3657d7822ea21f620be002e7
fc8582ebe4a5ecdcfe7ec37507939c5e
fc85833019d5d5a5cc91ffeb3b79bec5
fc85837f0d6e2430a0c5cac90efd2d5a
fc85837f7e9199d4f03e609862e798b0
fc8585a991fdbc823c3702de83a382ea
fc85861867bf210cd308be8899a5d335
fc8586338eca51b66527e8f042f723a5
fc858641552d84382d8ef51100c53712
fc858694b486453353b1857ad81f1bce
fc8586b9e24e741bd21b6f0e95b09042
fc8587d8e519a2e72d38b6a2fdb89208
fc8587e69f96b835ecaab4c1cf4e9d54
fc85886b99659aede5b253c31785189d
fc85886e385069e9d58e51433ab611d1
fc8589e4c9eb1164c46ad09b390f6f2c
fc858a0ad7b1398915f40e55889203aa
fc858a9d00e5680c8281e6218c1df981
fc858b2fb09276ca7ff211bb72bdec15
fc858bf4481cd3bbb41dca6c554f1063
fc858c270358b224d38cab75ec3ab67b
fc858c8e6c2f7679167448b56b68eff5
fc858cab94c14043b14ddf90a7159d47
fc858dd9ecf8504a4e3ef813952ef87c
fc858debfbf33eff6e1ef920fa50697d
fc858e0c38de5a135ec570ecbfff0b23
fc858e40d05394668e04973e9fe2a6fd
fc858e6da190ee9ffd9112616d62d96c
fc858e6f53a122a7842b4d53aa2fafa5
fc858fb545e4c823ced10045419b1589
fc859022ea7ceac7402b7381c7255123
fc8590c8464bf1bba22b042573413e88
fc85913860640266b2c2a0dc083bf92d
fc85915296248f28c7cc7e7d6cc2f447
fc8591facefe632eb126292e58bf83f2
fc85936efb405923c0a8c70da6b53e20
fc85937d723d922a99f5e8e6738876c2
fc859393d6f220a66e71f1adfd4bf05c
fc859469fef36529205cfdbb83324b8c
fc8594a0987a9cd861b008944fa10bb0
fc859568a0e9eed9ab40740371df3030
fc85959d8900327caf4b6f102a1f9fcc
fc8595aca3cc4ec88d34b1e8cb6402da
fc8595eeb2cab1770705b19d572aa90a
fc8597afd05d1b56365b9033db1ab712
fc8597bac1843a39c6b2bb5a8bfb3010
fc8598b6de48a07c784c89ad6c38eef4
fc859a90e95ac4b8fff9b915422c5064
fc859b1601f17de466d35baf771738c4
fc859c059aa48406ce98fe862d79f280
fc859c2fbce498a2398e3a8a26d475e1
fc859c41687577fb14dd973a63a83f1b
fc859c6bc9f020859911e954767a0663
fc859c7652665875dff2ec31c3201f2a
fc859db9e60df4c2853506382ccf58f0
fc859dfcf64ef96647225eec7ff635be
fc859e6c56d725d9624c2030a636e67e
fc859fdf71e208768a6a9a25f0a7ed65
fc85a1c2510aaffd67695d32a6ef8ec2
fc85a1cf08481b42cdac26b6f778d7ec
fc85a2b3fbd2fd9feaf43d1c9f67a018
fc85a2cea9e8f3c5596f1b98b46a87f9
fc85a34a40d33240773e792d03a86a16
fc85a397960e883daae6fbacc0ad8ac4
fc85a42a493373270ea4ab8e6f8dc2d8
fc85a46b861e781ab612a487274f0c53
fc85a4db499df00df22167040955b65c
fc85a4ee7385118ac12c69be94fb7da4
fc85a5b791c361cf430b76f68b39d3df
fc85a5eee609327488ad12e376e0db3a
fc85a61b3b46bd5c71e322414e0c505f
fc85a7b866c7c1af037068e73c09e1fe
fc85a86d43967390589881e3544139be
fc85aa0582d2337454e72109fe37e10a
fc85aab64c697c8fbc8575eb8eb42d30
fc85aad4c6fc352a8a0b81fd6e9634c4
fc85ac3ef3a0ff8cf1533da0ad9eccd0
fc85ac8d1fec11d43984a6ad0ac20831
fc85ad0d834401af3b353a6437bc8514
fc85aed1fb3b48ac7cf5b47476cf1c68
fc85af1da10b8e7ab79b38b9e407a924
fc85af204ca16aab8c487e14c74fd72f
fc85b0090aa94d62cfdda7c488b001ec
fc85b01c5864fd05539c8fd329f7e784
fc85b0743a5b77805f24a95ae5f85db0
fc85b23619ae3e4721ad426f88def9d6
fc85b2f182675c6c7a909603994a84cb
fc85b4172ddcbc05d2309a449d4e374c
fc85b4cafe10402886513c613f6ad44b
fc85b54cbc00b64813af6c2d175d87e5
fc85b579e838e0094941302146a4bd05
fc85b6f10b86137df4f0003d7003e06a
fc85b6f754e0757d341dbe4e0b024600
fc85b74d166cc8f00137e3eb0e978040
fc85b8d03133884f2de7811d1b434a9f
fc85b94b25f6db62b5a00166f17272f0
fc85b975c3bf8bb1f06879568c448dd6
fc85ba09d1dc3157086bd278b6b470f8
fc85ba9812bc7dabbb0b41dd58fc5662
fc85bb7c6a9fdd22d02e19c909c9e0dc
fc85bc49813fd470f8e08e8eae38ed20
fc85bd69bef20437d73e340ed6bb7702
fc85bdaae93ed805f22142734d373ce0
fc85bdb43b40fc5d5717e71926593488
fc85bdb81d57af062f3b44ec6adf7290
fc85c02f1d512b4631011bcae0ef65b2
fc85c06eb0ca6caac8eed38d4c23a76b
fc85c13bafa9ccc0f368e2253f63fd46
fc85c15e6d9be24ab8e0586af48ce8ad
fc85c1f50ad270652819bf7c12d1c00b
fc85c32e671e272277dc7c7083033307
fc85c5633a283bc055d80761c89f28b4
fc85c5fd3a1fbd93aa4760ab72c68bfc
fc85c64b59b2f7b9ed1098711884ff99
fc85c713f891f4bb5cb7af00b099b304
fc85c7e5e90bd64bccd6b329cd0b0ec9
fc85c7f371c8078fbb9a88aa89226949
fc85c86e7071e8442af500f3c879d8b5
fc85c87bcddf109a9d184484f2cb1dc6
fc85c895713a1e846d7ed53eab9e7d6f
fc85c8ea1e9ea13e93d96e7c235f574f
fc85cb05a22cd3c35f59f0208923af70
fc85cb9a98dbb6fc320f72ad3cbfbc30
fc85cba302cdf60788af5ec3e5b8e01f
fc85cbc4f2b83f1798c85de4eca30eee
fc85cc788b2ffc0e357c4c9770211423
fc85cd67663642e02154a4d74aedf991
fc85cf48841b08b79c3920a9cce48629
fc85cf86768de470e83298f10de020e3
fc85cfb9930dce0de805699de3244deb
fc85d0bcaa01a6de62c3b7c284206ae7
fc85d2035f9e77fb404384be20fdf6b9
fc85d220de8caceaaa6f468de4d24b03
fc85d2523098d9a04648148edd7b1a04
fc85d2e8747fdaa0d1b6edaa81ce8c5b
fc85d3fa06923e301135b6d9c200e5e9
fc85d44932419bb5c58e6a5d70d8264f
fc85d490b52f36c1a3b5707df11bbb6f
fc85d57205c157852eef258e0e9b689d
fc85d57cd922e02e14f59f13cff1d552
fc85d5ba5bac25fb12cdc3dc7c05f952
fc85d5eac292ecbbdf40866bde09cc21
fc85d81f1dcb5d7e76912ad7e1281540
fc85d8e04064d849ae4a1b7ad09eb8f3
fc85d91308c3ef707bee620c696eb3f2
fc85da96a0446a2109b354d85028f869
fc85dab5849416f8796b799fc209395a
fc85db8413423b05f34fc68452fd811f
fc85dbd8e91dc15848a5ab6439c7a511
fc85dbe820898ef637e6171df8d95cf0
fc85dbeb6af1923458e0b22b8db5a925
fc85dc102b0ecda8dc3cc60581293e03
fc85dc61e4b8c1d05b94efdcaec302d2
fc85dc8654b02399d7aae10d50ac8394
fc85dd6ca0e0a08b398f39668e643c9b
fc85dda9d4bb7babb59e8dcff488ef86
fc85de0d15fe0fbdcca08bd490ddd8ab
fc85de7b2499315a5bbfd423e2e1bb2d
fc85deeafb100e295a17f32f59352f00
fc85df0d679652d16c3f35575c9389b7
fc85df1dd769de6cd008b4fa576cf86b
fc85e02b415030180d9c6ed6c378b200
fc85e1be67c17dbc20330d100c36d676
fc85e20c6c90d0a49b57fc30cda41e93
fc85e2fd853439ffa4bc6904745ab1ce
fc85e349470955a347ee0bcd0be678e4
fc85e3967f098e7d3827c0438641945b
fc85e5986e8436711c17bf4c232cd930
fc85e5fb3d49068e0aee396bdd9bce90
fc85e6cc6c10cb7f61878cf335b536cb
fc85e70223da12b69415a4581bbd6d33
fc85e7504f587d8798fc26c0baa59849
fc85e7707f82d999e2763689c3188bb4
fc85e81f29be669f090b1e845604eb96
fc85e90a67ba8af40c6e3122efa127e0
fc85e957350d014f40280c358b02dabd
fc85e96447c886aad809e0cb3c3a4ca0
fc85e9b1f2e24cdd016ee9e6ed45d92d
fc85e9bbcfb2b020bc6bb3f6ae8722be
fc85e9e93bf7ae81371e524df4687ef6
fc85ea93326ac99046ee9ef96c18f1e2
fc85eb9ae6deacb69243d0e527c0710a
fc85ecfe6e7e17168d69cd1db849f826
fc85ed33bf6e957bfd6a451f01ac4375
fc85ed61fbab8909377bed06ff489a47
fc85ee40de589511a337f2e017804cf8
fc85ee6352b7fa7c870076b001499470
fc85ee72f0ebb8698e5e9fc2922fb990
fc85eee84ac5d25d6c1ba542c54dc38b
fc85ef1d7fd32e2b5057c3fa04400158
fc85f09613a70ef3dfc54f7499be81a2
fc85f161d65c1ade88d18ea698aabd76
fc85f215b2bfc1cd69c462afeaabddc6
fc85f280bed999de888e0983ff57405c
fc85f2ac849bc8475e76b52a0e291603
fc85f3db6a7ca211afbd9ac9f8cd574d
fc85f3eff634e6a55c72e1442bf534ea
fc85f435ca92477b1d44bcde3a528425
fc85f43738720eb93544bf9f523421c9
fc85f4fa4a545f00c409474da2655fe3
fc85f697617668d980a5c7afa9eb4d52
fc85f6edd91b3a530c5e76528c6615da
fc85f72526d25df4e2dfaa5bbd2c9611
fc85f725f5f20118bc122cd17f7f3394
fc85f7f398deac75d03674c7c708e681
fc85f80e4e7ca30520a0823aa47f1798
fc85f82a44dc0897e0893401473ced56
fc85f98bd5d58874f2d7075193c0a042
fc85fac3962a3f13024d306dafedc005
fc85fb698ca8f878dc06674713fae3a6
fc85fbe3cf94548d1b8f0f1e9adb26b0
fc85fc24475824c79c6313419f975b91
fc85fc85dd450b1b0be84948ab232815
fc85fc9683c88781b650f9fa7b0ce302
fc85fcff57fc4ba3651ccaf69f77bdeb
fc85fed617dd08b040cbe08f2db9bb39
fc85ff1a57586d2a73af23f5e5681133
fc860027a65f743f0efe879394171429
fc8600831f4253266d5d9ff386aeda26
fc8600d6b2789130edccea41f3370192
fc8600f924f79a4fb75061c42b9f2d63
fc860114fc00fb25f3d0816773597889
fc86015cfdfa7cff386d92eb9dd5944e
fc8601d0cc4696375dfe342588217170
fc86020a899fafa68c21e526f57fd340
fc860254204473cc103bd94b58b8e804
fc8602742f3c7821cf782370f81c8274
fc86035f4584bd29703c5b19a07b8824
fc8603ba9718df79dd230b9c78a543d0
fc8603c9b39a6173d09538fed6bd9c47
fc86047058d1cbf14a893f7839702cf1
fc860554da359d9cb8e7543834b545ec
fc86063f650d3f29e6f09b3023edfee1
fc860648a533b39a977478fe8d444483
fc8607c5bcbbb9dffea228042fd4f6f0
fc8607ec5bbbb3ae4785cf9972bd991e
fc8608c71ec10c8fd8bc6ca16dfae823
fc86093c531219ea3e27ca36043b6d3b
fc8609a646ac90dc5b614c7721603261
fc860ae532c9626289ea6618b41a2f7c
fc860d4a525575d682dde946fab8a427
fc860d91ce23523f0c57525bed40d261
fc860dafeb4ab94301b8c27383c704a1
fc860df2a4c7527ea90f67ae77f73829
fc860e0dc86b8910426e24a9ded8b8f0
fc860e2b5ded102d708159ba8d4d279f
fc860f1a52870c9e2b62a5e0533c0373
fc860f86154c47e7db35e044f55b1a68
fc8610442c30e1684fb727f8f8cc2618
fc86108417507a42fe8c55da2f6f55b0
fc8610980ed2cdb7d37db5da047443a2
fc8610c29f0e45fa21c6a42e4875ecf0
fc86113536958873690567d2c74f2815
fc86114e62f4d7de6210ccdd2d9dbc88
fc86115804c9782bfe6902f1eb957176
fc86128e5e732fa76705800aac46629a
fc8612ff1f190db6a3470b5c14d697f8
fc861303b5bef552311dd3e8f94d8095
fc861327f666f8ad511888a1588b04ff
fc861371536576af93a927515927591f
fc86138718f0a936a6a87f95dbe79366
fc86147239138d0ad579b08fa0dc90f4
fc861478a499c562b7938a68fd34100d
fc8614c261b0c6c6b626a20578f1c9a0
fc86152ecc07cdffa8980fe0be799bf0
fc86155d1935f6ab06bfa8d559f759cc
fc8615cbab18997a32b6f04d7e474dd3
fc8617eabb3e9c5b203a2f450e29dba2
fc861835fc5c9e19a18fab41eceb7e51
fc8618a09eef92c8fa22603a8bd53735
fc861a01a79578966dacaef1f181891a
fc861a4b1cf4a873d758c3d9f7c39e09
fc861a5e396f96dec0eacfe6bcdee307
fc861a69babe8bf239bd26bf88ac1b94
fc861a73bdf5b799ee5accda41279900
fc861b1e9e20b2fdd9082beee4767dc1
fc861b6401531ddc07184572c669b41b
fc861d26f67e7ad6a5338db4d8e3e730
fc861e2ff4f772ee657da0f2c70e22b6
fc861e6e335cb6c65167bae3a41cc4f5
fc861ef547b271f18f3e3e7edd1b4233
fc861faf8c25e8acc49fdada58c591a4
fc8621035ada7e1c3f03f191e3b7a60a
fc862177d16f200bf1757e7c00b8b591
fc8621ab4af68dfcfd182df694bd33b1
fc8621cc329cdf2eafc68749f2fd62c2
fc8621d9e8acfd57c1f0e3cb09f28d6e
fc8622742e12ae40b987bffdc87db6e9
fc8622c77235b64c3fb6225890ea0ff4
fc8622e1d71308db1254b2461e3a5da9
fc8623194e32bcbc431474fef91a54fa
fc86234b9145cffa1ee3decfaca69578
fc862357f1d92c9743908b66718fedc0
fc86238b9e95b074251860c15cadff4b
fc86246646e9f5fc486072dabdd3f06e
fc8626199fdf8de4da9eed9bb04147d8
fc8626e54149a0976ed520e1a1f0c359
fc8626f99528a4787d552cfb363a0e23
fc8627330f8ed13850ba46f3a4476752
fc86280dd02aab99058328f8b77cfaf0
fc862828bcb4f941b5acd11fc003abb3
fc86284cd1b499a10824c80aa88601d0
fc862855f4120f97548387ecaaada305
fc8628c70b62e56fef06ac0a1ea2f9d3
fc86296c87bc4ed8c1710653a50bf626
fc8629bfe479abfc4255f3039e426df3
fc862a2e8bb59895b11e93fd19d7056d
fc862a8882d937f893683e36039d26f0
fc862aa1efe0b6d997dbdd83e8cd7611
fc862b05fb37c9d3cceee9f90c25b6e8
fc862c62d18a9cc6ae41fc4c54e7ef38
fc862cec3ca6750b16c887b9e75fb9a8
fc862d26748fffcb4887ec56c7152fd7
fc862d2ae6c5e7a1264e8b9e3c948846
fc862de06b80a8a5acc83296183b3d9d
fc862de2c350f812d45a6f0b0955257e
fc862e37ddeda9a7e2565c6c61e235fd
fc862e6502338511cfe3e7f3444ecf43
fc862fbcd6faa51aec7e8f2fcf660255
fc862ff945b49190cf314f8b528a6d31
fc863002dd8c7af1c4c8aa9216601ad6
fc8630185ba40c2babf3023030593474
fc86306776e2c5994dbecf6763379676
fc8631418f6ccae884d5d3b6a2c792c7
fc86314a66843a3052b5842c77e33183
fc86321af5bd5b67ed314c47ee45c429
fc86323a1d6a65c7e63933c8483f65e3
fc86325aa3547d0e82c189e32c3d37f9
fc8633551dec263172b7dc775d710bb6
fc8633785223c933611c3b999cee2c47
fc8633ced604c9c5e4560ee45497d6dc
fc863449effebd08ba7bcdabf00f3a25
fc863619442b984950a293daaa218f22
fc863830df103deb052df8583d6c5baa
fc8638315db3f987087b6eccb5fadd8c
fc863a0630cfca6f763c45be8ccddf50
fc863aa95bc3e07ab7af7801383ee2e6
fc863ba5cef94a1f679c76a6b1e95738
fc863c7a54ad71178927444ce7c4fa40
fc863cd3d1c093354c502bc97540e502
fc863cd77d78794030e0462e9b9ba3f4
fc863cf8aaf6eac270ad013a1a2e1058
fc863d580bf03a5fb9cc64b78a8cb58f
fc863dc3524245e49045b044c4856828
fc863dde193555e5c3b0ba586cb0ea01
fc863e325b894ab4008e625d58eb2ae0
fc863f0b945a55b723f37393db2c16a2
fc863f1ebc1693652788e04812d65c4f
fc863f7a1e37bf49cbed98e0700b13b3
fc863f87d22cd1b7119c045267ccce56
fc863f901c918c3e09ca04645a542152
fc863fa71a59dbf7e9ea1240a5e2ed76
fc86405a19b7ade0eb1bb2312654b21b
fc8640e9c47e96165fb98ab773225c3f
fc864155b270dfccce1011addfb7343d
fc8641e7ccfd1000bf322ff01bb1c940
fc8641f08e1770cf06a27e383e380104
fc8642786727bb5fd1ec236e58a24ab0
fc8642d90d96fb03a48c74d10e28ccec
fc8643f37ff792ce04e5f5d23832450c
fc86440496d0886c78897a527d9388be
fc86443530bd4d0d56ec69a8b876bf3d
fc8644cda534cc1d8a8c2fc7c1c61e2d
fc86452fb197f8d57390c3c3beeffd44
fc86454262a44a8becd98093f1fc7e29
fc86460a2adecac7bb14e528f5585b8d
fc8646c48dced0057e27f97e0eda7b09
fc8646fd148dc52c4dfa699592ffc826
fc8647105b41a557a242de3f50d6c2f4
fc8648ec27b7c2463ab2bd02ae777734
fc86497f6c0e26725f59ea4e8be14ee0
fc86499f1b22e1811e3dde61b8495baf
fc864ac75fe3bd9669a83ef24709bb71
fc864ae9415c69592f63865e2ddd49c3
fc864b0ae74f0349a612cf12a07611f0
fc864b3cd34a0a1a294ca158895cf490
fc864bd83f9db8d2f3bf7d7446dbf2fa
fc864cd18d799009aefbb538f37c54a6
fc864d930e8cbac2b802b3b75e6f3020
fc864d9580dea067f7faf79b6bb5a262
fc86500732e3b008ac4f5f4c4c1212c1
fc86506292ccdbd981e76a4eae5c19c2
fc865091e7a55dddb050490d50720b12
fc8651f992ab0cfb9c5a5445ce7dbc8d
fc8652f343cac197b80d53d0ba265690
fc86531e4286cf7b7adef2f9138a4bea
fc86542397112a141490bbe9c6a6de05
fc8654ca7a6ae34080dc7d351f73f762
fc865534a6901fd92bcf82b100238a62
fc8655a5b4c002390147df50220ea0db
fc8655f00e356aacc0a229aa66dca864
fc8656550f6c46e64d323fa1bed8e1ee
fc8656636a6168c7ee2082654bcd0575
fc8656e01df77d860dad0060b71458e7
fc8656e5198fc11454919e16b0e24dcb
fc86573da99da0ad3cdd10c716d91dbc
fc865781bf1bd378b728e558128d8785
fc86585581761c6ab881d1cb31215e90
fc8658b50d41733a180a2f8859b64f44
fc865a377715dc9d0c4dd38fd9c36bf7
fc865b2ce8ab0154034e5d3487810d6f
fc865b84ed14437ccac920f5649e4f06
fc865e1702d55dd19e8cda5e90b36612
fc865e34dcf16b1ef283781d5e1c9beb
fc865e3645c44a2fc81141f019380a80
fc865f10e0842faf9ee0a01ec68a0603
fc865ff909d07683697ac446e51c68c7
fc8662f8d4b30ffae27c1fad50e86b15
fc8663a38daaee767d7830c4a99883c1
fc86647a061b37a18b7c78cfa8a587ec
fc8664d829b4abb4a13bf046b43eba44
fc86659f974acde09a289cfc1f4cf285
fc8665e8e631ff87bd5dcff3cfcad277
fc86663cd4352a0d1a3d7471344537e0
fc866664abae7e81e7e9e5519306dcbc
fc866695c22b031f35e23806933ba17a
fc86676d72a4e9114903d6855e952a94
fc8667f01e85e3518f708c43fe49f9c7
fc8667fff4881000e0c6756dac3d95aa
fc866870c64a0b8a4f33fbd539049b8a
fc866893eabc06bc129cc5345f029476
fc8668edafe145086a8da3c05ef3bbb5
fc8668fb04b561ec2f5963c53dbaf890
fc8669bc0819c3215e1d9af98bcbeae1
fc8669f1e5fd00bd28421b9327176db1
fc866cab3b9e319019b8d71555e92216
fc866caf92e0afd0fdbe7721fd2f64b8
fc866cb7b578edacf5d3765482e760ce
fc866d3d9019860b69ee2ac4ee4b7580
fc866d9ab9b32049b2de78c8d7333713
fc866da898586c34bf1ba874d893a209
fc866dc6de1c36b64c114fa5c996c348
fc866e0cbe01cf4a4e2b51e3aca059ae
fc866e9b9e5c337f3fa71da4006abf04
fc866ebf6e31e7889e9795a8484bad80
fc866ecc251534d9c1c43413cb86061c
fc866f9941d5fc8979b0e51448536c15
fc8670b80840751fadbd9f8fa4b0fffb
fc8670f02b51745773913a3dc0acc7a7
fc8671a344feee0e966ba1125ab2c899
fc8673a148b0b2d63dde394c4789c860
fc867452a9853ba6b5b961c320d3fa08
fc8674a02c94710d0d922c1d5eb1c031
fc8675ddbe1be3591ef404f132f26962
fc8675f96013c9d523bdb102b1501dd0
fc867742013296d212bde4fc6c78c5eb
fc8677ed9d25915f72caa2c027e60b90
fc8677fb9eeadc5e64c019a90a7511c0
fc86783a9dffc63211c3e8260476e8d8
fc867846ca7d900488a16120dab5a200
fc8678befd60c8ed1dd726e5aeec477b
fc8678c5f2efc66c190ab7465972c436
fc86792ddd109742be13bc07eb151f62
fc86793c6141567b9c485e58b539564f
fc8679b334c52b4f00d0f11640de9abc
fc867bf050b6cb5ad6444f6e8497c8dd
fc867c6bd49ee842d5258c8fbb385484
fc867d0aa6ae980ec1ed6b426267eee1
fc867d8769610f780e4f76b2baec47f4
fc867d8ebf9ea496c41d3599251e37f8
fc867ddc17b3099bf9b3664c2a3d35c0
fc867edb1890a23b835216fdbd36d1bc
fc867f2257f4aae752099f6dc94ec39b
fc867f2972017075aa5f7b44f31cdd41
fc867fb257cc15a0d69ec7b98ec01181
fc867fe29d2abec7153265035d0c5810
fc86807c5d1283a0f6373d12d616d3ae
fc8680988c04356eead547fc7542ae91
fc8680ca80d97904f26bced07bca9a83
fc8681595103ce701f84b26ac3797342
fc8681db46e778391d5a75bc08714e0f
fc86828d12ee45359087241f1d32b40b
fc86834e32830191940caea6be427930
fc8686165a86dc5258c0beda3b7736de
fc86864e4b1faf95b602764f97139f13
fc8686546f5e24e7ee473a10277f5338
fc86867e4a45bc307e059d2e4d096d53
fc8686ec3408fca0f0b4cc61542751a2
fc86873b5199ce6428df26b018c27a24
fc86874b0069c79de21609a81bb25d6d
fc8688c7d199459e31644d3589a15008
fc8689e19a332779a30105daa24c4099
fc868aa839429e96d43dc5d924d17f43
fc868b55a1672cee6060bd4d6475886a
fc868b65c71c977f5018598aa2bae042
fc868bc32c8e6a128e0f00dc9a413392
fc868c1191b1458d6a93393b692e02e5
fc868c5ac36ebd90d0e9c6d465d80e9b
fc868c809859bf04005f4ff5ac4624b8
fc868c826a25883ea3eb39670366561d
fc868d6753e95cea858acd76a70b9e72
fc868e30c90963467a3df7edd81cf820
fc868e386a9830eb5eb55737530205a8
fc868f54efaef4aa974ed138629bda9a
fc8690a88e236b7e9f7f0796e0acb9d7
fc8690af3361b4fc35260da576de4798
fc8690e6626f4f93c8a8e30d839d165d
fc8692107c65949194fe4d4295411f9d
fc869221b070f11075bebd780004b68f
fc869454ac8e002a8e793390d532b6c6
fc8694653e75c28166e4bda441968d45
fc86950eeee8c658d35c2265efe3a270
fc8695406942615918db8657eb384967
fc869610316e32d0d4a2d7eb903260e8
fc869809ab9998c4070b76dcfda141da
fc8698cdc3b1623d71632ba1a18cf050
fc86991abeaeb7fc06c6b4f2821bd652
fc86996b0633556f833a9411042f948b
fc869a09ecf0a4a6ab584594e775ac1d
fc869a5f1a951954fb08901dad294f2b
fc869a62fdd546176f8412b0d0ff8fd0
fc869b23d4802c10cd090f0959dbf2b0
fc869c4b6765bc312fd104382502ea01
fc869e11b384f03e7f2b4b551b5962b9
fc869e837b3d6d81dd283bbca03536d6
fc869fe874ba1ecbf3b903af2b0b4877
fc86a04ed6f61ec74fa0db3a27568318
fc86a0756e1cf9b0f770986790246225
fc86a0ab3db2677e375ae7f3bf582dfe
fc86a0ed19c712bf72987b329c9c0b67
fc86a2442b9f66f6b505c921a771c117
fc86a2600169ba8ff2fd2229c043818e
fc86a2b85cae47287d8852bcbe4e5dd1
fc86a347dd801ed675575634fa993332
fc86a36248a4e48100be2611822e9026
fc86a3a958fa403bff23ccf8ea6538c4
fc86a41b16c7644108ce18255e5c714f
fc86a568c83a2931829717ce237fc5fe
fc86a5dde5a33515b20fe3bd23252243
fc86a646232a3aae426c43ff8689a2e3
fc86a7146395b8305c8dfa4e8926d536
fc86a7d55d4d114a66162fef0aa36537
fc86a825d54d724248766ba0c05089f0
fc86a8898b53b0d9458a8b0324c061b5
fc86a9a7ca8847560fed5741fcbc4eb3
fc86aab709d74b9d051db097a05f8032
fc86ab0d9cb9b88f9ac7b68b07a74852
fc86abad519021c85854211083a17c2c
fc86ac046b7f8e0bba440061586f22d4
fc86ac44e56919adc6c36ca615bfa838
fc86ac4eaef3db0f7c1eca3dc4c1e8d8
fc86adba1b35ed79790812e0ccb01805
fc86adcb1d83a7d72339bef6e73f0231
fc86ae87a6c9606f7a19ff5f940b69b9
fc86aed0edace679e34b52b419ae6d06
fc86aed8d3756836212ae652a73b0999
fc86afd328e3b621f8e383cd31b4015d
fc86b0494fed27f1c543e0cd3f7e07ad
fc86b04f35657be391799b603e5fb0f9
fc86b0d4467e967d63764553bc593300
fc86b39c29a228bdaaa6c2e7166f3c79
fc86b46665f9b25518f9a9376d0dab16
fc86b4c991d7c2192c20c5820d2a093f
fc86b614bfb613c5bf6917080c31af5d
fc86b65470d87a6f18fbe33d120ea4b7
fc86b701057699a84bd63dff68360322
fc86b78d0c8906a9c1b35052a448c19a
fc86b9183687fb4c4a5b3838e2a12135
fc86b97ca058170f6788d4db3ad04392
fc86ba32f8a7671b07bf71074ac9814b
fc86ba9a844e43c742dcbcd66b568ded
fc86bb8a8c8b7c2658a581aea14c322a
fc86bbbcdcc9add9299f6c21b8507bc4
fc86be16b95f6bccb48c15a37976a99a
fc86bf0b4baba7c911eeabd85e9b3050
fc86bf0c7de3faf265183d473cc3f806
fc86bf30789ff10abc54c1a6be2148c1
fc86bf478e2b3223e91b6200890db98b
fc86bf663e8ad34094d4217f0d2437e4
fc86bf6c8225fbc404dcf07b46b97459
fc86bf7f1db73379ef0bf2393cdf81c9
fc86bfaa907486da9de30c89ce8bbbab
fc86c08058e8279d60bad66fb8116eb9
fc86c137c994799b0693101c76732cfd
fc86c14da084e9b11fdcde625cafcaad
fc86c17cdf4e97bf52bb45dbe3890572
fc86c2109e126608cfd74acda7aba8f5
fc86c21f4744955abf0935d924ec785d
fc86c22839ab41a4d7bf5c09956ee7a0
fc86c294de049c4a80178148e8c7dc62
fc86c306bf193d6474d23bf7d4fc647b
fc86c3319ad29b5150d7af8533e05c5a
fc86c340d0d4e23a99ac6806bae7137a
fc86c3b7d6aac740481408995bdcd9d6
fc86c3bf513da057eea923acfbf1d123
fc86c4c1b64a39ba62b7e850acd6f7e0
fc86c58956dfc5fb933a393078e97e58
fc86c6659aa5453ec5facfb65b1684a2
fc86c69312ce0b35c9c6cc1e30699850
fc86c6be155712234c3bc793cf635fda
fc86c6d10a80887f4aa47fbd866a3e0f
fc86c72988ce689f5e20ff788cce818a
fc86c743c426540277511d9a23ac7ecc
fc86c7a4017e52bd299bcb81fdbf2aa0
fc86c8fdf5c6356a52226e6768ab3a4f
fc86c91d86ea0be47625d5d1267c881a
fc86c91f9a8de8d55313eb94c8f39c41
fc86c91fd3a7ac8d3c87d85cc5f08db7
fc86c9958d92c638614c2f8332882470
fc86c9d9ce4bdfe4cb364afb410443da
fc86ca436e934fa4dc5e734ef1fa1ed3
fc86ca87b278812b8f2678d339085b44
fc86cb23224df8357357bef40834c1c1
fc86cb34c05b539589b41550aea74bb1
fc86cb64fabedef016f99b02a6afad7a
fc86cb986face6197abcee0c5769a546
fc86cc0387058811279bd34ea866ec27
fc86cea05ad334db435e36f263da8e30
fc86cf8d532c280c2a223f554dda2e8c
fc86d094c9c1e0d22d80533631804288
fc86d191d1bb2ea1dddaf9b42f388ebb
fc86d36d75f5480ae1d0381e960d9375
fc86d3766e7e7be56fecd830103f8ca2
fc86d397006abda7e84d703d9c002455
fc86d44d306ffa0ef970a43d992035a7
fc86d46b86122fcb8cf34d2cf7e93623
fc86d51114eabd37aa0dc57ec5a7be20
fc86d526373409999457575ecfe67cfc
fc86d5a48a201a95a33006a64c2ca9c5
fc86d5cf472af13d240141e4d3237767
fc86d61ab9c052afc8f0378a9e87510b
fc86d844adf9869a1c3a0fa86a580546
fc86da8b21270997981d44b79380dd24
fc86dc525312a6c265343e1dfd4fd38a
fc86dc6010ecf659b6de26a9d1d8325a
fc86de30009375ce3c22b198865c4638
fc86de7af1b4b78a3540d8e8e5077653
fc86df3ed1219756c70cda847f1e061d
fc86df75d9a9dcea0a513c76715f7b5e
fc86e04e0a9bbeb7c81cb9bd75b28924
fc86e04e2d5eb0cafbace65fd004769b
fc86e1791cc0e76b1066d4066cf26acd
fc86e18a333a1ef84b5c28827eeb4604
fc86e3192feb2594036720cb715bfffd
fc86e4039dcb0d451c0ebd5d93c6a454
fc86e45c31d25b98631916507c612a65
fc86e4df7ebb49fd01005e0213cfc9e3
fc86e55253e89fa7a63da67f0f37c7d5
fc86e5b612791de00138cdf2d2ee5fd8
fc86e7e31b2441985aef402140ab403e
fc86e8179d72ade795801b84396f8e48
fc86e9297e8cb8b26ebd773f75191938
fc86e96c107ae6b141cae60b7f3f58f2
fc86e9db71d02c70593fe6f091086f1b
fc86eaaab514bf43c0cd6d447e59a8ee
fc86eaeed684dbac8bfb1136a9c2e944
fc86ebdee8f2965114332aee7b2d2e55
fc86ec57b3fb9a11ecd1eaae99caefc8
fc86ed85c49e7a0df481b72a3bed754c
fc86ed97c8db07e1fd0381f4286c7180
fc86edea78e5e3951771307011e9229c
fc86ee787ad2f84755b6aa63a7015ca5
fc86ef02f97a937f2627c25df50967c5
fc86ef449426517914339ed2a37c31bd
fc86f05b14f02f79b4d6f890353dec2c
fc86f08ddac2b5ea0ffb8898635fdbda
fc86f1597e86a62bcfeb7ac4352911fe
fc86f289923da2cae939ec39672c76e7
fc86f2eca2dfd32fa5082993dd4b1b68
fc86f3a049a4dd5ef07f97e1c82b200b
fc86f3dd0be3d91df99465b8f96d16a8
fc86f5cfe3341ba7b6a848621ebf1b40
fc86f628421ee41a0b3b1c221fa25b60
fc86f67c0b93d4dad41580f8654e0556
fc86f71d3a007128352aa565bb8331ab
fc86f7247ea0739bfb9c1be4be164bcf
fc86f782ff97dc4d6afa29620ae0fc6a
fc86f797152423bb21dc3c62a8926d8a
fc86f827dbdc6e86d7f932ea3eae5269
fc86f90a43a7503423592b1c3c8540bd
fc86f97ab79ff8c0f3bd97a4123dfbe2
fc86fa469c8345c66e2da0c8877d37a3
fc86fb6eeb53fbc51c5206d5b3d0c4a8
fc86fc7478e2fe433f4dd092b7643354
fc86fdd4a6053989549dc50c80604b36
fc86ff14f58e9d942ab28f6d9f2aec17
fc86ff7d87dc0f3499ebd73f5ed1e830
fc86ffef952685c7d0eecc41c1f945dd
fc8700aa98cbd23cb83d52eab3fdcb73
fc8700eec40db797fef910fff36366e0
fc8702cad6c698add7ba9b89011f5faa
fc8703215c7978e49b8b40babdfc6d32
