fc90000380c84c97af53388092b098b3
fc9001101c95fceccbadd1249e13df6b
fc90041400cbf660d5111e5fbb115245
fc900525e0026f7704f9a71158ac7a27
fc9005803464dab131b9dfa0f5bd6a65
fc90062f26c15f78302f58d68a3e1717
fc9006c773741adf89e20574ba1d1790
fc90076b8543d6eab4fcdb9b9c7f20c8
fc90078d5b0d787093f62d15e8042a41
fc90086c827706829bbdf0aff8611c93
fc9009539ebb64744fca5cb9cce94eb2
fc9009872d080dd3e68ee183a6842f89
fc9009c569c6120c8c03cd7e411532c1
fc9009eae55a70e2b82ecd4b7bda511b
fc900bbb8e66ce1373ff5fc69df6c75d
fc900c1b4a682949d64227689a36ff61
fc900d540e741075a075acba92aec730
fc900d925bf5512897933c4e7d5036bf
fc900d935b368bcb56ba4c5da644094d
fc900e381b617e8168ce6b89af59881d
fc900f1a277afa64f006fecb79ee23a5
fc900f2535fdfa743b88afa52227a1f6
fc90108243874228abb71227d2755500
fc9010b7d42272f3ae995c30937e69af
fc9011b85a149e538d1d8f9ae13135e0
fc9011e066e492a9e46670b183489393
fc901214033c457078fa029aeab38364
fc901282dcbfa96c856c57e5c6352ad5
fc90130c0e18d85b06e5b3651aae384e
fc90134bf4f1f5a6c4bae68fe46ed1ae
fc90140c5a860da9fda3feb0edab47d3
fc901448f731104121ab43b67e87a949
fc90152e6bc5f90861c8aa5643fe14b8
fc9015c9aa9d005ae64ea6d8bf17a093
fc9016029e8d7321391289502867b5dc
fc90166e97ab6b94f38a95971e7448c9
fc901706ee3c8fb5e71b32b4f5ef659b
fc9017d04ce86dadc89d2d218b0f5a95
fc9017e4eba72a813cdde8aa2e2450c2
fc9018658aba85759ee98894f07c21a4
fc90186e624f84baa7e6b3e64877e4ed
fc9018ff208208d5496075c246fdff61
fc90195b05823bfad191afc5e8debd8c
fc901a452a4231b28789a76d815c2ce2
fc901a86514aac442d54db2674b7c870
fc901b47b29c47c53623f73714aee853
fc901ce188e25fac9c3abc34624e8ec8
fc901e5784a588e6ea214de2d3b85320
fc901f5a93797eb193193d162ae3ade5
fc901fc51f060a672906e3eed188fd30
fc90202c51ecb15bcdefe4d5a8827ab1
fc9021342936dc25e21efee002dc8303
fc902164813d1cbaf42cc1caa5d95871
fc9021c0f0654482f4cc8a7edad13d08
fc902218af749f1a0aae169512371538
fc90227f669bc04d84b25e387b842f02
fc9022881b94eef8407f7ccbacfdb744
fc9022b77dc6ded8c3cdc1961b8abe80
fc9023d8f0f4a5647a7030c1eec765cb
fc9024b8a9aa5b07c39cf885bf583e7b
fc90256efd965572b3ca22f64ead4783
fc90259b68edfe497a4e75efdff5a134
fc9025b6d0c4aa7b06041a084fa82a28
fc9025fea826a09fdff7f718df20428c
fc902636cb01a7b67fd3f041d92ddc47
fc90276f822e80f46cca1b13195bee73
fc9027d5f00d26255a58f61938cfb76d
fc90286bdcc60c023e118f6dc7489790
fc9028965bdb8255d8aef2c0da542760
fc9028fc0ad80d19587be3bb9d16d4a3
fc9029000f884fb9caf51e1d6e8eea97
fc9029400f42c757496eba3b9bfbd9d0
fc9029acef82d221239a20c31eff6dd0
fc9029eefe5c21304e1cbf90bd4b1982
fc902a373cbf1083146c004177c46f71
fc902ad1fe918a7b5cd24595e8ef2d66
fc902b56af8f902c8a2a235a06285bbf
fc902bced87c6c2ae07f11ded4f32400
fc902bfadae67be8aacf1410b87a6801
fc902c07f66e300f401bf9f4e815d194
fc902c46c319cdf71554ba898b532249
fc902c741b6dd771f5efedeefa21b5eb
fc902d1525ca49fb800d37ec6b89d808
fc902e61a8f47dd649369086b7ed04c6
fc90309cf5bd7ecd13a6fdb1b49062a3
fc90311396270e5d73260214c75ae4ca
fc9031ad41cb53c78c6609eeaa0d4bd1
fc9031ad4883e4bb380f853e7342674b
fc9031fb0a52f5e72b91dc644984ce82
fc903201ebfe574d7d4164fd9fbef4a0
fc90326d6d72868929e6745f75fcf645
fc903272d531df2e55b007e9b9175a1b
fc9032e5ad39b2576aa137fa39e76b70
fc903366e3c59239328c6af7ba35549c
fc9033abe579ac21b21c7f2ef96da5db
fc9033bde7d077210cc2e9dad5609609
fc9034672cfc4eb3ff315a693ad98c8b
fc9034ec35b60166d6739891fe7c2741
fc903740f37fcb4accae01006c39f11c
fc90381a0472ed274ee5dfa6cce0fb43
fc9038771dfec128de37595f8e92d9c3
fc903891abf2f85c3cb37dff590fbfc8
fc903a25efa69db9069d51331850d7f5
fc903a9010af79f641954bf3029ba0eb
fc903adcf70826f3063bfca52372e37e
fc903b3473fa2426ee7f1bc2a7f384c0
fc903b7b3fbeaa81b15b6d9384a21d50
fc903ba5d145e687e58feed848ebf0be
fc903c37ecb01d39ccc7965064fbc226
fc903cb88d28d8d7929535ab06882605
fc903cf72c89b85130342ab4f382b621
fc903d4125714b80e0a7a4733f0b0f36
fc903d57f13a577b237e61752d18bc28
fc903d7c13670116f05b8eba2eeb4304
fc903ddc9dfcb9a39771ccc5db2afc7f
fc903e8f3757665e5efb95c229d0dc9f
fc903ed022d47e2c254031a1181675f0
fc903fcdfa5f4b3ef35ceceaf21f2067
fc903fee25a14106c860cbfec70d55aa
fc903ff6113f3e6328d2090b2fbd295d
fc903fffb07116a15bcbd176dda95d1e
fc904034e113105472a10157f748fe10
fc904162084425a8dfacb597b779dd25
fc9041a7cbe8c90862f7499f5af41465
fc90449dff28fc678249b64c59b13648
fc9044ff6e4cd2a780b92f724da0c6ae
fc904540402dae887fab0333c4595e43
fc90459b8940729f5d23914dcf567351
fc90464dfae7dd17b0fecb37bcf54b6b
fc904677793437da6c252c6e176a200a
fc9046cf99fae54b750c4f10de95a86a
fc9047cca2b1a45290d166414d56899e
fc9047d9cc4d664f0b6ebd6a99a4f7df
fc90483da5e667b5bb406de0aaf40df0
fc90490ae17bcca07feed5396cf56d59
fc9049acbcf8b411c281d5b66d177914
fc9049b861f275110c1e11a297d81985
fc904a3b7f896b15c1e2618b9cb22dab
fc904aa29c9196248b20fd5ab4bf04db
fc904b0d10d553f1b1b1e9df3e106b38
fc904b33ba25e375ac7002e537bb698f
fc904b7a2a532c6ec4694b847f76ae22
fc904be3771a3f4bb4be5852c5e90eae
fc904c4066d8f1fde13cb844491ff772
fc904c7e0195d2663074b768976ed229
fc904ceae368d3e89a1c060903e1c0e5
fc904ec5fc49f31d41e7cb585656dc60
fc904edcacf29657570b4bda9d64d6e3
fc904f064e86f6ac9a48a09896b7e677
fc904f466e5c122a5a51d73f760afdee
fc904fd716ec002fb63f1048eeb69a7a
fc905035da941351443c526c991cd79e
fc90509cdfe48d03f20361809c43842b
fc9051c793e1152f5ae95d6fd409e4b2
fc90527871ce54303fb01fb5e0adad48
fc9052963c01b13ab88d40852ff9db40
fc9052b7d215c512b862adec07f08af5
fc9052f8b96ea680da2b6a8f471c0cc0
fc905307c1448a878eea71170365a7d0
fc9053698f2ae8405e5877cd62982947
fc9054f426b4967fd6ebb7915a99cd07
fc905503f269b3e6e7d96c3a497b0f8f
fc9055ab559619793ddeda5412f0150d
fc9055f7148ff24df460f55e1a571444
fc90563afccdb8d2b957f6e30d27f972
fc9056824054699384f2ca7efef4aedf
fc9057c40f76ab5c6b94eb77519d176e
fc90581584bffdf2e26cf7a4ca96d34c
fc9058cd71fb82edf561f88c1a205917
fc90596108f7b2cf271ca324f89c295a
fc905a648ce5f5671ba29fd4fa9d4847
fc905a93ed7525d33d75f005d06e2740
fc905c692ee374de326ed2d74195065c
fc905d04f0ccf8747d17129dc3f7f644
fc905dc0351c8d6ed28afcb23e0c61cb
fc905e1ccda5551bb4560556ec8aeff0
fc905e3bce2ac9963fff0554907ea764
fc905e4449eeaed04ecae0ef6d49a3a6
fc905e9752c11d5d2cbdadf3636d99f0
fc905eb508a9084480ed83f65896d5e1
fc905ef559f30b109b8a7c7b80c19655
fc905f1e068c990cbdc38191db8d7d7d
fc905f2d4c6673f829572d68b6874e34
fc905f8637f435acb290032cdb130290
fc905fab87bd18dc783d1f4a971ab385
fc905fd2a66bd391c6d37baeace70f2a
fc905ffc81dbb8a060cfacb6bae6f92b
fc9060250d6c85d3317996391fac8e27
fc9060edd149ca83ec6e1fc437a8b500
fc9061122e37365cf3a059e9e1b40c02
fc906145fa29f80a9108b38638921406
fc906210e2655a0e74452bf959a4f75f
fc9062915220267f6b2dced7af3dc2c3
fc90632fdbff897d2aea05fcf7a6cf19
fc9063c2eef805becf71ad22e0ef642a
fc90650959fbfe7c88b5225d0e681d86
fc906574753fd35755d8bb2fddd1e790
fc9065ee7935a70f03f9dea4ee997359
fc9066329da0208e96463eaa26cbe23f
fc9066427ce9ca53d92092db34c05d3a
fc906760673492950c0aa67a316066d2
fc9067eada80945223311dec203ee9bd
fc9067f4c901ddee4071dc0d4821fdd1
fc90696cd369a354a62a3578fd215fb9
fc9069734e17ce988b7647139654461b
fc906a23617470c9efc6473c6f05c97b
fc906aca2352521a80072515e7c5a918
fc906b473082b8487bdc9ec500cfa440
fc906b7bb60ae2bc910b5db3a0da3da5
fc906bad32f79b92703862d3cad5c0e3
fc906c1222b3706da8f69c80e2bb0406
fc906c4250bf9f3eb9bad1cb87f2afde
fc906c9db20c6f2e75ea1eec5fffe5fe
fc906cdf53b12ef15df7afdae5aa3bbb
fc906da6fbeb202ac393eb644ef12379
fc906eed37fcc28fd2a341c18f780fa7
fc906febc8de7b6b76fc199e4c0891b5
fc9071a3e17ee73fe0129299f301a509
fc9071a9afc01ae4a4f793156c99914b
fc9072d974c8cb73c1f2ca453b659a49
fc9073ebad15c9df33ef73025c4fdbb7
fc907432130397b05237649764aa1369
fc907445fccff212a8fdc4b5d62c0636
fc9074e4ae6925cce75a6c01d419c146
fc9074f0815c32cb1eac6ce1037a6a50
fc9075461ac1e99d2149485f9d321c3d
fc9075bf3f5b2e54ef8b28fcac2485ee
fc9075d33600d496c0fff73e032dcaef
fc90786b2f2a0ac44ee889143545e4aa
fc9078932963be7cdb9cfc1b6a0b050b
fc9079b8195ed533a361b9fa737b081a
fc9079ede3083dd37e9828b1b609fe16
fc907a20458706f246bccb94f7be4de7
fc907af4bc7b7cd168db50915d4cd88d
fc907b395a52f48b0bd15ee6130a7bc2
fc907b3dc0de10c489281e91139e93e4
fc907d0580618030cdabe2018663960e
fc907f1fecd26bdce7a1507d7c827cc9
fc907f275663798053f93dfc699c3f31
fc907f7faeb0e164947af9b17c081097
fc907f85fa6b7a83c2bfba3ad605fbf6
fc907fa6db90ca57a42ae3d82a820f4c
fc907fc30a47066389a2b1be565e156a
fc907fd26a35ab7613873aa06f90e65d
fc90800e80bc28d9af0b5c1ff7942e10
fc908050c38f5241966d192e74a3a88c
fc9080bfa00613a2be10316dc4d235c1
fc908160c5edb156a3882569a3658ec8
fc9081e61497ccb49a7a84c29a26da00
fc9082aaf09331059581d1960fadd544
fc90836f1ab20fc2bca507b6734ff40a
fc9083b5054c09eec7aaa400616d6947
fc908504d78dc7935d630a835c8d7270
fc908515d67e28e24adb2e8f985fe0e1
fc908565b56b939027aaf38f1e716993
fc90857bd1afe61927cd88f48572659f
fc9085d701714960cc3bbd61e7189eed
fc9087e161502df3668f2ac7231bee36
fc908803400f15104227b3292aac8268
fc908839348d67a36f5b543f9514942e
fc90890fbc6828a556d3a210e91a969a
fc908975e57ec155210ab925bcdc6378
fc908bf96b632d49bb1c628d507e12af
fc908c3530b90c624d8fe30895482d70
fc908c36f3b916900afcc6f10a0ce512
fc908c574b2f64255978166ea2359ab0
fc908ce3d7c67cd8b861c75f0e153975
fc908d3d175881ee5dbcf1cbcafabcda
fc908e01afca4dbcc44a4ea479dee34f
fc908e2520382adf8fb5c9df85f9c770
fc908e9ef5a9f3f42b363a579fe3b501
fc908fc5af3703caf7e91946a5226334
fc908fd4fb0898e184d5fe6931d4b2e5
fc9090496f9ed76f3812d2d8ebe4f962
fc9090ce5f6eeb14ed2b8230a0610240
fc9091b31b28b0f763ebb2e6548d1181
fc9091fc6fb7414df7b71e67c3310528
fc9092b320a9d7b90e693d0ebb76cd3c
fc9092b416d6981616c35f0bb5c87ae0
fc9092e3e7c2cc3fd08c8ae4f135935e
fc9093147391128b8b996323cd656d7a
fc9093f71427109931010f61af2e1545
fc9094f1b68db9ff35b9bfb612322370
fc9094f526b8636a9433a47b3e90bb48
fc909545dd7a6f55962b9830ebf76f4d
fc90955577689c4ff0394eb890b8e020
fc9095558ea2a1a6ebf2fb9ae87b54b3
fc90969c8c1288dcb6d5cbfac1caccc2
fc90973998951e883b96b873dd1e55f1
fc9097831d605effc8180d834910d771
fc9097fca5ec88e7691c6e528ee90bd8
fc90988ec6fdae6292cc6c6c18488c66
fc9098be7d06a235d30d5c56bac4e957
fc9098de04af93424ffb8492e1bc457d
fc909964308ab0a956658e6c3bc02d50
fc9099f63413854996d890c4b9d30996
fc909a1e0b50d46a72928e7458e213b0
fc909cb3216d3ad1b0701a465426dcb9
fc909cb579fd1b7bf71047f0885b9362
fc909d64f80c84d88acd06739d2a81c5
fc909d72a1b91db65dcdef86bba0b030
fc909df1c1630165b0ca7036e6ded7ac
fc909f1cafe6d85006917ff52252d24a
fc90a03dbff6266b81eb5962bb70d9c5
fc90a0be85bd566d903c789e0313fb58
fc90a11a85c71f9952b601e7c22d93f3
fc90a17655b4bc088f222448591eb5e6
fc90a23508ea853778d2136d04cf86ac
fc90a2a4cdbe5c27fc221dd51c3bc722
fc90a371c5b8ca2251d16af21b48504e
fc90a37f644233f957206b5dfabf7560
fc90a4a34311c375c73acb08e8c7966e
fc90a55f80d90ef6397f904cf606c84d
fc90a5a20557d6d55bc2a2f792e1e00c
fc90a61aab464e01b3ab2992e99f8e11
fc90a67cd570916c4377b352e2a52017
fc90a7987346cf3397d580a0292ca233
fc90a8c49f2021da33193a6819a655eb
fc90a9cfb5ea6bae3825f192c42733b5
fc90aa76c5dde926979ef6a4cacecd38
fc90aa77d5a535a2e0a5eb5ad3bbe6f1
fc90ab11a1965f400d5268b7a1fd415f
fc90ab7c3b58c2bc40cf45ae99221502
fc90aea36b64cb40d5f4ce543494be41
fc90af0f71b71883dc3fd47772b336d3
fc90af764db3fcd15bf5acaf6a047849
fc90af81d4a7e21a600be570026a936a
fc90afb0933c6d2f827ebe9c83646f56
fc90b049f0374c424a39a648565ede96
fc90b14897fdcdacd660e01af768e445
fc90b1c6513db97d071c052f9dce0e33
fc90b26ade9a9d9bfe77ab68214b6ce3
fc90b3cc9f8aaed5066c5bd0a574ff0f
fc90b40431791b0987b3517e4b4a58f0
fc90b4b5b9d509ec4cac8d132f3f45b1
fc90b4fc7394b447b1e9c7858459578e
fc90b5027a9c49ba0cfb9aead80724b1
fc90b54d4fa1fda794b32b07510b1a65
fc90b60998dcce85d3e21023820711e9
fc90b616df0c3f3aa3c9a9a016be1b85
fc90b620c8990a6e0c1c7fb46b13a5e5
fc90b6a517dcadbd96aefcebe113cc14
fc90b72a7d4c945576b9e12179fe1d16
fc90b743d9cbc49b43134a18cb466d65
fc90b8830f4715fe072ac346edf6dc44
fc90b8863427546f531df3db857f8094
fc90b8e1ef593c6a055aa0383262a0e7
fc90b8fc5059a9aee0e1a5a5586b0e94
fc90b90409ee9e235fcd29b5c4a41a78
fc90b94c323e4106a1c53d149b023630
fc90ba0c574ea04b6c5755a3f43c818b
fc90baded72b4cb07b9fb264b2844442
fc90bb2339d4c14d2dfceb28d43d542f
fc90bb69367108728e9ba959478693e1
fc90bbc72d51c8c2a5260ee4b3026f04
fc90bbe22cfbb9030e4227a72e9b88f3
fc90bbed9eedbde4b2df61ba87fab313
fc90bc53bc1c0202db77dbac0c45e819
fc90bc89cd7fc45c17a52826ad2f40c0
fc90bd2dd77dcad0973d01cbeea89800
fc90be26ca067a3fda529733877a50da
fc90be7a5c4fda49660ca0e0db1453a0
fc90bf320f57d7df57c82c9bf562766a
fc90bf3d43de6a4d7bb01b4c74588e0b
fc90bf5172c71fcb88e0aca106027f7c
fc90bf6c00806a8190ccfe6e6b168d4b
fc90c20974956b938635619f10c41d60
fc90c320111e6be8fc109e845b76889b
fc90c32c117d67f8b83a0fe408a9fdd7
fc90c35a259b368c3a9c98163c66d974
fc90c390e8cc738bffe7d84ddeca6644
fc90c3ad56876da458842d77b48461a2
fc90c3b7642c1c0ffbb7331a33990082
fc90c484c96455a27822a35c7fdf2d03
fc90c4d904296c776db7d8e1e304ca31
fc90c4e01ecc3b97c47165bbc0ce3b70
fc90c51ab3c474e1610d4fbe3636d23d
fc90c549a10a3e2db3de80c18a1cce30
fc90c569bc8f6dc3793f041231102be6
fc90c663943e47f50a286cc7671001f9
fc90c7131aada4ea88ad77cc78a6e73f
fc90c7990e2a0564a3b536bc9592ab16
fc90c900eec7b587ce88baaa4bfd9b6a
fc90c9aa6bd100bb9d1dfb8333b376ce
fc90c9c2990695edf069a3d08fb952de
fc90ca246c2278f44f954c087bf97bd7
fc90cc42d2c7a278ee0beba7dde25288
fc90cc7c40ffdb9471ccd1e16b84b65d
fc90cc84bc225840cf7b85eed8dba24d
fc90cd90b565fbf272c23a220a30ec12
fc90cda7014c291fda12dbfb9ddc1054
fc90cda8b6e708d516a67562fdcbde5a
fc90cdbf1a67e8f850d43da186ef1ae9
fc90ce09fdbbccd9227f1408326cec08
fc90ce1f427fbbedd603b32c51cdd4bc
fc90ce665f158ca9591560a2d15701a9
fc90d0bdc4db950dc14cee65d7610db6
fc90d293a6c9d8dcf4d390714d2694fd
fc90d29db727181efd4fa065dd7cbf16
fc90d2b9809a1adf7765203d7b7a2f98
fc90d2d98e1e413f3b7cb67995948c70
fc90d32a99696f371745c72911478097
fc90d3ba530942e7863bbb40d0a8c3ed
fc90d42eb82577d6976f19ef29432fa9
fc90d5b8f782759ac0f345305d157a62
fc90d76dac57b4f1f6fd7b6be55ca643
fc90d8924afbe82fca99474e596cf6d4
fc90d8c238cc5019ea584eca7df107cf
fc90d8ccb2617def01f9b4ec7c177707
fc90d98417d87a1ef904243395ff1533
fc90dbe56fbe54f7a1a2128e3e27587d
fc90dc455e1780e19881f7bc407e58f9
fc90dc78d44f1852ef6e629bbceefa9b
fc90dccb81d1c4113ec0a26e058f454e
fc90dd11c763de630af2e5888b190c3b
fc90dd1e76518fea80ec6ae1f6cc03f8
fc90dd396fd1c1d2883684a84b11e160
fc90dd6bc578c23c93d95af2c7386313
fc90dda254b5f8f7641adcca2b2b2f55
fc90ddd6f639fde14c6afe4f057b7e3a
fc90de06483cc7574b6eea462530eae5
fc90e1c7a8213893a56abacf403f94bc
fc90e29d06bad969ef063d125c7c5478
fc90e3cddd1059d5bba8092ef0abf1b4
fc90e4c3239f15cf742ab26208515e43
fc90e58b1181bfaf4d51b534e3709291
fc90e5d2e4cefa869356565411c492f3
fc90e6472032bc513b15e47e0ee167d3
fc90e7020ccf13e62c48bbbb107cff83
fc90e77f5a3b889b1762fcd725757f9d
fc90e816749175ef46b06247ea8af58c
fc90e817236542aa15a17cac2378d358
fc90e84b74063d2311b795dedca15d45
fc90e8f5f8696e39130d398873a5f24c
fc90e978093f5e8ea17e81b987a18750
fc90eb40570e6fa6511919417cd9635d
fc90ec97bfc54faf8f15d9e7567a07d2
fc90ecf4b8f212775f019fb0835a4baa
fc90ee28b3f901a91038b6f3e805d22d
fc90ee86a7a78c1df97b9b1f0506625f
fc90ee876a53600747cb5b5a57942fb5
fc90eeb938a8f7eacc9bc66ae2ba25fc
fc90ef0dda8482eea2a35288ef0956da
fc90ef3c659bd469de3b611cd07ccc19
fc90ef88e36a291b7ff1de966c79c617
fc90efa41a18675f311a26a7f26ff5e4
fc90f1bdcb238b3aca90192f06d923ee
fc90f1f11ab12a986c9a0d594ab8e8c4
fc90f283814ec8ea7615aa5f4c0cc4c9
fc90f31adc095a4f8e63edb17ea67663
fc90f580bbac150547a67d6d260ecf5f
fc90f5ba270b9d639f765b5d64040f1f
fc90f64031fdacaedbc269dc381cd3f5
fc90f78314d05e9bd4cd5e873259c0c7
fc90f7aea13a12b28cc2842268d52e88
fc90f81ea308139638d10697852e0c74
fc90f821ace4555a22c0edc0d47adab7
fc90f8b77f26cab1b33954cbade928e3
fc90f98c3a3b09f110a025a00d6b1c00
fc90fb8908a15218ca038c09a8525fee
fc90fbbe1142fc161c0c61dd640fbba3
fc90fbcb932a1837123ef6b1ff37cadd
fc90fbe35af61a131fe809ceb90f1d45
fc90fc14a5a5e4a36c16a08d13f229f3
fc90fcc5e7009a521578975373a4b9bd
fc90fd7783cf20b9da8f8cfcf510ba5a
fc90fd8fe822b19544e42874aa861b9d
fc90ffec3f05999be2781d02ad63f6c6
fc91005fbc3ef43b7b3620b364c659c0
fc91009b025e8b6162a613773e704033
fc9100ead3916e1ac0c50328578b25ce
fc910147138c43651fdc65b270dce9d1
fc9101df29d69206b83851ef40668894
fc9101edea22009999d599aafc0f719c
fc91029b84cd430ca42a760cd7ac9c6e
fc9102f0788fb4bb0ae72685e6360e0a
fc91031496c13f8d715083715efe042f
fc9103af5b19d343c1ba366a631429b0
fc910778752c102b9c1bfb48ccfd9dd3
fc9107821bfcbfb08f1afd3c598dc0c6
fc9107ff0c7993d7a78d5cc9254bdfc8
fc910957f1f67a989f24d7156c06b9e4
fc91096abf74679804c8111163a99ae0
fc910b3d6d05348b4e6ae0b2127d5808
fc910b59336fef924da9a9057e05ecd6
fc910bd11025656a88d73306e0d7fbf0
fc910d5baf4f846a8717f292c42bce5c
fc910d860c18d1e1efb8fb5c452ea6b1
fc910d9367401d8353b94120c1ea1263
fc91100f6ef407de6a9c615bafeb19b9
fc911077f3ffa99dbff82fd1b8819fcb
fc9111360a1028d24d8c111501d8217c
fc9111ad23923f741eebce790e243297
fc9112ac1ef2cbd956177f254ae766e4
fc9113bc6c64cb81ce964289c1e4efc0
fc9113d914b308e1918b6b56d301757b
fc9114254ccd439a035227be11975aa9
fc9115404080c2936a3212d81878fdbb
fc9115f282a66482cd8b4962fa3becc9
fc9115f75d503d5fde7c350ea96255fd
fc91165e2f29eb7944ccea3c6f8acdb2
fc9116ff6706dc567956d0531500dcd6
fc911736c68bd9dc84ad4e978e6e8849
fc911794f059f852553a50f1c8c18e9f
fc9118553e2abdc011ab452b6b6e5395
fc9118764ff4185a7fdce5fd89e73b30
fc9119f5dacc01b4e172e2943af1794a
fc911a4841e7816f4e72418b753c80f6
fc911b84762e1c99a5c983d3d7a4af80
fc911b97c00780513bfa693ef3d8a1a1
fc911be168e1d390961e9c311c891fed
fc911d25dd1fb67e782a1c57c059755d
fc911e158f3706c77498069c0372b78c
fc911e6f7d3ecc86c13d964b4a064fb0
fc911ea6c5a6bf9265e0975ee454b2a8
fc911f6c84d51ceb212fb53c57ab3948
fc911f6ecb98439c1d28c9891f7bdc2b
fc911fdf1fc548f9cc01f022feb9114d
fc91203b63e8a66eadea62fdd4d9f527
fc91210c01ae68d0e29886e973e6a78a
fc912230d708fb8e908843040927fbbb
fc9122e17681d9fdd301fdceb2e1f54a
fc91236c4da09734dd2280780e69123f
fc9123a728c05005694731bfbc2bbd1f
fc9123c99b684af2a2df41ff109a4077
fc91266602bffb8336d00e5a31db5af8
fc91270a9bc09407c3f345ec6438f9ab
fc912710b752a7a414f563998c3e0726
fc9127352138e3803c8522dc0290e0a0
fc91282498348606e7cee47e6b7d99f2
fc912853878497b10490df1f537882e6
fc9129039219ecd8302a7895d1e220cf
fc912a799253c1719ad05bc21521564b
fc912ad1efffb4bfe1fa256cb85d774a
fc912ae4c729ef83173b0a2dfb0ca2e4
fc912aff1fafa377970216c25c3799e7
fc912be6d083b42cc20e7e37462af86c
fc912cb942ecbe7c5bfb4728baf08e59
fc912cf8a97723db6f44c90642d12fe0
fc912d0e741727a2b86a4596f29aec03
fc912e7fb5f3ef68b694032e906e31c4
fc9131210fb44139d2da6787546f0086
fc9131c88c835178f5c7209a84b3555f
fc9132dc0d8796ddfb4851cddb09d45c
fc91332b2646509b32ecd1f45a6dc01e
fc91348acb6c3c60d0e277cab1d23beb
fc9134eec7b864802d9d0854ca299b58
fc9135916c9d969dcff1fa7d173f65d1
fc913597231f4f8bfbb1ae2e409b24cb
fc9135fa8efa31aad10433eccfed6dc0
fc91362a4e8ef3792341ad3764fcdf37
fc9137310f0a24a9828c0af9bd45e3a4
fc9137895d497b25b105046f45b3cdd3
fc9137ac289eb4e730986f16578848ef
fc9137cdc698394a06dfc42c2a2e70bb
fc9138b5fb36bf89df27d2315c8b72e9
fc913aaedc4a9508a1da51404239e4c7
fc913b97c10848178fb248091f44fda3
fc913dbad2610ba887064034c5c3a75c
fc913e2a4fa2286fba5ec20572034fc5
fc913e5d97a7cb223821aa9a7c70708e
fc913eed28079c6e60c7f361276466cd
fc91406e8da342f34e8cf8bded37f4c8
fc914250f9a5ded163baef360c37f725
fc914279748582ab20e9e48f9a5f5b05
fc91434d47378f5f097dc3e7892729ea
fc9143e509d0c22715b897f4dc64ed85
fc9144594ccb4b33a7cc2f6dc6532739
fc91445a20d368a013e2aa40410563ad
fc91455c8a9954b8b9b82747dc13a327
fc91455f7127cfcd19e451b35b282175
fc9146a99386224d1050ce57503d187e
fc9146b30abe7ffb90a6d32179299cdb
fc9146ec7afccf8b1fe30c4ed9311232
fc914741892d69c4b5fa681d1f3ec725
fc914776ea3cab2b4c54a20537df5430
fc9147b3c9d20dad5e7db7f1bdc458dc
fc9147efd697063e1927a0bc5790b85a
fc91491e7da40b3b92cddd6470ad4eea
fc91492182b2275337c9672b17c0a1ea
fc91495720567a0bcd151b8f1527b65e
fc9149651403dff442e37857436fb8ef
fc91499465f1a3bc263cd7e679fecb73
fc9149ad0c7ef87bcdc44482f75f42ee
fc9149df974d4a909a11942d9b9855fc
fc914b675721261b56f4d7dd0261d11f
fc914c07a23b0b038f86c739c95863a5
fc914c28cd33c57104b61bdc71a83be6
fc914d83b10068f6e84b09ba9401521d
fc914db573a0da62bdaed9853dac9e10
fc914de0aeb47cf22031c716f8f9c06e
fc914e9dbac32f482f62278bc3e32701
fc914f76c9821819ab0114277b0a5c99
fc914fb56f3e9e82ab75b14c10f1b93a
fc914fe7b087c8e802d5cf5bc3abaf1b
fc915020061265f0db85b42e3165f94c
fc91503599f04b3fed097c6f7ef6026d
fc91514f31f53b73cdeb2a493ce1fa68
fc915184e07acd63bf2f2b40af176290
fc91525d40ea77ba354ef1fff569e99f
fc9152696e7c1a19e3c690346bc80aa0
fc915273baf6ca19764cbb3ed513513a
fc9153031292f81fd12b33bb6773b335
fc9153a7142fa9db01eacea7424997a1
fc915413af858a4099f421a28902594e
fc9154c63ce138e02bfe0cd7366110b3
fc915513a35af81617c5abcf8521d55c
fc915577a3f6c86c705bc188ea258c12
fc9156a922bb71650c195af79790b54c
fc91571fb8bcc61a0352c98c77a4077f
fc9158560c39c058b23b503f242d03a7
fc9159286a25dd34c5663814555975c0
fc91594234a1621a7613d99b2d21519b
fc91595e7595b58832535ecfa961a541
fc91599476d72166449598fdd9b16c8d
fc9159fb84bc5f4ea08c46cccd93afe0
fc915ad77867c8d35bd31984bc7df13b
fc915b26d2815190031692db3c1890e1
fc915babe7c88ab7e6cebd40fc9f7529
fc915c481dd095e45a833959b8200d16
fc915c814098faf2ba66f2e3c6321830
fc915cd5ff4aba4602408edb2f0dee70
fc915db75ba27cf7123a4f9e67897f00
fc915e65cff954e4e370a1ef01a0492b
fc915efb4a96285fe6d30c641204b556
fc91601e203d6f32ca53cc8bda1bd8d4
fc9160acd1e7a49200c16edb6190f952
fc91618d6a0808b68d1d2e920fe63461
fc91619e31c1627c4e3261f43db676e4
fc9161ead3b892184ea821813f4c0681
fc9163352febe462298c6ea51d713463
fc9163567bbcd078fbe5ee456affef42
fc91635e0f3a181f546cfd416da70cd5
fc916365c5c732b57658634b69f895fb
fc91640f8a1d453dcecbbfc4383966ca
fc91643f7b1a1d5f20c39d182dad504b
fc91644c74e45f887643dcc6645def2e
fc916458f536bfb8d7bea4c7ad805950
fc91659f48a989bbfeb664d60fd5c3dc
fc9165a4f230b94f17b283d5f4983ee6
fc9165fc75edd6f52b9c9c9270e015f0
fc91668f18a6ae5f0ba6ff6c1d1dc6bf
fc9166dd3d47002d40d561d9e8f0f0c2
fc9166e12a8d7aae3263bb834e7a8ea3
fc91676b3d719feb86b91f0c3febf0d0
fc9167ccfabcd4a0ceedf9cd54783b71
fc9168661ec65fa31efe4b3ebcf3da00
fc9168b2bc6532b113cd0bc78b0234dc
fc916a0af5b650c8a07bdb9b1b2c3d8b
fc916a180134b4976407ce571e0e430c
fc916a846395c52c7169da1493a95474
fc916ae693739281d327a24d02422356
fc916aeeab88baac4d0fc8f606496416
fc916ba3ce31524e78b1acf0c47cfd82
fc916d985aaefbf4601fa6cfb92622d0
fc916de01c6e92cad45ef9117c946018
fc916f88842cc5a84841ff79c2cce0b0
fc91712a79c6e3d2d821b3f84656994b
fc91714761f6b44d9445ab87ba9650c7
fc917162f0cd4869d2ab6cae6273e824
fc9171d33187354872885460c3217b8c
fc917314453386f99fd764beff6bf171
fc91734e680ff12a36c4bec71648ff66
fc9173ccd8c3c51429ae3e625ae2de80
fc91740fd6824d6aeebe283cdab5cce7
fc9174674d89b712a42db5f752b43790
fc9176d460f6404765e1402c5f960010
fc917733191152cc3ada196a0afeb39b
fc9177a03de3052cb81f110c8a250ca6
fc9178375e6b32d8163492613152b0bb
fc91796db779ab97541e716873ccf495
fc91798e35d6700c20f21dba8b14fef7
fc91799185fec938105c0be932900987
fc9179a660e79b7b229aafed48398ef6
fc917a460cb732211a5c4e5fc8bd36b3
fc917a7e3cc7e74ca86ebdcc6493924d
fc917ace98df8e300cbf359482915891
fc917ad659f4b713293d5cbc51e97e3c
fc917ba33addb933f992306f652e7679
fc917c33dd415cd2e0d0f33339f8dd53
fc917c3e3316e1ebb453f07e406fb4cd
fc917d8a2569248bba3f3879f8700b73
fc917df16a677a81f2833626c5d78bca
fc917e29a932f7e2f071031df32f3f3f
fc917ea43c7733aa1449adb17ba50bc9
fc917ec3922b89a89c907b73b50e7dce
fc917ec6e46b6edbbe831ede0ebe9ffc
fc917f0eec24dbc6cd6aa932a68e0f09
fc917f22c6da0feeb0ae44514fc74572
fc917f5814e9967513b6641634c127ff
fc917f804fd5d67a8f1c0c97c6aeff5a
fc917fb3ac1c808cf134b09aa9964bb0
fc918023cf57c1eb1694b58f8412d380
fc91811c429c98236aff1904c62fdb92
fc918157eb1f606ff74abf5aacf37af0
fc9181a75e51274006a20a9bc10c8b9c
fc9182893f372a334a37688431b5c46d
fc9183107f4261875279b199a8b8b570
fc91833dad3c6775448c8a84877d818e
fc9183c0e52d262481cfd68cc31bf56a
fc9183e02a4c19d21d56fe8c06a8a61d
fc91844975e82639a1c132ac5022f199
fc91846ff6823acef28fd81d769548fa
fc91852cb69310d1e559b0f4417d8edd
fc918570de11ce56c99bdd5c292b0652
fc918583f428101e488608df615b70e0
fc918602fd41946d171006d3a8a569f8
fc918605a11f56e48468417a65d0481d
fc918679ef38120c86e18bf490484d70
fc918710746d1972db86b40946eb65ea
fc91874e15d4b1c1abc9b9f79ea4de40
fc918816c70f4bf899e3b7e5fb3f4519
fc918824255ebb42bbb45cd1fb51f50c
fc91889b81d6def040548c46d60864e2
fc9188a853ac89b8e6e0accf5d67ca12
fc9188c76795db170edf44d32f2ead15
fc9188fbbf2766834fd806e062135fcb
fc9189280aeceb50d1e8d521988076de
fc9189e9be71637d61b57321599e0b7a
fc918b25a2cdcb1193d91e08c3b8beea
fc918db4502387ca7cb1a80454a6b113
fc918df958e6f54cac4f283d9cad0dda
fc918e36b0ef2d61cc1b993c1d5fd576
fc918f5377ae14e6aafc0364f6b09abe
fc918f57e7cccfeccbb4ec8aa54b0e71
fc918facd84a8f79286deaf62fbfed4e
fc9190c1000d1f3730011e17b1e3b2ea
fc9190ed2ff003d733e8a22e3812833e
fc9193c6ff80be182d6c03091a9f9aa0
fc9194b99e16d0dbe38513564ecbdd68
fc919510df3554814ee21597c881e594
fc9195b2f4a2bd9b5cae0bc858e51398
fc9195bb92c0efdb2c40ae33aad8c49d
fc919684c3277f4eb7502dc9c72b5778
fc91981cac21f0f60bcbaa7a0d53b91c
fc91984932507bd14430d6708c3c5f42
fc91984ebcecaec5bbda79438818a33d
fc919875569612bb2d19bbf4de05c640
fc919962b40c3830518800ffe30e0608
fc9199c43d43aaee9a060a5292c3c223
fc9199e5cd3ed1cad01533cb97bcd674
fc919ae61eaf0a5cba0265c83c4d37e5
fc919b702ccd2d7a3ff43274d408b23c
fc919cb9632c86b58c684ba7af5b5ce5
fc919cf840a2fd158e7d3e752c28e357
fc919e45518491a3add2e84a49e2cb3f
fc919e63b1672dd523740040c6aa589a
fc919e9e2f6472696b9e64c214d41daf
fc919eaafec212c3f312db3cc5b90fcc
fc919f250a2db33a2bde2c3c04b40426
fc919f6259bf35537ce1c8388feeb6cc
fc919f71c4c454427b8e6f2d3bae7d5a
fc91a02eb2a35bd326926fcdca7fef6c
fc91a1484c0a7973edcbd4efdeec7c27
fc91a1d22d5b1bcaeb444d19290f7c44
fc91a21c436e2b93af721af1168200c1
fc91a240a5fec2fcf0975f4ce2008376
fc91a25c681815d57d8b7beb363e6e23
fc91a30fb3a6ec858f7848eb6b4d45f4
fc91a41fc5081f3472119ba1eb9af500
fc91a453e848e3102aabd73d99591b8f
fc91a45eede326e66aed4461b35c0df9
fc91a45fc71201c138db9a9da2ef1708
fc91a493063f5c13e457a16111c5a1bb
fc91a4aa4b4785627b60da8fa9633845
fc91a4ec59b49764df632a4817de91f4
fc91a513c947352cd9128db21027e865
fc91a55311dfa1856d99cf0fe64c0e95
fc91a56893a12ebf45538c34fa290dfb
fc91a5997141cd0276e58aa54de95242
fc91a69b7c8755dc34e6d789bf7d0657
fc91a6acc291d8329b5f889ed3419e42
fc91a6d5dfbd42d6033bcd983e089459
fc91a6db93e3c200715fb9b34e4b0f50
fc91a7b2112045b0062ac6ee0b1f26ec
fc91a8526f36067123fee2b9dfc9384b
fc91a86c0bbdd437335385c66ae682d8
fc91ab0f5cdc8510e075fd51972d1483
fc91abf13a247a56ff46054d1e4c3c00
fc91abfbbe1172c98ebd0161bffa41ec
fc91ad7ce5ef84d5a1d764189df5480c
fc91ae6794b4986400c1b9304df0f8a0
fc91aee432e0812cf89727616cbd22b0
fc91afda3cc5a562a2be101c5fd49532
fc91b005b648fb9f32d4c471293c7778
fc91b0d5a1d54954d8d17c1d0a55fe7a
fc91b0e31d03c502cd8a708b152d88a6
fc91b15290d8d5170958c32c69419321
fc91b1f1b90b7c346c90b711cba62402
fc91b22a40caab2eee689621bc2a00b6
fc91b2c318dcc097709b4776718a36f5
fc91b31bd88eaed06a0e0ee3ebec8941
fc91b3fd9edc36b9990156e87fd68888
fc91b4328f72f76ca2a45a30d5c19c44
fc91b4c9ba4181391485e99cefd2c3ba
fc91b53e7f1a1bc66b204c1f532eeefb
fc91b609fca457ef501e05bc8e349532
fc91b6d0c3f9d384595bbe269878d013
fc91b73a476cee6a1a7195eab7149a17
fc91b8bde5809e6e3f9c15700d2b61a6
fc91b91d6c9903527f8f8f6cfd14a32a
fc91ba5814b75641bbfff84ea1556e13
fc91ba86d6cda08843157827fb1722a6
fc91bbc95b6c6af0efb24ca59bc1e1d9
fc91bc06e11d114000b1dc2119028afc
fc91bccc29681c3553f9940d5daab573
fc91bcf33a2b161c10c044f857fb993f
fc91bd698e44b7a97dc1b8b5eaf76b7d
fc91bde2e838a41ab3708a3286526ba3
fc91bf4e83937aa0eb1212b237631a6d
fc91bf86280fdf3b0845e13326a563fe
fc91bfaf71ce8e94803b646d62dc68ee
fc91bff761644843ea90691fcbe4afc3
fc91c15279a3ae978c27cf91ee9357e7
fc91c167d98970ebd294bf52c0177018
fc91c1a64cb7998bf04a27b9c197f109
fc91c24e02f269b6dc65c36a0a30d5cb
fc91c3dc7a22e91a4289ddf5c575ab00
fc91c3f4066f1556855399c8a470ccb3
fc91c4977559a0c89ff85380d87a4e8a
fc91c7e082de226d447f83474d7d3191
fc91c99519c4455b9dc979c45f4f78a4
fc91ca5fce8965cadf6a123ec945a5a9
fc91cad047799eed6447cf4943f93946
fc91cb4beb9caadd0117b945688fae95
fc91cbcb1a35d18e8485b5f268230c95
fc91cc0140d2c681d03174853035327c
fc91cc0d7f06ff541cac07a8ed2f5bf0
fc91cc23619e1af23d9a91a9bc41ae8d
fc91cc9f9e403a1ea30e8c48f9d413f6
fc91cd113ba5a60f8bcdbcb8cfdff788
fc91cdd945a234e47266f8eaec0f95f0
fc91ce0c6a1c98a4374e1dced6fcba08
fc91ce0fd468d1867d70eb60e822aaae
fc91ce3f023b5bbb8c5908b881c6054c
fc91d055e85237f0b4308f507c6dacf3
fc91d12d3a0fff90f39a8fd80d0054cd
fc91d1680c0738c25a2f68aeaeef4ac5
fc91d1f8e05fcef4e7513cbebde0042e
fc91d2168dc7a53c4381c26de5e4a959
fc91d25edddfcd3151a1c6ba9bc584a2
fc91d2d0ca9d2bd072017e4fc1cf391e
fc91d2d805afc894b0ccdaa7155df912
fc91d3d06cb32fae1834acd17962e497
fc91d4a02f86e431c248efe56ac87cd1
fc91d5c0d1827099386f972721a3289b
fc91d5dc47d1d88b645b9a7988cb41a3
fc91d663b9b19507535a1ba64150fcf0
fc91d6e9e1d42b40f01b1efaee638db4
fc91d70bb9613dc5261071b6da4ccc63
fc91d7e646ed7603a2ab8aaee8e23b29
fc91d9c137b41e7f6c05e40b6652ddcd
fc91d9e72d9399e4cccb8baf08509f40
fc91da8db8ddee288db26e25d7224b90
fc91dacdc0482cc940710c5d10d1bb47
fc91daea4ca36ad67406c10031939ac8
fc91dbd73a47365036b49926f064f3dd
fc91ddc16634cddc9465a1c5866e9401
fc91dfc35ba02ece0e6e49b932024c36
fc91dfc87ebcff65c4e95b3c16373858
fc91e005467b4f69d4988d4d460a4920
fc91e0187ab631cfe75837cf66cd08aa
fc91e04f83b73aaad4d3982992210e48
fc91e0b04136ad5ec9c5d7deaf169d58
fc91e262f3be0934bb86da551f3b3659
fc91e2cf1b5ad4082c5a06296cf1b3f9
fc91e2dd63e47059e7e7cde903cb2b9b
fc91e3aa4731c78711c794a730365467
fc91e3e381e867a2da257f9daf104a25
fc91e4165c5272d390e201b570e24b29
fc91e4bf64de8422d6a69399e99dcfa5
fc91e5031c0558a1510a2b3d5a3fc498
fc91e54b5a64f15b338937224a235268
fc91e5d12e299737a42d58eacce4e37a
fc91e73d3156928f4de1a7f9e0bbace8
fc91e7428888067983920142d1128226
fc91e7d3be7d7f48bff7b87e3da8da05
fc91e83c22ede37a75a06aa5f2ea6028
fc91e896f8e45b85e17069d11703e7cd
fc91e8ae432d4f809f73b413c2d4cb51
fc91e8f3cb22636a4f374ee0eea54065
fc91e9beca9d7523c5070bd1819731a7
fc91e9d41f9696afc40f2b24963002e2
fc91eb61c21ca21e620521cb44090014
fc91ebacd4ac132f8868980f757c6c3b
fc91ebdf840db6af4dc41196339b716f
fc91ecc44db2b17a3a9dbe7944101c20
fc91ef5e66fc22391534cfc0e8b304be
fc91efd8a996d96fce4f1a831d2cf0d8
fc91eff1a2a05268428a46350fa46133
fc91f0a25c24ad94bdbeca82e3a8cbdf
fc91f10e1abfbc7c266c0f9f5b495a59
fc91f149f943f694e90f81f53ec9c632
fc91f14ede629e981e3555ca57689fd5
fc91f28dc65a4dbb9925e264687a44ec
fc91f34abbffecf90f59097a0688efbd
fc91f3753d8fa83dd0b91f21e679be1d
fc91f37b9a350637ce95b412bfe40615
fc91f3f067c0f63322c407659b38aebd
fc91f49c406b874e69bb608bfbc52963
fc91f4ba708880ee2b08f425105507e5
fc91f6dc961254342d90d71b64d317bd
fc91f72bac51b6084117bcdddefd4495
fc91f73a824d1f143b2147d7c9131df4
fc91f880b3f800cd2486a6d1a16c337e
fc91f9419cd5b8255018caa54ba788ed
fc91f9eff76b681ff48142c3304f59bc
fc91fa2045157917ff4fb83efdfc9f9a
fc91fb1e1979ff191e826c5d4b96c460
fc91fc83dbd934b55faef7a867b6a06a
fc91fe2918bcb63229cd01784f219305
fc91feaedc83804992e719d05c00df4a
fc91ff12299650432daf2d7ccb726796
fc91ff257e54721f45afcdbf165dc3a0
fc91ffb5ba83c5695bb8ff7ed20efd6d
fc91ffff9f4c054ec12e4fb56cd3e930
fc92003d09dc683fca41b384148b639b
fc92015c37acc99078764c055335a80a
fc9201c8ebd4dfb92da3103c171ba73b
fc9201e8f57459598f7fe91ac7046596
fc9202d28fc2e4c562f6e368a01c71f8
fc9202efbb9c6912de1ac6fbc093158e
fc9202f91f4b3e7f4f5a9c7d9124d167
fc92031b8dcb54f6a90c3684d5239e49
fc92036197c6e591fdaaa2db80e26840
fc9203835487550fa4207252e4787e1d
fc9204aa18c747aced1c29c4b2ee2409
fc920837277dcc335ef8053fea229719
fc92090576a0f86bb9dac848ca905577
fc920aa3dd4806b9a3df5c8cf9661753
fc920be9a56845976c0c812706e7e7d2
fc920d053989dbb871bf74ff5ebb40b2
fc920eed21cdad23f8abbb6360704e6a
fc92118c75cff5039d8948c6fc9202c3
fc9211bc66f28f68728265322c54f220
fc92128592f847661546ce59904b7690
fc92133579237b5732bca42f35d44f30
fc92133ae27f9f78b3e1666ce9c387ff
fc92133dbac983fd1965ea766045d91f
fc9213a13631158d2d0696b43930ddbf
fc9213d79e21d129de0366ece6de08d0
fc9213fe102d406fdbb1308e05aed4da
fc92142f9957c85c1353749e6a91f79d
fc92146f6ad47d12ea5f48742d2df9b7
fc9215875b20a4642810a440609c2a00
fc9215b1780fddf90c6e213ce121d975
fc9216dbd0faedb599326d4f531dbed2
fc92179bff7c3c16723056e5d300c5a0
fc9217b4578e5ae289c5c8015bb8e51a
fc9217ded912eca1f9bc34da750588e2
fc9218e355e4e14155b474b8bb885800
fc9219a363a206ea9ad3ee86bf0d307b
fc9219bb8deb13fe5d15c925076bbf18
fc921a2d98921800378ced51f57ff0e0
fc921b9e88a865e1be3c4fed04f62fda
fc921ba17645c8cfbd69e94690d9a972
fc921bb97667c6a68d9934d010f9273c
fc921bc1e5201961ff82590c8dca8649
fc921c22f06e7edd74b3e6173c31acf2
fc921c45113ecea4853b4ea5cb91c237
fc921d900e65a480673a9011089d7a86
fc921e248cf289ba6ac92d6fb0227f6e
fc921e27dea7573b1395f21e2a31ea23
fc921ede1b1374f40341f18375b0cb3c
fc921ee082eaa51c2a0ce330e8c00921
fc921ffa0ac207d5d6a9f3c8ac1b4bb9
fc922002edd49cf72a9e250dfbb20354
fc9220b4d0d5c83be7b09ef37deefbfa
fc922348f9947d5e182459322aa605c6
fc9223ea27cedfff9eb1f38e3e5409ca
fc9224423d5ef2bebee9a8d8b3c96e0e
fc92245a838c2501ac1586c1fed7d450
fc922523cbd809a0d4384d54d6a76af0
fc92253eb3fce4e57621aad85e7a6d31
fc9225b688ecece4b0a18e5c958f2c57
fc9225bbe3b5ad43ff718020b0e3ef84
fc92262168141ea3f00a905102b0ab69
fc9226881369318522e626881aad77e8
fc9226fec3398e1ed6f73cf842f64cd7
fc92277d069c77d06bc151b184b79154
fc92282dca8e1ef15fc5bac46ab0f87a
fc9229106fdd54e55138bcdd8ad987f3
fc92294a767b55a483d1e4b08e2c5fed
fc922956c8103d4e6ec9282fcc30ff7a
fc922a485bc489ee201de18762439cca
fc922a49960d945f77703ad64304ff32
fc922b1f9b730b2241a57d23368a4b05
fc922bcbfecfcc365e952430d7fd605c
fc922bfb9e0a7b2c875c84b472ca0fb4
fc922da9d0d0f3c04fabef27ac0c0d45
fc922e4f0a7530be4feb51c03525007d
fc922e79d0a21a0994c353f05a49dddf
fc922efffe8fcf2850b05a3a3f141dd0
fc922f132636be6cd1539c8fbfc59e1a
fc922f2f1f23b14f2cccb6c6979a505c
fc922f8b9c0aeaad418d7bbed4c11340
fc922fda79c254cfcc2b9a7f118a6222
fc9231c3deb11ac3325a90e1afadb986
fc92321ea879ace26330821ed1efc11c
fc9232f87e6c60cfcd543b1661102ec5
fc92340de600ca470f399519ee809184
fc923438e69f9cf60faa3c11da7c2404
fc923675bbfb134f767f6c4ec5755fc2
fc9236808d932f4755e8d8f906ff6448
fc92373047d9baf55ff56937a622b5d5
fc92374874e986d8169ebf6f28dd84da
fc92378a04413458994aaaa58688e1a0
fc9237f1bed23cc7c4ee41c3b5219972
fc923855e68d63f905ad9c3b82040230
fc92391d5738b03e825cae16170734ae
fc923953bc112186ea90f865c76eb957
fc9239b14f56dfb497bef8f0fb0a8904
fc9239b641dd3f7dff79921a5ded5e23
fc923a0301f3e04b1976740c5a6b55f0
fc923ade1298d39edc541516d1a4c76f
fc923b778b96c2e2f48a91cfc248cbfd
fc923bd85a6b4c2bbfa10c97c68d5379
fc923cad94cd8c9e4342dfcba8cb7797
fc923cf629b27bd47ef4f5e19527971e
fc923e30865f4a2eee2b4a7505cc7d40
fc923eafecd548f847cbe00e410996e7
fc923f867bea5f3699fba4d041bad3fb
fc923fcd093ef7d7311963c32f9a97e7
fc923fe5c8152711c38a6e25d81a90e3
fc9241f5c482186b9c9753527003a5f5
fc9242658ad97f2544ddb7f28a188d3e
fc924305087ac82c747e9f0e71d730df
fc924581b03a50a2ecf4961f8ceb20c9
fc924588f226bc555ce7c32a74873063
fc924661e0e5cd692868f5823fd7bc71
fc9247a7efcbb744b2b636d0368e5c30
fc9247afd5f9e36f89753dd433d0ffa1
fc9247b141293ada2e2217acac22d370
fc9247d7f95e3e1a2de2d8e62ff9d592
fc9247e68c59ca5579540490f89355e6
fc9248c53998d75c644da04f2eca259d
fc92493f5f27f7c14c0d47561476f2f4
fc9249e025514acc07dcfd93a4358b2d
fc924a47cad920df9aee6ab120bfaaac
fc924b96616d7e113245abae09d074ca
fc924ba801aa5c68f53ddc36c0b7dccb
fc924c6be999c97ae02d616e089fb718
fc924cba7d4b2158d153f8dcc04ce3c2
fc924db7fa36071fe3c18193044d75ad
fc924ee082fb49a0d1441a468627caf5
fc924eeac33b56dfc0280292312b3683
fc924f5631cf9238515dccc0481bc9d1
fc9250c150a0a1a5ca1ee0da161fc11c
fc9250f7de9aa676f311326ca527c32d
fc92512227346f3d37c8f59f41b330af
fc92516d3cd56118cb89648031c446aa
fc9251a3e6add52f00f94b988ea245be
fc9253223991e4b291cae544b991e19e
fc92533117e3d5af80536ef3d7e6f4bf
fc92537fd53bec81f7b700338dc9c9f3
fc92539c4e6ad1841c110a7be0d031dd
fc92542a009c6284d2bd8fb0fc37f8dc
fc9255258c7d8cbc85d84ce9436ecb9b
fc92554c343d520573fa9b5383e9779f
fc9255520ff78d120776c3a5bacdd633
fc925568df7150c8cf8d3ca05260939b
fc9256240880f62927cec418addde2b3
fc92575bb2b4b568b3dee08f65693aa7
fc9257699a1db9252fa11fb9174cc51d
fc92579f64d286a3c093acb35479dc87
fc92589ab83a33a14b34bf71f3c8d923
fc9258ad76939dc7957a784f1e4e5a10
fc925ae8ef26df383e0cc1ada6bdd1e0
fc925c47946f085afb2cb9f41b9da921
fc925d388b83419a432c406492eb49a7
fc925d8d250c8deec8f0ddda81eb2772
fc925e30ae7a1715e00f69fa263a6e7f
fc925e4a4b8e76f5d07654ee3dcde02b
fc925e7b71bc24d82e669c1560cb89b5
fc925f310fe41f971ca836f379cbba2a
fc9260561a00be135c6abc3694be684b
fc92613476bf96a165a13a70a6aa09a2
fc926234b525d2c38d942300e44db880
fc926299b7ec05e0377bbf382e491766
fc926370786662c140fb3416efff8c97
fc92638c43420c87c418bfd9f415c133
fc9263df3cd56285b7851a2f99824066
fc9264985811e88a5635094fb5c70f81
fc92653d470353738ff6fcbc6d7864d6
fc92661381645cc941161c394add5b62
fc926636606c568be3c8719c47e0084a
fc9266395548d67df5102c11eeead826
fc9266d59c4d3411734adaa19844bcfa
fc926848842f49d9858415f3fa1931bf
fc92684e15c13cde66fcdbf8370f4f5b
fc9269499350058d5d7e2edc943efe6d
fc92695912314e47f29944ded6f0e909
fc9269fd3670257ea6cfe43d63bb5b81
fc926a035f45b52d8a9ea4929f031540
fc926a2fd18fb0a3d2d483bddb09caf5
fc926b87d061cae6dd8cb26729042f38
fc926bba0f2fc984073b7cf1c7c1de39
fc926bce01110700b6573c1639d0cb8c
fc926be2939a57a41e505fba44598d64
fc926cb3a0f0c05435b040e00b3518ca
fc926d9ece2ec23b3007af54c91eda18
fc926dd46e4589cf648dc89f859f4902
fc926dd5c84c69ba5ff94d69b197c99f
fc926e6e2ae50d48365c4344456bb122
fc926ea9aa7547e3cb73a82daf6464e3
fc926fd40dca81bd12c0fd66e71627fa
fc926fec6df4964e907d287bf957b1a2
fc9270927e246fa0504e564898d30470
fc9270d3735e63651568dca91318f8ac
fc9270f475b5db9b625adfcb0e851da1
fc9271e7fa37aa27bd3f835072faa124
fc9271ea335175efafe5f282fd923100
fc927211d32fe78246f9d2674eb67b83
fc92730a9b99eedfa3593dbd95336bc8
fc92733eb2792f0997edbdae31ae4bd7
fc9274789ba32ad281feee9598281ed4
fc9274bd9f92c9d6ce9cb88cf15d4364
fc9274fbb93aedfbf6f94e212a906be4
fc92762a7462a79159ac87bc6cb340d4
fc9276886891b66e25c8b22ceab0ea67
fc92773d759976f1286eacdacc9092b9
fc9277420bfc52d7215ca2a510b55e8e
fc9277bb9fc51de351581ac2a541a9d2
fc9277cf947d0638e942141e3ee81664
fc9277f68dc48e79341d9f7e697acde2
fc92781b57882ecb81dbb157685fc067
fc9278434517cb60ba2daf68ed09fe6e
fc9278ea0e264e0efbec699485258e80
fc9279e463ce0fbc5e646fb3f9be4182
fc927a8dddc8a5e934008f28f207987e
fc927ad75fb69906c1d5b17bfbc823ed
fc927cbe0cddd66ef05e868b4817bf89
fc927cc48fba4ecd17f990edc5d96e7b
fc927cc4d62e6ec45132f6a658f90cd0
fc927cca262f2b36f9f21716cf82a912
fc927f314b6302fdf7dbaf275f8a8a31
fc927f35e62927df814a432a749a0fba
fc927f846f17574a2edf67bbb28f3e3e
fc927ff8e84395bbd81e3b90032358d8
fc9280ee422cd359c554be44a7833359
fc92810d1a5cf1cccedc1ed816fb9ecf
fc928124ba4fe2997f377b965f4dfac5
fc9282423453170083d6c0aadc515f11
fc9282466acde5a99abc0a36f1a68986
fc9282aa636bccb3ad3f31b8009886ef
fc9282b19d15d52f1b6c27149df6a23a
fc9282dab3ab4c2152b0cf78575bf3be
fc928338319b42047e3e6cd42cad3087
fc9283bcd2a823a88a2bcb1dc7852e63
fc9284a8de1d1bc70b3f1b9d36a369de
fc9284d791105b07772455cdfccf9b88
fc9285520506abf084dc87737dc05b08
fc9285a89d6a1ab1ae76b6f0f5178d33
fc9285d4d2b801437a54cb1210c9bf16
fc92862bee9c71192d252e4276c11d15
fc9286d59c66b7b7a7b7b657d1b37c86
fc9287f6e767aef564b72469e0abee12
fc9288085a2cb1e36dc00a4c0ed62aa6
fc9288bb755102ec62e5035fe0ffb347
fc9288e4c702a85bc746ff79a0fb4dd5
fc92896e9732978e26dd437742c26366
fc928988c6d839be13a04c5473b54d2b
fc928a2890ebdf4c5e117aef3a5e9ac5
fc928a4c160b59c7afd26cb41744d0cf
fc928a957b56532d4a5a1ba4b18bb78a
fc928b1414f12d79ac7e6d9d71051cfb
fc928b3651d575846c398d0f416868dd
fc928bb74c26082371b6d01d2d445f00
fc928bc207afdcebe8b9cebd54f84314
fc928c8eda0992735b1bd016bac30429
fc928d18778ef57253cc11c1c3a6b1ad
fc928d3137d91aa5e332dbae7afdb1b0
fc928da44dac4ca06bea251f2ab799e3
fc928dd8070c4f66d86e390d2912cd1a
fc928e8d96bd5c1539ff165928cb4b02
fc928e9953fe52d7dc2a48087a0b8ec1
fc928eb28cbdf776f35885b7f9d7cdb4
fc928f39929cb2793c6ead41c48b5567
fc928f45a3c47a4e53dec242967e4182
fc928f4b41ac002b224948759b33c106
fc92909539010c60f79cea3244b93710
fc92910c4cff6e2f69607345154d874d
fc92911175e063c95da6548dba2e1453
fc92913c0e58ee1d01016958ac63a4e0
fc92918938526ed330fac9b5386d1a3a
fc9291e2fa43c59388d66a07512d3e9b
fc929203e3af51ac0e5931f833ca063d
fc9292631cc1f7bd0075f3ba03fe4d15
fc9293cceb90c0fe78747499d4c1d03e
fc9294c08fb1920668a0b07d149e425c
fc92955c2788b6ca9c66304d2038c530
fc9295bab9a584fcc123280f46f6a987
fc9295f8764a166c5b0d7891984282f4
fc92975835925ac41a7ce7c7c66fea37
fc9297a1572c4e5b85f239e4bca83a5b
fc9297d66aa4ec242b95e00501dc249c
fc9298ce89852201df33b0f00761559b
fc92992cca46f684e59a054875098474
fc929a1d9ba9c0c26be3dd1aafe6802e
fc929a72d0aadf8b22526cad75d01bea
fc929ab739710de8cbeff524c648b4f3
fc929b5768c82a403286b0e5de7d76ed
fc929c8e36f34a4c373031759b069110
fc929ca4448c8269708cbcc0a2d23269
fc929ccd9579b7c4fbc75aaa95629f12
fc929d033677aa96361ca567a6580b2b
fc929d8fa33e67536fb693b9593bef83
fc929de9bd4f0893c41d62c8933e0efb
fc929fc18df67d5abf7fce0558d2c06f
fc92a039805092ffa6a9462fa75b4380
fc92a08ca40e91c10b3d5f39139cfb75
fc92a2c259f66d1fc78182f72a311910
fc92a30cb78917b088e0503e81c1af36
fc92a322d1fedb87124bfa82edfaaff3
fc92a326a7e4de6208a7515a4059955a
fc92a37393cb5343524cc3ea30299de0
fc92a3c5a372d26968c8dab0272cacbd
fc92a3f717dddc18e6083a57843959e8
fc92a4dc53f0f790900188c134942249
fc92a5f93d5f7996b6ef74dad6765cc7
fc92a7abbd182bc74707366c4b8dc88a
fc92a88f4c235f86cec06434c1e5383d
fc92a9070755c75f2ccfe873c5813d4b
fc92aaa9899a203b7d952aa80709f4d3
fc92acd96724f96d5b35871f0ee6568d
fc92ad22f7d6a0954a743f0372e5a0fa
fc92ae1d515d5e472d089aac719fc1d9
fc92b0202b6f1cf87cf98838208cb934
fc92b0a84fe423544b90c14e84018527
fc92b0aace2ce993dd64f2446153c582
fc92b117e543ec66d29c29e9f4793c68
fc92b16279ecf3d920415179fcfae1d2
fc92b1d653728f95480c1faedcd5eebd
fc92b3e80ec50786b0ab42eeba2c1473
fc92b3f76046c94ffdd2bd5c13c5faa4
fc92b45c132f6f1f7a7ab575de3ae3b2
fc92b4e4199cf1ca6505cbdf64581f51
fc92b55a15ac4818bd4b7f2b7ffad9ad
fc92b6191b58db580675d4b8886beb60
fc92b6683f2a95f7b0f894e02ada6fa8
fc92b6e9d94d22c609749afd729e17a2
fc92b6eb20570127d381831c8e17153f
fc92b773d0f3c9db20734fb409b36954
fc92b9b32cdad1df6127762c6f1de3c8
fc92ba3ad697829d9c7fc808962e6eab
fc92bac74046292266f87e10b80808c3
fc92bad764af0016c3401e1496826071
fc92bc62ae58849f47303d2fc96d0291
fc92bc753eca5c057622cb7f3bb2fe50
fc92bd0b3f1548bf1245f9999c0a90dc
fc92bd70e3600dffaf2681618bd73a3f
fc92bdd88ee021b6b5150557e29030f3
fc92bdf2d1d2a30462e5fbe460cda0b8
fc92be05f7a91bfe2e6ca5baefcb99c9
fc92bec9fdfc819759983de1b05cceae
fc92bf119d856fbb5b7fd3a240ae6eea
fc92bf9656dc1c1d57ccbcd28ece7e02
fc92bfc1fcca61fc91c8aaad78e1f4db
fc92c11033f93496cda06e7b6f9d0ab9
fc92c12acaa4860f6c827d21916ee920
fc92c166f75a854469d82cc040806d19
fc92c188626d8d9ac5e3511f4b30facc
fc92c19fe6eecb2daaa8f17e167be5a9
fc92c1a5106db75d4311edf4b3d48d50
fc92c1ce80b3a1383f73407221197f7a
fc92c26242572e6c956396f5372e2edb
fc92c29dab8ca31c3bfd2d950c429e2c
fc92c344281937a73d149dab762e3c50
fc92c346cb44a0b65f4d069cbc4add7b
fc92c3d3cd365f38322b1be3c9f10317
fc92c56246a717bcdcb50d10c92c5bd0
fc92c6639a387061b3cadcfc9145f9b8
fc92c6a5865a963804df9c156f312086
fc92c73ae0fa8bbda29b8ac14dfca1d3
fc92c74dea07c8485091a038d0662426
fc92c785cbd3b5ba0f5a1ceec46c2ad5
fc92c7e45575c846964a799a34586bad
fc92c8d5058c2c9d782a1fb57700f7ba
fc92c93f4f5ba4b5d354e87f2084c2a1
fc92cb414f6fd681c08603449bbb60e3
fc92cb441e88e88154711a424e436ad6
fc92cdf9d2515206ebad0393e053c7ea
fc92cf2865b4af9749e1656942c9dd81
fc92cf6e4e99fc5ae09798ef11fb5307
fc92cfece14e8e6bf65d2c15b672f305
fc92d17f26375f1d128ad186943589f7
fc92d187922e35ee0760be21eb315475
fc92d2001a9b541666604350aa2004c9
fc92d206259c86aa36e525d1af323652
fc92d20e00fdddb637c305e75e8037e8
fc92d2604c8429fdda2d8da2b29eeb1a
fc92d2f94501741fd97f28e3597ffbd3
fc92d403eb191c57d57cd29bdb4b09d0
fc92d4fd9ef20b30e329226119e7216a
fc92d50e3d334d478b7c0dc63f233b53
fc92d635285ea3d420ca4c56d68e88a4
fc92d6c37f0a43d0af607df86b56923d
fc92d7837b3b6ad51bbc78ddb389a64c
fc92d788ddbb06bee194f6278ec41a90
fc92d920145065caf56dbca53bb66d35
fc92d973f416f4664b1b4a96c56ea2c5
fc92da59bc45d3a9b2fa34b8967a9e76
fc92db2f2606c388732a807f02d21387
fc92dc1513340a6221daf67da4533811
fc92dcfc2b03785f49d1b8aa1765587f
fc92dd71ef8cb9722f9f95acd163a9d2
fc92ddd2934332690cf9b17bc88a08f5
fc92ddf0b746e19d226fc8b7759c99ea
fc92dee42368858a032b018bed20bbbd
fc92e0eb57eb70ba715c35b34c5484d6
fc92e13bff9f103b15421129feaf2255
fc92e14b27b7cf81383d8949922c91d9
fc92e21779ad0104750febad86b675b9
fc92e26fe7f762561f1a5f04ff1fdbfd
fc92e2b0987a14d457c51deddbe089e6
fc92e2c4e67008561246908c3447a0ae
fc92e2d01aba565865ba03b8620aaf30
fc92e31fa36cd7dfa6ac3f3b32e863df
fc92e41fbaff37e7e761db7e90ea81fb
fc92e42addaec2d04cc6fe27591644c4
fc92e4897f9a1642de67ff0423ec03d9
fc92e506f5a19ef9a7e8763ac89845a5
fc92e5ca49a0fa35b451b7a404de09d2
fc92e6115f4a034e3174882a758cc118
fc92e756a46c98f1d5440eeb5afb44f7
fc92e8b2b450470aff96deebb264bf27
fc92e9bbcf1a57b60357d549d34c0774
fc92e9d4a60c31a44b9b5a1e2c79fe5c
fc92ea6e7f16d7b2d594cc5093bd7e94
fc92eb2580c777f54d1b01a0544bd410
fc92eb6d6b32b015af18812e44b07072
fc92eb6d9b9b0f8e02074fe239551e14
fc92ebdc89e05f9472e8001dfceb7197
fc92ecfe083a41ca5865f4f995700080
fc92ed2e365605d73423c14e7ebdf766
fc92ed583ed8c3b2fdf2ad0cd8842d0a
fc92ed6de84155dade8fa316cd4c26a9
fc92edd7fcca1549c70df75e59a9284a
fc92ee279cbe76fe4a4f4f760eb48214
fc92ef1a055b70fec2d9c70536d12bf0
fc92f0145075fe42e6f5315755b070af
fc92f06efff1be8f7faef60cbff3c611
fc92f15a6e1e5f066adfb7c8b1fa1853
fc92f1abab219ac02aacd90aa12a9205
fc92f2038b5fc6766bbff0f3a7050924
fc92f20e9af064a95a41dfae00a62d00
fc92f21434214d928f1dd2a39287cad3
fc92f274a8fa49013a1b597984e87706
fc92f297715fe8a33e3f45b07eaed254
fc92f3b3edfb1663c448a02dff313792
fc92f77d7021f2399b1fc90136fca7ab
fc92f9363b23fed000673a8f19172e83
fc92f952e57ee8d6d69d2b0621186456
fc92f990b12605d1770529917947b77e
fc92f9b8601db9dcb0bc688c1871eb73
fc92fa8ffce9f214edd40df087b6ae5b
fc92fbf859dbf1e39e85cab0fe2ada53
fc92fbf9b75480444d97c0c5929ff450
fc92fc2495e026e09222ecb9e45a525e
fc92fcc08b977acded5f505cdff08780
fc92fd35309884fba0664f40b4918fa9
fc92fdd22df2037cde30fff28189e315
fc92fdd855cc1cfd19e6d32c4b23b599
fc92fe19e211cb4be027fa6cc6f52004
fc92fe1d93835fbba5a5fca2e323c5d3
fc92fe6059563d0be7cf7131882a910a
fc92fe6e6938183b2ec9bcecb34d2dda
fc92ff3bf7058ec356883bc95a59b28d
fc92ff6e2d3e06e50aa8ab1e0e8f0dff
fc9301337478f3169935e6b7edbf0307
fc9301bc0812b6f325516389b6dc119d
fc93021f810dacf35da8ebdf7f131a59
fc930224d77eed26eccff7cba7887db5
fc93025e1c4c415fc86c1844942f9e8f
fc930266c6ec1395e2c21a90c7d492f8
fc9302926f142412f6ce88ac062fffcf
fc93035dbf479ace5bb4e51e0d865a32
fc93063d743011ba770c8f8b5baa07f9
fc930708145384d21169b47db925eab1
fc930737347ea611b52e2b9a60568600
fc930806097636935f6b676480d805ef
fc93082ab63925017f6f4827f2abe223
fc9308f7f47b1d59dbe6765e801b2cd4
fc93091a587450804ccf7dd6d4d4bc99
fc930987f88b431a9b2493565c33f801
fc9309b746a43df5335f02d63cdebead
fc9309f5f5833b0c69962282d84121cf
fc930a1aa543ccc67566171a23b482b0
fc930b05db3417d810952b109f093bfa
fc930cca28256cde05689dba5052fa2b
fc930cf9299862012295f99732c4efa4
fc930e39a31fcfc4f40727b64acdc2f0
fc930e39ae9e40d08aa9e68bc69fe537
fc930f4a8baa612ee74d6e7129acae2a
fc93106496c64c260537abd4895dc013
fc9311be969213658fd888e235461367
fc93125703385f6d61c43ee91c43163d
fc931471faa704be36d36c260069d4b0
fc93152be45cecaa39aa2167d3c021c5
fc9315621581a9e089267ced0ed4bf52
fc93157abb5936b6f772188d0fca70b1
fc93166cddd57bd6f11fb505a1a11ff2
fc9316c3d2440b21a7daf7b25390d9de
fc9316c984507e0ccd89a59f1857c90b
fc931729d235fb16d2a99b75d7ee0210
fc931948d41197d41c6d88ea3a3e3601
fc93197aeae9184a675216a91e17ffab
fc931a0d7fb481aa614dd1768e5c779a
fc931a7e0a72f59c505b0f175a12d553
fc931ab8b24a7c70c92477d4dc72e438
fc931b3e35769d977ed6f4d1ec77f84f
fc931b4062e79b08daa749de2bd74d8d
fc931c6cba53d18bfe809ee49c74bfa0
fc931c6e5c795be7e0c4fb998300b4ee
fc931d2d0a6d8b3845d2559b11edc0c1
fc931faea5fbdf19d216f20e286d7d1e
fc93203905ca740afd59df4934d60750
fc9320ab0bcdfc855418e2c73682adfb
fc9320be1eeabe072afa0cacbfc13a75
fc9321f522ae58e23ff3ec6d232fc22c
fc932282adb2ae200023f2861a4295b6
fc9323513712540e927aeffa359febeb
fc932408574dc8d2ef7770446b2188de
fc93244a65b2fb9652b7bea446fadc74
fc9324713f6187d247db8ad09ca61d28
fc9325bde6e9f052988aded6566a5c60
fc9325c15527382cb9fc4a8b57772558
fc9325d73072304dc677baa28d1e41ea
fc93260eaa617586eee1bb581cd0faac
fc9327ac9b7ee83bd02aa3c162e2c940
fc9327f16903f94b513dc49cde9ed810
fc93289c3744fb707b4b5855ef4ab341
fc9328a64864e8433ba58aa3e436ed70
fc9328c36dfd2c55dceac60f184831ff
fc932a55119f93421b78307727288660
fc932ab825e735a3d315c75261c76ca8
fc932b534e268f10766e820e5eefcfff
fc932ce654ea4a203d425a8c844f0bdf
fc932d77c9316b57739e833bd2f2f6bb
fc932eeaa799886072e15a3b8fc57870
fc932feed4df647d443d172ca353263f
fc933029861c8f403e98b5d25e0e21b4
fc93302f1dd441fe559165718dbc94a2
fc93305607875c05b408626aa2b63ebe
fc9330b2204f453c807aae67bc83d0b3
fc9330d58bb59db37bd7f8b44a45b5da
fc93310ef20a0fe1e8021677eb2b918e
fc933119db55cdceb090fc75b115212c
fc93317ac868c20dfbf1ab370223f1cf
fc9331e4811fc55f6a623fa2f47d4bd5
fc9332658c26cad1b6691eb0ed5b9587
fc93347bcadcb9bc1651e13e88c05b64
fc9335066089efc640e1ed9c6cf9c779
fc93361757b6960154063e5033ed65d4
fc9337c2ac8549e5570483b9df3e9d8e
fc9337e8eb20963c608d866af5fc151b
fc9338cc18dcd6cf536ed9de10ec4973
fc933b6288a1174917fd82be7dd6907e
fc933c37a60da6ba4d12d975d4cf4c2e
fc933d222b2305fe3dd85d32890d3413
fc933e34d1d3b23345cc96a518e36060
fc933e4a38f72cb5c5b2dc67ff2d3e1e
fc933e67fe4402ece8c40c80bb0c7354
fc933e69739c6cb8f91da97c23b34df1
fc933e757bf29b886eb82f0816ae0043
fc93404cc8c59ac1bc7ad910a52b28f8
fc934067e6844a184ba85b41d0828979
fc9340a753a289d5fe1cb84e791f4e49
fc9340fea2dee206dd510a6593087f9b
fc93410e7fd8058e6c1813b75cc9c5ab
fc934177fe9661e2c9c737ca2b210cbc
fc9343706a33bd43850b55c363a85980
fc9344a157bab7fa2beab223a5ad1bdf
fc9344b782761a3f910ec49fcc9ff010
fc934572d339906a0e96f90986b63fa2
fc934606c35bd93caa74737ab510505a
fc934643e0439e3d73c7ebdb3b650cfa
fc934644d50e64362cef139fb7f0ac8c
fc93466db253646aaab2af64c0dcf8d2
fc934694548b90736ecbd94e73b76cab
fc9346976e65c34d53c57df470c85a21
fc93476f5e00512cfe238fd8cbd89b85
fc934811dd8f7760060e28478cc6238c
fc93492964b3a7858932ff5aea228ae0
fc9349a23bb2f62cb8a0fb24cbdbc8e5
fc934a34bde6386c4f5edba0a534ba5c
fc934c29b7c67bf0579d5cabd3bdcbf2
fc934c32fea4b468f2adbc0091d5d52c
fc934c512a477850d3886a41df2c282b
fc934ca534b47ad443b7bea02d0d7db9
fc934d32a46e865e3fe17a2e7f7b3036
fc934dcf1e94c9e7045c13ad664c31f2
fc934dfdd092c9bd6823f1a378bdc2d3
fc934e4dfde31f721d21f480c620c0ef
fc934e9e9e80c243d849b9188fada8af
fc934ea9a28e1987fedbe06e59c27ce6
fc934ecf06885eabc3eb072444cd2a40
fc935024aec7cf7e25474f2f696f2dc7
fc93509bc9c34bbdc44d665b24a92b1f
fc935192caf4268eabec7e01879b3eb5
fc9351dd30a658d6227af4385989d542
fc93527ff229b6d4b693710b7445902f
fc9352895c7ff28ebde08852cd4c1da4
fc935406ba38ce2f6a4ae143eed9319f
fc9354d986af254ff33c51bbbefbd74b
fc9354f739e7d2cb47aad1a05dd0d025
fc935563586a5c853d2a2cb5aa5b3d13
fc935574ccf000fcaf5cf7f241ef7473
fc9355a2c2d6003e4f903120d2bb0310
fc93576a40fb3c7f6aa52ce424257531
fc93577d17e10c46c70f489bc7ce2273
fc9357a0e8c3341d0f6a60aa11042356
fc93583f0ce55c4880d393e75e3f66f1
fc9358b3fd30c109a99041c63900add6
fc935a2f9732c8557d0134a556bdf6ca
fc935a4e28a04d21c561c0262fdef6e3
fc935acd843ff2711a13df76e4a2a683
fc935b8a38f90677d42e99ddc9797650
fc935c27bca8e55f2f23396311027cd0
fc935dc0d0ca4c9ccdcb9e8e2dd735e5
fc935dd9c905759b90cf4b9b3cd4b917
fc935f0494dc56f1ae9b0a289a74dbe2
fc9360c5a819cb7ba6646cca3ea7d4b8
fc936132a6ef42ed36e63fb8c1587da6
fc93622e9b92852c92986cea210777bf
fc936320727a2389c1e27872cf368a66
fc936387d4e47a6c8fc2c870ecccb88f
fc9363b2d2d37c36189d149de192a57f
fc93646e0355474cb210fcb5f0a2f74a
fc9364ba01a3b6ab3041f6c144b2d763
fc93661bcbc118d4e16e1217b4e74a80
fc9366232260c3e77369930c82449118
fc9366995ba7896d6061c48c0bc62af3
fc9366ec616652caba502d3adca8a7df
fc9367cea7c3f6916af7775e87f4be92
fc9367d32c2a1a56ca7065ab09cb5128
fc9368a39883e40e441dc305fbfc1450
fc9368d74d52a68bfca927817b5371d2
fc93694cb03c25bf7a75dbd78bb84ff0
fc936a1c83b3cdb69107ac83eda814d8
fc936af250f5abb36afd83822e265a48
fc936cc6bcde739b666a3c06c5625b2a
fc936d573617e9857e72ff3f532c1059
fc936dac7855b7d4b1652b34a38eede8
fc936dff456aa6359b78b41e6948c975
fc936e0be0761493a3b8251fac78b12a
fc936e9f900e1011e75c75ee0fc75ed5
fc936f27f3fd7f788877a0b7c8db7195
fc936fb57973e3cefd70de911b3436b1
fc93710620a34fd3b5102605f42e8c80
fc9372fccd13dae7cacc8f1199a06f5f
fc9373718e9256edbc27bee11d7d46ee
fc93743423b03fca4266bc2a04c3b826
fc937448a76f9f2f6c6a90944f140a42
fc93747dac5848971d9a3673b9a319c0
fc93752cfde436b800fc8f484d31326f
fc9375a57ae55064bc347041121086bb
fc9375f15070ab0e38b49d64b8c2d221
fc9376740ebf9e7691ab1ae8ecb5163c
fc9376bc8e9d6d28da7e1a9def9cf535
fc9376c52692a65886ed4ff3fbf0fb70
fc9376d4ffcbee6ef3db7bee213f1e85
fc9376fab862ae6bb13e22879663e8c8
fc93774b2ae4001f034a0d2c2a9de634
fc9378c2c5b9ef30d4f5db3d80df89a5
fc937923d26003cf5df4c6f8b9411be1
fc9379a812c556702a8b8c666ce7ed29
fc937a2cdf3157943150b4e84e68cce0
fc937b5dac20fcd5e787f0a1d017f2cc
fc937bc0c195a2ac09e8c27e3f0d6e26
fc937bfeca5238d2ad73c0a4dce2f327
fc937c189225b1bb83372f0679dbfa62
fc937ce5ff0e858bba4fe5e80a742766
fc937d012e2b791e8a11f26242e6b056
fc937e5af73bb1a8cef2df721d978ce0
fc937fb612c80052871b3ec8bf90a964
fc93802fbc248eace5ab246888a2f056
fc9380aa4f7d1dc15c4cecefd7b8344f
fc9380f332b6228cfc7b25c217bee9e3
fc938172da897fece1cd1cb4fb7f5d54
fc938194944244042c0b6d277f31b495
fc9381f90b6c03a180cb0619cd81619e
fc938297cb0b4479bcb87470a11fc648
fc9383e65ad25254097aace408398b37
fc938464dbc12038fc6a20828467a563
fc9385136464994e11f98c1ae312d574
fc9385710e0e0f5bf91c2020fa9c7011
fc93862d9253bfd79aff46fc9fa9a72d
fc938641921ba5733ada8f3517eeeaf3
fc938642934665c80c3b173cfb80f52a
fc938691790cf8d5f585e36972812641
fc9386edd0cbc04eb8745ffb18b93942
fc9386f18e07803414343b8121f2339c
fc9387d3ac7b7da533c86c41600da529
fc9387f24dd9b39442ee9658dc97e3b8
fc93884877b3dd72712029f963e79aee
fc9389002306d9a94dfbde0693607a37
fc9389c04f91233b429d0e379ccd9b6f
fc938aa7824c2b454a17e57e6568fef0
fc938bd71f76992f5e0a70149cb25680
fc938c70447fdb28edaf8f2b9d818b2a
fc938ca22291e2d5e75cda3780bf24d2
fc938cab2a8792d612ab4533a8a30030
fc938cee07902a5520fdd73264411e6b
fc938d14f8c4a9321c4467b0b27af42d
fc938e050fea40513002557697c382c3
fc938e22eb516b043cf3cd28557703be
fc938e49c8ae0c5de5cb232020a44d4e
fc938e95292216ede399cd4c773818c5
fc938e9a90bf4d7305e374f545243d3c
fc93933e537ff727371bb79ac8775288
fc939402bd99e8d9f3dce814676d6b6b
fc9394090eb717af3e303bb7b9d10528
fc939436d1321d694f43a15df4c96e30
fc939444734cb383668654a931853040
fc939590f758d06e0af91bf89f3b57e6
fc93964587b776f3d232ce034b767b15
fc9396c0ee59440940a420b071a7fb85
fc939734830f15b3e12e2c641339c56f
fc939754f6ba93b857d0e1866bc72f46
fc9397d3f35407e437976e4e67fb8a9c
fc9399bf5dcf55dec6ebce639f0f14bf
fc939ac12db4b06cb380ea3bd07309f0
fc939aef72c4176f5434e4d994d522df
fc939b37c176dc56ec0f819e6151d8f6
fc939c28abd6215dd23d34a3eacbe8ac
fc939c67ea80e1e2d5d8471a66156a57
fc939c6ac17695d4f8b524c0db0fbac1
fc939c82ea9e55317170f4f8b6ba56bd
fc939ce1a2547105ec21ef8731dd53a0
fc939cf38b9bdd473907ad9c2c971222
fc939d17afc32973d985980ebcf1165a
fc939e865c3912273fc211db0bf542ab
fc939f6a10e507ea4559a76e172bbf52
fc939f965cff3b71e9142e9c40638c85
fc93a14c7080b396bcbdbc9b01546824
fc93a17cdb1bf4afad25bb1337448cf5
fc93a1a5f120cff5bb29fcb58310ea16
fc93a21a994a97d93095bef6cbe48b3f
fc93a23d95974508563700b5b1936fbb
fc93a3788c7888b7fd68f25c644e9585
fc93a530d1ae21a17e959b893af2dae5
fc93a7595a9a474128e92300bb80ca67
fc93a87b716cc163df6130a8eebe65e2
fc93a89c776b2f7d4b32ec774bed5dca
fc93a8c46ca7e3efa64d09fbe005e4de
fc93a94d2d1d4d2d36de65bd251dcfe7
fc93aa13e46cabe8f84807fcabed7650
fc93aaaef5587ae5e69d0c053b2e1463
fc93ad4782523a6b50f4420d8992692c
fc93ad6a10eb2f9ac1750ffb10037273
fc93ad70a5f012a29c7a9af29bfa86e7
fc93ad768ab0ea1b6139e4b14c4ca786
fc93adce2ac9ee465d06d9245673d946
fc93af1ee48ebfdeb644b85623ede2ac
fc93afdbf9dc7dabecc2ea74f45b567d
fc93b033e6aca67c911f9446eb3ad5a2
fc93b066b21e22a5771d58c237d3ce1f
fc93b07baa1fff1c56fdd96f8b702f99
fc93b0c9e423afdcf7e31ab28d799c20
fc93b13e2fe9714aa79fc28ad9a3f435
fc93b19e19ec36215735adfb316a6e2c
fc93b1cf78dfb78b87f9b5927ff52577
fc93b2b64c27a3889e8b9276c0197830
fc93b42009670bb71e5264fd77ec5872
fc93b425c0643adfe2dfcdc081650dd1
fc93b49dbcdbd5357c90119bdf3468e6
fc93b4d2b1ee80f8789a0f9821678460
fc93b524649e8a35cc843bb3287ab98e
fc93b5b03a08e997786d7ff24d406e4d
fc93b65bcac5960872f7541c3eeccc67
fc93b7ff085ee376541d057ba6aec2b6
fc93b8855b96558dc181d27a0af1e129
fc93b92e5993541ca0189912256604c0
fc93b9397d3a026a5022e8459b4ffe3a
fc93ba510dceb39686cfd39bba8c8bf1
fc93bbd2eeeaec3f90eb6e3245fd174f
fc93bdefa54e01b81c569761f625780c
fc93bdf6d5f87dcec9cbeeaf08b04034
fc93be3cbbab95188bda767f4bdfe9df
fc93bea92e032cfefe9343daf1c60a27
fc93beff8d5e57e99aeacaaa44a68eec
fc93bf380bf68aa40151f8d960dda728
fc93bf3f02d9ff6098fa1b9635c6ded6
fc93c05faab72a9a4156ce4880911513
fc93c0668ffb0d9436f8d51f7c19218a
fc93c2de36802e569a4673a630bb91b6
fc93c2e18a06d78ddfa4009cbcd226c5
fc93c2f33d78b319a563f5a62faede1a
fc93c382ef5c2b55d3e27f2c210e21f0
fc93c3c5f9759ce057c45519c85ea830
fc93c589545ef4fb5b8bb5f7f9336011
fc93c79c1ce7401d94a8b2259dbc4487
fc93c7c5876d718ea7b10c14bb0de6dc
fc93cb36c9f082dc82496f93c9f73f0f
fc93cd214d8a1f2faeba94043bfff7aa
fc93cea5158e011f40a3b911850ba77a
fc93cf474cd9d80a3a5ba2f9c9dd20d8
fc93cfaec0f450d2eda801e45e376fec
fc93d0302ab1de7da1f345c6e95935ae
fc93d05c3f5dd2993f4809eb5df8fc6d
fc93d14ac0a5ed3e09adebfdbb3af6b8
fc93d1d6f3c4b40a4bd771b130f732c4
fc93d216f84edcc0806720552ac7397c
fc93d22506cf19687c0e6380bec6c6f9
fc93d22ac02835be69f6f8864903bba6
fc93d32af806113ae8d8be4b2c3197d0
fc93d37e410f1a21a5c2636d28a69f89
fc93d4ba5ca47b4774896853cd2ac390
fc93d50dceb7a2d91d5e8041aea2671e
fc93d52327c5660ca73c0fd75dae8ea2
fc93d524a6be481e94c90b1ac12474f9
fc93d565a3a74e90deeaa77bd4b95482
fc93d59d6e9571c6b27b49fc859f1e5d
fc93d63e50fecf7dadabe7df8b5475ad
fc93d65046dbef59a1fe6b3f0961234b
fc93d72298b05b51db8f60379dc39828
fc93d737b10d62c7ad9a9c3f669a1f11
fc93d8872c43679a96fa7d569588c1f4
fc93d94f6581b6875d8cd76d8f0410c7
fc93dab2cfbc63e2fac9296878735274
fc93db0abfde3cf4b5c91653981ee070
fc93db98f4a77f2057b1aad9d7441730
fc93dbe28a7cb2dcf261c6585f38eeda
fc93dbec5b6017a57f869d29e3016989
fc93dcb5fee07d47bc4343c8e333be20
fc93dce345c8cc01f216851141f8d8a9
fc93dd3132cbfcae2b1f6281ccab9c6f
fc93dd72d25e9968777402cc81a1514e
fc93dd79d5aee6a7520c77de463de860
fc93de47ab42afaccbd2838d2d206ef0
fc93e087c166c5bbd4eb454178a90250
fc93e0c93e3d149a9a42a036288823f8
fc93e1d6af3cc1cb7e8b5c036d822953
fc93e278084ef7dedb3d9b12f188ddb7
fc93e2c3952105ed68110cdd8792c0e5
fc93e3d37c1c87abe20df72304bc26d3
fc93e48f6fc5f886317bf24e197efade
fc93e5945c4d6c07a37f8ccd236e771a
fc93e5a0d8a2355ca7b3196db2a0b177
fc93e634cf4e86c68cc3d414a07bfd7e
fc93e6ad69ce93a37ce38e9c301d29c3
fc93e6d52b151f8a75e6584ac6da25be
fc93e7ef4297e9de4f83846e97b288cf
fc93e81f35171b2ba35531f22d181617
fc93e83ec63030c299d89d8f12b5b795
fc93ea0a4b2cc94491486532497cf380
fc93ea70c484e054e273ccbd641d0e1e
fc93eaf3bb5260d8287105d04e0b50e0
fc93eb1e15bbf87d3ff2eda8dc5e47b6
fc93eb941aae704968a17ccac2b9b884
fc93ed7bbcbf0a8ca6a8031f4b7e434e
fc93ed8b0dba555fa5de18e75043ccf3
fc93ef2ddb5c18acc552dc5baba31df7
fc93f0174a5e349dbac48b6270c546f0
fc93f0709e787bb2a6993372e7d85ff7
fc93f0f914f4a677fd07a680bfe987b0
fc93f14e544e350329f0b1bc450d0000
fc93f1d52d29d7c7513d4c5b6929febd
fc93f2b702df9e99afb0cda0417dcacc
fc93f2b945ec9c05a9891046d746a1ad
fc93f4771687f8ff091adf9845165ace
fc93f51d690f62dbd06fbc3155f5e63c
fc93f56f7ec42585d5cfb7533094a57c
fc93f6e31a8407133567133b8983e9eb
fc93f7cf585cdd81a64bc6e036c99710
fc93f84990859e849f3e7ebc9c50faee
fc93f8d52c6cedbf707c717be6bffc07
fc93f938bfbe35e47be1324dd191996b
fc93f954731c9637e3c67744765fe2b0
fc93f9a90a41f9dd1d7d94d9b595c3ab
fc93fac536a7740990efde44d6ebee6e
fc93fad3d42e2f1c6c7511c38113e6d5
fc93fc948f8f9ae636a56469286c1fc5
fc93fd1ea34aefb851e962293eca21ea
fc93fdd3c820aec24a931fb9e3c81ae3
fc93fe0839342958b9ead25c6a1bf790
fc93fe6ee4110c33f04367e465063c38
fc93ff03e78439dd3260001469f001c6
fc93ff25aeb1f90b95b97c1bb87ac476
fc93ffaca59739547b03a242ecaf4562
fc93fff7dbd733bca685ecb3618078af
fc9400edc9772ad6a5ccd7d2362be9c0
fc9401278cafafbbb5be9a8fdf970b2e
fc9401dcec4c39b98fa6f68b05f61d58
fc9402d9a67b567863512802220edcc7
fc940416857cf079ac1b3aacb3712ee2
fc9404d330c9b2c10dfb3797eaed9b20
fc9406053eb96cef7dbfb22c80e5beef
fc940628a7aac387f4247c194f0cb4ee
fc9408035ffce003c724a515aa82a1ab
fc94080d0031ffd9a9897d3b8e9dd30a
fc94096c398695f75a55c83b0ebafe81
fc9409734e195bef1e24276aff028922
fc9409848b799816765a0798acbbeac2
fc9409e6353ce7a13d3f8d33fdc69158
fc940a8f2038f5c77c10b87bb9c467c6
fc940ab1326f65a88c7589c523168699
fc940ac0a737f658b5bc9aba47d2119e
fc940ac0be7e2e8031975f6e337fa8a1
fc940adc2ec77a2304c58d580846a030
fc940b0a84816edb2127e2a573b433e6
fc940c260611db8c20dacf2575bf516e
fc940de05cd5e43e767a77e746eb0b7f
fc940e8a1acd97c6e1519d744ff5867e
fc940f8f10f6be58340c8d5305840de1
fc940fa54246f1060d685599c9fbc6dc
fc940fca756ce66b581a0fa08b1080a5
fc9411ad41d8a1b009294e529311f32e
fc9411cb2d2b7ca7944d41135dd6966a
fc9411dcd00e15fabe40e94e98cd36db
fc9411f464e85eeae73513f168b8d531
fc9412569ccef217fe3b7cc760829263
fc941257f6a9360fca01fdca4db26418
fc941265dfb406702b799cad74745abb
fc9412bec6678cc76f1e272d19a045ed
fc9412fa87b08272d5e11975d378b20e
fc941316fc2e75ead300ad24f5ddfeaf
fc941340267c86f6024871ebe48c8914
fc9414d974b7f96eebea3caf016d0ce3
fc94169591a6b23f686d6c99be791a94
fc94170546806821e61dc078a5f8ace9
fc94174682516f6ea02583533e750303
fc941765a3b4d4d3a2634a0f710f6d33
fc9418554d311c1c2142245d9183023d
fc9419516d213d13c1dc666afe745347
fc941974a3fd0f6f7177ef4d9d3dc950
fc941a8373c258459bbfe6ff96253939
fc941c3156cc7a7978e8fc842d9fca00
fc941c3b91a8eda7bc5eab20530b0e66
fc941cc3f9e7f8c4c15071565ef14c04
fc941d28ea3b961bcb721b84f5272e07
fc941d40c5ef351a647b1bf06179c610
fc941d7066b5803f275fd0ff61125ee3
fc941e4a72bef2bc61781aa29912c617
fc941e76c78f556d2e6af39172eff936
fc941ed96d05ac1af1e80130e150dd1d
fc94201cc91bd80ef2e93ff0c2bfd2fc
fc942025767fa470dcbeaabc82d1e810
fc9420fcae2d17af34c44bc268b611c8
fc942134b925e148b4e70c8f5f2c9a10
fc94213faba8c50306d1857fb3921d37
fc94214845eaa41a62d9b834f3e07730
fc9422da0fdc6f0aff3b5d78536c25f4
fc9424275733b7fade7356f5f0cce18a
fc94243598a2cad526a22c7741b77b7f
fc94247d9f6bd406357cc67225143aa9
fc9424f157f953d8dd34ed85ead797d4
fc94251cbe6e8be638aee648e9ab41b0
fc942564db3aa203bcbdd11e6918d3bf
fc94261677f433a0d9b543258d8e78e6
fc94263da548d5cd2d7e8df07aa9135a
fc94265e0136a64846d4c35f5464ba12
fc9426682031e4a417035b2ca6848c93
fc94285a7ebd6945616f7fed1d97c0f5
fc9428b52e33325f4b232e8acb7a31f6
fc9429b7e2788af3eee321d10aea93ac
fc942a4eb83662ac32f59ab84d5c9270
fc942a66e04827d17fa84c36b1cfc5a6
fc942a9654003a521ca6667937d8682b
fc942b0b63e841779a7ffb5cd85032a9
fc942bf2cec0c00a6ddd5558ba2f3e4a
fc942c79903152297a642f4c22e8127a
fc942ca08adc4e11ec93162c63a31dc7
fc942d18a0d551068a9348304d961950
fc942d6ea4072d12cf0aaba48f21885d
fc942d8b9d1a4fb4b36c02b4e0cc8caf
fc942e4f56d91f2bcca37e87eb4dfc6d
fc94303106be48d1d98e46e0be243083
fc9430fe1ede21745b5869e91e6839ab
fc94314146e1bcd7e3de342a392a185b
fc943180c34a1d97096c23cc0381193c
fc9432a2b1680ed306c127576ed39f12
fc9432a71e42df2eaa30b5884c581250
fc9432ba918ca584466509541b229958
fc9432f48bf35a4ca6e99d6ebedf1485
fc943309a0257ac9623e8aac4b2eb9f8
fc94334507d81b4e97cbe6d2fc899fd3
fc943394cce76a0e3e5a9a2cb7978e8e
fc9433d49b56e0e3fd1741b3fca4da56
fc943403f5616682d57707208d22c86e
fc9434eece2fd3bc1586f23c66db2ee1
fc94362e327258ddacb9b8c4b06e27bf
fc9436ff8a3086c703efbc8733b60e57
fc94374a085bc5a96a12c43149a9b9c4
fc9437d5b2e9daf94fe4da99725e8c3a
fc943822b4d1e7267c708aa2b57781ae
fc9438a682186128a89aade1499162a0
fc9439558aebee0d9e19f031fa1cecad
fc943a8babe3e1cd43da187d4a18dc2b
fc943ab26f9cd4ad718385be1143c0ee
fc943ab7e87b75494b83a31435650e99
fc943b1ad32ce9ae33e100ef77b98a03
fc943cdfc7d0d92c63a8ce5f343c0c91
fc943d0904e68d59d2f89dfd67e3b378
fc943d74de7dd732cf6730a5e5b54c1a
fc943dde80d86b2eabd8eedfd41358c2
fc943e0843a7cb344807039336fa225b
fc944015a48832ff140e9736d80544d3
fc94403d5f64b01b88236a8c9d76513c
fc9440974ff3a64db71b10dce1ca0f9f
fc94409bc8cdf9c692303872709cca86
fc944106c706f005d91c2bee2f840193
fc94417ebdb14ff1d48b67dd13074f28
fc9441b558a308a9a2ad03fafe1ab910
fc944274e24ff40c489383297594f700
fc9442778c4578b61d84a01af59f3ac7
fc9442be29aece668437f528e32e43fc
fc9443c22721f15ee3e6ec07ae1785a2
fc9443d633ca026038438b440006798e
fc9443d9ab8e18edd60a277ddf25bc78
fc944420d6f8a717f20e5e8a1d810984
fc944440a30bd54852857fb0a5353864
fc9444dfb8f3a843316e91a0a9d0eca5
fc9445002acaabefa7e0652269da15f8
fc94453ad4d221864c9b03150d801549
fc94460047f4564b4e7a819f49374b21
fc94467310676209643e6376a376ec9e
fc94471c5b683837e481583f6a35b2b8
fc94475b2bd8a7ef8517037247cf3710
fc9447f07a3534dd0a211a14fa8df9f9
fc9448f9bf76380535703d2b126003e3
fc944910af81f413c7b52e40536fa7a1
fc9449da4104a27fc3ee018c89638e40
fc944aad20d37b173cc6c95c45c7ffb2
fc944ac3f0602f32809ea470a3a1582a
fc944ad1812edc83a68bdf95ad5e3d5e
fc944af37cea675758c1080de963ce77
fc944aff75e03dd3236dd123fd2b0fce
fc944c34d6fed5633cc1bfe123b3f5e0
fc944cba7cdf70ce1075160d8a0e020e
fc944e4fd981e8d24e2977c1e6473a40
fc944ed07173b696e88ce43406e32a8d
fc944ee3a358709e99d5f62c71030942
fc944f24cf5d1466e73af58e9440acdf
fc944f2cfef0620b99fac73f858ca09c
fc94504b3d942abd76ea6fe59e0747a9
fc945085869203076db1bcb01085a960
fc9450ae0984152251f238e8a6695ac1
fc94511f4fff2f75a6040ab7a60b7555
fc945247441031965a6c89803801e0cb
fc94535159ccac2f74302e3b30b2c94b
fc94542f3ff01d2fdf964ad0f95d9d6d
fc94548d4c9e0547dfa5d179b8f19345
fc94550ba0dcec0118b21d8ea0c3076f
fc94571aed73088fa9f8643dc853f549
fc945832e2d9b52454760683df6ad048
fc945839aa210adeb146d743ba7832c8
fc9458a8d4d5f06337e45bdaaacc6111
fc945ad87a52907b4024deb6d504d658
fc945afca0e00cef6a2320493fd5488e
fc945cea5b0f63c7d5cd6a77f00b7a87
fc945deef73fe3cd76cac0adada4fac4
fc94601f7f2a3954afc0de32f032365f
fc9461deebd6b257a886201552bf0060
fc94633e44a5a08b2ac198c6a665a243
fc9463a67d39c264fb4b6a59c3d99ef4
fc9463a7631d4a21e8e69f6f2b222c66
fc9463d54820c1f74d1afc30206c06c0
fc9464e7acde814aec40134c75c59121
fc946582fe473063b400456ac2bd41d7
fc9465de4f8306c105b99915bf1dd67e
fc9466116d987fc55969ba057de5ebbc
fc94669ae239dfcd0306ffc151bc31a5
fc9466b80528e2b2493fca19f9a42079
fc9466d140c0878aec372f2ab14a7661
fc9466e3dec29a129adbb546080dee7e
fc94672819c5d071fdb5c04fb6f0e94e
fc9467b6f824c8a5986d62511cb5909b
fc946b01d3ecaceb3741f65eb34ef3d0
fc946be14f26af5fbe591ac3d830ac2b
fc946bec848cbfc92030a838d8635506
fc946cd9d599f205d5bb34af7b588dc2
fc946dd2f9d90117f8fc836b32c092f1
fc946e11e9a646fbdc695e7ad6489ff3
fc946e882889c35b0c27d3e1d60470a6
fc946ec8eecfdb3b4f1d7f09aac81322
fc946ed125799952b2065c34069b62ce
fc946f3d531c5bfcfb16f96786dbb6e6
fc9471c9d121e7dbf08cc7b35bfb67e2
fc9472343caf5bb102c8e4d3a949187f
fc9473ba5dbc3c72c942d36027325744
fc947553d7b48f919003f7dfc4bd5370
fc94761354a4e7ddf3866ed4fe0e3734
fc947678005c845a6df0ac84c9478732
fc9476a37d245b7a010b2990b0e5e08b
fc9476b419a6500d5c9aa85648fc81b0
fc94774f4f1a4543a4a6457587d274f0
fc94779e0a1a2876bda891dc2c304170
fc9477ad4cfeafbad3c6035fba54544b
fc9477de5805f7387c770ee5e7ba822a
fc9478bccdfef00098acd233e90541e2
fc9478f4dc02d13bb2f7bfc7960650e5
fc947907e7e8a778adcf443b87373630
fc94794034c0a9a558020b9100501450
fc94799bd0c49d9901884b9c79fb5ebf
fc947a1ab466a6c96d2de5386e79a0fc
fc947a543bb1a71d1c9d766905a88720
fc947b69ea7706b3a6245c002904d250
fc947ba450722e2eac0e229e4a2995d3
fc947c906a10abbe359c10c2c986f027
fc947cef59e08efc8d5c94a228cfd028
fc947d62b20f3cff389361a8e3418cf9
fc947dafdf415fb335a93c1b86945bfe
fc947db5290ed512fdb833de58bb0622
fc947df0c158b3bec1434988f80b35d2
fc947e08a188bc964b95fb190317d976
fc947e57ccabcf78d8c130542a86a000
fc947edd800a47fd18d337df5025218c
fc947f4e79af822f6a91e9b8416578cd
fc947ff69bd1b770ae01f1b6befc282d
fc9480f01a4bb1d75e7aaf1e2c4a2298
fc948174e399a533b25a7f65d9493745
fc94818a2c3733b564cf126eb154f960
fc94828de48ead6ea089c341b5a4c4b7
fc9483e9cb9f6b3f8d4dd9e176d769f5
fc94840cbf6a83cea87a4279c553131c
fc94842f0b9e2880d997ebdd7acd5fcc
fc948477885cf7c678825aad409cdbdb
fc9485360379e72ed2b561eb74f4dc50
fc948621a61048d05d922d12a8719928
fc9486d06527d59f6a8d8a388803784e
fc94887bd990d3933663877995333513
fc9489096387942cda7bb292c4dd3bcb
fc948929df690edb13e1dc19ea698222
fc94894fe209624cb83d81a0e22d74ca
fc94896f9426f8f22024b541125e0e3e
fc9489889b8bca7a22cfd0392001af30
fc9489c4dc1eee9e91e2c8b40e0a5a8e
fc948a9e2efa0f6d291badf65c7176b4
fc948ae8a54494e92ebafb5b650fb175
fc948b1c9b277c6de830db80df6bce24
fc948b7961b7c9fc7247c921c55a42e0
fc948bdd0dcdddc4bc1f0cdc734a5c49
fc948c92e632dd7dfa43ca8cda69af4a
fc948d733f466d73a207150e32fb57f0
fc948e444b6e9b908f1af8fdb54ce918
fc948f8d505e49cb35dd6a6a5f43f29c
fc948f9d6887efc947096069eeb077bb
fc948fd90a5b1955bf85c776c11ce993
fc948fe6d5d7f4125b3dc877fb285cce
fc9490f0b95973fa029161c74395a24a
fc94919dc6660ca83cfb1d460c96fbf6
fc9494b53c0eb1d07a47b21a549fb7f7
fc94952158e563d70fcaf694112b8771
fc9495977fcbb467bbfde003c18d72d5
fc9495e782952e8c928024776c1f4dd0
fc949665bd582ee4deb74d9c49485f77
fc9498aeec0f9410f189a06a3d8ac523
fc9498d208c205bf8be9adb8bd0139e4
fc94997cbb83e690433264e584a7a1c8
fc949ac91759d595b09c111c4545dca0
fc949ad32c1fca25e962474d05b5ad29
fc949b06c60c46601d2580eda6d5db6b
fc949bcb0c7255c3221eb09146c07d69
fc949d7c28269b95976534b2f655f43c
fc949d8a18f99fe6b4e7d1ad239d661f
fc949e176f0a6810f3cba8218f6c7ae4
fc949e2f6a23e631836c3261b0a26eef
fc949f028da030bb3bc70bed5bf31a09
fc949f0e5253b923f3db9d4139602948
fc94a033607fda86c5e9f10eb3d3c60e
fc94a056c726936e66a0b7bfb5d5a797
fc94a120ffdaec60008fa9233e172a5d
fc94a16be97213ce3068409720453b70
fc94a1f9d236d64b996d13906dec4b37
fc94a23cce43f562377e3e12d22bee70
fc94a261e65d0e55ca254a9074940c57
fc94a2fa9fa7da59015ce19d4013212b
fc94a30faa2d1a93bc62d5680af92734
fc94a38117e7472b96723d8cf91a0578
fc94a5b5de2ea345eba1720931a5fda0
fc94a5bc445ad23e572af0b3bb06cde8
fc94a6621bfe73368681ebf4d2587325
fc94a6ef2de7abd7623d396fad0c3d37
fc94a71bfc5871472f57934b80297e36
fc94a72c47117fd7eb3f2100d2cf342d
fc94a78bc21ff8a825f61ca596bee50f
fc94a80cf595e69fb7d0fef6d29a0cef
fc94a84059eebb64beedb958c3efc010
fc94a908b86b79f78d80c18f1a2a895d
fc94a90ca9dbd1244dc9868ebb660c5f
fc94a9bffcee47fb67aefe53be877e3c
fc94a9f2a5f046b8c83b7bad022d030e
fc94aa09f58cbb69ba39437a0acab7b8
fc94aacc69b36a2702f9c3c86e8d2c8d
fc94ab7b758fc69d15d0ac263e9471f5
fc94ab83c307883f035e4fcc9f0bdb35
fc94ad2c8b782e5c6ca2ff53f83449f8
fc94ad5485ad49786bd689a853aa9d9f
fc94ad8acaafcfac923c40eda95d6c9f
fc94ae19684596ec81a5a108875d0b34
fc94af46470825756014134d75b23cbb
fc94af6b7f919004ac4207417a4a19d0
fc94b060d1629afea23cd7f395e6f21e
fc94b115ae2deeec95ea9d2e1f1317c4
fc94b159de813da6b2b813b243c2f160
fc94b1dd6c6b38eb50b45bee5453fd43
fc94b227ed4b1c48a0f46f3672a08eca
fc94b258a7da27d9c1abbf85127135fa
fc94b2ded680639beba9154b94a0fb5d
fc94b335b2f11e19bee017c47473712c
fc94b4c6d1d42bb94df9dc1d1ff08fe6
fc94b4cbfa771e4cd0d801743edfaef3
fc94b5b4f62208bc1008cd216dcdcf76
fc94b616b7f4f415f5a62de161c88869
fc94b6cf49a8814fb6f105ca92f181d0
fc94b8556f501ddf3951933cc0f60285
fc94b863219b9e98d195bada88ba2bc9
fc94b9850eb8e607437c5fdb4712bec8
fc94ba169d0f0351efacfaec4d5c2e14
fc94ba317a46e37d9ca30e590e7061c8
fc94bc07517ae08c4e7a97c67aca143b
fc94bc2f8b59d6b43c380c8d069743c5
fc94bcd3843e44a5ddec624c06fdacc0
fc94be2c674912f0bce6cfe42f90a069
fc94be9684b732848ce3b08c30d57ee6
fc94befde15f08625f568f87cb8ca590
fc94c0be9a95e3b2dbefb2fa222b8e3a
fc94c0e6849c1ef7cdb913db8eb5ddca
fc94c159984098184da80dded5eab8ee
fc94c252eb5052be99f5007abdf799ab
fc94c2870aecca3b69ca5f0630cf6d24
fc94c2fb56eae619dc6a8ad73d574f21
fc94c513f4046fa2ac28e58a8ccd4a2f
fc94c52a5fe54a2d09ea481f84df8571
fc94c587303e6252d85e5191109976da
fc94c641bdcecf82de2f5b3eceb0cfaa
fc94c7a32c0f0190afc7861b86bb05a0
fc94c8021c8da8d6236eaa2afd91c13a
fc94c8aec3fcc9f743e7c965db5ff908
fc94c8d9d792330bcf21c71c4758f40b
fc94c90a12d23390443d2822f40dc38c
fc94c9884597dddfd7885dad55a0aa30
fc94ca916e6091867a693525a24f8e4a
fc94ca939435646e7b215701d826f65c
fc94cb35317b40cb3b22c150fcb6234b
fc94cb51db81cf887b332a8a8972841c
fc94cb69101800cf32b0c7ff7c1aa67a
fc94cbbb1ee799154bae233939d18673
fc94cd3eaf28b7773495e8355c5565f6
fc94cd4158a18a5d02bd40c57e9a04c9
fc94cd894ebd00a2ed3871faf2ebee20
fc94cd92aacaa154925aa7aa574a7c50
fc94cde05c7fc6a95897d508d9511c21
fc94ce33f73790966052430fdef00ce3
fc94cf9f35fee92cd9085987936f7ae6
fc94d0415dde3b2ff704692c68bbfe8a
fc94d0b34149afd6da4b482ed52f1c06
fc94d2243fa18c76a78ed6a887b92b6e
fc94d233cc1b66b241f6fefe39c97e6d
fc94d311bcd6fd2f5d485a749e8f3acf
fc94d33de090f92ebbdf20a683247b60
fc94d47c3875996ba4420d7183f454b5
fc94d5e177e213216f3d05192eba5574
fc94d764168e77a48bc3b98b187cd0da
fc94d79d7f4e41a5f958046063e31307
fc94d7a905459137d05ce09af8997554
fc94d848d7fe3e2dfc9c8e85519a2711
fc94d9929c4f6ad3342a92368655b310
fc94d9b1a3aa08176e90b725eaa46d26
fc94d9d87000ea2bf1333aecfa42b4fe
fc94da0e8a62c6b313902d0ddd21e1e0
fc94da612a55edc6da862743d058a70f
fc94da6eaa9cf883fc022068248159f0
fc94da7779179721b0ee66a0d36b9f70
fc94dae107b5b9be3274e26d4b0d077f
fc94dc381bb72b4ec3fb7518cbcffcdf
fc94dc6aac1e05bf7b682fd7c7d24798
fc94dc6fea9150a817538b42141259f6
fc94dd0a60a6e6bfd21728fe4e0c0b13
fc94dd86690fcff60d149aff74530b69
fc94ddbc2ce9ad33587a62afd808a1d0
fc94de7db4c322b56146f21fe55113d8
fc94deb2347c3aaae2dcaeb7247a1ec0
fc94df1b4dd7c7a414a5ec45cd28fbf1
fc94df32ab63b53ba291c53b220c4b60
fc94e02d94632e62982ec6f99eb95533
fc94e05b24e20806b916ce99f5b2b0d6
fc94e22ab954fc17e315fab746b22f73
fc94e2b2dc2dee957d56ebe4dd594a68
fc94e33eff4d4eba87cea550f4184948
fc94e41461286b4ade6fbd9f2c60e7f9
fc94e415e2930ecc250bab714b995c2d
fc94e4933189a77868b2a4331c29287b
fc94e5352d5de5da22b5b9335ea3ff73
fc94e5b62037047b2bc385757f1d3a55
fc94e6cce082ae7912f292bdd33cb6c4
fc94e6f8fbaa729a20dc3e577b17b064
fc94e707143ce2359b3777c41824b856
fc94e7375840172894c72b0a4147f7b7
fc94e777c0c2966251d59e6d190058a9
fc94e848580ccb96f1e438f52968e887
fc94e8df643999cf88059875e6a18820
fc94e98a4e421d3932d291333904921b
fc94e9da93048c6cf785b2316fd87e9c
fc94ea2a17bb8eac0c3233aa767551c1
fc94ea91bf1e1d4a7f23742ea57f8c80
fc94ea986337440226a5f63f1e3d3a33
fc94ead262624a196683f21e38db0217
fc94eae33d0f4efcf9f1a4af660d9f9e
fc94eb2fac194fd1567287215260e282
fc94ec5a02e6e932d986063d0e436fb9
fc94ec6059b9ad11610f9bce0003120b
fc94ed17738fb6ffb877a239e4ea3baf
fc94ed2a1b76f1e87b4e5c594f967592
fc94ed52efc201debd7b4ad6980531f7
fc94ed5c213bfe7abe5bd2f7e8d92b72
fc94ee33820dee6b9e756024fb596a9a
fc94eeb0d1515baf8fd8c0907c8ff31e
fc94efacb5f063e2cdc5bed8cfae4020
fc94effc121164b88cfbca5f411ca635
fc94f057d8d073d7b3b582eb3a7d9d5f
fc94f08c30c31bc0b000b192566c8f74
fc94f0c0f2b5ecab01a7286637910ac3
fc94f0cb41e5079e1840a883113f76e0
fc94f183b1057d0e2a32101056873e1d
fc94f1882a210c4370d6d02b1ab823f0
fc94f3243afad29e0275447e77ecef8f
fc94f418ba8cece8ae599422e9293e22
fc94f539d71054761fdf45d9f65d4ed1
fc94f63d96f5b3f908aaf42a702c6a4d
fc94f6d76103abf4def61001b6bb8305
fc94f792cab36f2130a694cd23a29cd4
fc94f7bc59a76949c38a998ca537a012
fc94f864e550fbd9bec0bda1b9edbde8
fc94fa1503c71ddd319fd5fc8957f681
fc94fa3f9c272291948272ef97a11e64
fc94fab74ed4c683b48e201269049b15
fc94fb1c7101bc493977692b42189d3a
fc94fc65b20a83cc3da67636b3396ccb
fc94fcf775b4cb8aac749c060cd938b1
fc94fd82dfcab353ce10d52e0e6d0799
fc94fded4abe24fea56412492cc77307
fc94fdf5968f0dbaeb79cefa32b7f4a6
fc94ffb23fb1abdbd448f42cb76b1ee0
fc94fff094766d0140e4654f4d248015
fc9500cf9c3bad6b4a7291abc8ddff05
fc9500d61ff825c8bd84819a224c89e2
fc950113d132a4515a7a5945e63047c5
fc95015b7c4917603f08b0cc152cfd73
fc9501b3876fdfa1066c754585b76868
fc95022814e4cfebce4a54e6deda0b1e
fc95023f7654241002bc251d7df9d783
fc950396a6a4883c28e22a4320198234
fc9503eaef47c65859199ee335380dc2
fc9506f9ed021f2aa7970e998053c593
fc9508e5207a42af8e9c0db08e3b9e86
fc950922907d2a55caa082313f762df3
fc950a15aff8a9097ea70dfada1ebf5e
fc950c15edb62ef94b18d3d7129ff135
fc950caeefd6659eb83602e0f560a99b
fc950ccc9dbc446643bf10c992403f04
fc950db49ca61879ae05796124d827b8
fc950dc9f9b56b4cd94ac5d05351f9e3
fc950df9327cc586a1e6f5635a80e4f8
fc950dfd3f56a80ee6128a150872cfee
fc950e56d7927098a107f02679ff057d
fc950f4f398c91bceed4e3c2a7a57238
fc950f4ffd21591408f21acb420d9ac2
fc950f6aa5cd9b3b28512bf1d99c9ace
fc950f9788f4c86bff9e30aeb39c6520
fc95102e1daa731fa1e9ad46c0383550
fc951182c757f64ff958c9c4bb411e4a
fc951209a7747a51a085eb1122f57fbe
fc9512f482743bb1fef9efbaefe444b7
fc95130bb4d1696d45bbd228c15f8e20
fc9516687160f18b63df07dc30b45a59
fc9516acb71d8e32b4118f5cc06253a4
fc9517b4db61d797a2540bf49fbd902b
fc95181d201c6bf42cf68b3385774e83
fc95188fa9e14e4b055a8a0504a3b9a1
fc9518c4a6c90bb708a0664ad8a05d81
fc951932dd18c62bad0061572f561010
fc9519350bb9a972f66358e3e9d2f10c
fc951990b2e9785d1558a4b9a2ba1c20
fc951b28fc28a8b08ca02f8755a10071
fc951be72c489f1530433a3497c204d6
fc951cdd41730772c2019773c9a90051
fc951d72aad3649b7f3f28fcbd084c91
fc951db6d52d302f1bdb7290e096aadb
fc951e68b5511bbbb5573bb1bf573453
fc95206fffa7a7f266f4459e087851e8
fc952071d989e935dc933ef1d9284926
fc952097560a606b0ff2489ededf5989
fc95210c3008f9e89c1903bb6de695b0
fc9521ec551070c930e96593af01a54f
fc95237364e450432e6c18a88e04b151
fc9524fdf62659bab691f5646cfd9c73
fc952508b5bc9643b4d8a85f7707c600
fc95266293a629b91d2ac1a96b1ce655
fc952677bfe052d3737b9209a75dc2a1
fc9526a20c964d28a0a3662ad2ef93ce
fc952790257c033dd86d8146e3803df3
fc952850baf3c03ea0fa12628d2be8da
fc9528e7456eeb71096f8cda6729f637
fc9528e92160648e169a6a0e23e8ab44
fc95299cfd3d9b7deb0212a022427747
fc952a7d4abffbbae69273777e9ee056
fc952ad646e2ebfbdfe3cb9b4cdb1006
fc952b7a54777c641218620e2eb0c570
fc952b9cb8e77c02e0a781fab4c2f24e
fc952b9d8d927a622f3c987f498e2288
fc952c7e821680e0626e3ba7d731ec8d
fc952c92d7d9e5047ba2e68e41ce0fc8
fc952d3dd9d0ee2cb5d1da5f1b889e88
fc952e3ec628aea574eec4a7f5ae9068
fc952e6f10a6d711847afb5e4511890f
fc952ebd771e1d93ea4d6b51d11ea5a3
fc952f1cf82b0c8394166451ca7de37f
fc952ff75281225138244326449e7e55
fc95302313298a1e6ac3357438a5192b
fc953064a68a4761b57c586313475fa8
fc95308527606d0f947fa35ad1a1fff0
fc953203457e6408714c234d6b5e9903
fc95326e53a96eb5e6f044af536b04b5
fc95329378fdcad3ac0886b5b182e151
fc9534a303cd28595fb274250c82da14
fc953555b3080cb50d3ee202a11b38f1
fc9535df2f98cdf392b2eca58794e147
fc9536299dda9484804bb5dea0813a0a
fc95364ab02d3239b94f1ae75e2d79f5
fc9537535658ccaaef13a53482b3e8a6
fc953785fb70a4f9ebc58a5afe66c5c2
fc9539130fcef4050ea360a7b4c993f4
fc9539b5aced34fdfbeeb59529cdabba
fc953a3da4586b7733caf545dfa1372f
fc953bbaacfe10a98a2ac3d904d1ad71
fc953c0bd9ad336e2054bb44586a75f1
fc953c5cf5a3c0da9cea407326932a35
fc953c5f1c21decf58b8f9b87facb168
fc953c82971d157c32b92a7fd349fd7e
fc953ca3b7eab5f97c9bd525261303d1
fc953ce424cceea4826c5518b7730a6a
fc953d02b37a566b293965ce7600b801
fc953d134ecfde7c5292e30811c1f7c5
fc953d3cc4a8a6868306400a885cb8bb
fc953ee3f85639c0b5506bf7afe6f79d
fc953f02e614aac757dd9f1c7f2deaf0
fc95402798270d6f028da68e2a32db00
fc9540ab55e7ea6bcae628011729c849
fc95418e418e421a62bb204da5546cd3
fc9541b85614076d543e85e84083fb09
fc954256e3c2fd050fe53d58a7c65257
fc9542b6984f0b4d0cdfe7361bcdfbc7
fc95436b9b413fecf36c882937fe938b
fc9543d192f4d4d7580f5e180e7d495c
fc9543df626ec9c994034f2c2226b41f
fc95444740d839607d231469bf55c7d1
fc9544fcc208fcb0dbedb0d519419397
fc9544fdf4c201a2b157883189be04f6
fc954634b251a07af2adee12d082370c
fc95463cc20f8d95502a47cd4f8f421f
fc9546670e9b223950083c1286c539d5
fc9546a38e2b502aec7e3ca459d3af08
fc9546d43dd121286260ffeebfb17e1e
fc95473ba482a735c55bc76ebaa16075
fc9547632a85f76718aaedada440a9c6
fc9547f05434fd74c4ba7f8cb63597f0
fc954802a162a6edae0673f4bda1a4a4
fc9548491995923a4715b681ba9935ff
fc9549c9dfc3ef7c658a2ff8218f5d28
fc954ac7f5723955c22333cfdb9a4a00
fc954b340203465cb5868d3b4662a060
fc954c3d74cb479918b0f125eefa916f
fc954ca967aa5f0d86dc620e60bfb448
fc954ccc4a14e20a09b85ae6ee55b2d4
fc954d4e268822a6776a0a21733397f1
fc954e0b57b0e2c0cf7c3828e129868c
fc954e0df36e1c7e40eaa0ea69eb2917
fc95508184e202b592a1d1a64dcdfc01
fc9550cc919a26d75024d3a13c13ecd5
fc955105df44f1fa4d07b0e69b42e881
fc955128fe01984f40425e967a20792e
fc95516d676e1632d17893aae4b949ac
fc9552b82c4e4acedf031f8acb8b25a9
fc9552cf54d245f13f75d9aa257243ed
fc95533e1b97e7334dbb44ecb559eee4
fc955489de4f5586f801eb660f8b8a40
fc955598761f9bfafa1368de11baa138
fc9555992ce93d4de4c8d9a488eac8c6
fc9555a831fcb6d4f919546b18768007
fc9555dc8587b80f3ccfbeda7cc84a3e
fc9555f03131560e177460864358c707
fc955671ae34d8674176b8a128f007b3
fc9557ab78412e3f6cfa51d4b7ba7fa0
fc9557b9bf819cc40e79e8eb9a4d32b0
fc9557fc1046268fe1fd30902c879dbc
fc95585d88d4841f1ee48caabdf33df7
fc95589fd4943ceb5118e2c98591dd97
fc9559fcd33a1f3ea60f22b481517ed5
fc955a34e3a58183b21eca849e313e62
fc955a9b0d17c94b7715886cbccf1e60
fc955aab37c74bc4020e6da8117e1dcc
fc955ab602bc5a5b6f5766a831d92001
fc955b598a9085384274a060545127b1
fc955b806ac29debab5c0de84b74fbbd
fc955b83c98756e374aff4f333c09fef
fc955ce11f81562a7156064b6795ccca
fc955d316bee6d5c283201ac39d3b24f
fc955e8e90750d5db8bbe236f96c2f20
fc955e94fc894c807fe277a8efb3df4f
fc955efaa1a76afeedb0db85bc5124f5
fc955fb981c64faad3f9fbc376b7ec38
fc9560d2e2120db0adbde3c45eba44aa
fc95612ab5e7f5d7ce1982d5d167b30b
fc9561d0e28f1b323b014d9e2f8b1ba7
fc95630030b3440150da1a9f68db1f2b
fc95638e15321d20cd6408c5d2645cdb
fc9564f6853453dd7d749879d79e7ece
fc9565fc4c461afb0a0c1cb2f91b38a6
fc956610c422f5ebba3a4627587bc024
fc95674db7c16bccd6b095f52b5e4df7
fc956756eaebd88cada3cf25c0fa035e
fc9567f058436e74a154e9a71a996e00
fc9569af830eb1780cfa72f5715f5e6c
fc9569d0a8c4d537bee5a7918ececd3e
fc956a1996a3e049c1b1aa98637882c0
fc956b0899c9bb57658f1f130cec9547
fc956b6458050b998bed9b08867ec47b
fc956bbbff8c549433add78fc5ad0a5d
fc956c5feb0af7e5d5d11aa3239825d7
fc956cc909992a326792d5395a012618
fc956cea29dc6c51667a6d392da7ca64
fc956d336d513e5f1ed2f50799941cd3
fc956e846a2ab2775b86167fa20e718b
fc956eea258fe38a9ec43eb7ac6e8397
fc956f9d78ca4fb1b19cebb7783526b8
fc957044ee6c1db2565224a605e6cbc7
fc95719c51a2a0a599b51367ae609210
fc95729867e87d07d60d3fb34806b201
fc95735477dbf7edc4d5ff691e35e560
fc9573d6d00d3de654b8f029f83b2b65
fc9573e2575eb29fa16500e44695dbb7
fc957537cd345b7907dbd0006f52ae60
fc95765a97f81c58262dd8621a916d65
fc9576751940b3645175cd9a4e537d37
fc95768f3bcb95baa3073d69eb3a9404
fc9576debe82dce1ac0ab8b41d19c5f2
fc9576fb38b8f37e037db1613142606c
fc95782a7f96c633d862df23df3d5192
fc95784c4e87456718e14db4d423f715
fc9578bab3fd51179f5c887b8d3bc761
fc9579a44e6d04c7a2bfca678fdccb04
fc957aaa9ca00b840f47ce9e1f52d79d
fc957b67b4f7f1ec38157f660c947698
fc957b8f79d3b770c1a0843a60071c7f
fc957b9f31db87cb4718684ee69853d0
fc957bb105da7601e72219bfdb31b129
fc957cc52de6a7a982a0065bfefe1fb1
fc957e1be6734a1cd25ad7d807ab7689
fc957e3a8ed0f053e2848771cbdfd7be
fc957e40779a050e4026e17129fb1214
fc957ebab2acfbde58e382792d704452
fc957ec7e5e9782cedf01edbca292187
fc957ed77e3628fd450f37f7341c3c02
fc957f2ab2d8d3176c55d88dc407f0b7
fc958028d4ef4b77db12182ac8236660
fc95803da7089276c8ab97c22072788b
fc9580749366644b06214a44a3b75cc0
fc9580797c17f17d7fc90a5d4fca248d
fc9580ae2c9d9f457d18e6c624ec1982
fc9581dca4b2d9f572aa6c3b6c0cd7a4
fc95834a0d646f362adbed1c9dfb3524
fc9583c1dbb917f71e4d9b33c31346a3
fc9584135c41a7953295ea75727efe64
fc958478d23faa2b87fa1f58337bfd1e
fc95856813aa07406a296fc1053c6dad
fc9585775bff427f1173f2d4010a1d76
fc9585d985cc64ec856a0205f5d705d5
fc9585e22fd4ff0f535498089f2c6c17
fc95872872a9dc1b3a27538727de8562
fc9587d0340ed24e7408ec89a26396d9
fc95890f932c46f440f9beea240c2256
fc95893023ccb269557d117fb108f16c
fc958a845b3d863d12ae5b57442bc301
fc958aa4a2172f80123f876f0e91b2a0
fc958aee022608b546de94580235eb1c
fc958bd836738d5c7cee53cf5f7a6758
fc958c691cdb4bc880512f94b8d3f037
fc958cb953e16fbe24a8a05bd6d8ba88
fc958d46bef764a7ab5e36a2570e6a81
fc958d48a5c186b4cd6c85f72869bd24
fc958ee73b5f1ccefd9778e17d556134
fc958f2f09e5761cc9deea06e641dbfe
fc958f42636ca69376378d907bd0f004
fc958f6e214bf40f6c061bfdd7d9a548
fc958f812ae470373e2c715d9f8baa06
fc9590c4ad5cc5827d4417bdf02b2160
fc9590e4edf474793dcb0fed5011c28e
fc9591ac3ad3dc05ec5877651d40897f
fc9591e4439adb1445458f052dcae9be
fc9591f665488e0a6b2ed2580bb82680
fc95939975207ca025c31cf08e28f270
fc95945f6e40b6d26e272abbd098137c
fc9594b2e7e8aabdb002256bfc79f011
fc9594b910f96f3ba6c88c212ddfe4bb
fc9594c6a88c6ea1c78f5c905d216250
fc9595dca37c6c199fb5cef030a57bc0
fc959639023dd34d01369f8d6d3ff29d
fc9596695d4cc1f2df740be93343c2ac
fc95988c413aa7c533de2b723e87aa20
fc9598cbe204231894fe598d40436212
fc959985eaaa800bfdaf9e8c6cae4bc0
fc959a4a4be56a2b012227e09f773438
fc959a6f766f6e3a60dea952083f76f2
fc959abb76539fd91bb052f921b066c9
fc959b1e6ef6940cc258f661148b5613
fc959c953a290d0ec3be935eaa16c1d7
fc959d0565c62044f602b09fc97688ff
fc959d1f9d7abf26d5c324d48056c923
fc959d728f8e38d05738c5184704edf7
fc959ded53e154907274b6a836a17073
fc959e319cb28d598de6d9159187c47e
fc95a07db9421ddadf108328c0805d0a
fc95a13a6d3b45ff017f6e1d1cff37cc
fc95a214c805e733a948fb8b193db126
fc95a21e4f88a7fdb8154056d6522700
fc95a24cad2f9b6552b11be21eff6040
fc95a3350a2f20536c0b0efd67117c0b
fc95a364788dea175dedf79d160376b7
fc95a3c287c62a20d82b596d3b84b2c0
fc95a3e80b3ee789394ccfd695710f48
fc95a61985f6c70c1d63c2d171812df9
fc95a6e0a5edd31f6ae68b0ab25a1b20
fc95a7003b1089f66deacd2c08afcef6
fc95a7c563c553a49ac61f0c3a864095
fc95a7e0a2b78dc9c85c90e3658cb95a
fc95a9fac9c184dddb5b7591a318d630
fc95aa68556c973ae5a9b987fe78bdfb
fc95aa92e30ef8e9ee0820c38ffc3242
fc95abc12b8bbe7ae0a4887caccec36e
fc95abc47dab9ce944edbce4dc0c11e5
fc95ace79cd81920ceff56a4abaf6161
fc95adfb643bd723611679a757a5b9fc
fc95adfb8fbaf3bfbafc6be8652b4448
fc95ae2c980ec6f98f0ca96fce486a36
fc95b02e0996e33c08d9b0e0249e555d
fc95b06b524c2359b2ccd8bbaefffbc7
fc95b20853576554cbab01c5759b8e8a
fc95b26ee183045edc4a50ca45734341
fc95b27239b939b4b1813adb2f84242f
fc95b285a55a66a8902801f4a8ee98fe
fc95b3634f7fb07a2f72293438d7378e
fc95b50570edb525b3803305e1eaea12
fc95b55c3b856d91f7d3607609195137
fc95b639cfe757fa95754c33af9793eb
fc95b79647505f916e963366c86bdeeb
fc95b7a8accdfec7a76a26bfcb77abed
fc95b945f1e0b454aa5ab39682584ef2
fc95b9bf783d9624da301227ea9faf07
fc95ba1f4fa3f6493339018592f7cd2c
fc95bb2b7f92661b703199c0727abc05
fc95bc3ed635f6d2eb33457033968a6b
fc95bd35c65a23ffcfa03b3770a3b02d
fc95bd5d9f95148a731a82302c151b16
fc95bef285968c8fed308059f2a5758b
fc95bf20265767fa070435ca9c9287e0
fc95bf3e11f793547aac35faac782f50
fc95bf921715f214043105d1b84f50fb
fc95bfbeb5cbfa526428756947bf98ab
fc95bffd977d1caf79dd048fae2c055b
fc95c05b8a20ae4487130a4286e868fb
fc95c099a3b84d3cd855ff25503cdd50
fc95c12c5c0b82820e679bd3025e7496
fc95c1e5643c178c55417d0a28bcc1fd
fc95c287130ee79cf5ae9fafa03f88c0
fc95c2c135dfd1addbea26a595de24a3
fc95c3474dceb882dcec6ac63dea1870
fc95c3bb4c1bd020dacc3f94a52c88c1
fc95c400ce3b3ea7b2b32c8d0d5fb40f
fc95c44cd2742ce9cada88ae0569c8bf
fc95c4fd97c27a6441eb4b3bebe0503a
fc95c557d8c347f4b85cfefd5e7d38b8
fc95c569560a6f229ae83c74abc44c38
fc95c59f362e9109e56ed5aa0ccf2138
fc95c8464ac3c88b8d15c196675246d2
fc95c93a78c2e0c823f322b2aa1a4732
fc95c9466dcaa4f24c00a3173d1baf02
fc95c95eb246feb5ce1c1dd75b6f9310
fc95c987f7f43062964298be36234561
fc95caa04e33758aa7784090f60e7d60
fc95cab84cba8f35b92d445a1491f0a2
fc95cb32b7a87610d5a17e07e404877f
fc95cbf3303575228450c03129ba2a98
fc95cc56b753985b254a7ce992470d38
fc95ccafa41733d29aff6e5e8db84cbb
fc95cd588feb3e942f510dca5c47b57f
fc95cd652a23fedb7374291b12a3a004
fc95cdca9f6205577ab3557375c03eda
fc95cdebc0fb354acc4fadbd33eb8f9e
fc95cee6bbc6ead59ed0d9ccfe6c4811
fc95cfa0c19b8edee639a4571f075914
fc95cfa7ea5d031d52860b6f2669b192
fc95cfadf0b7da33be8af91d3c1841f2
fc95cfe01949c6e9edccc4efa9127acc
fc95d018e4f470bfff381a6fa3e679e5
fc95d0539d949e1cfd37b49a8516232c
fc95d085247ae70190fb681cd83eb2bf
fc95d1cb2cf456607461c782c966ab47
fc95d1e15575ba06071615c23a846b60
fc95d26f3f9b1fa71bca3b6fcdb54109
fc95d3aceae10897157d496730bd362d
fc95d3ec48fed78ab88f3f1d9b4a44b6
fc95d53af2eea49f8ee2d8d4b5f61475
fc95d69ea00f3fbc115637b0343a9b4c
fc95d75206d0c4a737ccae4f25f51b30
fc95d81d2f511a9e6fe5b4a68b400881
fc95d82a6e29d99c8ee7bc15c7ef38c5
fc95d88c8c7365956d144616aef7cd15
fc95da09fcf1c8d6bcbf776a5d9d80f5
fc95da52299cc879b846c2ed6ccbb7e6
fc95da7901f7ee23155f07f6cd449c5b
fc95dbc40d71931a2c89cfb17a33619c
fc95dc8a27b536b2ed9168b07d55803d
fc95dcc442c3aeac66125b97fa44773e
fc95dd059f17defad9ea0d4897c967aa
fc95de6935f68499b5c8fcead68d8808
fc95deacc93166e964f796630f11359f
fc95df980583e339ae18eff6e3ab770e
fc95dfb55e164df3abc868a1da5bc6a0
fc95e01a242658dc63ea393945baa0ab
fc95e160e6c22671384604136ddf2db4
fc95e172aaeecb76ef95bb5b5ddfe92e
fc95e21addf94dd63f0b75289bb1a696
fc95e2323a27ccc9b1bd571b2f51566a
fc95e35d4c3d4e3713495d53edb95b45
fc95e37b0b109b34fe38a4f801845c4b
fc95e3b272961d1401352db477f932f9
fc95e43c1fa5d9e5904fa46b0cd61156
fc95e46e15dc73e61d998cff54835585
fc95e51b417ce74029d1dd97942cc70a
fc95e61a281d4344fadda61c2592b8db
fc95e6e46bf2261a5d393601c6fe8f11
fc95e83f273183cf66177ba899af79bf
fc95e85d0ad08a8b394b38f5f9604264
fc95e8ce875b796822aa1f9bd5e3b4e0
fc95e9ae4f1a7ffdd8face04e3fb0cab
fc95ec9a9de841b153d9202cf9f553ef
fc95eca5aac82f25078a7ac48bbabdaa
fc95edf64ccf5b46afb37302462a5cef
fc95f01182dd2744760feeee23ab0494
fc95f06eb90044395833d6160dc1a77e
fc95f129769766cceb4e68b19e8a7dc6
fc95f1964c76d01e0d9f640e39e9dd72
fc95f1d30f25211e8ee802000a6faaa0
fc95f1f0901a7d3abc18825851f0b2e2
fc95f295f76828fee5e487ba084dea97
fc95f2b5a9be401db7c749a00b4d3c20
fc95f37bcdb026dc0e672d18bc6ff734
fc95f4893b965a123f7cd055dc08b784
fc95f56596b5738e31c664acaa1e4708
fc95f58cf5fe174fea79c30be7d0b5bf
fc95f59f5bcb84e8a1dc515d779b6cf9
fc95f606d9e84df50db547a5386ecf69
fc95f630d13fbd0a18865afdf24e98b9
fc95f669b591f26284c072ffaf549739
fc95f6b2e9536c241fac1534120440c9
fc95f6d59d1dcc682082ab3d1beaaf85
fc95f718a539a05e86d7854a05a897b2
fc95f726bec6318646eb40421818d61d
fc95f75c477243484ba5b9a617ddcf45
fc95f766009b892e534eb39f1539dc2b
fc95f7e7a1993d90621915e5976bcb1d
fc95f9561dddff594fa357690fd62488
fc95f99010a65d2f170539e66ddee586
fc95f9aa67645782af257bdee3f3293c
fc95fac621934e051142e8beffdfe206
fc95fc346505ff663907e8b19fef5f97
fc95fc3e0e181b24ab03fae1c2c9606b
fc95fc54ec966a7761bedc0828423baf
fc95fc8d218096f76aeb26ad9d96fca1
fc95fce4b9d7797f9773c2352b4b55d2
fc95ff173f115271515275c23472f335
fc95ff7e3f65f1dd0ba8a6e9da594033
fc95ff9b98614d79181a93e203c8ceeb
fc95ffc040f296dee0c2c46325aa8fcb
fc9600bbcd37b73c4a18a9193add5281
fc9600bd3e1b6446c5a5f3bea5acfedc
fc960246218bf3f046bdbc60526e3da2
fc9602556f79650a5dd2b32843f24bdc
fc9602866c2333b7ac4b0160281922bd
fc96033c4d91391d1530a495221c02a6
fc96038c7aeddd91eac1883c683384ac
fc96043a7534b26168595e0253c6e52e
fc96060f7cad9de39a21384acd1d34da
fc960679d1d6e5044c916d02d3bd5100
fc96073bc9221cc5e7651752c7481f22
fc9607cd87283ef8803c2ce766aa18b1
fc9607dc9e3bb951338670e0a4763f22
fc960ada85b448c1930263072b9afe1c
fc960ba10f38a68d4873e7cf3614026e
fc960bd38f4e0aeac981b985de93e265
fc960be80a7df56070350027c9afabcb
fc960c0fe45b09bdd6eaf65ac31fda6a
fc960c1d392c14aed216fb968f6675d8
fc960c719ba539b3a271938dde258fe0
fc960dcf9f8b7816a49da0168ba390e4
fc960e641119822d7ff7154c3e546d88
fc960e72cc0291f8db4e181af0fffe24
fc960f3e35abaf7203a4b7874fa76065
fc960f44c6613702af46c63d02b196f4
fc960f9bff2ad8f415a27b6d721375cc
fc960fd9ba8b46a2a5dd30e1a2cf4571
fc960fe0a2d134a6231fb502117d744a
fc961005233ebcc6f74aa5eb4a56f0f2
fc96103cc1bcf866d8ec28c58c666a8f
fc9610876bb413eeade2cbc98887fe79
fc96110645e6342f941e617ba42ff69d
fc96121a04027bc17c458b7855488114
fc961384f055568bb22048cfcee4d6aa
fc96144da336cd84525f009e5f8987ab
fc9614d2192ff24adf46902d536b184a
fc961583fd5be26b44ef929653c4dd22
fc96160238dfc4616690d048f7181c6d
fc9616c59eb45a73223743c4f0f19ca1
fc961704486cb2081ac845b63a78f640
fc961711cd81bcd2d4670d4ee9f136e7
fc961741ca57f90e321225a2c0e8cc70
fc9617a8599daf7893fc09113ef8cc62
fc9617fdaf26a6b99309a913cccbc436
fc961877f8df2926aea114773182724f
fc9618c9d680ceed4ef2a3484f9c9d74
fc961978f3d5c2d25696907a454fa66d
fc961a835c86b4b348e52fe41171a54b
fc961a85b86764d08e9eb7083ce59abc
fc961ac1bf861ffdbc75c2572055f4fa
fc961af14ebc53e6fd33fd1309e883a7
fc961b5ed6d88c44885932cd3b170389
fc961b8a3ac7948a51603e7a87bf586a
fc961c09a2051a8b03eb53d18188a0a1
fc961c15d284f2ec56a480596feb0b9c
fc961c1f4920935a52c1590a95e05627
fc961c9274c8709f70172526ddf1bb2c
fc961cb9ec01d46724bd8a719bbd9a30
fc961cc646290f13585a5b0823cd23cb
fc961df523a62a2371a224c6a844c8ee
fc961e149af92747bc298dc4203262b2
fc961f25fbe3764bfa87043bd60f3730
fc96200ce162468965e42472616f6fd9
fc9621d9371588dbc290e27478dee729
fc9622a1c3ef64289251da619f4a887e
fc9622bb4d73b0529b5c2b26e6600ac1
fc9622fda6992daa9f3aa54f8a2795b3
fc9623b899c9b3a135654a5de2a0d6e3
fc9623ca04b28035a65891ca0dfef4c2
fc9624ddd3f44bb70ae43feda361eccd
fc96257b5f01e1a7f9d6d399be59898e
fc96260f55e58e74f357eb79ed8e9bb4
fc96261715a1315c036e1f11ffb7d525
fc96263acf8a06afc0b919b82fd0e196
fc962650ada5aa02c99d661f35f1d2a2
fc962664de2e27de04861824f45c77ce
fc96269a9ce20061067eb77f164c39ba
fc96277e96984dc893a0f705ba685e6c
fc9627aae19c19a1ce70961c31acf221
fc962843e168e6be3e2e38beb5dbbe20
fc96289d65cedeefd7f9e04f69bd79c0
fc9628c9cef5fe6a2648b19729f6f4e2
fc962904da14dc62ef1af46f0870f171
fc9629330c0c335f0be2e593fa670351
fc962a73769a9e2928e278897ddf560f
fc962aa3a4282a57dcb98b7fb2fe9f56
fc962aeebff7d5dda75a104d16d9688d
fc962b20d40c042843535420ec719f2d
fc962b831e6b75c21662f2d70ced30cd
fc962baff534bbeb4ba654e25c5b7d26
fc962c756605a756b1ec63ceabb738d5
fc962e08c81501ab8148b4ed479ae4f9
fc962e330d242817be52264337848682
fc962e5177442618c4cd791aca1ec61f
fc962e7540883d1b7916d0c31360a33d
fc962f995a27a2f23920f76e6fceef54
fc96305d53468a9c2b925c4012a509c1
fc9630b5bae92ef2fb11c508221997dd
fc963163211bd49aeb600f490efd7af1
fc96320ab58343672186ead544d958d4
fc9632c83028f0872db744647e9a6199
fc9632c8c8e7b89d59fd950712feff5a
fc9633a8a9d814e402d2362e288f4a7e
fc9634c010e2f1d5248d216791ea5f95
fc963562f652cb4875c721b4123aae87
fc96356f49f7fc3ae04275a506f72c71
fc9635a09c9e1f1563494b3b3f255570
fc9635d5f605fcb1d4d3f302e863af5c
fc96360e153767f7228b4794b7338194
fc96366b9337a100b61ab42b06e17f45
fc963682a3c55827b80a0c2835f1fce9
fc9636c8619a0d4a39cf73a375b070b4
fc96375339646ef9f29371c0c2246f99
fc9637bed7c42758466fee7070d5bb9f
fc9637e5c058406b1be64399a2bff50b
fc96381c697ff65272d5e5f976ed3e70
fc9639ddbed2eb40ebee36097654abe1
fc963a3062bd69b1992574c01f8e9a89
fc963a40ffbc30bf523539a7ab5287c8
fc963bcb6750232fbae87674a994b960
fc963c03bd053e09f59b0d870b3b59ad
fc963c5f3abbbfefbb14422db8857778
fc963c60b08177a13c622f9d677ed4f5
fc963cfd7b5626024e6de27f2ea9ba46
fc963d1688b1634bbaba4d410ba1938a
fc963d1929299cc8f36ce46ce86c9a8e
fc963d25605b1032e43c451a5342bc27
fc963d3d452dbc365fcffd1378e351e2
fc963db9ed536933195026a7dbf2d3d3
fc963e631c6f1eba18326e318ccbf9f1
fc963ec2c6bf93e4aae45e44dd34bd9c
fc96405c26536bb044aacc623187c61d
fc9640f0518bb95f36daf0e29c1b4d29
fc96416696ebf3c7e4e7f6a4903cb270
fc964322a56673b7ae23126932f64bd0
fc9643e965d5381a28f7485a75bd8e03
fc9643ebe8d5860a58f1ef26b4be3d6d
fc96440ce43c93fcf2444dce001c1ae5
fc96444037be1b63e639d2d205c13335
fc9645a7e44e1192b6205b568daf245e
fc96464027615b557924a848de0d9c0e
fc9646860cf7214f4caab95240e64c65
fc9646dc2d771db61a7caaf6ba63eed9
fc964703979df8d003de4c070ed98534
fc96474affe1ebccf651bd8e1f2d5597
fc964824d8be387557b3b82a4b1a01c3
fc9649bb26f42dff6011809228534eb2
fc9649d3bf05c31afe83473567ef946f
fc9649fc50466ec4bc794b0b86881f90
fc9649fc5fa33400deeefab17c77640a
fc964a2541ed882874de88057a3644b1
fc964a3d772d5a4d9bd3aaec1299348f
fc964a7e1dacc69ebdb95aef1cca47b6
fc964b6a2621a737f600b3cac53a5a9d
fc964b741c20a58ffebd80e8b4174ac8
fc964b78d60aafd1c0ce7b42f7bc1d7c
fc964b8cd02ade780baf7413587c7950
fc964d4aac68a2a83a0f28a63955cce9
fc964d6ce45116ee55cf2a6a9219c4ca
fc964dfeeaf3aa320a8ef16e17fda051
fc964e42b2e062112a7060a6827a8118
fc964e71ed84fdf69f952445f6d56da8
fc964eb18c2f65c1dc4328fe9c8c249a
fc964f8441f1da5431353a60e1d7c5d9
fc964f9feb4a85701ccda6c013015bfa
fc965039c714db54dd834f00b52becf9
fc96509a73943b3b305877afee014e2e
fc9651540caf7b1abebd08e0deb3fd30
fc9651908c964d6c80053ab14e48b990
fc96522f8354f3957029334428e406bc
fc96528f82aad370d07bff3a5f00b613
fc9652a96197eae606d7ff647e54d9ec
fc9653aa1aa4092697982b40e9b5ba52
fc9653bc6873b6d07b91663763f133cb
fc9654f8bf9eca012487b5f01797964d
fc96551a248cbb4d8ce8a239a7df6cc3
fc9655da560551608663297ffad83dc3
fc96566f5b672ec9cc6cb4b5d16cf541
fc9656e2f0dba8c791855092c2603770
fc96571ffa94eb390390d34702cc3ec4
fc965734cc7481b94015a238fa9cca05
fc96593ab890839f98d66fbc4c261ad4
fc965958f54ab56608cbdcde8bda54f6
fc96596a4584e05fa0ebeb5c02e6a1dc
fc965980e61f1434d7b7352e874ad8e5
fc965a4e909243a429da63c5c2978f07
fc965abd1e93fda871a54c2ebc2ff0f0
fc965b4645a72a6a6055d54922c48355
fc965c3faff81b4dfed0447d99133764
fc965ce1b650a6165a7160b17fd2f146
fc965d2af2f58f512a5d288e476033a0
fc965d64c87beb51fc5f231c38ccb80c
fc965d9d826533a2b768da47c7b02445
fc965e777ae2f85c1249a9d72c68524d
fc965f77d792dc24ee317fc22dedc3f0
fc965f840182b5b6d5d6fe0e6fb41059
fc965f9827695fed81a8ab88b3f2565e
fc965fa257b2741dc1f6422aa7ce5835
fc96606d7f52409b26c4ca152c1cfb02
fc9660cfa4c9dc5eae1e49ccfbc179b3
fc96614cdc52ec3f4df825613ca7b555
fc96616c314190c50c09ba9e19054930
fc966197c75573965a14f23b6f5c011e
fc96624e44c02b466bfb8beb5a7fbcff
fc96628714c0b5f66ab492e25c568be4
fc966293b352f151f7fb7147becbfb49
fc96637bb8dd5529565353c4bc7b265c
fc96643ab65116c5a75ce5bc10df775f
fc966489ebd360640d56e7af7646dd80
fc9664f2ff8dc7813794548f39b8eb60
fc9665a6cd1f3bfbd4dc474718390fbc
fc9665ac34f1bb7f086bcae011bfa1bd
fc9666724155de0ab4aa17afbb73ff89
fc9666d03889abaf28e60591bad504bc
fc9667f556e74f82a1dc841f30ca7d08
fc966849f13675a60005b20fafd74629
fc96693f464076118e427b91e9480bae
fc966a9caf823fd42f9678a2592e767f
fc966abfacf27e80026404f3a3138ac0
fc966ba8ab87db1caa7dd9ad95290df8
fc966fd89dc5758fc368a7a786ac5e70
fc9670a06c18bf113ed56dba7cbab52a
fc96720a4d84b817d28ecfcb7aedf7fa
fc9674dd2d7e1f11b1cfa54ce3ddebc7
fc9675206dda31a022ddabaf244428d8
fc9675c789d6e676e18ea6f65d175ca9
fc9675d367e4d9616092c804083a7dbc
fc967609204328f6bcadf0c3c82ff99c
fc9676ea179feff159420feef8270bdd
fc967767a7222cf7ea524db1b103e1c0
fc967777b5a3985fd810e85341cca73f
fc9677fdce25f6c5dbf7a1650b81231d
fc967823724eb4251a23bb4ff16f76f6
fc96789b577d90f2dad22b8f4e2fccfc
fc9678c3717cd9b266a5721fc43fe500
fc96797704b51f3b00fe8b0f4741c5af
fc9679be151855fbb54bfbe19c0ed9b5
fc967bc43ee491dbaa096037ae5f7b4e
fc967c4efec3bb49d1d0d162f9906989
fc967c7970a44becc54d5ccfc1074844
fc967d4b263a33a25b2d9f58e32f010d
fc967d5faa0b04a900daeb9346033ff7
fc967d85eb20f50b12e9489bb770cb51
fc967d9755d48035e2a6ef1a62b17cc2
fc967d9ad0195b4a90ce1a1ce32a0208
fc967f152eea1dcd15a12fec30555b0a
fc967f1da54750303db3a0329a504081
fc967f35c4512f520de7c61a706ed34e
fc96820980d166b92850a88a607e72cd
fc968334505a5e2f6400736acd72fef4
fc9687131d6420773253a6e921b18c68
fc96876ae7357a1fff7d95d74219256f
fc96880ee0ab9eb9b925f91cafe72b82
fc96885d5d585e0c7b5ce2a48dc6f07b
fc968a7df027c51b5710e1ae4094c4c2
fc968a899e05a2c92c354502270f2675
fc968ba838eb1cc9cb68cf05904ebeef
fc968c25630f8df1b8a21ea672bb2155
fc968c5cf4c56f8703dc8ebba6f95a6c
fc968dd160c81835696eefabba5bc594
fc968e2c537c0f3a9aecb82a17f94947
fc968e311774dabd9ecad5570d76f89d
fc968e5b620548bf452e9362601d5259
fc968f075840b9fb21bc8b57ac906312
fc968f37fdd5a1dd431beabc4d494f55
fc968fa347abd933bb66461dce7b3a54
fc968fae551273958c7a4c951b03180f
fc96901b631cb3f7e18d8171e8ac06b8
fc969276de19d486dff1d2ba42b74c8b
fc9692c58ecec8b3b9a6e3bf8822bf40
fc9693dda16d63e3753be89ea586a409
fc9693f03a6767538e98f1902c163516
fc9694fd5de552c7334fb6400f6d3aea
fc96950d98cea44d33846216d9fe1581
fc96951484e0edd0aefe969614c0eab8
fc969521e5c7b29b744a8fb047038aae
fc9695a5fc2495a10218c200efa4c02e
fc9696a0be5a07e30413f0ea1c80020f
fc9696c7c5af255cab25dec9fe2633b6
fc969728c37a13c6fcd19bac5b7b9963
fc969770b3de415be3e0bc2989acec8a
fc969836f66967c6935b46322b2ff7d5
fc96989283e2f317b2dcbaaae0b6e4fa
fc9698ec0e1821b559f25b881b9bc887
fc96999b7d93969db0eaf55954da665d
fc9699e09b6e394b18f9b88141fc8aff
fc969b6f1fc84e1b1791f215ad4c4e9d
fc969c52e5442cd9ba3d84d9589530ab
fc969d3660b835e0cb9fd18e6ded2496
fc969d4c229482e74cc296689db6947e
fc969ec6fd8b10dbebcbbb61931fe75f
fc96a182ab59fe052118b859f7e4a131
fc96a2491ee2648d2fd8a1116ec1b718
fc96a50388bbd82a096bf4de1c85f8ba
fc96a55949d117364802896283711155
fc96a55a95bcc5acde014ae689d06e17
fc96a6eab9fbdcf48fc0da6513f9eeda
fc96a75cd1f014da57e3853e6ff3a490
fc96a7a0cb551af378539731f3223acc
fc96a7e27b1d3dab715b2732d5c86f80
fc96a81788eab09104893a9c8ef43526
fc96a86466b3cadba83c1a5b73724238
fc96a865cd47c8c06256be6fa55c169f
fc96a964623b38a154dbc8c5a92300e0
fc96a9938379f02d1a9e84132981b249
fc96a9ac6379558e5e93752da7a7033a
fc96a9b5133e130c0631f0ff3f613921
fc96aa2417415a7d86d4abed1cb17c0f
fc96aa36fd746fb33d48cd5ab3377e90
fc96aa6f6a6b8c76e330e1402346c83f
fc96aad1745a241bdd2e7bc3c6a8f760
fc96ab3d35694bf5feb5e5085889db6d
fc96ab89e10c3cd89ffe1151cedd570c
fc96ab92570c976a37d6f83b4a7ab528
fc96ac34dd3446cb5e40362928a65686
fc96acd6714e27ab2353cc4cf6c1f19f
fc96adc4508a504bf5c21de6f3bb043d
fc96add71ead86b24e5157ddbd52b19a
fc96adf38503a995c959df1b6718cb1d
fc96af551beb790701d0da0f66d6b07b
fc96af8b8b0769d2ad3e0f48ec3fabae
fc96afe293e96aea658aaf38a72dbd69
fc96b10ef53d0ca1d69a7ec3a63b12e4
fc96b1a9acfa0bd57ea53d2df7ca12bf
fc96b2aa655d386c33545519cd22eb50
fc96b2b723825cc7e125110d95adf0aa
fc96b4bb8c253fead8fb5158425154c5
fc96b5173f72239ec6d4a2eb84532a2e
fc96b52184e34634ed8dc6762c85c8f0
fc96b5297391db34941111913919ce48
fc96b56a6ed41ead69ae5fd26679e33a
fc96b571f8d18b95042165544c9b22e1
fc96b5b6845772a3ec6ce023d80f8094
fc96b62de04355bb8f647acb658b9370
fc96b67dc2cf033111322d50783c7ebc
fc96b7b40a71775316f97a6725ac24a9
fc96b8295d773df43f5a9d1222cc9e09
fc96b8e75504d7d9aee6d939d1f02cf9
fc96b975ae4b1a8dd39294125dbef4a6
fc96b9803d3543beeca4a87b2e5a66fa
fc96b980450341c1521ce6293fd51d29
fc96b9988209f5d0765fdfc63ef7a923
fc96baf5c23952da0e6e66c0e7e79f78
fc96bb808eb71ef622d47bd2e13d4b11
fc96bf8a081490eb22d5f612dbca532f
fc96c0757aeb91e3952fe9039dfe00b1
fc96c0d1ddc6022d80e8545940d96875
fc96c23647a06867a5ed33b4d17afe94
fc96c277a08642b2a1448af60abdda44
fc96c367cc379b674bcb48ca78b7db2c
fc96c38f606aba34a5ab3443b5ffd47f
fc96c56dd0c6b2023d5406de5ea7a799
fc96c5d97c3cefff469abe744c1e9e80
